0079 0076 0076 0077 0078 0076 0076 0076
0078 0077 0076 0077 0078 0076 0076 0076
0076 0078 0076 0076 0076 0076 0076 0076
0077 0078 0078 007a 0078 007a 0077 0078
0076 0076 0079 0078 0077 0079 0078 0079
0078 0077 0078 0076 007a 007a 0076 0078
0078 0078 0079 0079 0078 007a 0079 0079
0077 0079 0079 007a 0079 0076 0079 0076
007a 007a 007a 0076 007b 0078 0078 0076
0077 0079 0079 0078 007a 007a 0078 0078
0076 0078 007a 007a 0078 0077 007a 0076
0079 0077 0078 0078 0078 0078 0077 0076
0079 0076 0078 0079 0077 0076 0079 0078
0078 007a 007a 0079 0078 0079 007a 0079
0076 0078 0076 0079 0078 0078 0077 0078
0076 0078 007a 007a 007a 0078 0076 0078
0077 0078 007a 0079 0079 0078 0079 0076
0076 0079 0079 0076 0079 0079 007a 0079
0078 0076 0078 007a 0079 0077 0076 0078
0079 007a 007a 0078 007a 0079 0079 0077
0077 0079 0079 0076 0079 0078 0078 0078
0078 0077 0078 0078 0078 0078 0079 0079
0078 0079 0078 0078 0078 0078 007a 0077
0079 0078 0079 0076 0078 0078 0078 0079
0078 0076 0079 0079 0078 0078 0078 0079
007a 007a 0077 0079 0078 0077 007b 0079
0078 0079 0078 0079 007a 0077 0079 0078
0076 0076 0078 0079 0079 0078 0078 0076
007b 0077 0079 0078 0076 0078 007a 0076
0077 007a 0079 0077 0079 0078 0078 0078
0079 0079 0079 0079 0079 007a 0079 0079
007b 0078 007a 007a 007a 007a 007a 007a
0078 007a 0077 007b 0078 0079 0078 0079
0079 0079 007a 0079 0079 007a 0079 0079
007b 0078 007a 007a 007a 007a 007a 007a
0078 007a 0077 007b 0078 0079 0078 0078
0078 0079 007a 0079 0079 007a 007a 0079
007b 0078 007a 007a 007a 007a 007a 007a
0079 007a 0077 007b 0079 0079 0079 0079
0078 0079 007a 0079 0079 007a 0079 0079
007b 0078 007a 007a 007a 007a 0079 007a
0078 007a 0076 007b 0078 0079 0078 0078
0078 0079 007a 0079 0079 007a 007a 0079
007b 0078 007a 007a 007a 007a 007a 0079
0079 007a 0077 007b 0079 0079 0078 0079
0079 0079 007a 0079 0079 007a 007a 0079
007b 0078 007a 007a 007a 007a 007a 0079
0079 007a 0077 007b 0079 0079 0078 0079
0078 0079 007a 0079 0079 007a 0079 0079
007b 0078 007a 007a 007a 007a 007a 0079
0079 007a 0076 007b 0079 0079 0078 0078
0079 0079 007a 0079 0079 007a 007a 0079
007b 0078 007a 007a 007a 007a 007a 0079
0079 007a 0076 007b 0079 0079 0078 0079
0079 0079 007a 0079 0079 007a 0079 0079
007b 0078 007a 007a 007a 007a 007a 0079
0079 007a 0077 007b 0079 0079 0078 0079
0079 0079 007a 0079 0079 007a 007a 0079
007b 0078 007a 007a 007a 007a 007a 0079
0079 007a 0077 007b 0079 0079 0078 0079
0079 0079 007a 0079 0079 007a 007a 0079
007b 0078 007a 007a 007a 007a 007a 0079
0079 007a 0077 007b 0079 0079 0078 0079
0079 0079 007a 0079 0079 007a 0079 0078
007b 0079 007a 007a 007a 007a 007a 0079
0078 007a 0077 007b 0078 0079 0078 0079
0079 0079 007a 0079 0079 007a 0079 0078
007b 007a 007a 007a 007a 007a 007a 0079
0079 007a 0077 007b 0078 0079 0078 0078
007a 0079 007a 0079 0079 007a 007a 0079
007b 007a 007a 007a 007a 007a 007a 0079
0079 007a 0077 007b 0078 0079 0078 0079
0079 0079 007a 0079 0079 007a 0079 0079
007b 0079 007a 007a 007a 007a 007a 0079
0079 007a 0077 007b 0079 0079 0078 0078
007a 0079 007a 0079 0079 007a 007a 0078
007b 0078 007a 007a 007a 007a 007a 0079
0079 007a 0077 007b 0079 0079 0078 0079
0079 0079 007a 0079 0079 007a 0079 0078
007b 0078 007a 007a 007a 007a 007a 0079
0079 007a 0076 007b 0079 0079 0078 0078
0079 0079 007a 0079 0079 007a 0079 0079
007b 0078 007a 007a 007a 007a 007a 0079
0078 007a 0076 007b 0078 0079 0078 0078
007a 0079 007a 0079 0079 007a 007a 0079
007b 0078 007a 007a 007a 007a 007a 0079
0079 007a 0077 007b 007a 0079 0078 0079
007a 0079 007a 0079 0079 007a 0079 0079
007b 0078 007a 007a 007a 007a 007a 0079
0079 007a 0077 007b 0079 0079 0078 0079
007a 0079 007a 0079 0079 007a 0079 0079
007b 0078 007a 007a 007a 007a 007a 0079
0079 007a 0076 007b 0079 0079 0078 0079
0079 0079 007a 0079 0079 007a 007a 0079
007b 0078 007a 007a 007a 007a 007a 0079
0079 007a 0077 007b 0079 0079 0078 0079
0079 0079 007a 0079 0079 007a 0079 0079
007b 0078 007a 007a 007a 007a 007a 0079
0079 007a 0076 007b 0079 0079 0078 0079
0079 0079 007a 0079 0079 007a 0079 0079
007b 0078 007a 007a 007a 007a 007a 0079
0078 007a 0076 007b 0079 0079 0078 0079
0079 0079 007a 0079 0079 007a 0079 0079
007b 0078 007a 007a 007a 007a 007a 0079
0079 007a 0077 007b 0078 0079 0078 0079
0079 0079 007a 0079 0079 007a 0079 0078
007b 0078 007a 007a 007a 007a 007a 0079
0079 007a 0077 007b 0078 0079 0078 0079
0078 0079 007a 0079 0079 007a 007a 0078
007b 0078 007a 007a 007a 007a 007a 0079
0079 007a 0077 007b 0078 0079 0078 0079
0078 0079 007a 0079 0079 007a 0079 0078
007b 0079 007a 007a 007a 007a 007a 0079
0079 007a 0077 007b 0078 0079 0078 0079
0078 0079 007a 0079 0079 007a 0079 0078
007b 0078 007a 007a 007a 007a 007a 0079
0079 007a 0076 007b 0078 0079 0079 0079
0078 0079 007a 0079 0079 007a 007a 0078
007b 0078 007a 007a 007a 007a 007a 0079
0079 007a 0076 007b 0078 0079 0079 0079
0079 0079 007a 0079 0079 007a 0079 0078
007b 0078 007a 007a 007a 007a 007a 0079
0079 007a 0076 007b 0078 0079 0079 0079
0078 0079 007a 0079 0079 007a 0079 0078
007b 0078 007a 007a 007a 007a 007a 0079
0079 007a 0076 007b 0079 0079 0079 0078
0078 0079 007a 0079 0079 007a 0079 0079
007b 0078 007a 007a 007a 007a 007a 0079
0079 007a 0076 007b 007a 0079 0079 0078
0078 0079 007a 0079 0079 007a 0079 0079
007b 0078 007a 007a 007a 007a 007a 0079
0079 007a 0076 007b 0079 0079 0079 0078
0079 0079 007a 0079 0079 007a 007a 0079
007b 0078 007a 007a 007a 007a 007a 0079
0079 007a 0076 007b 0079 0079 0079 0079
0078 0079 007a 0079 0079 007a 0079 0079
007b 0078 007a 007a 007a 007a 007a 0079
0079 007a 0076 007b 0079 0079 0079 0079
0078 0079 007a 0079 0079 007a 0079 0079
007b 0078 007a 007a 007a 007a 007a 0079
0079 007a 0076 007b 0079 0079 0079 0078
0078 0079 007a 0079 0079 007a 0079 0079
007b 0078 007a 007a 007a 007a 007a 0079
0079 007a 0076 007b 0079 0079 0079 0078
0078 0079 007a 0079 0079 007a 0079 0079
007b 0079 007a 007a 007a 007a 0079 0079
0079 007a 0077 007b 0078 0079 0079 0079
0079 0079 007a 0079 0079 007a 0079 0079
007b 0079 007a 0079 007a 007a 007a 0079
0079 007a 0077 007b 0078 0079 007a 0078
0078 0079 007a 0079 0079 007a 0079 0078
007b 007a 007a 007a 007a 007a 007a 0079
0079 007a 0077 007b 0078 0079 007a 0078
0078 0079 0079 007a 0079 007a 0079 0079
007b 007a 007a 007a 007a 007a 0079 0079
0079 007a 0076 007b 0078 0079 007a 0078
0079 0079 0078 007a 0079 007a 0079 0079
007b 0079 007a 007a 007a 007a 007a 0079
0079 007a 0076 007b 0078 0079 007a 0078
0079 0079 0078 007a 0079 007a 007a 0079
007b 0078 007a 007a 007a 007a 007a 0079
0079 007a 0076 007b 0078 0079 007a 0078
0079 0079 0078 007a 0079 007a 0079 0079
007b 0078 007a 007a 007a 007a 0079 0079
0079 007a 0076 007b 0078 0079 007a 0079
0079 0079 0078 007a 0079 007a 007a 0078
007b 0078 007a 007a 007a 007a 007a 0079
0079 007a 0076 007b 0079 0078 007a 0079
0078 0079 0077 007a 0079 007a 0079 0079
007b 0078 007a 007a 007a 007a 007a 0079
0079 007a 0076 007b 007a 0079 007a 0078
0079 0079 0078 007a 0079 007a 0079 0079
007b 0078 007a 007a 007a 007a 007a 0079
0079 007a 0076 007b 007a 0079 007a 0078
0078 0079 0078 007a 0079 007a 007a 0079
007b 0078 007a 007a 007a 007a 007a 0079
0079 007a 0076 007b 0079 0078 007a 0079
0078 0079 0078 007a 0079 007a 0079 0079
007b 0078 007a 007a 007a 007a 007a 0079
0079 007a 0077 007b 0079 0078 007a 0079
0078 0079 0078 007a 0079 007a 0079 0079
007b 0078 007a 007a 007a 007a 007a 0079
0078 007a 0076 007b 0079 0078 007a 0079
0078 0079 0078 007a 0079 007a 0079 0079
007b 0078 007a 007a 007a 007a 007a 0079
0078 007a 0077 007b 0079 0078 007a 0078
0078 0079 0078 007a 0079 007a 0079 0079
007b 0079 007a 007a 007a 007a 007a 0079
0078 007a 0076 007b 0078 0079 007a 0078
0078 0079 0078 007a 0079 007a 007a 0079
007b 0079 007a 007a 007a 007a 007a 0079
0078 007a 0077 007b 0078 0078 007a 0078
0079 0079 0078 007a 0079 007a 0079 0079
007b 0078 007a 007a 007a 007a 007a 0079
0079 007a 0077 007b 0078 0079 007a 0078
0079 0079 0077 007a 0079 007a 0079 0079
007b 0078 007a 007a 007a 007a 007a 0079
0078 007a 0076 007b 0078 0079 007a 0078
0078 0079 0078 007a 0079 007a 007a 0079
007b 0078 007a 007a 007a 007a 0079 0079
0078 007a 0077 007b 0078 0079 007a 0078
0078 0079 0077 007a 0079 007a 0079 0079
007b 0079 007a 007a 007a 007a 007a 0079
0079 007a 0076 007b 0078 0078 007a 0078
0079 0079 0077 007a 0079 007a 0079 0079
007b 0078 007a 007a 007a 007a 007a 0079
0079 007a 0076 007b 0078 0078 007a 0078
0078 0079 0078 007a 0079 007a 007a 0079
007b 0079 007a 007a 007a 007a 007a 0079
0079 007a 0077 007b 0079 0078 007a 0078
0078 0079 0077 007a 0079 007a 0079 0079
007b 0078 007a 007a 007a 007a 0079 0079
0079 007a 0077 007b 0079 0078 007a 0078
0078 0079 0078 007a 0079 007a 007a 0079
007b 0078 007a 007a 007a 007a 007a 0079
0078 007a 0076 007b 007a 0078 007a 0078
0078 0079 0078 007a 0079 007a 007a 0079
007b 0078 007a 007a 007a 007a 007a 0079
0079 007a 0076 007b 0079 0078 007a 0078
0079 0079 0078 007a 0079 007a 0079 0079
007b 0078 007a 007a 007a 007a 007a 0079
0079 007a 0077 007b 0079 0078 007a 0078
0078 0079 0078 007a 0079 007a 007a 0079
007b 0078 007a 007a 007a 007a 007a 0079
0079 007a 0077 007a 0079 0078 007a 0078
0078 0079 0078 007a 0079 007a 0079 0079
007b 0078 007a 007a 007a 007a 007a 0079
0079 007a 0077 007b 0079 0079 007a 0078
0078 0079 0078 0079 0079 007a 0079 0079
007b 0079 007a 007a 007a 007a 0079 0079
0079 007a 0077 007b 0079 0079 007a 0078
0078 0079 0078 0079 0079 007a 007a 0079
007b 0079 007a 007a 007a 007a 007a 0079
0079 007a 0077 007a 0078 0079 007a 0078
0078 0079 0077 0079 0079 007a 0079 0079
007b 007a 007a 0079 007a 007a 007a 0079
0079 007a 0077 007b 0078 0079 007a 0078
0079 0079 0077 0079 0079 007a 0079 0079
007b 007a 007a 0079 007a 007a 007a 0079
0079 007a 0076 007b 0078 0079 007a 0079
0079 0079 0077 0079 0079 007a 007a 0079
007b 0079 007a 007a 007a 007a 0079 0079
0079 007a 0077 007b 0078 0079 007a 0078
0079 0079 0077 0079 0079 007a 0079 0079
007b 0079 007a 007a 007a 007a 007a 0079
0079 007a 0076 007b 0078 0079 007a 0078
0079 0079 0078 0079 0079 007a 007a 0079
007b 0079 007a 007a 007a 007a 0079 0079
0079 007a 0077 007b 0078 0079 007a 0078
0079 0079 0077 0079 0079 007a 007a 0079
007b 0079 007a 007a 007a 007a 007a 0079
0079 007a 0077 007b 0078 0078 007a 0078
0079 0079 0077 0079 0079 007a 0079 0078
007b 0078 007a 007a 007a 007a 0079 0079
0078 007a 0077 007b 0079 0079 007b 0079
0079 0079 0077 0079 0079 007a 007a 0079
007b 0078 007a 007a 007a 007a 007a 0079
0079 007a 0077 007b 0079 0078 007b 0078
0078 0079 0078 0079 0079 007a 0079 0079
007b 0079 007a 007a 007a 007a 007a 0079
0079 007a 0077 007b 0079 0079 007a 0079
0078 0079 0078 0079 0079 007a 0079 0079
007b 0079 007a 007a 007a 007a 0079 0079
0078 007a 0076 007b 0079 0078 007a 0079
0079 0079 0078 0079 0079 007a 007a 0079
007b 0079 007a 007a 007a 007a 007a 0079
0078 007a 0076 007b 0079 0078 007b 0079
0079 0079 0078 0079 0079 007a 0079 0079
007b 0078 007a 007a 007a 007a 0079 0079
0078 007a 0077 007b 0079 0079 007b 0079
0078 0079 0078 0079 0079 007a 0079 0079
007b 0079 007a 007a 007a 007a 0079 0079
0078 007a 0077 007b 0078 0078 007b 0079
0078 0079 0078 0079 0079 007a 007a 0078
007b 0079 007a 007a 007a 007a 007a 0079
0078 007a 0077 007b 0077 0078 007b 0078
0079 0079 0078 0079 0079 007a 0079 0078
007b 0079 007a 007a 007a 007a 0079 0079
0078 007a 0077 007b 0078 0079 007b 0079
0079 0079 0077 0079 0079 007a 0079 0078
007b 0079 007a 007a 007a 007a 0079 0079
0078 007a 0077 007b 0078 0079 007b 0079
0079 0079 0077 0079 0079 007a 007a 0078
007b 0079 007a 007a 007a 007a 007a 0079
0079 007a 0077 007b 0078 0078 007b 0079
0078 0079 0077 0079 0079 007a 0079 0078
007b 0078 007a 007a 007a 007a 0079 0079
0078 007a 0076 007a 0078 0079 007b 0079
0079 0079 0078 0079 0079 007a 0079 0078
007b 0079 007a 007a 007a 007a 007a 0079
0078 007a 0077 007b 0078 0078 007b 0078
0078 0078 0078 0079 0079 007a 0079 0078
007b 0079 007a 007a 007a 007a 007a 0079
0079 007a 0076 007a 0078 0078 007b 0079
0079 0079 0078 0079 0079 007a 0079 0078
007b 0079 007a 007a 007a 007a 0079 0079
0079 007a 0076 007b 0079 0079 007b 0079
0078 0079 0078 0079 0079 007a 007a 0078
007b 0078 007a 007a 007a 007a 007a 0079
0079 007a 0077 007b 0079 0078 007b 0079
0078 0079 0077 0079 0079 007a 0079 0078
007b 0079 007a 007a 007a 007a 0079 0079
0079 007a 0077 007a 0079 0078 007b 0078
0078 0079 0077 0079 0079 007a 0079 0079
007b 0079 007a 007a 007a 007a 007a 0079
0078 007a 0076 007b 0079 0078 007b 0079
0078 0079 0078 0079 0078 007a 007a 0079
007b 0079 007a 007a 007a 007a 0079 0079
0079 007a 0076 007b 0078 0078 007b 0079
0078 0079 0078 0079 0079 007a 0079 0079
007b 0079 007a 0079 007a 007a 0079 0079
0079 007a 0076 007a 0079 0078 007b 0079
0079 0079 0078 0079 0079 007a 0079 0079
007b 0078 007a 0079 007a 007a 007a 0079
0079 007a 0077 007b 0078 0079 007b 0079
0078 0078 0077 0079 0079 007a 0079 0078
007b 0078 007a 007a 007a 007a 007a 0079
0078 007a 0077 007a 0077 0078 007b 0078
0078 0078 0077 0079 0079 007a 0079 0078
007b 0079 007a 007a 007a 007a 007a 0079
0078 007a 0077 007b 0078 0079 007b 0078
0079 0078 0077 0079 0078 007a 0079 0078
007b 0079 007a 007a 007a 007a 0079 0079
0079 007a 0077 007a 0078 0079 007b 0078
0079 0078 0077 0079 0078 007a 007a 0079
007b 0079 007a 007a 007a 007a 0079 0079
0079 007a 0077 007b 0078 0079 007b 0079
0079 0078 0077 0079 0079 007a 0079 0078
007b 0079 007a 0079 007a 007a 0079 0079
0079 0079 0076 007b 0078 0079 007b 0078
0078 0079 0078 0079 0079 007a 0079 0078
007b 0078 007a 007a 007a 007a 0079 0079
0079 007a 0076 007b 0078 0079 007b 0079
0078 0078 0078 0079 0079 007a 0079 0078
007b 0078 007a 007a 007a 007a 0079 0079
0079 007a 0077 007a 0078 007a 007b 0078
0078 0078 0077 0079 0078 007a 0079 0079
007b 0079 007a 007a 007a 007a 0079 0079
0079 007a 0076 007b 0079 007a 007b 0078
0079 0079 0077 0079 0079 007a 007a 0078
007b 0078 007a 007a 007a 007a 007a 0079
0079 007a 0076 007b 0079 007a 007b 0079
0078 0078 0077 0079 0079 007a 0079 0079
007b 0078 007a 007a 007a 007a 0079 0079
0079 007a 0076 007b 0079 007a 007b 0079
0079 0079 0077 0079 0078 007a 0079 0079
007b 0078 007a 007a 007a 007a 0079 0079
0078 0079 0076 007b 0078 007a 007b 0078
0078 0078 0077 0079 0079 007a 007a 0078
007b 0078 007a 007a 007a 007a 0079 0079
0079 0079 0076 007a 0079 007a 007b 0079
0078 0078 0077 0079 0078 007a 0079 0079
007b 0078 007a 0079 007a 007a 0079 0079
0078 007a 0076 007b 0079 007a 007b 0079
0079 0078 0077 0079 0078 0079 0079 0079
007b 0078 0079 0079 007a 007a 0079 0079
0078 0079 0076 007b 0079 007a 007b 0079
0078 0078 0078 0079 0079 007a 0079 0078
007b 0078 0079 0079 007a 007a 0079 0079
0078 0079 0076 007b 0077 007a 007b 0079
0078 0078 0077 0079 0079 007a 0079 0078
007b 0078 007a 0079 007a 007a 0079 0079
0078 0079 0076 007b 0078 007a 007b 0078
0078 0078 0077 0079 0078 0079 0079 0079
007b 0078 007a 0079 007a 007a 0079 0079
0078 0079 0076 007a 0077 007a 007b 0078
0079 0078 0077 0079 0078 007a 007a 0078
007b 0078 007a 007a 007a 007a 0079 0079
0079 007a 0076 007a 0078 007a 007b 0078
0079 0078 0077 0079 0078 007a 0079 0078
007b 0078 007a 0079 007a 007a 007a 0079
0078 007a 0076 007a 0078 007a 007b 0078
0079 0078 0077 0079 0079 007a 007a 0078
007b 0078 007a 0079 007a 007a 007a 0079
0079 007a 0076 007a 0078 007a 007b 0078
0078 0078 0077 0079 0078 007a 0079 0078
007b 0078 007a 0079 007a 007a 0079 0079
0079 007a 0076 007a 0077 007a 007b 0078
0078 0078 0078 0079 0079 007a 0079 0079
007b 0078 007a 0079 007a 007a 007a 0079
0078 007a 0076 007b 0079 007a 007b 0078
0078 0079 0078 0079 0078 007a 007a 0079
007b 0078 007a 0079 007a 007a 007a 0079
0078 007a 0076 007a 0079 007a 007a 0078

