44b4 c413 c4c1 440d c478 45f0 c50e 4585
c5c6 45a7 4561 45c6 45d6 c384 45c4 4557
c437 c487 438c 44a7 c431 c539 c577 45de
c460 c508 c604 4552 451c c4ca 4570 c4e0
c4d1 c471 4593 4599 44ea c4bd 4458 4491
c4d0 c575 c4e5 c40e 4416 4564 c58f 457e
44f8 4449 4514 4320 c348 4498 c51f 44f3
459e c5af c5e8 4599 45de 45a1 4544 c58c
4460 c62c c4b4 4624 4496 44c4 44f9 44ba
448d 442e 4506 454d 4430 4518 43a0 45f8
c569 c4d5 41a0 4580 44b2 4530 4474 c466
4547 c4ae c579 4575 c46a c4fc 451a 4612
43f4 c3f4 45b3 c405 4585 45b6 c592 c533
c280 45a2 43fb c5ac c4d0 4490 c5ee c495
453c c470 c3d9 459c 4480 44d5 c3c4 4308
453d 4572 c57b c52a c5dc c503 c572 c5fe
4541 4585 c543 c5ec 44a8 4341 c519 c5be
4444 4509 c409 c53b c586 456e 4351 c4b6
448a c58b c42b c605 c41c 4444 c5af c590
c575 44ce 4448 459f 45eb c541 453d c4a7
c3ea 454a c3dc c444 457a 464a 4586 44f6
4524 c54a 4456 4519 c54c c5c3 c4bc 455e
c4fa 4519 c514 c456 c548 4530 4599 4507
4524 44ec 4589 c54d c524 453b c5be c5ce
c61a 456e 4496 4483 c4c4 4428 c533 45af
44d4 c4d2 4539 c350 454d 456e c500 43dc
4531 c5e9 442e c540 45c1 459b 43c0 c587
452c c5af 4534 454e 4564 459a 45aa c530
4321 c3db c4a8 c4d9 c614 450c c511 433c
4462 4576 c58f 44c4 c3d6 4440 c44a c46f
c3a8 457d 45c2 4607 c5ef c450 4594 c512
c521 43e4 c51e c562 c2b8 c5b1 c4bb 45e8
450e 4348 c4b5 4512 c458 45ea c509 4586
c60e 453e 4514 4572 45c8 c592 4592 441d
c4dd c412 c49a c48a c516 c496 c5bd 45e0
c60d c54c c616 455a c4b8 c583 43ec c53e
c502 c4b9 454c 4501 c334 c56f c43e c448
c532 c5d2 440f c58e c4aa 43ac c559 c408
c3c0 c2e0 c4c2 c434 44c3 44db c604 42d4
45d4 c49b c620 45ac 4588 c288 4568 c56a
4370 c61b c3a0 44f6 4426 44b4 4420 459f
c599 43e0 c350 4580 c5b6 45a4 451c 45d2
c348 c483 44a2 458e c41e c4df c45c 448e
454b c537 c513 445b 4506 c5a0 44f5 45b1
c410 c502 4584 43f0 45a3 c3b0 c597 c5a3
c280 451a c496 c60c c594 c4c3 c623 c560
447e c55f c486 c442 c4de 4483 4434 4504
4511 4584 c59a c53e c48f c3a2 c5a5 c625
45bb 44d6 c58e c60d 44c9 c496 c523 c56c
c4c1 4563 4304 c5a5 c5df 4504 4374 c596
453c c5c9 4480 c63a 45a6 c523 c591 c542
c5ed 459a 44b0 45de 4574 c57c 4540 c48f
c4eb 44eb c4db c4b1 44ad 459a 449f c340
4452 c564 4304 4553 c599 c5c9 c5af c396
c51a c4fb c4be c4e3 c534 459c 455c 0000
44d5 c35c 4588 c599 c568 452c c5ea c601
c5e3 4501 44ab c3c4 43d8 4402 44b2 4587
44e2 c564 450e c586 447a 4547 c5d0 c543
458a c4c1 44a2 c57e 45a2 45c3 4400 c60b
4576 c5f5 c34f 4582 44d6 44d4 4534 44ba
c4e1 c3d9 c507 c4c3 c609 c468 c518 4286
c3a8 458a c58a 44b6 c4ca c51c c4ac c4f4
c460 4574 45e4 45dc c5d8 c59d 45a7 c557
c59b c433 c54b c58b c388 c5f3 c3a8 45fe
454d 4433 c4fe 44c1 c100 45ef c554 4544
c5e4 4590 4483 45c4 45e2 c5d3 4592 443b
c544 430c c48b 442e c3ca c519 c5f6 458c
c5cd c567 c613 4548 c493 c566 4433 c508
c57b c3a8 44f8 4580 44a7 c531 c462 c51e
c509 c584 43d2 c3f6 c3ac 44f4 c5a2 c4bc
c534 453c c412 c4ba 41c0 4452 c560 420c
45ed c4df c609 45de 45c1 c508 4566 c594
43c4 c5f0 421c 4492 4443 c4c6 0000 4592
44f7 c4e7 450f 4556 c545 4568 c3b0 4596
c250 c120 c52e 4466 c513 c49f c4ac 4428
451b c5db c5b7 c426 c46c c5b6 4290 45b0
4428 c434 455e 4598 4487 4080 c54d c5d6
c539 45a6 4298 c5d9 c58d c4bb c62e c532
4588 c592 c35c 0000 453c 449c c4aa c58e
c4f5 4506 c5cd c533 c58d c493 c5de c626
454e 448b c5a7 c604 455c c536 c50c c539
448e 4480 448a c5be c5dd 454d 44be c5e5
455e c5bf 44ae c60b 453a c55a c4a4 c4ba
c5ac 4582 44b4 4592 4595 c581 450c c2a0
442b 455b 43d0 c521 4433 457c c3e0 c489
429c c503 c4ae 4508 c585 c5c4 c583 c532
c4fe c4d5 c559 c526 c54e 4478 458d 449e
c4c8 44ea 4588 c570 c5e2 c4de c5fe c5ac
c5e7 4479 44b3 c496 4408 c436 44a4 458a
c426 c578 4404 c554 c3da 4542 c4d4 c4e5
453e c5a8 44f1 c57c 45b0 45ea 4399 c618
44e5 c5ee c4bc 44c8 44b6 4555 452e 440a
c595 c54d c537 c200 c5eb c483 c507 444e
4418 4488 c532 4462 44da c527 c50c c519
c340 4528 44bd 4580 c5d3 c5bd 4599 c58b
c59a c318 c5b5 c4e4 43d2 c5f4 44f7 45f8
4552 c3fe c4e2 449b c462 45da c583 4524
c5f4 4550 4512 45ba 45ba c598 45aa 454e
c534 c464 c494 4411 c45a c488 c5f3 4550
c5ed c52c c60c 456c 448e c539 44a4 c4ce
c52a c4b4 44e0 4502 44c9 c344 c459 c4c4
c4af c560 c437 c40e c4cf 44c2 c5a4 c344
c3c0 4491 455d c4e0 c378 448d c5d0 44fa
45b6 c482 c62a 45e2 45ae 447c 4522 c583
c38c c60c c492 455d 43e2 43d8 c334 4570
44a4 44c1 41b0 4566 c494 44ee 43cc 459e
c58d 44d9 c45a 42c8 c4e2 c43c 4398 42b4
450f c5a9 c4c6 c40e 4344 c4f4 44c3 45bd
44aa c47c 455d 4533 44b6 c360 c590 c591
c3dc 452c 443a c5d7 c579 c470 c627 c519
4591 c57e c499 4501 44cc 446c 4376 c510
c394 4551 c5d8 c53f c50a c49c c5b2 c60f
452c 44ec c5b0 c611 4558 c4e1 c4d6 c534
456d 44e9 4486 c52a c5b0 4580 c30c c5c4
4568 c59a c386 c630 42e4 c540 c518 c53b
c58f 454c 44f7 457f 4527 c5b2 4551 c501
43c4 44e9 4485 c45a 450c 45b1 450e 4392
c482 c53a c4f3 451b c590 c5f5 c58c 4409
c504 c4ad c56a c506 c598 4535 45bc 4407
c47a 44a7 459b c55b c501 c2e0 c607 c5e3
c5d7 44c2 44e6 c3e9 4502 c435 c4a2 4553
448f c53a 453a c522 44a9 4522 c46a c4e2
4548 c578 44e0 c596 45ce 45d4 c3ba c610
4527 c5de c4b4 4503 44df 4588 456d c180
c577 c514 c510 4456 c5e9 4382 c508 4514
44f6 452f c463 4445 4511 c418 c49c c4ee
c378 4560 458a 45a2 c605 c555 4490 c54a
c56f c230 c5c9 c4be c422 c600 c41e 45c1
45aa 44f6 c4e4 c414 c4ec 45b3 c584 4584
c620 4534 4529 45cb 45ad c598 45a8 c4c5
c4f0 c448 c581 c428 c4c2 c4d2 c5c1 45d8
c5df c581 c61c 4522 c411 c511 42dc c52e
c558 c496 44d6 442e 44be c4ec c3ec c4fb
c56b c590 c39a 43f6 c4d6 44e2 c558 c453
c4f9 4478 458d c522 4394 451c c598 451d
45b9 c516 c619 4594 45c1 43a4 4550 c59f
c504 c5db 4490 447e c35b 442a c37c 4628
c494 c57a 44cd 455f c414 43a0 4392 4532
c51e 4220 c426 451b c492 c509 4359 43b0
4525 c58b c534 c4ad c308 c5ae 455e 45f7
44fe c542 453b 4527 4538 44bc c576 c5a1
c459 4598 c4fe c5eb c581 c4ce c632 c550
44d1 c50c c4b7 44ba c428 44b1 4248 44a5
42b8 451f c5ba c4a2 c4a2 c517 c58e c616
454a 4522 c5dd c60a 4536 c410 c44a c54e
455c 430d 4404 c5ae c5cf 4502 43d0 c5b3
44f2 c5d5 42a8 c615 c397 c54d c537 c582
c582 454a 44b9 4597 459a c56a 455a c498
c440 4514 c4bf 44a3 4550 45a8 43e9 c338
c37c 4507 4504 451a c5c5 c606 c572 c531
c338 c44f c5c7 43a0 c566 455a 4588 c36b
41c0 4477 4594 c597 c48e 44fd c5f3 c5a2
c5e6 441c 458b 4238 4480 c3ca 4457 45d2
43ca c592 44b6 c3dd 4488 4479 c548 c476
45b2 c5ae 44d6 c55c 4606 45c5 438c c603
451b c5d6 4322 4455 4480 45a4 4598 44ac
c559 c4f4 c533 c080 c602 c51c c3c2 450b
4359 4543 c51e 440c 4407 c4e0 c4b0 c4f1
c3a0 457a 457a 4581 c605 c55e 4532 c53e
c5b0 44fa c59a c380 c43e c5ea 4580 45f2
454c 43bc c518 44d3 c496 45bb c546 44d4
c624 4514 44f4 45bd 45ba c593 457b 43d2
c547 c4fa c516 c200 c510 c4f0 c5ee 458c
c602 c57b c620 4552 c482 c52c 44f8 c506
c539 c450 451f 453f 44af c4e8 c4f0 c449
c520 c5df c3bc c560 c4b6 c4a8 c580 4370
c422 4258 4508 c51a c465 449a c5cd 43b8
45c1 c4c9 c61b 45da 45de c4ee 444e c565
c4bf c606 c3ae 44c9 c3ca c490 c418 45cd
c214 c39a 4548 453c c4da 454e 440f 459c
c53e c41b c480 4520 c4fc c508 4462 c248
44b3 c5c6 c536 c2b6 4402 c59d c419 45d5
c38c c444 453b 451f 44d9 452a c57e c5d3
c4a6 4591 44cc c5d4 c58d c51d c631 c4e7
4540 c546 c4fe 442d 449c 439c c394 447e
c311 4578 c5c5 c593 c549 c4c7 c5b5 c60d
4514 44d2 c5fa c627 458c c522 c51c c531
44cb 44ec 454e c597 c5fd 4516 4392 c5e5
4530 c5e8 c447 c645 4567 c570 c511 c569
c5a4 45a4 44b9 45ce 4588 c5ac 4581 c4cd
4438 4534 4416 c491 c2b0 4593 44a8 4384
c47e 44c5 c448 449a c5f8 c5ca c5b5 c528
c51d c4f2 c514 c50a c598 455c 45b9 4314
c4ba 42b0 459a c54e c59d c4a2 c60d c5c6
c607 4499 455c c4af 43c8 c3bc 430e 4518
c4f9 c569 458a c52e c2e8 4520 c586 c4e3
44fa c54c 4522 c590 45fe 45e3 c47e c628
4439 c5f2 c43b 44f5 442e 4531 4556 43f4
c565 c4d6 c573 4260 c607 c592 c51c 44de
43ef 4556 c55e 4531 c444 c4f6 c505 c50c
4419 4567 456a 4560 c5ec c5a1 4596 c56d
c586 c46d c5d7 c509 c4ad c605 441d 45fd
4587 4310 c53c 4350 c40e 45d8 c58e 4541
c5fe 456d 4508 45c5 45c1 c596 459c 4513
c4d4 c4f1 c4dc c391 c505 c487 c5c1 4581
c601 c57f c62e 457e c4df c482 4467 c50a
c558 c416 44eb 450c 4298 c505 c418 c4ce
c532 c5ad c439 44de 4350 c4b9 c589 c3b4
c50b c424 4441 c570 4537 44d3 c5c7 c3d8
45e3 c3fb c5ea 45b6 45cb c3f2 457c c564
c48e c5fc c4a1 43fc 436c c50f 440b 4604
4398 c4f9 453d 457d c4cf 4592 4434 45a4
c58f 44ad 4484 43b2 c2aa c47f c353 4434
4518 c5b6 c584 44c6 c3b0 c5a0 457b 45ea
43a2 c454 4556 44f5 450c 449b c599 c5dc
c500 45c5 44ac c5f4 c56d c51c c642 c4f9
455e c54e c408 44b6 c493 452e c494 4390
c366 4545 c5f9 c517 c2d0 c452 c5ee c61f
44a6 450d c5ab c5eb 4581 c460 c541 c4c8
449c 4537 4498 c5b6 c5de 451c 4457 c5ca
4559 c5b7 447d c605 4563 c535 c482 c53f
c5a2 4550 4520 454c 4562 c55b 450c c588
449a 442a 4418 c4cc 4485 4542 c412 43d0
c3d2 c4e0 43ae 4546 c56c c5b9 c578 c483
c41e 4442 c5aa c4f0 c552 452e 45b9 c344
c4f6 43fa 4546 c590 c59d c4a1 c5e0 c5cd
c5ff 4576 453b 437b 449d 43c4 c3ea 4582
c500 c582 4499 c56e 449c 4520 c589 c55e
458f c558 44c8 c5c2 45ea 4602 44fc c5ce
4530 c5f3 4431 451a 4486 455e 453e c2e0
c58d c52a c55d c58c c5fb c456 c493 440c
43ca 453a c564 c3d8 42a0 c50c 4230 c4dd
c4c8 455a 4594 4532 c5e0 c5ba 459c c560
c580 c416 c5a2 c562 c4aa c5cb 4581 45e4
4582 4484 c4ed 443e c510 45cc c586 4501
c617 4596 4506 45d4 45c7 c5a8 4599 4481
c51c c4c2 c547 c21c c44c c494 c5f4 4588
c60b c5c7 c616 4592 4423 c47e 44e8 c4ba
c59b c387 44dc 44b2 4482 c50e c43a c476
c410 c548 c4b3 c4bc 42e0 44c4 c53f c41c
c53a 44b2 44ff c4f8 4501 44b1 c5ca 4248
4600 4448 c60a 45c9 45ac c510 45a0 c55e
c4da c5d3 c4db c42a c362 c420 c452 45fc
4429 4492 4319 456f c59d 453c 43a4 452a
c591 448e c4d6 4444 c50e c504 c3a2 4500
44fc c5b9 c596 c496 449b c578 c3aa 4608
44fa c471 4532 4583 44cc c383 c54b c5cd
c410 45a1 c37f c5e7 c526 c55d c61f c59c
456b c594 c484 455a 4354 4489 c3f8 4494
c483 4548 c605 c50e 44c6 c473 c5eb c611
4543 4484 c5ad c614 4553 c490 c526 c33c
4562 44b1 453c c5a1 c5f8 451c 4508 c5e1
45a9 c5b2 444d c62e 449a c534 4416 c4f2
c581 4544 44df 4598 452c c512 4532 c508
c373 4515 c4bb c523 44bc 4518 4437 c4a4
c4c0 c4db 4411 4540 c5af c5fb c59c c4c5
c3f2 c4e3 c592 c4dc c59e 452a 45ca c484
c450 4468 45c1 c528 c584 43f8 c612 c5f8
c5cc 4566 44d4 c46a 444d 4334 c4de 4508
c26c c578 4450 c52c c3aa 44d4 c505 c4aa
45a9 c598 44fa c5cc 45c0 45f1 4486 c5f0
44f4 c606 c45e 44f6 430d 45b1 44b5 44bb
c5a5 c521 c550 4426 c5da c41f 4348 44ae
43fc 454c c45d 444e 455a c4c3 c525 c4bf
c4a6 4583 454e 45b1 c60d c5cc 4593 c576
c5cd c35c c5b2 c4a3 c4ce c603 4574 459d
4590 c3de c4e7 44d5 c51b 45e0 c52a 448c
c609 4582 4529 45b0 45ba c5b4 45c9 44f2
c4f1 c4dc c442 4374 c54f c534 c5c1 454a
c5f6 c558 c625 4595 c46f c503 44dc c3e6
c506 c497 44a0 44fa 44e7 c4f7 c40a c3f8
c570 c59b c4d4 c49c c510 4415 c5c0 c35c
c50d 4426 448e c4cd 4476 44e8 c55a c440
45ca c4a6 c5e4 45be 4567 c3e4 4526 c56b
c4d5 c5c5 c417 45ba c467 c466 44ae 45b0
c367 c4e0 4505 454a c502 4594 c40b 45b8
c560 44cb c48a c368 c43a c50a c43a c24c
44c0 c5ad c57c 44b0 c533 c591 43bc 45f2
444d 430c 451d 4521 43f8 4418 c5a2 c5d4
c3bc 45b2 c312 c5bc c53f c501 c62e c591
4555 c557 43be 4528 c292 450b c488 c506
c43a 4531 c5de c58c c58e c474 c5d3 c607
4547 452e c58e c603 454a c4f8 c53e c554
4509 44ba 44ed c5bd c5ee 4530 c250 c59e
4563 c586 447c c61c 44f8 c57e c521 c550
c52e 4552 444a 4593 4570 c598 44d4 c50a
444e 456e 43aa c508 44a8 45d0 c398 4457
c450 42f0 c4da 4524 c50e c604 c5a8 439c
c46f c4b4 c53c c4a9 c576 445e 458c 448e
c47a 44f9 45a4 c58a c594 4483 c5ee c5d3
c5fa 450a 44f0 c445 44b3 c39a c49c 456e
c3ac c587 c4e9 c47b c467 455d c51e c500
455d c57a 44b7 c53b 45ba 45d8 441e c607
451e c5d1 44a6 452f 44de 458d 451b 41e0
c5ac c509 c583 c459 c5d9 c41c c4e8 44b5
43e8 44fd c51f c438 c387 c450 c4a4 c52a
c358 459a 4576 45ea c600 c57c 4531 c541
c5ca 43ee c590 c507 c4a4 c5f7 4298 45d4
4583 440c c4de 4501 c4f0 4606 c570 4324
c606 44fb 44fc 45ce 45aa c58f 459f 4405
c4e4 c4c0 c50e 4438 c4bc 4481 c5c0 45a2
c60a c522 c61f 4528 c4c5 c49c 448a c402
c579 4382 452c c33b 44cb c44c 43a6 c3d4
c53c c56b c4ee c52c c44c 43e4 c586 c4aa
c4aa 4486 4579 c410 4396 4503 c598 4040
45c6 443e c622 45b8 4590 c140 4545 c4ea
c4b6 c5cf 4419 43da c3dc 4382 4416 4604
43ae c44a 44b8 4542 c532 455a 4270 4589
c552 4350 c4f3 4520 c44a c52c 4474 c406
44d6 c5c4 c544 4240 c46e c527 c3a6 45d8
44e8 c3dc 4528 4461 44b9 436a c58b c5ad
c4a6 459f 43d8 c5dc c564 c50a c649 c578
455d c57f 42a8 44c4 41d0 4400 4230 4390
c473 453f c5d2 c50b c472 c4a4 c5da c60e
4518 44ab c5b1 c60c 456d c4bc c4cb c513
4552 44b8 4518 c5b0 c5c0 4512 c200 c5c8
4599 c59c c403 c604 4280 c59b c4bb c540
c54a 451b 44ca 4518 4568 c55c 4537 c511
c409 4527 440f c4a6 44de 457b c4b3 c2e8
c46e c450 c41a 4534 c5a4 c5ed c5a0 c427
c43e c4e5 c52a c4eb c5a0 454a 4585 42e0
4460 4416 4528 c5a6 c522 c4dd c5da c5d6
c5f8 4408 4542 c459 c446 c452 4388 457f
4403 c58d 447f c501 4410 44f0 c50e c2d0
4597 c5b6 4498 c5a8 45ee 45d1 c498 c626
451a c5bb c495 4535 43ee 4585 4502 c444
c56b c318 c509 c496 c5bc c510 c402 451b
4328 4510 c45c 4324 c240 c47d c428 c4aa
4100 457f 456e 45a0 c600 c56d 448b c501
c590 c4b4 c5ba c578 c43f c60c 4526 45d0
454e 446b c4b0 44de c4d4 45f2 c51d 4514
c61e 4594 4507 45dc 45c0 c595 4590 430f
c4d8 c46a c562 c3ce c533 c4b5 c5fc 45b2
c5e4 c54e c600 458f c4c6 c4aa 4504 c501
c549 c410 44df 453a 44e7 c526 c40e c418
c510 c581 c4ca 448d c531 43c8 c56e c52a
c500 44c2 c3c7 c3c8 c4fe 450e c5ae 4457
45b6 c416 c64b 45cf 45c1 c440 4588 c537
c45e c5e7 451b 44fe 4474 c347 c468 456f
4527 4424 4494 4542 c51c 456a c3d4 4580
c4cc c33f c3d4 4559 c422 c526 c408 43c0
454e c592 c595 c380 c4d8 c544 44e7 45df
4470 c4f1 452c 4534 44a1 c4ea c552 c5ae
c492 45a7 c477 c5d8 c567 c527 c627 c571
454f c556 c220 43cc 4466 44c2 4426 c417
c356 454f c5b8 c52b c456 c51b c5d5 c611
4579 445a c5d1 c5fc 4546 c4ae c546 c52e
44b6 442e 44c6 c5b1 c602 4447 44be c5ce
4548 c587 c3c0 c60f 455d c4b7 c4c0 c541
c57e 4592 44bf 453e 4591 c4c4 4539 c48c
c4f3 452d c30e c504 4494 45b2 c499 c358
c3c4 4489 4405 44e6 c59a c607 c58a c514
c3c5 c47c c582 c514 c575 44ba 451e c280
43a3 44ef 45ac c561 c58b c40d c5f8 c5c6
c5f9 43aa 44ab c31e 4390 c3e6 4427 457b
444f c572 44ae c552 c29a 44f3 c593 c4c3
45b2 c58c 446a c5ac 45de 45be 4389 c61a
44c3 c5be 445e 44f8 c31c 459f 4516 43cc
c5a4 c3b2 c589 c3c3 c5d8 c4ad c4c9 450c
445e 4520 c4e6 448d 4459 c52e c4b5 c501
4421 455f 452d 458e c609 c566 45b2 c515
c5a8 4538 c5b0 41f8 c4af c5e8 4567 4602
4588 c2e8 c3f2 44a4 c498 45c8 c587 44fe
c60e 4562 4532 45e3 45b2 c58a 45c3 4568
c53b 4414 c504 4502 c50d c4b3 c5ea 45cf
c59d c572 c603 4585 44ae c42a 44b7 4442
c544 c4c7 4410 44e0 44d3 c496 c386 4296
c4ff c58f c460 4100 445e c3a4 c564 4401
c4e3 c3c8 4587 c405 c300 4520 c54e c33c
45b4 4220 c64b 4592 4564 c510 453a c559
c526 c5cd 4487 4577 c3d0 43e2 43d6 45c7
439a c508 4491 4530 c500 4506 440c 45a6
c4d0 4513 c4f8 4488 c4ed c3bc 4500 c48c
4561 c52f c5ae 442a 4344 c546 44b1 45ce
4491 c320 4514 44b8 4526 451c c58c c594
c405 45a0 43ec c5b3 c54d c4b0 c61b c587
458f c577 c4d8 44ae 449d 454c c4c6 c445
444e 4582 c59c c582 c51e c518 c58e c5f2
457f 44c9 c5ba c5f0 4518 c49c c4ea c49e
4545 44c2 4515 c5b2 c5c5 4516 444a c59e
4525 c5b3 c2f8 c60d 442a c506 c526 c514
c4e0 4585 44e2 45a2 4550 c568 451e 4440
43a2 4580 448b c220 4508 4585 4494 c290
41d8 c3d0 c515 43e2 c58c c618 c580 44aa
c3cc c4c8 c538 42f0 c57e 4597 459f 4478
c53a 44ac 45ad c505 c57e 4518 c5f8 c5d6
c5ce 4502 452d c470 4502 c44f 44b4 4574
c49a c53a 442c 4406 c2f0 4546 c498 c46c
45a2 c5a2 4465 c54d 45c1 4608 c49e c5e3
4521 c5f0 c4a2 44de 44df 458c 4535 43bc
c58a c525 c55e 4458 c5ee c527 c4a0 4525
4469 4505 c540 4448 44e2 4310 c538 c539
c3a4 45a6 4583 459d c60d c50a 459b c520
c53c c49b c592 c447 c527 c61c 443b 45e9
458b 4491 c4c2 44ba c4c2 45aa c5a7 44c9
c610 4591 44b2 45d2 45a5 c576 45a4 44b2
c51f c50b c504 4350 c537 c524 c5d5 45ce
c608 c57a c600 4585 c3ac c503 450d 43b6
c59b c48e 4534 44ff 450b c521 437c c320
c432 c58e c3cc c51c 44a4 c381 c526 c460
c58a 4495 4504 c200 c4a2 44b9 c5ca 438f
45be c3d0 c65e 45ae 45a2 c48a 4446 c54c
c53a c5df 42a0 c430 c400 c49f 4474 45ca
4525 c470 44e9 4552 c4fa 4592 42c0 45ba
c43a c3a6 c483 4514 c51b 4414 4506 43ed
453a c54c c5a5 43a2 c32c c573 c2b0 45e4
4300 c451 4506 4501 4515 441c c547 c5be
c481 45be 444b c5de c560 c538 c609 c5a5
4531 c5ac c4b0 44ac 4400 43a9 40c0 c40d
4329 4543 c591 c508 c50c c500 c58a c5fe
4525 44ce c5d2 c5ce 4555 c4c1 c50c c4e8
449a 43c4 44f0 c5b1 c5f8 44a9 44b6 c5be
4595 c5c6 c3d7 c624 453d c4dd c402 c51e
c564 459b 450d 459f 459e c53e 4557 c358
c422 455b 43fa c448 450e 4516 44a1 c4dc
c3a4 44d2 c399 446b c5c9 c611 c5c4 c558
c49a c560 c558 c496 c5a0 4594 4560 4435
c46d 4497 459b c553 c587 4578 c5f5 c5a7
c615 448c 4598 c460 c3dc c490 448e 4586
c413 c553 c3ac c512 41e0 4556 c566 c4a0
4538 c50a c360 c52d 45ec 45ea c47f c619
44ef c60a 4348 44ec 42f0 459a 454e 4390
c52d c494 c580 c2d0 c608 c515 c494 44de
4456 451c c55a 44e6 c4da c416 c542 c55c
c2e0 458d 4584 4552 c609 c525 45a7 c54a
c575 448b c588 c4f8 c48a c61a 4554 45f6
45ab 4545 c54c 44af c58a 45ca c5ac 4504
c638 45ba 4560 45d0 4556 c5e6 45a0 c4c3
c44e c54b c510 c491 c554 c546 c5a3 45cc
c5fd c590 c658 456a c48e c42c 4434 c556
c5c5 4464 4564 44be 44cf c502 c3e6 44c7
c4a7 c5cc c51a 4506 c470 c556 c5a1 c550
c538 4561 45ce c49f 4566 4470 c5b9 c308
45d4 c4c1 c616 4614 45bc c590 45a4 c5b1
c534 c5d3 4462 4492 c44f c49a 44c2 461c
4512 c523 443a 4558 c4ac 444e 43fe 452e
44bc c488 446e 4547 446c c4d2 44f3 44fd
4420 c59e c58a c520 43b6 c60a 4358 45af
450d c48c 4532 4539 457c c4fd c590 c5b2
c318 45aa c536 c60f c4ad c4f9 c633 c570
44fa c5dd 44a1 45eb c593 44d4 4436 c451
441f 4536 c5d2 4464 44aa c374 c5de c622
452c 4584 c5b4 c5dc 4594 43e0 c4ed c4e9
c424 44a8 4530 c5e4 c5f0 455b c28a c584
4593 c5a0 44dc c628 44b8 c5b4 440a c530
c54e 4550 4492 44c8 458b c499 4523 c58a
4546 4520 c4a5 c290 4502 4571 4494 4380
c43a 44ce 451c 45aa c59a c5d9 c5b6 c4e2
c514 c451 c541 c465 c5b4 4444 4340 4527
c508 4566 45a0 c57f c5cc 438c c61f c5b4
c641 4540 4446 4435 c469 c424 4440 45a4
4322 c594 4440 c532 4504 4550 c5d5 4446
45ad c5d3 444c c5a1 45fe 460e c3cc c614
4557 c5fe 4482 456a c483 4595 45c4 4542
c55b c561 c561 44d6 c61b c589 44f7 4508
c482 4515 c51a 44d9 c43a c521 c2cc c532
44a4 4587 4565 45ae c5d8 c56b 45b8 4420
c5b6 c48a c57a c472 c545 c61c 45d6 4604
c520 431a c554 44dd 43d4 45d8 4490 4433
c562 45ae 457a 44e6 45d3 4404 4521 44ae
c4e1 c4ef c473 4250 c240 44ca c5ba 4538
c5a7 c458 c61c c408 c4c4 4468 4580 c380
c4d7 42b8 45d0 453e 44bf c485 c41c 4494
c228 c5b6 c450 c4f8 c4d6 44f8 c564 454f
4538 4482 4402 c45e c4b4 c53a 4432 44d6
4589 c47a c614 44b6 455e c32e 458e c358
c484 c64b 42fc c541 447a c4b8 438f 448b
c487 449d c378 455b c491 451a c52d 4604
c5b2 c54c c080 4599 44c1 4594 c491 c45a
451b c5a2 c534 4406 c3c2 c386 c45b 45f1
c4e3 c43a 4566 c43a 455f 4483 c599 c50a
4472 459d c43d c5dc c4ac 444f c610 c58f
4530 c55e 427c c513 449e c407 44ae c4e8
450b 4577 c582 c4ae c496 43ac c5b5 c600
447e 449b c499 c5ac 43b8 c497 c5c7 c584
c4c4 44e6 434c c582 c5b8 4598 42f0 c4a9
4544 c5a0 c540 c62c 44ee c4f8 c536 c54d
c5c5 44f0 44f6 44c2 45ed c50b 455a c576
c422 4522 c1c0 c4e7 458d 4582 c2c6 c4bc
431f c5a5 c426 4551 c5a5 c599 c4fd 456a
c359 c3d4 c536 c579 c590 457a 449c 4391
44dd 44bc 4553 c55c c49a c4a6 c50c c5c4
c60e 45a4 44f0 c4bc c5ae c40e c537 451a
44e2 c4e6 44d8 c56a 4534 4543 c52a c4c4
453a c532 4454 c4e8 4591 455f c402 c606
4539 c5ee 451a 44a6 440d 455b 44e1 c589
c440 4365 4100 4350 c5dc c4aa c473 4452
c2a6 c387 c5e5 c4ec c54e 444a c4d2 c539
c53c c52e 44fe 4584 c5c1 c589 44ec c5c4
c5bf c51e c4f4 c588 c4bf c582 c4b2 45df
c482 42b8 c581 4513 c3b6 459b c4b1 4320
c54a 451c 452e 4508 4593 c490 4487 43a0
c598 c364 c480 44a8 c3dd 43a4 c5b7 455b
c60f c55e c648 c4ac c5a8 c1e0 44a4 c450
c523 c415 456a c40e c481 c4cb 4188 c540
c49c c621 c434 c58c c5bf 4403 c57d c4d2
43a8 c53e c478 c511 456a c4b7 c4c6 4468
45ae 44a1 c616 44c2 455c c53c 457c c4b4
c514 c63b 43bc c557 4339 c518 c3a0 c4d0
c535 451b c4b0 458e c573 460b c4e0 45a5
c5a1 c4f5 c551 4530 c32c 4559 c51c c384
44e8 c5eb c4d0 4414 c46d 44ed 4416 44f6
c544 c51e 4512 c58b 4527 c324 c5a6 c593
c3b6 45a5 c47b c612 c554 c512 c66a c5bb
44de c4ee c44b c5ec c3f0 c4a2 4370 c530
4502 456f c58c 44f1 43b0 449f c5fc c62b
c4fe c499 c557 c602 4525 c524 c5d0 c56a
c598 450f 43f8 c59f c5d1 4560 442a c5c8
4528 c5b8 c4a1 c654 45b9 c585 c510 c574
c625 4548 44e8 44d0 4574 c562 458c c5ae
c50a c38a c443 c583 c3d0 44c7 c3c0 c4d6
c5ab c57f c44a 44e1 c5e9 c58f c583 44b4
c4dc c51a c58c c5cf c588 4587 4502 c4d6
44a2 44b0 4572 c601 c4b9 c5a5 c517 c5e4
c597 4583 4540 c494 c505 c3b2 c47d 44c5
4410 c590 4525 c577 c4e6 4501 c531 c5d6
4533 c4e8 44f2 c585 459d 454d c4f5 c629
4552 c613 44d2 4434 c4f1 c444 4150 c5c6
c584 43ae c4b7 c547 c593 c585 c4cf c471
c2b8 435c c5ed c508 c507 c4f0 c508 c4b9
c4ea c55c 44a0 4503 c568 c604 4412 c5b5
c609 c4a5 c577 c60a c50a c5d9 c49f 45d6
448f c3ec c58e c496 44c3 45ae c392 456e
c563 4546 44e4 453c 45a1 c570 443d 4432
c50f 4330 c3fd 44be 4390 c50a c5c6 4447
c5f8 c524 c639 c428 c538 c308 c4bf c538
c454 c47c 459e 4509 4409 c4c0 c40b c4a2
c51c c60c c190 451c c5c2 4489 c5df c502
4599 c434 44d9 c528 c2b8 c4e3 c35c 4549
4546 4240 c5f4 4574 45a9 c542 4539 c526
c4e0 c61d c410 c4be 449a c4a2 4494 4548
c44d c3f0 4494 4594 c537 45a5 c522 4506
c5cb c50e c584 4585 c4c5 4592 c486 4489
c374 c5e7 c50e c4f5 c50b c53e c330 44c8
444d c500 453f c5cd 4534 c453 c586 c5b1
c4c2 45c6 c51e c5f6 c56e c350 c66f c5bd
44fd c5a6 c48c c56c 4506 442f c4e8 c57e
4385 453a c5c2 c4be c3b4 c35c c5fd c624
c4ca c490 c59b c5ec 452a c549 c5c1 c59a
c40a 448b c466 c5c4 c5b3 453d c31f c5d3
4489 c5a9 c3ac c5f2 44e3 c5bc c518 c583
c612 4484 44a6 44a3 4536 c5c2 4582 c5c6
44e1 4532 c532 c511 c464 459b 44b4 c46a
c528 c542 c466 44d7 c5f5 c580 c509 4405
c552 c512 c571 c59d c513 44e2 4411 c404
c4fa 44dd 4537 c610 c518 c57b 4300 c5cf
c5e0 45af 444e c4c0 c54a c510 c486 4569
c45e c57a 450c c435 c358 4528 c546 c523
4540 c599 c409 c545 4576 4590 c533 c613
44de c5c8 c4be c288 c486 4544 4504 c479
c517 c539 c492 c565 c5b3 c50c c52e c3d5
c3a2 c487 c5be c518 4270 c548 c57b c4f6
c524 c5b7 4520 4558 c5ad c605 44aa c592
c5b6 4409 c584 c5b0 c514 c581 c520 45c4
43f8 4403 c538 4483 43b4 45f6 c4c1 44f2
c612 4508 4466 4547 45a1 c5ae 44c6 c454
c56a c38c c50e c495 c445 c4cd c5ce 4518
c621 c512 c647 4290 c567 c48d c49c c54b
c539 c549 451b 44c8 c400 44f2 c412 c49f
c506 c5e6 c4dd c4f8 c594 4534 c5be c452
44b0 41b0 c040 c500 441e c397 c544 44a4
455e 4544 c636 45ae 4548 44cf 44f8 c4f4
c537 c651 43ce c542 4506 c466 c41c c210
c4e8 452c 447a 459b c55e 44fe c452 4572
c606 c494 c4b0 455d c4d7 c463 c434 43b6
4488 c5df 44b9 43c2 c240 43d4 c4c0 44c8
4100 c4f6 457e c512 4530 43dc c597 c5bd
c532 45b9 c483 c5d3 c572 c437 c67d c5ca
44a6 c556 c3cc c596 4558 c3ec c406 44d5
c467 4557 c5e8 c523 43ec c4d2 c5f3 c623
44a7 4488 c5b2 c628 4583 c538 c596 c590
c4cb 449b 4350 c5b3 c5d7 44ce c2a0 c5c6
4514 c598 c4d6 c619 44a4 c5d5 c4e4 c5b2
c61a 4499 450b 4364 4567 c60a 4591 c5ca
4500 44da c489 c4a7 c3d8 44f0 c392 c53d
c51e c548 c483 43f2 c604 c58e c536 c490
c557 c4bb c568 c54e c552 458e 4531 c464
c52c 448c 4527 c5fe c43c c54e c4f6 c5d8
c605 4528 44c3 c466 c45c c4c2 4460 4494
c508 c59b 4512 c580 4480 44c1 c51b c5a2
43b1 c58a 43fa c57c 4599 4595 c49e c65a
44cf c5cd c4e7 448a c4ac 4506 44e4 c51d
c514 c4c9 c4be c4f6 c5a6 c4ee c588 4478
c49a 4532 c59c c3a0 c452 c494 c549 c4e1
c4ce c57f 45a1 457d c5eb c616 4408 c5b9
c576 4298 c585 c555 c480 c592 c4ef 45e8
452f 449c c510 c36d 4422 45f2 c50a 44d5
c5f6 4570 44f1 4566 45bc c589 c230 4000
c566 43dc c43e c419 44f4 c45e c5aa 44f4
c5be c43e c636 c498 c56e c40e c517 c55f
c535 4489 44ae 459b c2c8 c3c9 429e 4450
c560 c5ea c41f 4530 c56f c454 c5ac c4c0
4529 43c2 4388 c473 449c c308 c50c 4278
457f 44c2 c620 45a2 459e c51e 455a c571
c4a6 c628 4515 c563 440b c4d5 c47c 450b
c4ce c4e3 44cc 4590 c4fa 454e c4f2 4595
c51c c3c2 c446 456d c46b 43c8 c446 4445
4404 c5de 4424 43ba 43a4 c570 c2b8 44f4
43a4 c3a4 454a c523 44bc 4415 c553 c596
c4e9 45b5 c478 c5e7 c54a c507 c682 c5cb
44c4 c504 c4c6 c551 4462 44b5 c3f6 c590
c2bc 457a c5a5 4487 446a c378 c603 c637
c3c8 443a c573 c609 4595 c48a c5a8 c4ae
c510 4522 4418 c60e c5b8 447d 446a c5d6
4552 c5aa c420 c5f4 457a c59f 4438 c59d
c616 4521 4511 c3a0 4591 c59a 459b c5c6
44a8 44a3 c3c8 c4ec c436 447d c51b c489
c561 c4f7 4493 44ec c5e8 c56b c528 c504
c4ad c49c c581 c560 c4d2 457a 450d c4f4
c560 4501 4324 c5cb c5d4 c5c3 c500 c5dc
c5d1 449f 4508 c4cb c447 c4b0 458d 4315
c535 c59f 452e c524 44fb 44a5 c575 c594
44e2 c550 452f c55a 4583 45b1 c4a8 c61e
450a c617 c496 4427 c4ce 453a 43bd c4df
c50a c556 c52c c537 c5ee c5af c43f 451c
c4cb c3d6 c5dc c512 c4ae c4f8 c556 c4c9
c55a c532 45a0 4454 c5d0 c5ee 4570 c590
c55c c3a8 c593 c5c0 c43b c5df 4484 461e
455c c510 c581 448b c427 45d6 c4d3 4420
c5df 456c 44dc 450a 45a4 c5b4 44fd 4416
c540 c42f 44da c426 44be c4cb c60d 44bd
c603 c57c c63b 442e c56a c466 c52c c51d
c488 c488 44b6 4508 429a 43a3 c3b7 c4e5
c4f5 c5d6 4486 4427 c561 c340 c5dc c54e
c3a0 c496 4523 c591 c4aa c456 c54c 44db
45a8 c482 c5e4 45c6 4543 c520 4520 c4b9
c555 c61c 4418 4200 4357 c4b5 c500 44d0
c492 c514 4477 45ac c589 4542 c564 450e
c5dc c450 444e 4518 c4ec c4f4 c4d6 443f
44cc c5d6 44ac c553 c48a c56e 442f 454a
44cb c4c3 4502 c300 c462 4445 c599 c609
c4af 4574 c395 c5ee c59c c55d c681 c5ca
444c c596 c4ee c56b 4503 4436 44e9 c59e
c4e4 457f c601 c4d3 c561 c4e1 c5fa c613
43f6 4484 c577 c60d 4587 c576 c5d2 c582
c543 44b6 44ba c60e c5e0 4510 452f c604
44ee c5a2 c4d8 c641 4515 c600 c546 c585
c60a 450d 44fc 444e 4569 c608 459e c5cc
453d 4394 c428 c51d c4a9 4567 c4a6 c48a
c541 c529 c4af 44b8 c5e4 c515 c5b9 4386
c420 c4cd c5b5 c59a c59c 4579 45a4 c50c
c466 c48b 4524 c58c c506 c4fc c4ea c606
c5ce 4577 453b c556 c50c c524 4421 44d8
c52d c5a4 c4cd c5ca 448e 44cb c55f c58c
450a c4d6 44c6 c507 45aa 45a4 449c c63c
4546 c60c c1d0 44b4 c49c 44ca c3a3 4407
c52e c509 c5ad c4c0 c5e0 c550 c537 443e
c4c3 c40f c56e 43ca 43c3 c4d4 c55b c548
c55f c5a2 44e0 4409 c5e3 c60c 445c c601
c578 c52d c5e3 c5da c4f0 c5ce c4a5 45d4
4433 43fa c4df 4466 c46e 45c2 c4e3 44b7
c5c7 4505 452a 4519 45b0 c523 44d9 c522
c54a 43ac c4a7 c477 4452 441e c5a7 4510
c600 c536 c612 c4c9 c531 c100 44a7 c3ca
c574 c4c8 4547 c3d6 c4a2 4409 3f80 c4ca
c260 c5c4 c3a4 c4aa c59a 4496 c5bf c50e
44bc c2b8 c36c c519 44b4 c3ec c4da 455a
4589 4518 c63d 4547 4522 c3dd 45b6 c4ba
c558 c649 4421 c599 447d 443c c4c2 4521
449f 4454 c484 4570 c53b 4464 c280 4573
c607 c4be 44a4 4581 c4b3 443f c573 43be
44d6 c5d6 44a9 44c4 4344 453c 4509 4515
c3e6 c470 453c c51d 44fa 4468 c582 c5a5
c4c4 4595 c472 c5ea c593 c443 c659 c58e
42b0 c534 c3e8 c543 c4c8 c431 44c1 4481
44fa 4548 c5a1 c3c8 4457 4400 c5e1 c61b
c45f c406 c562 c5f5 4571 c50c c589 c523
c416 4495 c50b c584 c5c3 44f8 44b1 c536
451a c5a7 c3d8 c5ee 4482 c5a1 c482 c5c8
c5f6 4511 4563 44e3 454f c5b3 458b c552
c407 c424 440e c581 448e 44ba c4c0 c4fc
c54f c4f6 c4c8 4544 c610 c5ba c556 c338
c3af c41e c5c8 c536 c58e 4560 4592 c4a9
c250 4446 44e1 c5cc c485 c502 c4a2 c5c4
c5c7 4564 4597 c51a c49d c4b4 44bf 44b6
448d c572 4437 c5ab 44b8 44d2 c510 c59c
453a c518 43c6 c57c 45ae 4593 c44a c63f
453f c61b c47f 4398 c4a7 43bc 44ee c4ee
c4c2 c45f c4de 4419 c5b8 c596 c4f2 42c4
c370 4314 c5ac c294 c522 4432 c517 c43a
c58d c5a1 45bf 453d c5af c5d8 c393 c5ab
c594 c536 c593 c59d 447c c5d4 c350 45b1
44bb c4a0 c523 4426 c3bc 4598 c499 44ea
c5b6 4591 4522 44b2 459d c56a 4464 c4ce
c4c2 c468 445a c38f c4d8 c50a c5b5 444a
c5b0 c534 c628 4463 c538 c2b0 c547 c531
c558 c468 44dd 44b9 4496 c508 4474 c4c0
c560 c606 4485 c436 c5be 4418 c604 c57a
451e c4b2 451e c5a3 c220 c470 c437 4548
44c8 c458 c646 4580 4591 c523 44aa c55e
c58e c610 c28c c4c0 44c0 440f c4a0 451f
445e c444 4441 454a c535 445e c4de 448d
c5d1 c436 441c 4568 c437 4260 c37c c314
446b c5b7 4508 c588 439a c516 44ae 4419
c296 c4a9 4531 c58b 4562 c4a8 c562 c5c1
c544 45be c4b8 c55d c581 c530 c65a c5c5
4500 c5b1 c519 c580 4440 44a2 442e c51e
c477 44c3 c5af 438e c48c c44e c5c1 c605
c39e 42dc c571 c5ce 45a0 c5a6 c5b6 c5b7
c54e 4435 4442 c59f c5dd 454e 4436 c564
443b c585 c529 c62e 44ce c5ce c4c0 c59b
c612 44f1 441a c49e 451f c5fe 45ab c5c2
4446 43cd c4e0 c4c6 448f 4567 44b2 c3f2
c5a1 c4f9 4338 44d0 c604 c5b4 c537 c2f0
c4e3 41c8 c5ae c5a8 c593 455f 43b6 c54b
c50f 4515 4483 c530 c548 c230 c488 c5e2
c5b2 44f4 44ad c4ae c4c8 c4ba 4536 4519
c514 c557 44a2 c54d 4439 4508 c576 c566
44ee c58c c300 c586 45a4 459f c38a c645
4502 c600 c54a 4354 c50b 4450 4505 c448
c530 c572 c590 438f c5b6 c578 c4cd 44f9
42e0 c508 c5df c31c c506 c4b2 c551 c4aa
c514 c5af 455d 450e c596 c5d6 440d c5c5
c509 4320 c5b5 c588 c42a c5b8 c510 45c1
457a c4b9 c4ee 44f1 43b8 45b2 c532 449c
c593 450d 4503 44b0 4584 c552 453c c446
c500 4474 4326 43bd c542 4551 c5ac 454f
c608 c566 c638 43cc c56c c416 c4e8 c492
c432 c4de 4498 4298 449f c4ca 44a0 c42d
c546 c5dc c26c c497 c5b6 4438 c5db c59a
448e c4a4 448a c571 c487 c33c c4ad 43db
455a 4520 c639 4582 449a c41d 450a c2b8
c53c c5e7 c49d c57f 440c 44b0 c4c1 456d
c50b c49a 44d6 4539 c59c 44d2 c578 44b7
c5d6 c3b6 c4dc 44e6 c43c 447f c488 c40c
4484 c5c0 c444 c4a8 c4c5 c3aa 444c 453f
44aa c429 452c c5aa 44e7 c3c0 c56b c5d3
c340 45cc c3c0 c59e c522 c558 c656 c5e0
44a2 c4f6 c4a6 c503 c45a 4489 c347 c4a4
c4bb 455e c5b9 c4ee c4fd c407 c5d1 c5f0
c47e c47e c509 c608 4515 c549 c5c2 c5a2
c4d6 4518 4300 c5bb c5bc 4536 43aa c57c
44f9 c504 c3ee c625 45aa c5eb c53c c5b2
c5b8 44bc 44e5 44a2 452c c5a4 458a c5c4
c4b6 c37e c4d8 c50b 44e8 4563 c505 c498
c58b 446c c51f 44de c5d6 c5d9 c556 44b4
c39c c4fb c5ba c56e c582 4542 4591 c502
4524 c4a2 c418 c5cd c404 c4d8 c44c c5d1
c5b4 459e 458a c534 c378 c48a 44bc 452f
4492 c571 c4be c58f 4442 452c 4430 c4a7
4551 c525 c42f c522 45ba 4500 c505 c651
4575 c5fb c48e 4378 43e8 449d c3da c48a
c534 c52f c491 c4cc c59c c528 c527 445d
42a0 4410 c598 c3d9 c4ac c421 c4d2 c449
c485 c56d 4558 45a9 c5a6 c5d4 4489 c5af
c556 c448 c594 c5d0 c4da c5e3 c51d 45a7
4503 c512 c557 44e7 4370 45e8 c546 4416
c5a5 450c 4513 4548 45a5 c566 4532 434c
c4f8 42c8 4452 4488 c526 c52a c5fa 452a
c5d1 c53c c63b 44d9 c56b c33e c4c4 c4fd
c4cd c455 4556 445e 4492 c4ca c310 c480
c476 c604 c4b8 c50a c5c4 443a c5aa c516
4532 c514 4412 c5a2 4338 c3aa c52c c467
4519 c42a c632 45b2 4530 c43f 4492 c4e8
c50e c60a 4448 432c 44d0 43ec c4fc c3e0
c4a5 c220 c492 456f c4be 450e c4f9 4596
c600 c4e3 c522 453a c4ba c310 42aa c495
4480 c5c5 c498 c48d c46a c350 4562 44ad
c386 c509 44ed c509 44bc c498 c5c1 c5ac
c4d8 45bd 429c c595 c50f c574 c674 c5de
44c0 c569 c51f c51c 4522 4465 44b8 44ed
c4f6 4562 c5ea c4ab c51b c4ca c5c7 c5df
43f8 44a1 c568 c622 4554 c599 c59c c5a2
c564 440a c320 c5ab c5ed 4528 4481 c5d2
4520 c5bf c4f8 c633 44f6 c5bd c54c c5a4
c5e1 44fc 4480 4488 4584 c5de 459d c5f1
4318 c3f0 c473 c501 c4e0 4555 4324 c3c4
c543 c52a c4a2 c180 c608 c5b7 c5ba c4fb
c420 c545 c5ac c5a3 c5a0 45ab 458b c4da
c4b2 4486 4501 c5bd c489 c556 c492 c5df
c5ca 4595 4537 c503 c511 c417 c409 4507
c529 c591 443b c592 4404 44db c50e c5b1
444a c536 44ae c50e 45bc 457a c49b c660
4549 c5d6 c505 4504 c4fb 44b5 c44e c304
c527 c501 c522 c4d2 c576 c483 c522 44c8
436c c410 c5c8 41f0 c54e c4da c51a c4d5
c4b8 c536 44e8 4507 c5c5 c604 c384 c5a6
c56f c4a2 c5b8 c5a0 c56e c5df c52e 45b8
453f 43c3 c597 42d0 c428 45f4 c539 43f8
c5d2 4492 44a3 450d 459e c595 4482 c439
c4e2 c4da c508 c3b0 c41e c519 c5fc 4548
c614 c576 c660 4541 c596 c4c8 4349 c540
c524 c314 4513 4515 c3bb c489 c368 c497
c551 c5d9 4444 c443 c5d4 4394 c5b4 c580
c370 4499 44e8 c564 c45c c39a c559 438a
4584 c2d0 c623 45c0 4576 c565 456a c544
c56b c618 453a c490 444c c4e6 c4e6 431e
c4f0 c440 c49a 4581 c513 4585 c53d 4582
c5b8 c4a6 c506 4521 c4d0 c554 c4ac 4403
c404 c5fc 445c c508 c56d c481 43b8 4572
443c c568 4430 c4ee 44ce c4b3 c576 c5e3
c4f4 45a1 c476 c5e6 c54c c54c c683 c5e8
458e c5c3 c445 c54d 44cd c467 4552 c557
c48d 455e c5dc c3dc c505 c518 c5eb c61b
c49f 449a c588 c62e 45b6 c536 c5d6 c557
c53a 4419 4493 c602 c60d 4507 44ed c607
4505 c5be c529 c647 4491 c5ed c467 c577
c602 4505 44eb 44be 459e c5a3 45a5 c5dd
451e 434a c532 4488 c4cf 450b c4f3 c524
c599 c418 44a0 446a c60b c5eb c5b6 c552
c264 c541 c5af c590 c5a6 452c 4502 c518
c563 44ac 4590 c5dd c5a6 c57c c580 c605
c606 450e 4506 c550 c513 c4ec 447a 44ef
c599 c5a4 44c0 c514 4465 4472 c530 c567
44e6 c500 4406 c5a9 45bb 45aa c53b c635
44bc c5da c4bd 41a0 c4f7 451d 43e7 c576
c5ac c523 c5ac c50c c5c6 c572 c2b0 456b
c48a 430e c531 c414 43e6 c55d c55e c540
c568 c500 44aa c435 c5f5 c608 43d2 c58e
c5bc 4491 c5df c59f c50c c5dc 44fc 45d6
4549 c434 c546 44bb c411 458e c43e 4485
c5c7 44ae 453a 4568 4589 c523 453c c2b0
c565 43ba 4443 454b 4502 41b8 c5a7 4495
c5fb c50c c60e c416 c538 c523 c4cf c53d
c507 c523 44fa c392 42da c3e4 444e c44e
c52f c5e4 4497 442b c5c2 c3d8 c5e6 c3a5
4598 c50d 4524 c58d c429 42d6 c525 44d0
4529 4492 c628 4586 454a c502 452f c519
c3aa c615 442c 436e 44cd c400 4470 45e3
c39f c492 446e 4560 c513 440c c4ae 452c
c598 c3ee c51e 44ec c49b 4388 c486 c44d
44b1 c5a7 4420 c47e c4e5 c4c4 450e 445e
c3a8 c467 451b c4d4 4405 44d0 c590 c5c2
c55e 45b1 434c c5ad c588 c4b6 c659 c5a7
458c c506 c49a c570 4442 445d 4416 c352
c32f 459f c5ba c4ae 4456 c3d7 c5c5 c611
c410 44bf c56e c5c4 4539 c516 c5af c585
44ee 447e c43a c5e6 c5bd 4590 42d4 c549
449e c574 c343 c610 44b6 c5d9 c4c4 c587
c60d 4522 44dd 4422 4528 c5ef 454e c5b4
452e 4464 4218 c4f1 44ce 4587 4180 4480
c4e2 c512 c4a8 449e c58d c5a7 c505 4496
c500 c52f c57f c4d8 c507 45b0 459b c50a
c551 44e0 4530 c580 c40e c426 c404 c5d0
c59b 44a5 44f3 4270 c460 c4bd 4308 44fd
c514 c574 432b c541 43d0 4412 c50c c558
450d c56c 44be c50e 45a1 459b c4b0 c624
44df c5f1 c484 43f1 c404 44a4 44a8 c42f
c55c c545 c50c 43e1 c5be c580 c527 4478
43ef 449c c5ab c499 c478 c426 c545 c41e
c53a c5a6 44c6 4549 c5ae c5d9 4480 c58c
c538 c4b3 c597 c56e c448 c5ae c522 45c8
4512 c244 c4b2 c396 42f0 45a0 c397 452d
c5bf 4576 4521 4521 45a2 c4d8 4526 44a0
c50c c431 43a9 c4df c39a c390 c5c2 4489
c603 c534 c622 4493 c547 c40c 4288 c4ee
c526 c48c 44ac 44b5 43ce c41c c409 430c
c4c0 c5ea 453f 4300 c5bf 4512 c579 c392
4563 c480 c388 c55f c441 c399 c4da 4514
4558 c2c0 c62d 4566 4592 c4f5 4450 c557
c4a4 c641 44c2 c4bb 443c c355 42b8 4373
c4cc 4401 4518 4590 c52a 451a c506 459c
c612 c2fc 444f 44d4 c4cd 4440 c413 43b4
44cc c5ba 446c 451d c43e 4484 446b 4536
4464 c503 4583 c562 4533 4522 c56e c5cb
443c 45f7 c494 c5ae c58f c484 c63c c5d1
44c6 c58f c510 c579 4521 4490 c46c c453
43ee 4596 c5a1 c41e c448 c460 c5b9 c605
c4ce 44da c533 c5bd 452a c504 c5d3 c585
c502 c377 c40c c5ae c5bc 450c 452a c574
4492 c564 c4b2 c615 4513 c584 c538 c5a1
c614 44d2 4506 43a5 454d c5d6 459b c5d8
452b 4482 c51e c500 44e5 4515 448f c4af
c54f c53c c3a0 44a6 c5be c5a3 c555 c44a
c474 4110 c577 c536 c546 458e 45a5 c510
c569 451b 452b c5a0 c472 4494 c41a c5db
c588 4591 4587 c517 c443 c4f9 4416 452d
c543 c537 c4ac c589 4511 4508 c51d c5a2
4490 c3e4 c270 c55f 4584 459c 42c8 c652
44aa c5de c46a 43ee c4ce 4517 44ee c4c4
c4e1 c3b4 c538 c47c c5de c496 c547 44e0
c403 4481 c5c2 42fe c3f8 c4a6 c58b c52e
c56b c554 451c 456b c5f4 c5a8 44a9 c5c9
c57f c45c c5a5 c4ec c3fe c58b c517 45bc
44f2 c40f c583 c50e c4a2 459f c544 4573
c5e0 4596 4588 457c 4580 c588 44c0 43b4
c53d c44d c474 c4a5 449f c49c c5c1 4515
c5da c5b2 c667 c49a c52b 4428 c4b6 c4ed
c518 c4e8 44bc 44dc c4e1 44d5 443c c476
c3d2 c5e2 4476 449b c55a c180 c5da c47f
c504 c327 4538 445b 459f c3f8 c511 44a3
458a c37e c5cd 4590 4470 c5a0 4596 c54f
c5c7 c631 43e3 c38f 43c4 c53c 439e 4494
c506 c492 c4b2 45b1 44af 44ee c530 455a
c604 42b0 4399 448b c433 c3ca c38e 447f
44dd c5e2 44c3 c4bc c360 c4c3 4316 4519
4525 c51b 454c c504 454c 452a c593 c5d4
c3f4 45e6 c4c1 c614 c590 c41d c66c c615
4509 c5d2 c3a6 c4e4 44f0 448b c4c7 c593
c482 452e c5c3 4280 c4ec c4aa c5f9 c620
c2b8 453c c572 c5d4 4527 c4d8 c5ae c58b
c443 442b 4444 c60d c5c0 452b 4506 c56f
4443 c5a8 c49c c60a c4d2 c5ad c544 c571
c5ec 4495 4513 4471 455f c5b5 459c c5d0
457e 452c c51f c34c 447a 4562 448a c536
c538 4180 c49e 452a c5a5 c5c1 c54c 40c0
c502 449c c5b4 c52a c53d 4562 c402 442c
c560 4551 4584 c5e5 c418 c220 c54a c5ea
c604 45d5 44c3 c40a c531 c50a 44e4 4589
c54a c596 446b c475 4534 4541 c547 c53b
44a6 c5a0 4349 c58f 453a 45f8 c430 c62d
451a c5d6 4350 43cc c280 45cf 4583 c481
c588 c541 c586 c496 c602 c565 c4c6 450f
c544 4394 c5ab c451 4532 c444 c590 c597
c522 c559 45bd 459c c5e4 c5d9 4494 c5aa
c5ce c531 c53e c56d c499 c58d 4476 45a3
436e 4412 c580 44e7 c4e0 45e8 c3e2 44c4
c5a2 459b 4544 4562 45a8 c394 45a4 453a
c51c c540 44cc c100 c4cc c5b3 c5af 4527
c5ae c533 c63a 4539 c454 43bc 4519 4396
c514 c4d6 452c 456c 448a c513 444e c516
4313 c587 c510 c507 c553 44d3 c594 456b
4461 4416 4442 c526 c3a4 c380 c499 c44a
45a0 c558 c5c7 455a 4577 448a 451d c532
c51a c614 4160 458a 44b4 c519 44ca c2c0
c478 c446 c4e0 4573 c50c 4532 c4fc 45f5
c5d4 c3eb 4477 44ea 4307 451c c4e2 c4b8
44ab c594 c432 4480 c511 c49a c4a4 45fc
4080 c4f1 4512 c507 4592 452e c59d c529
c414 459b c38e c5c1 c4f6 43ec c622 c597
452b c5a5 c3fc 4280 4544 42b8 43fa c55a
c48a 4543 c5c6 c506 c58c c4a2 c58f c5e9
44fd 44f7 c4aa c5ed 4535 c516 c5c0 c5bb
c429 c43a 4453 c588 c5d4 4588 c38a c52b
4482 c5a2 c507 c639 44f0 c4b7 c520 c53d
c5df 447a 4484 44ad 45c4 c5d3 4525 c5b6
4452 452c c3af c41b 4527 45ec 4530 c3da
c4bc c5ad c46b 452e c582 c5bd c55d c4be
c3e1 43a5 c529 c564 c581 44d9 44c1 44f6
c49a 4561 45b3 c594 c57d 44e4 c536 c5cc
c615 4599 451c 446a c4b1 c380 c54f 4535
c4cb c523 c51b c4ce 4505 4550 c568 c564
4424 c534 c439 c556 45b8 4559 c3b8 c606
44f0 c5eb 4524 44e8 c2dc 4582 4504 c548
c4bc 4431 c55c c4e7 c5f4 44ed c4de 44d6
43aa 44d1 c5e1 c532 c52d c446 c546 c529
c486 c4c1 c39a 458e c5e8 c596 44bd c59a
c5c3 c326 c564 c52e c528 c570 c536 45c9
4532 c411 c590 452a c544 4554 c48e c398
c592 4405 4542 4500 4546 c586 455a c450
c5a3 c4f7 c4e0 4313 c50f c4fa c5d7 4586
c608 c571 c63b 4526 c54a c4fc 443e c412
c448 c4c4 4594 c4bf c498 c486 4240 c5a0
c514 c5ec 4498 c5a8 c5fe 43aa c59a c505
c3f0 c4e2 454e c5bb 44b3 c48c c583 4370
453c c392 c5f0 450e 4550 c5eb 458a c586
c595 c5d1 4454 449c c32c c3b4 453e 45a2
c53c c572 c4f0 454c c510 45d5 c564 4560
c59e c514 c530 44b5 4438 c3da c340 c43b
44d8 c5ea c52c c53a c54c c4ac c470 4551
c534 c4d3 c2fa c531 4414 453e c56f c55f
c501 4586 442c c5cc c5cb c506 c65a c55f
454e c50b c527 c52e 438d c4fa c471 c588
c080 4533 c59a c514 c531 c4a7 c5c2 c60a
c502 c408 c5bf c61c 452b c5b1 c5b7 c5b1
c4a9 c310 c398 c59f c60f 4599 c3fb c5c1
43a4 c5f5 c50c c661 44e7 c5b3 c599 c531
c5ef 45a0 4487 4525 450d c5c9 455a c555
c4ec 44f3 c49c c462 44be 458f 42f4 c4d9
c5ad 45af c4ec c2c4 c596 c603 c587 c418
c4e8 c589 c5b4 c52b c58c 456a 4549 c423
c433 4556 45b6 c601 c551 c584 c556 c5dc
c60c c47c 4585 c4fa c54f c4f8 c536 455a
c517 c55d 436b c52a c4af 4460 c523 c54a
4542 c4b1 c511 c51a 4608 45c9 c50c c619
4524 c5e9 4521 4489 c308 4320 451f c55e
c5ee c332 c56a 4378 c58f c5d6 c50d 44c5
4498 c406 c5a4 4413 c4b4 c445 c55a c4ec
c490 c4c9 c4c2 4402 c532 c5d7 c541 c53f
c5bc 43e0 c592 c5b5 c4c6 c5cc c4e5 45d4
4553 449e c580 c457 42a0 456c c54c 4535
c59d 456d 454d 4542 4581 c53e 451c c505
c522 c2d6 c52c c47b c517 c46f c5a4 4506
c600 c583 c624 43e4 c4cd c397 c463 c50b
c5a1 c4b1 45aa c486 c45e 44aa 44a1 c57f
44a4 c5ad 43b0 4464 c51a c490 c582 c514
449d 43e2 4532 c4b2 c3d4 c527 c508 44ce
4536 44c3 c624 4574 45cc c45f 456d c52e
c582 c608 4392 c5c0 44f4 c4ed 4540 460c
4426 c45b c550 452f c4c7 44a5 c51e 4500
c513 c4fd c42a 4548 c3c7 4328 c474 4493
44ad c5ae c486 c525 c47d c552 4374 440d
c3bc c508 4522 c507 4599 c584 c52c c54c
c579 45b0 c4c6 c5c7 c4e4 c4f8 c639 c559
44dc c5db c4a0 c501 c384 448e c51d 4559
c3c8 4409 c5a8 c414 455e 4487 c5d5 c611
44c3 c50b c5cc c5b2 454c c4ba c588 c4a2
448e 4376 c4af c581 c590 45a0 c464 c570
455c c58c 43bc c600 c338 c590 c384 c566
c602 4479 4509 4352 44aa c596 4540 c594
c536 43d2 c406 c508 4540 c4da 4472 c3d8
c5a3 c51e c3c8 44fb c589 c5e6 c4d7 c52c
c532 c566 c5b8 c578 c598 456c c3fb c492
c220 4402 4534 c601 c240 c4b4 c540 c5ae
c5d8 4565 4452 4496 c528 c426 c4a5 44e2
446a c557 4468 c513 44e8 44d7 c52c 4388
456d c582 c557 c566 45be 458d c554 c5dd
452e c607 c438 c298 42f8 454f 4583 c2f8
c520 c523 c521 4503 c5b1 c513 4160 4110
44e7 4442 c5d4 c4cc c39c c522 c3b0 4214
c40a c532 44d4 4498 c582 c567 c547 c55e
c560 4490 c522 c578 c4ca c5b2 44ca 45f6
4424 43ea c52e 4382 449c 45a5 c459 4512
c5d3 458c 44f9 455d 459d c575 44cc c3d9
c573 c49d c388 c4cb c4d0 c52a c5b3 4506
c5f9 c542 c61e c488 c51f 44ad c43a c377
c518 c4c2 451c 458f 44ab 4467 c312 c50e
c3fd c5d5 c456 433a c520 451e c54b 4392
452a c43f c305 4417 c426 c414 c4e5 44ae
4523 4513 c5f2 455b 459b c2c8 4517 c4a6
c4f9 c61a 44d0 c588 44b5 c48a 4325 4240
c3d4 c4c1 446d 4570 c501 4512 c544 45ac
c595 c4ea c39e 4567 c4ba 4448 43de c368
451c c5c9 4378 4466 c390 c54c c48e 44d1
4485 c498 455d c545 44c8 c350 c54d c5a3
c514 459e c4a1 c5bf c527 c4c6 c65d c59a
c3ec c516 c4ea c5b0 4506 44c7 c553 c59e
c2c0 4531 c5a4 c4a1 c51d c3b6 c5e6 c61b
444a 430b c57b c5de 451a c518 c5aa c568
c536 452d c487 c5c7 c590 450b c415 c58e
4508 c587 c418 c5ee 4512 c598 c4c5 c58a
c60d 4520 44bf 4520 457e c5d3 4570 c52e
c288 453a c3d6 c54a 4415 4516 43e4 c240
c52c c4d6 c4f4 43d2 c5c4 c589 c476 43fc
c51e c51a c57f c57a c517 45ad 454d c463
c4ba 4472 4514 c5dd c330 c4f1 c489 c5b0
c5d8 452d 452c c48c c456 c4b0 44ce 44be
c3f0 c560 c3cb c544 c3ce 4530 c552 c59a
4542 c517 44b2 c44a 4592 45a2 c51e c62d
44c7 c603 433c 440d c340 4510 44d1 c4d2
c414 c4a2 c502 c42b c5be c4cf c52a 4402
c4ba c446 c5ed c4ba c4fa c48e c536 c524
c420 c550 4528 4587 c5bf c597 44bf c5a6
c579 c4a4 c58b c5a7 c552 c59d c501 460b
4496 4479 c57e 43f5 43f8 45c8 c585 452e
c5d3 4583 44f2 457b 45ba c590 4476 c220
c581 c4a6 c50d c481 44a3 c486 c5ac 44cd
c5f4 c512 c624 c45a c4ce 43b8 4343 c4ac
c555 c4b2 44e8 44ce c401 c306 431a c4cc
42c4 c5a9 c4d1 c344 c56a 43a9 c5ca c46f
c47c 43d8 4464 c1f0 44e0 c3b9 c52e 444c
458c 449b c621 456e 4577 c534 4574 c52c
c55f c620 4338 c52e 4394 42b0 c4fa 44a2
c464 438c c488 4591 c522 4575 c574 458a
c587 c429 c4c8 4505 c41a 4398 c498 44a7
44d5 c5cb c3a8 c368 43cc c412 c518 457f
44c0 c502 454f c4a4 44fb 448a c585 c564
c493 4597 c49a c608 c54a c3ec c669 c5bc
44b6 c528 c3be c574 44dd 43c8 c451 c5a1
c264 4538 c5a5 c464 c3b0 c44b c606 c620
c4c6 c450 c58d c5e9 4562 c4fd c595 c524
c4de 4501 43a0 c5cc c5af 44ea c30c c5c6
4540 c5af c50a c620 451d c584 c33c c584
c60e 4512 4519 4446 459c c5a8 45ab c5a0
c508 44e3 c40a c4d8 4482 452a 4414 c50b
c568 c513 c486 4503 c604 c59f c55a 4294
c4e2 c496 c594 c560 c543 4578 455d 443e
4404 4270 4580 c5de c566 c589 c547 c5e9
c5e3 452e 44c2 c46d c498 c4c8 44bf 451b
4482 c578 456e c518 c406 44ce c518 c580
453e c558 4529 c539 457d 4556 c535 c61c
452f c60f c4a2 4452 c4de 4526 453c c52f
c55d c4fa c514 c398 c5c7 c58e c4f4 44c3
c4a6 43e4 c591 c50b 4416 c4e0 c532 c4e0
c4bd c536 459a 44fe c5cf c5c5 456a c5ae
c5b6 c518 c593 c5a8 c4cd c5ae c160 45e9
450d 448c c51b 43ff 4488 45b4 c50c 4520
c5b0 4514 44ff 4562 45b1 c52e 44be 4436
c583 441a c52e 440c 443a 42e8 c5d4 4528
c5ba c56a c620 44cd c541 c448 c412 c45d
c555 c3ec 4509 4481 444a c49a 44c8 c50b
c50b c593 c38a 43a4 c544 44e2 c573 c553
4484 c32e 44f6 c580 c51b c3d0 c313 451e
4553 44f4 c679 452c 4550 c37c 456c c4f6
c502 c617 4473 c581 448e 43d2 c52e 4546
c35e c416 44a2 4532 c50e 442a c4c2 4506
c599 c38c c4d6 44ad c51d 4589 c498 431a
44e3 c5bd 44b4 c525 c53e 44d2 c140 4506
c3a6 c4f0 4516 c543 4521 c4a9 c512 c5c7
c520 45db 4250 c5c7 c561 c511 c65c c5c1
454a c564 c453 c596 44ed c301 44de 449a
4412 44bc c586 c374 c240 4435 c5f1 c607
43d6 c4b5 c5d4 c5eb 457f c570 c54b c44a
44ae 4487 c398 c5bf c5ef 455d 4488 c5b6
4506 c5a8 c510 c62f 4541 c594 43ae c564
c5ca 451e 452e 44cc 4565 c5c0 458f c54a
c48a 446f 448e c542 c3a8 c2c2 c4be c4ba
c58d 43c4 c4da 43e4 c600 c607 c57d c4d6
c454 c54e c59b c567 c594 454f 4526 c505
c180 44d2 44d6 c5b0 c4aa c46e c358 c5d1
c5e3 4508 4566 c550 c43d c486 446f 44c2
c504 c55c 44d4 c560 c42d 4500 c51d c546
4518 c577 c268 c556 45b2 450f c542 c64a
4518 c5fc c536 43ba c45b 4508 450b c41c
c558 c5aa c4f4 c40c c5a0 c570 c4c4 44a5
4414 4396 c53d c444 c497 c3ee c56d c535
c531 c5a0 4592 4496 c5f9 c5a8 450e c5a0
c535 c4e5 c5a4 c4d9 440e c5e0 c481 45dc
4495 44f1 c51a 4430 4513 45ba c40c 4577
c590 4418 4503 455e 459a c51c 4412 c4bb
c592 c340 c485 c2fc 4488 c480 c556 44cf
c5fa c581 c630 c3f8 c53e c480 c47a 42a4
c59d c3d1 455f 4400 c314 c536 44f0 c584
c530 c59c c334 c3ee c48d 44e4 c5a4 c511
4529 449f 450e c58d c448 c4ca c48e 4447
4572 4512 c66b 453e 4583 c44b 458b c577
c438 c629 4495 c59a 4503 450f c51c 4589
44ba c180 c3f8 454e c442 449d c4d3 45a1
c500 c497 c4ab 44c2 c54b 4522 c4b3 43a0
450e c601 c403 4389 4160 c428 c47d 4519
c53b c49c 4524 c53a 4527 c513 c524 c5b5
c562 45e2 445c c5d6 c575 c42a c671 c57b
4510 c58e 4198 c5a4 44ae c516 449a c449
435f 4452 c560 43ea 4440 4486 c5ee c621
44f9 c456 c5dd c5f2 4548 c56a c535 c3e6
4348 448f c528 c583 c5d2 4593 c460 c582
4523 c5d2 c51e c629 4553 c58b 44f6 c543
c5e5 4554 451f 44fb 4570 c5c1 4565 c530
c51c c39c 4508 c534 42d0 4423 4308 c508
c583 c240 c503 4483 c60c c5ff c534 c4d4
c4cd c3ff c5bd c5a2 c53a 45a3 44c5 c4c8
c513 4574 c489 c5db c51a c546 c442 c590
c60b 451a 4520 c4b6 c4f8 c429 455f 4461
c4c5 c580 45b7 c550 c4be 450e c5a9 c5ba
4500 c53c 443d c58c 459f 4572 c57e c630
450a c600 c588 4140 c298 43e0 4569 c528
c565 c55f c4dc c488 c5c7 c59c c446 4457
4499 44c7 c5de c4f7 c531 c402 c51d c4b6
c532 c4d6 456a 4334 c5ba c5a8 4537 c597
c516 c53b c5c9 c548 44c8 c5c4 43ca 4615
4484 4340 c4ce 44fe 44dc 45d6 c50f 4507
c5d4 454a 4525 451c 45b6 c58e c48d c429
c589 448e c4f2 c296 43a6 c3b6 c562 4556
c5aa c49c c612 c502 c4a6 c515 c490 4394
c507 c446 43f6 45ad c3a4 c4ef 44ce c502
c514 c5c2 c340 c444 c51f 4504 c5aa c5b4
4506 44a2 4511 c4fa c4b3 c3f8 c53f 442c
44cf 44ad c662 452f 456f c481 452d c565
c517 c609 4458 c5ae 4511 4514 c579 4502
c4e0 4490 43a0 4544 c54f 455f c47e 4561
c100 c3b2 c32b 451d c4ba 4490 c406 446a
4522 c5b2 451e c531 43e0 c511 c398 452a
44ec c444 453a c50e 4516 c4b4 c534 c5c0
c568 4596 c2c8 c5a2 c4eb c43a c65b c585
450e c510 c328 c59c c21c 4160 44f8 c591
c37f 44e4 c553 c4d2 c478 4436 c5f7 c626
4468 c45d c5a0 c5c4 456d c54b c54a c519
4300 44c6 c314 c5ca c5d5 4427 c44f c59d
4566 c582 c515 c60c 44a2 c576 c41c c596
c5f4 458f 44f3 4520 4585 c578 45a2 c55c
c558 4484 44bd c542 443a 454f 4400 c51b
c56c c4e9 c522 4521 c602 c5d8 c4e6 c418
c525 4258 c5cc c58c c50e 4552 4517 c462
441e 4435 c2a2 c589 c536 c534 c576 c5a7
c619 4500 42b4 c427 c3a2 c426 45aa 4472
444c c54f 45d7 c534 436e 44c3 c559 c5e2
451c c58c 455b c5e6 4569 453d c554 c60f
452e c5f0 c50e 44b3 450b 4506 452f c523
c599 c4e6 c502 c4fe c5bc c5a2 c4ac c2f4
c423 4488 c5ab c482 439a c4d8 c4dc c3e0
c4c8 c45a 45af 4476 c5ac c598 4502 c57d
c4d0 4564 c5b0 c5dc 444a c5cf c4af 4612
4492 44b6 c48c 44d0 c3a4 45be c40b 44ca
c5c6 447f 4520 451f 4580 c55b 44e1 c49d
c549 c330 c3d7 c460 c47c c538 c5b3 4528
c5f3 c53a c656 c4ce c55b c484 c4a9 c3b8
c5aa c3fd 451f 453f 43b6 c52c 44d5 c576
c457 c5bd c4a9 c298 c52d 44d2 c574 c54e
43d0 4518 43ba c563 4457 c3c2 c4f3 44ba
4592 c210 c624 4557 4584 c49b 4586 c4ce
c522 c5e4 c4b6 c5d6 44d4 4433 c512 458e
c4a5 4384 c4ad 453a c536 440c c542 4555
c583 c4e0 c465 44b8 c4e0 4441 c41a 4440
44a5 c5d2 c52a c536 c080 c55d c2c4 4557
c434 c525 4521 442a 4564 c45b c574 c5ad
c5b9 45b6 c408 c5c2 c56f c51e c655 c599
452b c532 c46a c564 440d c390 43ca 443d
c491 c44c c5d0 443a 44a8 451a c5f4 c61d
4491 c3d0 c5a6 c5d4 4552 c58a c531 c4c0
c2c0 443e c381 c5ab c5d5 4530 c210 c5af
4583 c5cb c488 c614 4531 c588 4498 c592
c5e3 453e 44fb 441d 4599 c5be 4530 c500
c551 c438 44a3 c55c 44e2 c48c c258 c51a
c53e c4ed c464 4578 c5e5 c5cb c52e c504
c4c0 c53c c5d6 c576 c580 4538 4521 c3b2
44bc 4508 44c5 c598 c4e7 c546 c562 c59b
c600 4548 4515 c4d1 c482 4488 43df 4441
446d c551 44e4 c590 4404 44a8 c56a c592
4554 c57a 44e6 c57a 45d4 452e c3ec c62c
44e1 c5dc 43b5 c1c0 c481 455d 452a 4280
c533 c549 c515 c4d6 c5c4 c52d c470 c2b4
c485 445f c5a6 c480 c47c c1f0 c526 c4c8
c487 c4bc 453b c468 c5a2 c5bf 4535 c56c
c59c c49f c564 c580 c491 c5d6 442c 45e9
4388 44c8 c4fa 4382 c420 45bb c320 451d
c5b6 454c 4587 44da 458c c552 44d0 c367
c527 c4a6 c4a5 c4f7 c517 c4de c59f 450d
c605 c54e c638 c4f0 c4f4 43f4 c532 c316
c57b c40b 4589 4504 c504 c562 443f c524
44d5 c5dd 4258 44bf c567 c43c c595 c596
4500 44c3 c308 c4be 4533 c354 c4ff 4512
4572 4566 c623 4571 458c c38a 45ec c4e2
c56b c604 4526 c5b6 4508 c484 c4b2 c368
c4cc 440c c540 4576 c4b9 449e c41c 4588
c554 c574 c52b 45a6 c4ac 4490 c4c2 c35c
44d0 c5b9 c360 c462 450b c52f 458e 44e6
44f1 c505 4509 c532 44ee c4ee c545 c55e
c52d 459f c3a2 c5fc c588 c2a8 c65a c59e
4522 c594 c38e c563 4493 44ea 4420 c3d3
c43d 44b4 c5ae 43c8 44c8 44d8 c5c0 c621
42c8 4481 c5a1 c5c9 454f c4cc c593 c42a
c51c 44ec c44e c5a8 c5a0 44e0 43d8 c56e
4579 c5c0 c3f1 c5ed 440a c589 4454 c56a
c614 44f4 453e 44b8 45a9 c598 456f c59b
c515 42b2 44f4 c426 452a 4488 0000 c482
c584 c4ba c4a0 454a c5ca c5ce c3b8 4424
c526 c4a9 c5d3 c592 c55b 4578 c384 c43f
4413 44fd 456a c5d8 c4c5 c530 c510 c5a1
c5dd 44be 44fe c35c c536 440a 44e4 447d
4504 c564 457d c562 438e 4538 c58f c55e
454c c53d 4558 c557 457f 459e c53f c615
44d6 c5e7 c48b 431c c44d 44e1 4532 443e
c49b c400 c3f3 44f8 c5cc c55e c3a6 4399
c51e c42a c5b4 c533 c488 c476 c4f3 c490
c4fa c55a 449f 442c c53c c591 4491 c499
c5af 4449 c54c c5b0 c4ae c5dd 4457 45ea
440a 445b c58f c510 c1c0 45a6 c46b 4563
c5aa 449a 4538 4508 45c1 c524 44d0 43ca
c582 c4b7 c462 c534 c505 c466 c5d4 c338
c5ce c5a6 c62b c46d c564 4499 44a1 c495
c4fe c210 4582 44b5 c3cb c210 4298 c52c
c250 c5b0 441c 4208 c586 44cc c59a c4aa
4546 4472 4582 43aa 44a5 c49e c542 44e8
4560 44de c5d3 44e2 45a9 43f8 4593 c49f
c580 c628 4451 c518 44ba c4a8 c4e2 4481
c2d0 4519 4405 456c 445a 44f0 c51d 45ab
c62c c530 c48e 4545 c4b5 450a c48c c458
44a0 c5f0 4515 c45c c53e c3c2 c380 458e
c3fe c481 451c c59e 44b3 4513 c48a c58f
c500 45a7 4418 c5e5 c5b1 c493 c67b c5ac
4529 c5bd c4cd c57c 4557 c3d2 c130 c49a
c4ab 4494 c5cb c518 c3ac c280 c603 c608
c4f8 44a9 c595 c60b 4551 c546 c59b c4ab
c49d 450e c48a c5ba c587 453a c43d c5c2
c2e8 c5da c512 c5ed 451a c5c4 43ec c531
c60f 4495 4522 44b3 458c c5da 456e c57e
4460 44c5 43f4 c38a c3b4 44d0 4268 c4da
c586 441c c493 41a8 c5ee c5f0 c4a2 c2e8
c50e 44b1 c570 c58c c57e 4524 4568 c50e
c570 4513 4552 c5c6 c4ea c540 4378 c5b8
c5c8 4588 44e2 c508 c55a c4b7 c441 4250
c584 c53a 4537 c4ba 449e 4529 c565 c4f6
43b5 c4a8 452e c5a2 45a6 45ad c514 c618
4100 c5c8 c50e c434 c45a 4552 44b4 c493
c53b c470 c4b4 c3f8 c5aa 42f8 c4e9 44d5
c532 4503 c514 c4b2 c448 42e8 c56e c546
c51e c55b 453a 44ce c5c6 c597 44cc c530
c5b6 c54c c5a2 c538 c4c3 c52a c482 45af
440f c321 c524 43f0 c330 45a2 c4f1 4490
c5c5 4565 452c 4592 45b7 c576 44e4 c503
c533 c40c c57a 4338 c4f5 4490 c5a3 4507
c5b0 c55a c637 c432 c551 c502 4426 c40c
c597 c419 4525 44e0 c260 c488 44e2 c52e
c4e5 c5c1 4443 c4c6 c595 44ed c5a7 43d4
4428 43a6 44b2 c50d 448e c3ae c52b 452e
4514 4402 c617 44c1 4593 435c 454e c532
c58d c606 458c c576 4519 44e6 c40d 4552
4570 4460 c487 4546 c592 4594 c46d 4512
c5d0 c4e3 c508 4544 c42a 44b2 c50d c4b3
44e9 c605 c40c c529 c466 44b6 442c 4566
c45e c534 4514 c4e6 451f c522 c581 c550
c52f 45a4 c4a5 c5b4 c56a c4d0 c652 c5bf
4596 c53a c446 c585 44ec c390 43b8 c487
4459 4521 c5c4 4528 c360 c494 c593 c619
c378 43b0 c527 c603 4528 c53e c571 c529
4450 4482 c43c c5c5 c5a7 44fa c466 c570
44b2 c574 c515 c616 c3c8 c598 4220 c59a
c5e6 4428 44e0 443b 45a3 c4ed 4574 c508
c552 c356 c484 c53c 44c9 4592 c439 c47c
c56a c4de 4270 4402 c594 c5fa c485 c469
c3e6 c3b2 c5d0 c55a c582 4569 451d c538
441f 4528 4508 c566 c4cc c554 c530 c5b2
c5ec 448d 4505 c4c3 c4ce c43f c358 44f5
4348 c58b 449d c463 42be 4416 c522 c560
45c8 c591 4525 c5b7 4592 45af c539 c5ef
44ae c5b2 c49d c451 4260 4567 4503 c56e
c592 c4b2 c49b c51d c58d c536 c396 44ea
c4bf 4566 c5a6 c467 446a c44d c4cb c2cc
c545 c518 4531 4568 c5ba c5a8 44c5 c587
c5b8 4540 c592 c589 c324 c58e 4483 45d6
450a c38d c3c5 441c 4434 4585 c50b 450d
c5d8 4527 453c 454c 4588 c598 456c 439a
c520 44c5 c4d4 c448 c528 4492 c59f 4571
c5af c51c c5e5 c4fb c50f c536 c42c c4a6
c51a c47a 453a 456d 44b9 c519 44d3 c490
c505 c5d7 450e 4498 c55a 44ad c58d c52a
4530 44e3 4498 c508 c499 434c c526 4505
4532 4490 c61b 4561 45c0 43aa 44aa c588
c458 c615 4544 c51e 446d 4466 c3f6 4518
43b7 c4e0 4483 453e c470 4508 c39a 4535
c551 c4d7 c43f 4539 c502 44d5 c485 c3dc
4576 c5a8 4330 c497 43a6 c514 4574 4537
431d c40e 4589 c3f8 4529 c4e5 c55f c593
c4eb 4592 4309 c582 c541 c49a c624 c50a
44d6 440f c4b5 c54b 44bd 450b c50a 4355
43f6 4532 c579 c47a c4b4 c3f0 c5a0 c61a
44d7 450c c526 c5e0 4506 c4ea c58b c52d
c43a 44b1 c478 c5a5 c586 4556 43eb c52c
4398 c51b 432b c607 4513 c59f c4ea c5ab
c5ec 4587 44e1 4492 4570 c592 4586 c467
c53e 445d 43ad c50b 4589 451e 43dc 42f0
c51b c4b7 c4f2 4448 c584 c59a c4cc c4c0
c4ee c47a c5a7 c554 c518 4574 4548 c4cc
449c 4510 4520 c55a c414 c587 c4d8 c57a
c5b4 44d8 44f2 c4bb c4ac c484 c335 4518
4505 c53f 447b c558 c3f0 4520 c4d0 c4a1
4501 c521 4540 c4dc 4578 453f c268 c60f
44c7 c5cf c2f4 c41d 44d4 4507 4505 441e
c4e8 c505 c306 441b c5e8 c504 c511 c3d2
c228 44c4 c51f 4378 c499 c485 c476 c495
c500 c572 4554 45b6 c58d c592 451a c54e
c587 44c5 c5a9 c4c2 c310 c58e c4a8 4600
4460 c42a c57d c4fa 43c0 4596 c4d9 45c0
c594 4589 4582 4594 458f c4bb 4519 44fe
42d0 c507 449f 4428 c538 c3e4 c5f8 44ff
c5c4 c5e0 c64d 447e c4dd 446a c49c c48d
c560 4422 4555 44b2 44a0 c41c 44f6 4454
43fc c5e4 445c 44d3 c4bc c4c2 c5c2 c3be
c51c c1f0 45b1 4405 4527 c499 c51e 453d
4582 c39c c617 45a2 4557 c535 44d9 c50b
c591 c64b 4424 c4be 450e 4516 c4dc 43ff
455e 4470 4536 4584 4382 43a0 c516 455e
c620 c482 c541 446c c51e 455a 4383 4224
450d c5b7 c43a c4d8 449b c530 44ec 456f
4514 c3b4 454a c565 459d 4505 c529 c52d
c4e6 45b5 44c1 c607 c588 c508 c65b c605
4584 c613 c46e 446e 4561 4504 c513 c555
432d 4413 c5d3 44b4 c4a4 c4b6 c592 c611
4422 458d c58a c5f6 4544 c538 c5a6 c567
c4f6 4497 4318 c5b6 c5b2 458f 459a c58e
c430 c5d1 c48c c5f9 c484 c590 c509 c587
c556 44af 4515 4416 458c c5c0 4587 c534
c427 443b 4438 4338 4488 4531 4507 c4c2
c4c9 4510 c498 4466 c5e5 c600 c528 44f9
c523 c501 c5b7 c541 c59c 4592 44b4 c416
c490 4578 4563 c5af c52e 43c4 c54d c5d5
c61e 455b 4584 c4e1 c511 c534 4370 4583
c398 c594 455a c51d 4508 4566 c528 c334
4512 c59e c1b8 c57e 4570 45c4 c4df c62b
44a6 c5ea 4367 c448 c49e 45c1 4566 4489
c49f c59e c4ea 441e c62c c378 c3f0 44de
c51b 4415 c57a 4424 448d c315 c58c c582
c4de c489 45ae 4510 c5e9 c52f 4581 c568
c5a6 c571 c54d c455 c507 c5b4 4493 4598
4486 44c8 c4ea 43b4 43d8 45c0 c35c 44fa
c596 45a7 456a 4534 45c9 4496 45af 4547
c416 c508 42a0 c3e2 c48a c1a0 c58d 4504
c5b8 c517 c629 441d c493 43a4 4531 c410
c512 c41b 44b8 4529 44b4 c410 44a6 43fe
4410 c5a7 c3ce 4384 c4ac 4519 c568 4585
4529 44a1 448a c512 c360 44bd 447c 4434
457e 447c c5e8 457f 4551 4560 4540 c4f3
c405 c64d 448f c57f 44b4 c4fc 44e4 4497
c32f 444a 44a6 4592 c36c 4522 4100 45f8
c60e 449f 4537 450e 44a5 455a c4c8 c482
44fb c5b0 4438 455d c41a c3bf 445a 45f8
c3e2 c290 4590 c576 45bd 44e0 c55f c53f
c432 45de 441d c594 c260 c286 c622 c5ae
451a c5c2 c38f c390 450a 452c c53f c500
44aa 457d c591 c506 c398 4492 c54e c605
44c0 4543 c47a c5a6 4566 c398 c5f4 c520
43b4 457e 4464 c595 c594 455e 44e4 c486
44aa c509 c4d1 c601 43c1 c4f0 c481 c599
c5b9 452a 44e0 4554 4570 c59f 453e c5b9
4407 451d 44a2 c4c4 459b 4524 442a c425
43f3 c596 c4ca 453d c557 c5b2 4406 454e
c482 452e c536 c54f c587 458d 4594 4380
c48f 4504 4536 c5b9 4400 4589 c4d8 c5ec
c602 45e6 452b 4382 4220 c474 c495 4484
c4a2 c54b c4d4 c502 4565 4586 c57c c528
4508 c50c c4ea c5ac 4588 4582 44c0 c5dc
4433 c605 43ad 4422 4480 4546 44e4 c594
c414 4431 c4bc c539 c60f 4521 c4ca 441f
4464 450e c604 c51c c515 4433 c524 c51e
c55a c422 4575 45de c603 c580 442c c58b
c5a8 c4c6 c58b c555 c4d0 c57e c4c6 45ee
4500 c296 c507 436e 43c4 4577 c52d 450c
c5d7 43aa 4507 4500 4580 c570 453e c538
c527 44e9 c52b c4b4 c3ea 4489 c58a 44a1
c5f1 c53f c61a c4fc c55a c54a 43f5 438c
c58d c435 44c4 c100 c2e0 c3d0 44f6 c4e7
c52f c591 4482 c519 c5ac 44eb c592 c527
4536 44e8 4501 4300 4520 44ad c511 44a8
4559 44c2 c614 4571 4585 c4aa 4549 c5a1
c52e c621 43b4 c596 44a2 447b 4476 4499
4419 44b2 c4b7 4576 c502 45c5 44f1 4511
c5b5 c3ec c344 454f c4e5 44da c48c c270
449c c5c8 4506 c513 c3c6 44bf 440c 4555
c4ba c404 4531 c54c 4484 c520 c552 c591
c51c 45ca 439a c5b5 c57c c4ee c640 c596
4502 c4f7 4358 c574 44a6 c3de c4d3 c4a8
c3f4 41e0 c549 4240 c4a8 4374 c5e6 c618
c4c0 c4bc c590 c5f8 4538 c538 c58a c550
4464 442f c468 c5b8 c5ce 450c 43b2 c55d
44c2 c5c1 c4b4 c613 c388 c5af c49a c566
c603 4563 44bc 4544 4509 c567 458a c49e
c519 4433 c346 c508 452d 448c c4a7 c544
c574 447c c4ba 454b c584 c5a9 c530 c4ab
c54a 4464 c5c6 c58e c52e 45a3 453d c386
c402 458b 4534 c5ad c420 c57a c50e c59b
c5fa 44fa 44a5 c494 c500 c48d 452a 4537
c3ca c58f 4438 c517 447d 44ca c509 c52c
4523 c553 c406 c59c 456f 4581 c42a c5d3
4527 c5ee c460 c42a c3a8 44c7 4531 c4f5
c57b c412 c563 c527 c5b2 c594 4250 c41f
436c 4518 c56b c410 c4a6 c46a c4f0 c49a
c53e c466 456e 439e c581 c58e c4bc c59b
c5b4 44b1 c532 c5b8 442b c5a8 445f 45f4
4429 441e c508 445d 4497 45f2 c358 4596
c5b6 45a1 4518 4570 45c0 c512 443a c480
4338 c419 4200 4330 c4d9 c44f c59f 4529
c5e7 c506 c626 c488 c4d3 c4ca c2d8 c4a3
c52a c50f 459a 4549 4332 c3fd 4462 c4e8
c490 c5c1 444d 43b6 c4ae 4498 c5be c43e
4533 44a5 44d1 4338 c462 c4d4 c4a9 44bc
448b 4413 c65e 4587 4599 43f0 452f c524
c52c c61f 45a5 4492 4513 44ed c1c0 44cf
4200 44cc 43e1 454d c402 451d c408 459a
c48d c582 c4cb 4588 c416 4526 c4e1 c320
4582 c59b c54d c44a 4541 c519 c404 4540
444c c4c0 44f4 c4b5 4553 c50b c550 c553
42b0 45cc c4a0 c5fd c548 44a6 c658 c593
4517 c5f3 43e2 c52a 451b 4394 c4c8 c446
44dd 4560 c567 c57b c55e c4fc c5c8 c605
456a c330 c5b9 c5ff 44f0 c517 c5b7 c5a5
c558 445f c443 c58e c5cc 4501 4326 c555
4546 c55c c50a c5fd 4354 c582 c555 c58c
c5e0 44d2 44fa 44ae 45c7 c540 4572 c588
c56c 4551 c32e c3ba 44be 45b5 4460 43d8
c508 c454 c526 448e c5d8 c5d6 c54a 43a8
c4d0 c505 c58e c570 c567 459a 43f8 4448
4536 43aa 4509 c5c7 c526 c545 c589 c5d0
c5fc 453e 440c c4ec c588 c508 4524 4565
4504 c588 456a c4d2 449e 4562 c562 c540
44da c5b5 c358 c53a 4559 44ea c56a c626
451c c5b3 c43d 4515 4465 4556 452b c3f2
c519 c51d c426 4493 c5e3 c571 c586 43dd
c3da 44e1 c5f6 c43c c490 c508 c508 c505
c4bd c48d 45c0 45ad c5a8 c54c 4560 c59d
c543 44f2 c50a c5c0 c47c c5f6 c4b0 461e
4551 4450 c4ee 43d5 43b2 45a0 c517 4496
c5fa 4516 44d7 457a 4592 c5b1 44fc c4ae
c528 c526 c518 c516 c50c c469 c5ce 448e
c626 c511 c618 4324 c566 c47b c480 c454
c516 c4e0 4506 4510 44bc c541 c3f5 c471
439a c5cb 43e0 443a c55d c540 c56d c55b
43ea 44d4 4384 c4cf c42a 4270 c587 c3f4
4554 44d1 c655 457e 456c c4f1 44c4 c4f0
c564 c600 454e c5bc 4450 c452 c4c9 4510
c491 4408 4474 4552 c49c 451f c4fd 4510
c532 c4b2 43a2 4524 c44d 4522 4400 447d
4490 c5e3 448d c521 c49c c526 c4c2 4502
442a c4b9 44be c48c 4190 c41d c580 c5a6
c4ff 45c2 435f c5aa c57f c510 c64f c598
4465 c558 c483 c590 44c4 44c0 c2e4 c4e5
4292 451c c5a6 c49e 44b0 c438 c5c7 c60f
c440 c3b4 c5b3 c5b5 4539 c50c c585 c549
c4e5 451e c2c0 c5d3 c5f2 450f c2a0 c5b8
4541 c589 c47e c61a 45b3 c5cd c425 c56a
c5f1 455f 4504 443b 4584 c5b1 4585 c53d
c488 4506 4414 c4ae 43d8 4462 c46c c4a6
c568 453b c499 452b c5d6 c5be c578 c50f
c49c c54a c590 c54c c551 4594 4504 c496
c50d 444d 451c c5a5 c544 c4e7 c51f c5b4
c5e8 4479 452e c4fc c48d c488 44b8 451a
c451 c573 44a0 c5a4 c418 44cd c5b4 c580
4528 c506 4510 c531 45b8 4565 c4f5 c644
4502 c5ff c4b4 4510 c4ca 4540 4501 4300
c4ae c543 c564 c414 c5e8 c554 c511 4492
c482 c230 c542 c2d0 c4de c4f9 c504 c518
c503 c596 4500 44ba c59c c55c 456d c562
c568 c539 c5b0 c58f c410 c5cc 443d 4610
44f9 445e c55e 42f8 c384 45c8 c3a1 44bc
c5ac 4508 4508 454a 45a8 c53a 44d6 c344
c452 c49e c3fa 43fa c337 430e c5bf c330
c5f9 c554 c63e 4406 c522 429e c434 c41a
c59b c4c2 4521 4526 44aa c3c6 c348 c4a5
41e0 c5a6 c3f8 c465 c56d 4482 c5b9 444b
4404 4508 4518 c4fb c493 c3fe 4430 4508
4544 44da c62e 459e 456e c2e8 4519 c504
c586 c61f 44cd c575 44fb c3c7 c471 45c4
4260 c517 c347 454e c4de 4474 c553 45c2
c5b6 c4a0 c536 4533 c52b c484 c4b6 c41e
433e c5ee 43d8 4372 4474 c581 c48d 459f
43f0 c4aa 44f1 c530 4576 c51c c58c c59b
c558 45b9 c47f c5da c55c c4cf c65e c583
4563 c603 c429 c518 4512 43d6 c495 c4a2
c4b2 4535 c5d8 c4fe c439 c4f8 c5da c60c
44ec c4a4 c5c1 c60e 4596 c569 c5c0 c500
c440 444c 43be c5df c5c2 4530 4448 c5bd
44f6 c59c c526 c62f c35b c59e c36e c56e
c5d3 450d 450e c2b0 455e c5ed 458b c5a3
c462 4480 4394 c4c4 43e6 4422 c498 c43c
c538 c53d c4eb 44c8 c605 c5bf c524 43a4
c502 c4f4 c5d5 c55e c58c 4585 450b c472
c495 440e 4541 c5b4 c4bd c542 c52f c5d6
c5dc 44e2 44d4 c4f8 c4c0 c492 4498 44e5
c4cb c57e 453a c552 bf80 44ea c4d2 c553
4532 c572 43b0 c559 459e 4540 c4df c631
44f6 c600 c51b c467 4404 4577 4550 c4e4
c56c c522 c57e 4504 c5d4 c4fe c4d0 44a6
c46c c428 c5d2 c4de c498 c426 c51d c504
c549 c549 458f 44b6 c5ee c5a3 c200 c59b
c582 c4a2 c5a0 c56a c514 c5da 4406 45f3
4498 c3a6 c547 4348 44a2 45ca c410 4558
c606 441a 451e 457d 45a5 c59d c424 c48c
c50c 4280 c4c6 445b c55a c472 c5d6 44dc
c606 c54b c632 c3dc c52c c44b 428c c4fb
c592 c409 4596 44bb 44b2 c48c 4230 c4c2
4426 c590 c3a5 c451 c54f 4496 c5aa c594
c398 44ec 4581 c52c c4d3 c4d0 c573 4472
4548 44c8 c659 45bb 45b1 c533 450b c522
c524 c5f2 442e c51c 4522 4421 c500 4522
42f0 44cc c41a 4556 c4b4 4556 c57f 452a
c56a c550 c54f 4584 c506 c4e4 44b3 4220
448b c5bd c519 c507 c516 c509 4397 450f
4442 c4d2 44de c3a4 4308 c50d c55d c5b4
c504 4568 c3d3 c5b6 c554 c56c c670 c595
458d c5b4 c522 c51b 4463 c4ce c3dc c4cc
c503 44d2 c5cb c358 4438 c515 c60b c623
c4c9 c489 c5c9 c5fc 4560 c52c c502 c53d
c3e0 450a 43f8 c547 c58c 455f c406 c5e2
456b c5e6 c456 c624 4556 c5cb c44c c54e
c5d4 4544 44e8 4488 4590 c59c 4589 c568
c524 428a c48f c488 c36c 4520 4427 c512
c5ad c40e c416 4513 c604 c5f9 c53a c4e0
c4bb c54c c5e3 c59a c57d 4561 c370 c4da
c4b2 4439 44cd c5ea c4db c5c3 c5a6 c5ba
c5f6 4490 4440 c404 c561 c42f 446e 4553
43a8 c55c 45c6 c51b 44da 44f6 c446 4334
458f c55d 44fd c575 45c7 45a2 c552 c63b
457c c5bb c510 43d3 4407 452a 4536 c47c
c56e c51c c506 43da c5a7 c59c c399 4505
438e 4418 c512 c4ae c4ba c492 c47d c3be
4496 4437 44c8 438a c591 c5a3 c43e c53b
c530 c524 c595 c4ea c4e8 c5fb 44c6 45f8
43e4 447f c54a c498 4579 4536 c53e 4555
c59e 4558 4540 4573 45aa c376 c258 446f
c56f c48e c58e 4421 4214 448b c5ab 4470
c5a0 c566 c615 c4d6 c4bc 450f 453c c3de
c547 c39a 4588 4540 44ec 42bc 4489 4478
44dc c587 c2d0 44f4 c4ac c428 c4cb c3be
44ac c483 44fe c52c c570 c49a c537 452b
4298 4528 c63d 451d 45f4 c4ad 4306 c3ca
c51c c5d5 44de c5d8 4519 c39d c4eb 454e
4505 455b 4494 4500 c429 4512 c4e0 4577
c5f6 c50e c494 455c c4ce 4459 452e 4270
452f c59e c43e c39b 441a c180 4439 4514
c4ac c468 457c c55d 4498 4533 c526 c59c
c557 45b3 4286 c591 c538 c4ce c638 c533
4502 c534 c56b c580 43e8 c180 c4d7 c36e
4516 450d c584 c412 4428 c350 c5ce c61d
c4fb c526 c5b3 c5b5 44de c517 c543 c50c
c318 4573 c501 c506 c572 4501 c49d c594
44dc c5a9 c50a c5f4 44c2 c534 43a2 c590
c5be 44e8 450f 447d 4585 c524 4590 c41d
c4fd 44d4 4481 c58a 44a3 4520 4520 c4b3
c5a9 446a c479 4444 c5f7 c60a c260 c504
c4fc c4ad c5bb c577 c58c 45b7 4563 c43c
c517 4478 c2e2 c548 c545 c56e c4d2 c552
c5de 458c 45a4 c4f2 c506 c4a6 c422 44ec
c49e c48b 4584 c46e 4499 44d5 c516 c54f
4591 c568 43aa c58c 45ca 45b3 c52a c622
44b9 c5f5 c4fc 430c 42fc 4502 452b c42a
c48d c49a c3f4 c3a2 c5b8 c53e c3ea 440c
4407 4450 c598 c4ca c190 c422 c4dc c4a6
44cf c3b6 4538 42a0 c5a1 c567 4498 c58e
c45a 43b2 c59d c1e0 c4d2 c560 4483 4606
446c 450a c570 c490 44fa 45bb c2be 4545
c54c 459b 4512 453b 459a c52f c3df c3fb
c518 c54a c401 c420 c40f c48e c5a9 449d
c5c9 c582 c656 441c c526 4408 435d 4422
c58c c324 452f 457d 4429 c50e 4497 c4a0
41a8 c5a2 c3f2 c55e c549 c459 c598 c3d0
c422 442a 4572 c491 436c c4ef c41c 4396
4558 44f8 c640 4553 459f c522 44e9 c548
c53c c618 44e8 c597 44f5 c43c c536 455a
437d 4541 c254 4589 c53e 4584 c59c 459c
c52a c4b7 c517 453f c528 4531 c38e 44dd
44fd c5cc c398 4430 44a0 c55a c4d0 458c
4408 c4b3 454a c560 458c c4dd c547 c570
c584 459e c446 c5e6 c553 c520 c662 c5aa
44fd c5ba c4a3 c547 4524 c4a0 c437 c494
c44a 44e4 c5a5 c2e2 43d2 c43a c5c8 c622
44ec c3b2 c5c5 c5fa 4598 c565 c59f c433
c4b8 44c1 c407 c588 c5a3 4509 446b c5e3
44be c5ce c55d c64d 44dd c527 43a6 c56e
c5f0 452f 44ea c414 4586 c597 45af c533
c56e 445c 41f8 c4cc c452 c49b 4481 c42e
c54d c53c c48e 44d4 c610 c5d9 c528 c48d
c543 c3a5 c5eb c5c0 c596 4541 4540 c464
450d 44b0 4558 c5d2 c55d 448f c512 c598
c611 458a 44a6 c51a c4b9 c439 4415 43dc
c4c8 c57d 45b2 c548 c452 4532 c591 c58e
4546 c583 4558 c5a9 4595 452a c505 c623
44b2 c604 c504 c410 c2f0 4565 4514 c539
c505 c50e c51b c386 c5ee c4b6 c3d2 42a6
c3e7 4488 c604 c4de 4332 c510 c56e c515
c403 c3be 4588 435d c5dd c5b1 4567 c58a
c58c 4424 c5b3 c5a0 c4b6 c5d1 44dd 45f3
44d1 451c c545 433a 4476 4589 c460 456f
c5ce 4526 4520 453f 45b9 c4b8 448a c3e1
c55a 44c5 c4cb c378 c43a c4dc c5a2 4561
c585 c501 c5ff c4c8 c546 c485 c416 c422
c55a 431e 452a 4476 43ce c508 44c9 c4f3
c45c c58d 4354 44dc c56c 44f9 c594 c5a5
4508 444a 4504 c50f c530 4280 c474 44e4
453e 4342 c652 4528 4586 43bd 4567 c40a
c41c c620 4518 c52c 44ab 4449 c477 44ef
44ea c298 c2b0 455c c497 4503 c491 4546
c587 c474 c49a 4568 c502 4565 c480 c4d2
4524 c586 44dd c512 c54a c3a6 4463 453e
c44d c4c4 4527 c553 4517 c480 c4c6 c5ab
c541 45c1 c4d7 c5c2 c57c c500 c642 c5a1
44c5 c58d c482 c579 43e3 c416 44e6 c560
c438 4559 c581 c49a c500 43fc c5dd c616
43e8 c4e2 c5cf c5c1 453a c52d c50e c4b8
44f3 c43a c4ac c5d6 c5d4 454f 44bc c584
4507 c5c3 42ec c5ea 45a7 c573 43aa c54f
c5ea 452b 44cf 4495 455d c58b 4564 c522
c51d 449e 44d1 c4c8 4450 44b3 43db c50d
c4da 4404 c410 4526 c5f1 c600 c4b0 c533
c510 c4a6 c5c2 c576 c538 45b2 44ba c421
4445 4516 4500 c5d4 c544 c49a c348 c5b3
c5ca 4527 452d c460 c512 c320 44b4 44e1
c488 c523 452b c4fd 444c 4506 c55d c504
452f c51e c41d c548 45b4 458a c501 c60d
44a6 c5df 43f0 c36c 43cc 4515 451f 4425
c50f c50a c50d c31a c5b3 c4e4 41c0 c380
4404 4380 c4b0 c400 c544 448c c546 c3c0
42d8 c507 44ea c4f5 c5ab c5b0 451a c532
c531 c526 c56a c4d0 c286 c5a8 4468 45d3
c2f8 4286 c3f8 c382 44c6 4562 c4ac 45ac
c55d 453f 4580 4514 45ac c351 44df c462
c582 451a c441 c498 c4e0 4318 c58b 4576
c546 c545 c5d3 c51e c4c0 c4c0 443e c3d0
c50d c3bf 4573 44e9 c485 c24c 453a c577
c3c8 c55e 4457 4434 c528 455e c57f c54d
4544 4476 4550 44b2 c528 4286 c47b 454d
4446 43b0 c611 44e7 45c7 c46a 4593 c546
c3a2 c601 456f c548 451a 4532 44e3 4409
450e 451f c49e 452f 4260 4561 c430 45a2
c5c0 c530 c4aa 454c c482 457e c3f2 c424
45c2 c596 c4d2 c322 c370 44ab 44e0 4567
c414 c4f5 4580 c555 4473 4464 c428 c570
c550 45e9 c39c c5ad c5a8 41c0 c64e c541
4530 c548 c4ba c591 4544 43a7 c512 c4f9
44b5 447e c524 c408 c526 43e7 c5f5 c611
454c c49a c5c0 c5a8 44f2 c501 c53e c511
44a8 450c c56e c554 c568 450f 445c c519
4491 c5a8 c4bc c591 c500 c517 c4e9 c578
c601 4552 44d2 44d5 4571 c59d 4558 c2e8
c59c 4484 446b c4fe 44d0 4548 4534 c4ac
c554 449c c50e 4360 c597 c61d 430a 4190
c52b 432b c5c5 c553 c546 45cf 4570 c4be
4508 453c 44fd c5c1 c462 4464 c4e0 c5b8
c5d2 4541 43bd c444 c56d c49c 450b 446f
c3b6 c4ba 44e2 c449 4480 4506 c47d c54b
453d c503 c47e c594 4590 454c c522 c601
4366 c5a0 c479 c456 4512 4534 4592 c52c
c53a 4200 c513 c4f8 c5b4 c2d8 c515 444d
4258 4528 c52f c420 c1c0 c4a6 c578 c492
c1a0 c290 4586 4517 c59b c541 44fd c556
c558 4472 c540 c51e 4492 c52b c503 45e4
4497 446a c509 4452 442c 459e c4a5 456d
c5d2 450a 4568 452b 4599 c542 4545 4328
c552 c390 c508 c2fa 4394 c4ba c5b9 457c
c59e c52f c622 42b0 c536 c540 c3a4 c52a
c520 43dc 454c 451c 4445 c360 4406 c486
c525 c5d6 4551 c420 c586 4517 c55b 4368
4540 4526 44e1 c524 4100 c441 c4d1 44f4
4510 c310 c5e3 4535 45c4 c443 4485 c5a6
43e4 c615 44ec c56c 4518 44e3 c316 458a
c4e3 c3b4 441b 4543 c4b3 448e c4a6 45ba
c5ba c4bc 43aa 4510 c4f4 4340 c3c2 43c4
4522 c5a9 c4c4 4240 c431 c4cf c422 4550
c457 c4f8 456d c576 4595 c4e4 c575 c5a3
c4f1 45c1 43c2 c5ba c59f c407 c63f c547
44c2 c570 c4f9 c556 450a 448c c4c5 c358
4491 44c2 c57e c502 c452 4220 c5b9 c61d
44dc 446b c5a5 c601 451e c562 c557 c518
c526 450d c4ac c593 c5b2 455c 451c c553
4489 c598 c43d c60a 452d c558 c458 c58d
c5f8 4544 441c 44be 458b c5de 457b c58d
c404 44ae 444e c514 44dc 4556 4505 c50c
c521 4320 c4e6 4432 c5c8 c5e8 c4f8 c4e2
c546 c4c6 c59a c54e c574 45b1 4523 c460
c502 4575 44e3 c5a0 c519 c4a7 c4c3 c5d6
c606 4574 4556 c49e c4c0 c4d2 4385 4464
c496 c531 44bb c53a 4355 452d c5b1 c4f5
444b c538 4424 c45c 4597 45b6 c3da c61d
444b c5dd c3bc 4290 44ae 453e 453e 4354
c4bb c508 c4ba 42d8 c5e5 c504 c521 4318
c43b 454c c5ba 4407 c504 c4a5 c50d c4fc
c4d2 c4ae 45a2 453d c593 c579 451b c5b2
c54d c2f0 c590 c416 c4b0 c57e c4de 4601
4448 4501 c56a c3d0 43dc 45be c514 4581
c5c5 4463 4516 4572 4594 c5a1 450b c4c8
c52b c52c c50a c4ef c45a c57c c609 c406
c627 c5d0 c66e 4458 c52c 4487 4409 c510
c569 c3a1 459b 4368 444c 442a c47a c54c
4200 c5c7 c2f0 c44c c5a2 42d0 c583 c490
43b8 4441 43d9 c4e7 4456 c522 c58e 445b
4565 44a6 c5e0 458e 4578 c524 4533 c55a
c54e c62c 44d3 c53c 44ec c475 41a8 4544
43f0 42e0 c49a 458e 4490 44a2 c554 4564
c5f3 c518 c4d9 441a c533 4505 c49c 43f0
c39c c60c c4d2 c54a c47a c530 c48c 450f
c462 c526 44ea c51f 44ea c418 c55c c588
c4af 4549 c4e9 c5e1 c588 c4ed c678 c5a6
44cb c5be c506 c555 450f c496 c48b c574
c513 4523 c5de 43d8 c476 c46d c5a2 c621
c4a2 42f8 c5c1 c61c 4519 c580 c5b8 c55f
c52c 44e8 c4d4 c584 c5de 4592 c419 c5bf
433b c5cd c4f8 c63b 44e3 c5c7 4320 c51a
c616 4458 44ae 4563 4541 c56a 457f c597
c4d2 43a2 c4f4 4489 c4bd 454e 4498 c52e
c548 4430 c40c 44ed c5e9 c5c7 c51f c526
c422 c4bf c5c8 c578 c541 4531 455f c4ac
c538 4540 45a1 c601 c5b4 c582 c511 c5b2
c5eb 4533 4584 c4ca c517 c467 c51e 44fc
c53e c5a1 4509 c498 43aa 4508 c58b c527
4528 c510 c47e c589 45bd 4594 c515 c619
43e3 c604 43da c460 c526 4518 4536 43e0
c596 c50a c53a c404 c5de c545 43e0 445f
42b8 43f0 c5ab c486 4320 c524 c523 c51c
c533 c53a 43e2 c444 c5ad c5b8 43a8 c595
c5fd c506 c58d c4ff c53c c5b4 451a 45d6
44ed 4240 c550 c482 44ea 4585 c4a2 456e
c538 451e 4558 4560 4598 c536 4467 c4a7
c566 c42a c437 c416 c4aa 44ba c577 448a
c5b0 c540 c629 c47a c52e c3d8 4467 c498
c4fe c42c 4565 43e4 c4b5 c381 451b c50f
c51d c5b5 44d7 4439 c576 437e c59c c52e
44e3 c48a 450d c522 449e c4d8 c50c 444e
446e 456e c5f5 44fc 452a c4f4 4587 c3b3
c563 c60c 44dd c5ca 4486 442a 449d 45a0
4508 43f8 c42e 450a 439c 4545 c4a0 4473
c55c c503 4426 4508 c4ca 4575 c521 c3f6
450a c59e 452c c2c8 4486 c4c3 4501 4511
4399 c3ae 453e c541 43ce c38a c402 c544
c5a0 45be 44ff c5b0 c52c c4ae c641 c571
4518 c521 c425 c5b1 44d1 c422 c421 44cf
c36c 453d c5a3 4416 445e 44a5 c5c5 c61d
c4ce c458 c5b0 c5b4 4518 c55e c57a c4f9
44f2 458c c501 c5a0 c568 458e c370 c525
4404 c550 c3a4 c5d5 c504 c5b3 441e c56d
c603 42d6 4510 4396 4502 c588 4568 c52a
c4f0 43f8 4490 c4c6 4468 4260 c498 435c
c537 c4ea c530 43ce c55d c5df 4506 43de
c4d7 c44b c5a4 c58b c4a8 45bc 459b c485
c436 452f 4496 c5b6 c47e c578 c445 c546
c599 452e 4485 c470 c4f3 c49e 445a 435b
c521 c520 44c8 c4b7 441c 44e8 c488 c50e
455f c565 439a c592 454a 4597 c51b c5c4
44f5 c5db c507 c4f6 43c8 4548 452c c4bf
c548 c556 c4e4 c500 c583 c558 c4ab 44e4
c3d4 455d c568 c49e 44ed c40c c4e1 c437
c2e0 c567 4541 44ea c56f c59e c439 c512
c546 441e c586 c544 4416 c56d c484 45c6
44f6 4349 c592 c3b4 c487 45c5 c510 454e
c5a4 45e3 4540 454c 45a2 c595 44e0 447c
c51b c567 c438 c49f c518 c3d0 c5da c3a0
c5ed c5aa c655 44aa c360 44a2 c4d7 c4b4
c518 c384 4550 4539 448c 44e4 4444 c514
44eb c5c2 4400 454a 439c c4e4 c5e9 c465
c4b3 4424 c330 c510 448e c4d8 4492 457d
4577 41c0 c62e 459c 4587 c4f3 453b c544
c5c6 c620 44d0 c4de 44cb c50b c4a3 c53c
4230 c45e 4472 4564 442f 440c c567 4590
c5f5 c30c 452a 4461 c43d c48c c4c0 4384
44b3 c594 451f c51a 4490 c51a 43a7 4554
454d c4aa 4541 c3b4 44f4 44e6 c4ac c53e
c507 45be 43f4 c5e2 c509 c4dc c660 c5cd
4546 c63e c36e c380 4586 4590 c453 c5e0
c503 44bc c5db 433c c43c c4e2 c5dd c60a
4493 453e c5b9 c5be 45a4 c52b c5c9 c53a
c46d 44dd 449a c5bd c5a5 454e 4516 c58a
4489 c54e c52e c626 43a0 c576 4370 c536
c5e2 44b2 4504 447b 458b c5c8 45a6 c5cb
c488 4514 4474 43d2 4516 44d1 43ca c47d
c575 c4b4 c50d 4537 c5c6 c5ee c42d c494
c53e 44a6 c5f1 c582 c5a7 44c7 44ee c3e4
c282 456e 4558 c5a5 c521 c4bc c565 c5b9
c600 460a 4585 43b4 c4ec c4d1 4546 4573
c4b1 c565 4559 c595 4548 454c c5c3 c586
44f8 c5ba c48c c5f8 4558 4537 c49f c62e
442c c5bb 437c c298 c412 45b8 459c 4438
c53c c536 c539 4503 c633 c462 c4a6 44d2
c4d4 c375 c5af c541 4514 c435 c52e c58b
c53d c576 456b 459e c5e9 c587 44bf c584
c57b c534 c5a0 c4b2 c544 c5fc 4330 45d6
445d 453c c428 c2da 43c0 4592 c472 44c6
c5d8 4590 4547 4548 45dc 43dc 459e 44ba
c494 43dd c566 c307 4502 c4ae c4a7 4519
c558 c4a7 c5fd c4ce c498 c42e 45ad 43d6
c58a c278 4080 4560 445d 44dc 44d8 44a4
c4fb c598 4423 c4a6 c544 452c c57b 456c
4531 4508 44de 4330 c380 44c3 c2f8 443b
456e c4d3 c5fb 4506 45bb 458c 4574 c4e2
c2b0 c643 456e c4ad 4374 c3ff 44d8 4506
c354 44b9 4516 4563 4452 4534 44da 4606
c5d0 44f7 44cf 43ba 43f8 44f1 c468 c47a
450f c5c3 4491 45d7 c4b5 43d6 c4a6 460e
c44c c4e4 4593 c507 455a 455a c586 c58a
c47b 45eb c454 c5b2 c4ca 43b2 c62b c552
441b c524 44dc c4e6 456e 44aa c57b c563
4531 4592 c53b c51b c51c 4390 c5b0 c604
449a 44f0 c495 c59a 4546 43c6 c5a9 c559
4483 452d c490 c59f c58a 454f 4140 c3a8
44c2 c527 c4be c5b1 446b c4a8 c3ec c5b6
c5d3 453a 44a3 4542 4553 c530 4535 c589
44d6 4520 4488 c4ec 45b0 45a8 c408 c300
4418 c571 c340 453a c534 c5b1 c4fb 4497
c4c6 4507 c558 c52a c539 4598 45c1 43e0
c4f7 44f0 450a c58e c535 44a7 c528 c5d9
c5f5 45a2 44e6 c3ac 434e c492 c43e 44d4
c478 c530 c4cc c370 44ea 454e c518 c59a
450e c56d c508 c566 45a6 45a7 4410 c5c5
4374 c5dd c33a 446b 44f0 4494 4511 c5e2
4386 c210 c4a2 c49e c5cf 44a6 4317 43b7
449f 4460 c5c8 c4dc c4ae 4420 c459 c4ce
c532 c4db 459f 459c c5f4 c54f 44cd c5af
c57b c4cc c58a c541 c444 c532 446f 4603
4448 4503 c539 4451 4455 45a1 438e 454e
c5bb 4527 4564 4530 45a4 c548 43af c536
c531 4425 c508 4383 4377 44d3 c583 4514
c5f8 c54f c60b c502 c584 c525 4406 c511
c57d 442a 44d2 4505 c50e c53e 44f8 c559
c4b4 c59f 44be c514 c5a9 450a c593 c51e
454e 44dc 44ca 4298 44a4 c47f c55d 43b8
4553 454f c61e 4586 45a0 c543 45be c517
c2e8 c61d 450b c57c 442e c4bc c390 455c
c51e c474 c4b0 4581 c4a0 45b8 c540 451a
c553 c422 c51b 4530 c4fa c40c c4c2 43ae
4524 c5e2 c4b9 c4db 4411 c1c0 c482 456e
c410 c482 453c c50b 44ed c50d c4a9 c567
c4cf 45b1 c43a c5e2 c592 c535 c647 c588
4524 c550 c484 c589 450c c45b c4b1 c34f
c30c 445e c558 c510 c440 c389 c607 c622
c48a c480 c59c c5ec 44ee c510 c56b c517
448a 44f3 c40a c587 c5cc 4533 4434 c584
4534 c5d5 c499 c608 453e c59b c45c c574
c615 455c 44f1 44be 44f8 c557 456c c586
c507 448f c4b2 c484 44f1 c30c c3d6 c4a6
c582 4406 c3f2 451b c5c1 c5ca c50e c4f0
c4be c4b4 c586 c592 c4fc 45ab 4475 c50a
c400 4520 452e c5f3 c4ce c58a c530 c5b8
c5de 453c 4457 c48e c514 c3bb 4402 44fc
c2e6 c571 45a1 c45c 4465 44f8 c4a6 c538
4547 c518 4536 c577 4592 45a1 c4e5 c602
4515 c5ab c40b 439c 4442 4568 4482 c48f
c599 c4c4 c550 c4b6 c5ae c599 c3b8 4404
4496 449d c58b c477 4110 c4d2 c536 c47f
c382 c50e 4540 449e c582 c5c9 453b c59d
c5c1 c40c c582 c597 c33d c5a4 4340 4602
44a2 4518 c4ea 44ec 43bc 45da c49c 4492
c59e 4512 4556 4522 4578 c512 44d2 c478
c55b c52a c4ac c425 c3c1 c516 c58e 4525
c5f6 c540 c645 42b0 c576 43b2 c408 c41d
c556 438c 44e6 43f8 c37e c421 4422 c5a1
c4f3 c5dc 4483 c2f0 c597 4480 c599 c4c2
44a8 44dc 450a c530 4454 c4d1 c3eb 42c2
459c 4442 c610 451b 455e c4b0 45a2 c56a
c501 c611 4530 c5aa 44e2 c4f0 c470 455c
c514 4468 c51f 4553 c4b1 450b c570 45bc
c511 4264 c51c c3d0 c4cf 4490 c4f8 44a6
44a6 c60e c483 c3c9 c510 c514 4180 4520
c44c c513 4519 c509 4550 c507 c580 c58c
c541 45a6 c234 c5f1 c524 c4f7 c66a c59a
4537 c58c c3ca c59c 44c7 c464 41b8 41b0
c43e 44a2 c59c 439c 44ee 4340 c5ee c635
44d9 c473 c593 c5ff 453b c506 c5af c535
c512 4498 c4da c587 c5d9 4580 c43a c584
4596 c5a6 c4cb c614 44d7 c560 c417 c560
c607 452d 44e1 c530 4584 c5c3 4535 c5d0
c537 c2e8 4467 c4f0 44ef 441d c40f c506
c58b c55e c4a6 44f8 c5c1 c5d5 c52c c397
c437 c523 c5ce c59b c57c 458c 4448 c4e0
c33b 4567 4556 c5b7 c4f9 c58f c54d c5df
c601 4596 44d6 c386 c3eb c382 c404 44b5
4401 c59c 452c c4f9 4369 451a c500 c5b9
44fe c55d 4539 c51b 45ad 4556 c582 c625
44f6 c605 c3e2 4318 c443 4554 44ef c578
c599 c4e7 c52e c48a c5be c530 c4e8 4481
43a2 c354 c602 c50a 448c c502 c531 c4ee
c4c6 c444 c2c0 44d4 c58a c5a1 c3be c58d
c5b3 448b c5ab c5af c47a c5d2 43e0 460d
4412 448a c529 4455 c340 4596 c56b 44a4
c5ce 4591 450c 4554 4588 c5a2 4458 c511
c594 447a c4cd c450 c388 c30a c56a 4511
c5f6 c52c c62c c48a c58e c4cf c4b6 c507
c581 c49c 44c5 446c c472 c53e 4474 c57b
c496 c5d4 c350 c51a c53e 4478 c5c5 c548
4320 44b8 c483 c47f 455d c3c3 c4de c1f8
453f 44f7 c631 456a 455d c4a5 45bb c524
c58e c60d 44d5 c519 441b c46e c507 452c
c4ca c50b c48d 4540 c415 4583 c3b4 43cc
c547 c484 4240 44a8 c4a9 c260 c4d9 44b7
4504 c5d6 439c c543 4467 c38c c41d 44a4
43f8 c517 452d c50c 448a c4ba c565 c5ae
c49a 45b6 c2ac c5f1 c562 c40e c655 c595
450a c4d0 4190 c597 4472 c416 4417 c3cb
c4aa 453b c581 4486 43a0 4388 c5fc c617
c385 43fa c587 c5d8 4540 c574 c520 c523
c464 442f c442 c5aa c5ce 44fe c4ed c508
4573 c54a c444 c60e 454b c5a8 4298 c562
c616 450b 44de 4508 4517 c575 455f c519
c4dc 4424 c489 c4a9 446b 4546 c4e1 c4c6
c586 441e c321 451a c5c6 c589 c51d c47f
c4d6 44b2 c5a8 c584 c4ca 459e 4558 c4a9
43d6 43b8 4516 c5aa c440 c57e c502 c596
c5cc 4513 448e c486 c4a1 c33c 4544 4542
4344 c585 4541 c564 4224 43ac c551 c5c0
443f c58e 44a5 c5b7 456b 453d c53b c62b
4516 c5bb c502 44dc 447e 4496 44ce c45c
c589 c52b c511 c45d c592 c59a c460 4400
c48c 4443 c597 c4bd 4431 c49a c4bb c4c6
c4db c54d 459c 457c c524 c5c6 44dc c584
c5ba c460 c58c c5b6 c3f1 c5cc 42e8 45dc
451a 43b7 c45e 43f4 4458 45c2 c502 4554
c5d3 4450 4545 451a 4595 c573 450b c334
c501 c442 c4ab c495 c4ee c558 c584 447a
c5ce c538 c62d c474 c48c c485 c475 c40d
c562 431c c320 4501 43f2 c38d 448a c56c
c4c5 c5b4 445e 4428 c5a7 4405 c5ba c3c6
454a 44d1 44ab c43a 442a 43ca c4ca 44c6
4512 c435 c634 4598 459e c1a0 4587 c593
c536 c61a 44f6 4453 4526 447a c47a 4557
c45f 4360 c3c6 4536 c4a2 c442 c4bd 45a4
c54a 441a 44aa 44be c507 43ae c456 442a
4481 c5c3 44bc c497 c4da c511 44ba 454e
44aa c468 454f c50c 450d c431 c544 c590
c540 45a9 c420 c59c c52e c4e7 c651 c544
450e c596 c455 c4f5 4540 448a c4a1 c5ae
c426 449a c590 c423 c51a c3b2 c5c8 c620
44af 447e c4d3 c5e8 456d c527 c5a1 c4fa
c392 44bd c526 c5db c59d 454f c47d c564
44cc c586 c4d4 c5fe 44f2 c58c c47f c5a6
c605 44ef 44b8 453a 4557 c58d 4587 c592
c4c1 43e8 c418 c472 44e8 454b 42be c462
c560 c42e c4bc 44fe c5ad c5c7 c4d6 4462
c488 439c c5ed c4fa c4a8 4543 4562 c507
c4eb 4525 451c c598 c538 c577 c53a c5a9
c5d6 4598 44a9 c3ee 443c 439a 4547 452f
c47a c562 4550 c4e1 449e 452b c5a9 c538
4588 c53c 4528 c591 4536 458f c518 c610
452e c606 c53d 43d6 4421 4550 4578 c48e
c54f c580 c53a 433c c5c1 c4ec 43a6 4390
c45c 4466 c5d6 c508 c439 c45c c48d c2ae
c578 c4b0 4568 454c c59f c565 44ea c579
c51e c506 c584 c50f c43e c5ba 4342 45fd
438c c475 c592 43ea 4416 45c4 c537 4516
c5a3 451f 4503 453e 45ae c58c 43ca 4488
c52c c456 c436 c4cd 4409 c514 c5c0 c300
c5f4 c573 c633 c4b7 c473 c33b c504 c484
c52f c439 452a 4548 44d3 c344 440e c561
c437 c5cb 43aa 4471 c59f 44d8 c5d8 c530
453a c41c 44ac c4af 4466 c4aa c4fb 44ee
4510 c466 c5b7 4581 4538 c4d3 4515 c509
c59d c605 c440 c486 44f6 c409 c4ab c2f0
c388 4300 c490 454f c4c0 452c c584 454a
c5ea c4c8 c3d7 451c c51a 4294 c492 c2dc
4434 c5bd 44d3 c5a2 c414 c501 43b0 44e0
450a c4c4 4546 c4ea c4bf 43ac c54c c5ae
c52c 45a5 41b8 c5ab c51d c510 c652 c5a4
44ac c59a c39e c53e 453e 4500 c40d c548
c538 44c7 c5ed c140 c55a c358 c5df c607
c4fe c4b9 c594 c609 4552 c583 c57c c5a4
c390 44e3 c41d c57c c5a0 455f c4b4 c59c
44e4 c583 c504 c616 c486 c5e1 c4d5 c58b
c60d 42e8 443a 4592 4531 c5c2 4596 c5e0
c4da 441d c46f c4ca 4490 4594 448c c489
c5b4 c4de c4cc 450e c5e4 c596 c4f5 c3c4
c498 c4db c5bd c581 c4f6 459a 455b c42a
c43e 4426 452f c5cc c488 c5ba c52c c5d2
c5e0 453c 4533 c35f c4a4 c49f c39a 4565
440b c585 45bd c4db 44a5 44fc c42c c555
4506 c5b8 4501 c5a0 456f 4568 c514 c61f
4520 c5d5 c448 c37c c49c 454d 4542 4490
c56d c52d c4ee 441f c57d c4ea c474 43e0
c460 436e c535 c4ce 450c c51c c4c3 c4e6
c526 c552 4508 4543 c55c c5b4 c4e6 c59c
c586 4580 c580 c5b6 c4cc c59e c4d0 45a2
4478 442c c584 44bb c46b 4580 c461 4496
c5ae 4570 4486 456f 459b c55e 4502 4440
c50d c517 42c8 c488 c4b2 4499 c5ed 4523
c5ed c5a4 c62f 452e c52c 4480 439b 43bc
c591 c520 4589 4479 44fb c486 4364 c502
43a4 c5c0 443e c559 c472 c3c2 c579 c486
c408 c52b c2f8 c556 c4e3 c511 c520 4504
4557 44bc c61f 4556 4598 c4be 44b2 c38b
c533 c619 43ce c568 4200 443e c488 44f0
c468 44e0 4470 456a c524 4579 c597 45c6
c62c c457 44c0 c1e0 c45a 4532 c2ee c3d0
4553 c5a5 c584 4428 c4af 4491 c49c 456c
c54a c4ee 44f8 c428 44f4 4571 c573 c5c3
c4f6 4598 43c9 c5d2 c599 c4f7 c650 c58d
4419 c50c c500 c560 4432 4421 c3ca 444a
4280 4547 c5e8 c4c4 c4e2 c4cc c5f8 c5f9
c46a c4ab c600 c5b4 4581 c598 c551 c515
c3fc 4352 4426 c3f2 c5f4 4586 44af c588
4535 c5a3 c4c6 c63b 4589 c518 c50e c582
c5a6 4562 454b 457e 451f c5cc 4587 c568
c4e8 c370 432c c515 c419 4520 454a c486
c566 441a c4fc 44b8 c606 c605 c592 c470
c3ca c568 c5d2 c59a c5d1 45c6 4599 c4de
4507 c311 4528 c5b9 c58e c270 c55c c5de
c5dc 4538 45ae c49f c438 c4e2 c53e 4525
42f8 c548 4512 c5cd 4492 4509 c554 c5bf
4506 c422 c567 436a 45ed 459a c4cf c63d
4490 c5ed 4552 43f0 441e 442e 44ee c326
c557 c480 c4e5 c240 c5bf c4f4 c559 4499
451a 4409 c57f 44ff c529 c454 c529 c50c
c486 c551 4571 4443 c5c1 c599 4477 c5d2
c506 c4f8 c5a7 c5b0 c46f c5bf c3ac 4595
44fd 4462 c509 c40e c330 45db c414 4502
c5ce 45c2 44e4 4536 4593 c560 4516 c49c
c4e3 c4a3 c424 c326 c45f c4b2 c5ca 4590
c5fa c550 c636 44ca c52a 41a0 c2ee c510
c58f c37a 451c c419 4496 c461 449e c53b
42f4 c5a9 4467 c4fb c564 43fe c5ed c498
c50e 445d 4597 c587 4423 c4a3 c4c8 44d3
457e c3cc c64c 4514 45a9 c50a 456b c527
c558 c620 44b0 c595 43b0 c518 c43d 45ff
44bf c451 c2a0 455d c4da 4510 c510 4549
c599 c2a8 4398 4502 c33a c4a0 c4b5 443e
4514 c5b4 44b9 c498 c49e c4c3 4264 4537
44ce c51d 4509 c4c6 4562 c492 c553 c599
c59a 4590 c440 c5cc c57c c511 c66e c59c
44d2 c5cc c4ca c57e 44ab c42c 4509 c519
c47b 450b c5b4 43f7 c308 c3f0 c5f3 c61f
4491 c308 c5b2 c5c3 4564 c504 c5a1 c483
4588 4442 41e0 c5ac c5c4 4533 441f c5a9
4544 c5cf c4b7 c617 4518 c570 c478 c569
c614 44fd 4513 c3ae 455c c5a3 4595 c5c4
c488 c282 c469 42fa 44ca 4447 c3a0 c509
c48c c55b 438a 454d c5c0 c5fa c549 c528
c504 c48d c5e8 c563 c59c 453a 44b6 c4af
4240 4428 4598 c5c5 c527 c270 c4f9 c5d7
c5d6 454b 43e5 c4bc c4ae c48e 4458 4530
c4d3 c547 4319 c504 44ea 43bc c4ff c378
4568 c56d 437d c53c 458e 458e c548 c604
44e3 c5ca c4b1 c384 428e 451e 4554 c3a8
c544 c3fe c57f 4501 c5d5 c52d 4419 4496
43c5 4472 c584 c47a c3de c48a c527 c489
c548 c56f 451f c52a c5db c5c8 c420 c57e
c54a c4fe c5a3 c4e8 c47c c5c8 452e 45c5
4525 c2f0 c558 c4fe 4518 459a 433c 457d
c595 4490 4588 4541 45ae c4dc 450b 43a9
c5b1 4540 c55a c4cf c518 4438 c56c 455f
c5ac c582 c600 c4b7 c519 4348 4448 c3e8
c515 c490 45c2 4499 c51d c431 4491 c4c4
c41e c5b9 44fe 4546 c52b 44ec c562 c568
4569 42e0 455e c504 4354 c539 c598 c438
453b 42c8 c631 44c8 45bc c4c7 45db c42c
c4c5 c62e 4533 4519 4490 c38e 4462 4573
4230 c49b c35b 4549 44d3 4536 c52c 44cc
c5b7 c561 c4b6 44f6 4326 4552 c475 c517
455b c5e5 c308 44ba 446c c462 4599 4517
42d0 c4a4 4535 c585 4542 4468 c541 c59e
c435 45a9 4458 c5bd c592 c4e2 c65d c56c
4488 c53e c4c2 c577 448d c338 43d4 45a8
44bc 4560 c593 c547 448e 441e c5d6 c617
445e 4500 c5da c5e9 4486 c4dc c4fa c41b
4409 44ea c487 c4af c586 458b 4384 c570
44b4 c601 c42e c5a8 455f c568 c51d c59c
c5d2 452a 4540 4508 4572 c57f 4526 c4d5
c471 c428 44c5 c405 4411 4503 c3b8 c34c
c517 4548 c439 4484 c596 c614 c529 43a5
c4aa c46d c590 c554 c52a 45aa 4540 c4eb
c54a 44a0 c48f c60a 4404 c508 c46c c596
c5eb 4568 4522 c4b8 c562 42fc c4b9 44b1
c56c c538 4574 c510 44ca 453a c3ca c448
452d c537 c4ca c476 45dc 4604 c54b c5f9
4502 c587 c494 446a 44ec 433c 453e c3dc
c49b c4e4 c533 4492 c5c8 c52e c496 453e
44a9 4509 c4b6 c382 c3fc c39b c4f1 c500
4457 c383 4542 c3cc c5bf c516 4492 c4f0
c534 4449 c58b c57a 4442 c58c 4200 45f3
4412 448d c4ff c3c5 4508 4590 4498 4595
c462 4526 454c 44a8 45d4 431c 452a c53c
c52a 44c2 c57d 444a c3ec 4559 c5ce 4482
c5bf c584 c5ec 4348 c504 c238 44ce 4496
c5b1 c461 45ac 444b c4a1 c41f 44d9 c4ee
443e c576 454c 4514 c4b2 4551 c552 4386
453c 44a6 44c8 c482 c539 c54e c498 4544
44f8 4454 c61b 442b 45a2 439b 45be c4ae
44a2 c646 4576 c582 4519 c180 44e2 458f
456b 4508 c4b7 450f 42a0 4460 c4b1 45cc
c5e5 c513 c534 44b4 c47f 45a5 c52e c4a7
454b c60c c53a 4493 c49e c4a2 c280 4564
c549 c4b8 4556 c527 4530 44a4 c508 c577
c532 45a9 c48a c5d6 c59e c415 c647 c562
4590 c5ba c36c c59e 44c4 4322 4440 44ce
44f4 44da c56c c509 446c c45e c5e1 c605
4581 4364 c5cb c5aa 4489 c4e3 c52c c4af
c308 4488 c561 c537 c5a0 45b1 448b c534
44a8 c5f2 c4b9 c5ad 4302 c48f c32c c541
c5c9 4518 452e 44ee 4583 c55b 4510 c402
c4f8 c204 c372 c520 450d 4507 42f0 c49b
c510 44a0 c40d 44b6 c596 c626 c3e6 4456
c34c c537 c5d4 c572 c581 4595 4504 c4d7
c500 4518 44b8 c5b4 c535 c438 c4d8 c59e
c5d6 4535 451d c453 c586 c2a0 c4fe 44b7
c3dc c4e4 4518 c45e 443c 4502 c348 c544
4599 c586 c478 c509 4599 45c5 c52a c5c0
44b2 c58d c44c c40c 44de 454d 4593 c554
c55a c54a c33b 4394 c5da 4515 42e2 4495
44be 4392 c558 c494 c365 c483 c4c4 c508
c497 c4d2 4558 c39f c5f8 c4b4 43b9 c53b
c580 c4a2 c582 c56e 44b4 c528 453e 45ea
4500 4308 c4ca 445e c3d4 45a7 444b 44ff
c5d3 4531 4550 4553 4582 c54a 4560 448f
c50c c486 42c6 c4d2 c4f9 c44e c5ca 43e2
c629 c52c c624 c464 c33c 4409 c457 c41c
c555 c470 4544 44ab 4390 c494 c386 c416
4438 c5bc c38b 44b0 c53c 440f c56b c4a8
454e 43a4 4493 c4ab 44a6 c430 c4c6 4525
44f2 44c2 c615 4579 45a2 c504 443f c4ae
c50d c61a 44df c4a5 44f8 4467 4512 450e
c412 43b0 c40a 4584 c583 4529 c4d0 4572
c5c0 c4cb 4240 4502 4230 451e c416 4370
4474 c5b5 43bc 44bc c35c c49c 4499 452c
c2e8 c519 4552 c547 458c c462 c584 c53e
c578 457c c4b8 c5a1 c4f4 c4d5 c644 c5a9
44f5 c55c c4da c55c 44da 44f4 c51f 448d
c292 44f0 c597 c4de 4516 42b0 c5ce c614
4244 c337 c59a c5f4 453a c50b c5b1 c47e
c338 4426 c396 c575 c592 456f c328 c580
44a5 c57a c416 c5f2 4460 c541 c42e c5ac
c5f9 44b7 4506 4448 457a c5a3 457e c586
c510 4498 c286 c514 4546 4480 4509 c4db
c572 c510 c398 4522 c565 c5b0 c495 4518
c50b c386 c5a3 c565 c57b 4589 4400 c514
c49c 453f 4504 c5cc c3f0 c4f7 c554 c5bc
c5c4 450e 44bf c2e8 c499 c4be 42c8 44e6
42b0 c54a 447c c576 44d0 44b6 c57f c52c
4580 c550 441a c52e 459f 459e c534 c5aa
4521 c5ec 43fe 43b4 c447 4518 454a 4386
c540 c4ed c579 4278 c5c2 c518 c463 c43a
43ae 450c c5af c4c4 c4ca c4d6 c4fb c39c
c532 c52e 4502 44fc c5bc c563 c451 c57e
c584 c160 c57a c54a c4aa c5a6 c446 4608
450e 4410 c584 c130 4421 4538 c4dc 4548
c598 4586 451a 4520 45b6 c507 44f6 4490
c532 c4b6 c4fa c513 c466 43f2 c5e5 c41a
c5ee c5a9 c63a 4502 c51a 4414 44e4 c527
c553 42ae 4558 4477 43a3 c2bc c349 439e
c404 c5c6 44bc 43d6 c574 44ae c4eb 445a
44c1 c4cb 4474 c584 4450 c48c c4b3 4539
451c 41a0 c610 458a 45a8 c560 446a c4b2
c557 c60f 4494 c528 43d0 c4a0 4437 4573
c358 c39e 455a 4582 c180 454f c518 458e
c61e c483 4362 4465 c48c 44b8 c48f 43aa
44ea c5a7 c424 c529 44a8 c48e c4ea 4577
43d2 c4bf 44da c53f 4230 4510 c4e6 c5b4
4453 45dc c170 c5cc c562 c52e c646 c599
4502 c5a0 c508 c56b 44df 445e c52a c578
4446 458c c5b7 c4de c50a c3d6 c5b5 c603
c4bd c411 c5b3 c5e8 4540 c528 c5bc c51d
4390 44bb 4470 c59b c5dd 456e 4446 c57c
44ad c5a8 c4b7 c622 4501 c5a0 42d8 c540
c5ea 44fe 4483 4584 4557 c582 4575 c589
c39a 44bc c3ca c512 443f 453e 4413 c380
c572 4542 43d3 44e4 c5f1 c5e3 c530 c49b
c54e c441 c57a c557 c582 45b9 45e4 c534
c510 4491 446f c5a6 c55c c48e c53e c5b3
c5b6 4578 45b2 c521 c4e5 c46c c42c 4509
c559 c537 451b c546 4444 44f8 c40a c54c
44a0 c4e8 c55e c591 45da 458a c4fa c615
432f c601 43f2 c418 c394 44c2 451a c404
c536 c4d3 c523 4424 c5f2 c554 c3a0 43b1
43ea c1e0 c578 c4b4 44b7 c517 c543 c4ee
c4db c230 4545 431d c5c4 c5d1 c368 c5a5
c57f c4b7 c593 c536 c4c0 c59c 4388 45cd
452b 4498 c4bd c4de 4497 456e c52f 457c
c5ae 453e 4509 457f 45c9 c4fd 44dd c3c6
c51f 449b c51d 446f 4444 453d c5b4 4518
c59b c56f c5f6 c4fd c50b c4b0 452f c120
c58b 43ef 4466 44c2 c330 44b4 450a c493
c40e c59f 4502 c39a c4e2 4504 c547 4413
4454 4419 4526 43d2 c4e3 40a0 4284 44f5
4514 44b9 c634 4546 45e0 c544 4526 c4f3
c452 c638 455b c54f 44a0 447a 4432 45ac
c418 44a8 448c 452a c507 4522 c538 454e
c5aa 448f c544 44a3 c4f0 c421 c4b9 4418
458e c5b9 c43a 449c c341 c503 c4ea 4592
449a c4cc 4523 c514 44f0 43f2 c4bc c5c3
c550 45ec 4445 c596 c5a1 c4fd c64c c5af
452e c570 c506 c58e 451a c470 c595 c280
4462 4519 c55a c51b 444c c475 c5d7 c612
452c c290 c5d5 c59f 4507 c4c9 c55c c3e7
44ab 44a6 c411 c5da c5cc 4523 4540 c56c
451c c5b9 c4ae c5ce c4bd c524 445e c581
c5df 44a2 44b3 44db 4528 c588 456a c44e
c566 449b 4499 c404 450c c489 c409 c4b8
c511 c3aa c48e 447f c5b4 c60a c556 c524
c4cc c520 c58e c4df c558 45c6 453d c510
4350 c22c 4501 c599 c550 4525 c544 c58d
c5e4 4519 4512 c52c c4b7 c471 4516 44a6
c49e c524 4240 c4d5 44fc 4490 c48f c428
4539 c53c c3b2 c521 45aa 455c c4f8 c5cf
40c0 c5e1 c454 c3c4 451f 458f 44ec c4b8
c583 c564 c57e c328 c5f8 c51d 4398 43ac
44c0 44ae c563 4442 4524 c514 c536 c4e9
c40e 446a 45ac c50c c5d8 c559 4532 c5b4
c4fe c332 c57a c582 4402 c5a3 44f3 4608
4502 c4ce c591 c33f 43ec 45e6 c401 4589
c601 4590 4558 4550 45b9 c560 4494 445c
c4b3 c403 c4dc 4550 445c c42f c608 4573
c620 c59e c644 453c 44c2 c4c7 c56e c4b8
c550 c572 4514 451f 4414 450a 4493 c42b
4436 c589 448b 455d c380 c43a c60c c392
c408 4368 45f1 c4e5 c45c c4a3 4360 459c
4582 4480 c64f 45d0 4564 c55d 453e c572
c4ce c610 c396 4502 44e5 c38a c4b8 45a6
4559 c4fe 4509 4590 c53d c484 c559 4547
c584 435c c4f2 451d c49e 44f7 c546 44ba
4529 c5d7 c4de c48f c3b0 c594 c2ba 456b
4545 c471 4533 c3c6 4541 450a c5ad c5bf
c527 45d1 c43c c60c c585 43d0 c677 c5be
4594 c606 4374 4474 4514 454d c354 c593
44d8 452c c5b5 c511 c200 c546 c604 c60a
454d 4504 c5e7 c603 4585 c59a c5aa c518
4488 43bc 4488 c5c6 c5a7 4568 4580 c5e8
c1a0 c5bc c503 c629 c490 c57a c510 c534
c554 4549 4504 4531 4592 c5a9 45ba c5a4
c399 459f c4b1 c51e c364 45b4 44eb c424
c4db c1c0 c500 4514 c601 c602 c566 444c
c514 c3a2 c5ed c4ba c5cc 455c 4566 44c0
42f0 44c3 453b c59a c572 4522 c513 c601
c5f2 45b9 4518 c47e c4ff c523 4534 45a8
43e0 c590 4563 c4de 44a3 4526 c57b c482
45d9 c5c4 c3d0 c550 4586 45a8 c436 c657
44e0 c5cf c4d5 44f4 44ba 458b 45a8 4517
c57a c58e c4cc 44f2 c618 c56c c4fc 4466
c476 4476 c5c4 c487 c3fc 440c c56f c596
c554 c4e0 45d6 45b0 c61b c54c 450d c5b2
c543 c5a4 c5b1 c578 c525 c604 44a4 45d2
c48b 43fe c43f c439 444a 45b7 c515 4580
c583 4593 4550 454c 45f8 445c 4537 43da
c526 4518 c4f1 448b 4452 c3d4 c54f 458e
c578 c540 c5d2 c4be c49b c4e8 457a 43ba
c53f c49c 44d2 4592 c4d0 442f 44f4 43f4
c530 c5b0 c4c2 c50e c53e 455a c53b 4579
453e c3e2 4505 c3ba 4468 42e4 c351 c2c0
4550 c440 c639 4531 45cb 457c 45ba c4d0
c2e0 c640 4568 4204 44d6 43b4 441e 44fe
44a7 4502 4508 4582 c534 4585 4500 45e4
c5ce 436c c0a0 450d c2e2 4554 c516 c4fe
4589 c5c1 4370 455a 4519 44c8 44f8 45f8
c50f c45a 458f c561 453f 4549 c57b c55b
443c 45e2 c413 c5f3 c55e 430d c62f c588
455c c52c 42d0 c502 4521 c3eb c476 c4a6
4571 45b2 c55f c4f2 c51c c4a7 c594 c60b
44cc 4550 c414 c5e6 451d 442b c592 c585
43ac 4514 c4c2 c554 c589 4539 4373 c48f
44a4 c5ab c49d c5eb 44ca c44f c51f c5a3
c5ed 4556 451d 457a 45b3 c4e4 454e c541
4439 4507 4308 c50a 450e 45cf c489 4422
43bc c5cf c3a8 4438 c5ae c5d4 c49c 4509
443c 4464 c53f c559 c50b 45a1 45f8 c474
c4c1 44b5 447d c563 c53c 44f5 c3e8 c5ba
c5bc 45c0 448a c44a c4aa c439 c2d0 44cc
c442 c506 44b3 c496 44fa 453e 441f c59d
4574 c543 44ca c57e 4599 458c c2f4 c602
44b6 c5ec c49c 4486 44f4 4442 4484 c5e6
c483 c22c c4fc c3b0 c5fe 4368 c49a 43a2
447e 450d c5c4 c4c4 c4a4 448c c556 c435
c4ba c49e 45b2 4586 c60b c5b7 457e c5a4
c5b6 c48a c558 c55b c3e1 c574 c44a 45f8
44eb 4467 c559 445a c3d8 45b3 c39c 4529
c582 4527 44fc 4531 45b6 c56a 44ce c510
c55b 44d8 c588 44e0 4292 4340 c59e 4530
c5e0 c52e c616 c3b0 c574 c4c1 c398 c4c2
c582 4414 450b 451c c4dc c4fe 44ec 4306
c464 c5b5 44b8 c48e c582 0000 c591 c498
44ae 4498 c4dd c51f 4525 c490 c550 c480
459a c2b8 c62c 454c 45b5 c547 4591 c58b
c48d c61b 443b c5af 447e c48d c200 4543
c412 c300 c2e4 4581 c4b7 4605 c4c5 4573
c592 c2a8 c511 44de c485 44f7 c4d4 4330
4482 c610 c4e8 c434 c455 c48a c424 4576
c50a c46a 4540 c542 44a4 c4c5 c547 c5ae
c51e 45ac c382 c5db c5ba c52d c65c c590
44d1 c546 c494 c585 4495 c4a3 4300 c472
44c2 44d7 c587 c4a0 44c7 c3da c608 c624
443a 4504 c563 c5f8 4589 c510 c56e c585
c552 4504 c397 c56f c5fe 4557 449b c5ae
4560 c5f8 c50c c61b 45b1 c4fc c33c c588
c608 4568 44d3 c49c 4562 c563 457a c562
c483 4384 c4c4 c527 43e4 450a c4ba c4fe
c511 c480 43c8 4527 c5b0 c5d9 c571 c4d0
c451 c4f6 c593 c598 c554 453b 4526 c504
c536 4552 453e c5d0 c58a c549 c50d c5af
c61d 459e 44ab c483 c4c0 c453 c3b4 44c6
c507 c55b 44db c4fc c3aa 44d8 c580 c59b
454b c574 c234 c550 45a3 45b3 c45b c617
44be c5a1 4471 4492 4439 4543 44f3 c506
c55a c539 c555 c55e c5e6 c507 c366 441e
4532 42e8 c5b2 c44c c42a c4d7 c531 c4c6
c522 c3d6 4569 4488 c5ae c5ae 4564 c586
c59d 4487 c596 c5de c3d8 c5cb 44c2 45fe
c2c4 c3e2 c50e 44e3 c4af 4596 c350 4524
c5bb 450b 4527 4561 456e c52c 4532 c4d0
c4fa 446e c50a 44ed c3ed c2f2 c5c2 4512
c5f5 c495 c639 c4b2 c50d c4a5 4490 c532
c52d c4d2 4518 43f4 c40f c491 4314 c4e3
c4a1 c5af c396 c54b c5b5 c394 c5bc c4c0
44b3 42e8 4582 c557 452a c47d c51a 443c
44fd 4467 c60c 4551 456f c557 44c0 c582
4220 c60d c3ff c4f0 4441 44b5 4401 45b7
c529 44a9 c39c 4556 c556 4518 c4cc 4570
c5c2 4485 c52c 445c 42fc 41c0 c4b4 c410
450f c5ea c514 c510 c4ed c493 c42d 4571
c4ab c497 4548 c51e 458d c446 c5a5 c55d
c563 4537 c44d c59e c5c8 c334 c65e c574
4541 c52a c4eb c555 c2a0 c518 4413 449c
43bf 44ec c599 c567 c41b c49f c5ec c624
c398 c280 c545 c62b 452c c5b5 c563 c59c
4485 44e1 4409 c565 c5e2 45a2 c3d2 c558
4501 c5c0 c494 c634 451b c5a6 c547 c56c
c5d5 44d8 4441 44ad 43f8 c5a4 4584 c593
c4fb 4510 c504 c4a6 4485 4576 4482 c543
c578 c4e4 c452 4408 c5b3 c5d7 c50c c1d0
c4f6 c51a c591 c586 c59a 4556 4525 445d
c472 4484 4586 c5b4 c5a0 c5a3 c567 c5ef
c5ca 44ca 44c1 c4b0 42b0 c523 c4fa 452c
c464 c54d 44f8 c4b1 c24c 43d6 c4ca c441
4542 c593 430a c4ee 45d5 45a6 c4af c626
4519 c5bd 4340 449e 4080 4438 44fe c45c
c587 c531 c527 4430 c5a0 c536 c508 c337
44f8 4511 c57b c208 c4ee 442e c4d9 c47b
c49b c544 4576 4556 c571 c5c0 4370 c593
c59f c501 c5a1 c51e c494 c5b8 c526 45ce
4436 c462 c53e 448e 4431 45b9 c429 4516
c583 4502 4526 454f 4595 c565 4494 c31d
c570 c374 43ec 4444 c4b9 c453 c58a 44f7
c5c2 c510 c634 c492 c583 c51e c2c4 433c
c531 42dc 44be 4538 c447 c48d 450e c586
c52e c5d2 c3cb c528 c59a 44e6 c5b8 c516
44ab c44a 4328 c4e2 44cc c496 c511 4264
4520 44c3 c643 452a 4563 c3f0 4530 c56e
c526 c61b 44b3 c520 44d7 44c4 c420 44a3
c3f8 4384 c465 4580 c545 45a4 c540 457e
c51b 43b2 c526 447b c4b6 4510 c4d6 c45a
452a c5fe 446e c47e 43b4 c41d 4414 4516
c3a8 c482 4504 c51e 4552 c52f c55a c58e
c52e 458c 44b1 c5ce c597 c4e5 c669 c5a4
4536 c520 c43f c591 449e c4ec 443a c50f
c408 4494 c594 c406 c4a0 4330 c5fd c616
4467 c45d c575 c605 4558 c59a c58e c569
c3f2 44b5 c48c c599 c5ce 455e c47c c586
451a c5a8 c4c8 c626 44ca c577 c4a4 c57e
c5f5 4501 44da c308 4502 c5a4 4554 c548
c534 4306 4482 c4b7 4310 44bb c323 c426
c595 c573 c51a 44bd c59b c5c8 c544 c364
c4dc c3d6 c59b c5b2 c520 4510 4462 c4d0
432b 4537 450e c5ea c547 c57a c4e4 c5a1
c5f4 44ad 4436 c4e7 4386 c422 449a 448b
4218 c57b 44f7 c535 c444 4531 c567 c5d0
44bf c559 450f c5c4 459c 453f c491 c631
450b c5cf c3e8 43d8 441a 452b 4429 c54c
c581 c50f c534 c57c c5b0 c524 c4de 448c
4422 437c c5e2 c518 c39c c452 c531 c4ca
c4a3 c48b 4584 44d0 c58d c586 4480 c57f
c59c 4328 c588 c59f c2ac c5cc c530 45de
4481 4422 c4ec 4337 44d2 457b c33c 4584
c5a2 4514 455f 456e 45a1 c556 449e c4f6
c581 c35e c51f 4401 c353 c4f7 c57c 44e0
c5c9 c56e c624 c552 c51c c482 c484 42e8
c548 c2c0 43f0 4542 43c3 c4c8 4480 c58b
c418 c5e2 44ce 4484 c5a6 44cb c59e c4b2
451a 4481 4519 c43f 44d8 c312 c4df 4517
451f c46b c629 4535 459a c4c7 4541 c566
c42a c619 44f3 c564 44f7 c438 c504 4573
44a8 c4a2 448f 455b c4c0 4546 c520 44d7
c58d 4368 c51e 4420 c532 4446 c427 c300
453b c5f2 43f6 c518 4500 c52c 44e0 4552
44ad c48f 457b c546 4515 440a c550 c5a3
c50e 45d5 c304 c5be c5b6 c517 c64e c566
4522 c518 c43f c59c 4549 4474 c551 c564
c44b 4492 c589 4485 4420 43ec c5d4 c629
c224 c3d8 c5be c5ed 452c c548 c552 c57c
43ec 44b8 c4ca c590 c5b3 4515 c3a0 c595
c3de c5c6 c43d c60c 4521 c551 c4bb c548
c603 4538 448a 44da 450b c593 4562 c533
c4a6 4470 c437 c565 4411 458d 445f c4b2
c568 42d0 c483 449e c5e1 c5a7 c4be c4df
c4b0 c240 c5da c581 c492 4588 4521 c500
c537 4588 44e0 c5ab c4f1 c551 c420 c598
c5c3 4565 451d c434 c3f6 c418 4552 454b
c2c2 c57e 459d c4d7 c3ee 4510 c51e c579
4594 c58b 4585 c57b 4585 45c1 c416 c630
44f6 c5d7 c555 c3a2 c3ae 454d 4547 c4d2
c587 c558 c490 43ed c5c0 c552 c438 c396
c47d 448c c5aa c473 4498 c4f0 c550 c4ba
c404 c501 4559 4521 c56c c5a3 451b c583
c5b4 c559 c5a7 c500 c4a4 c57a c3b6 4600
c463 c2a8 c513 c412 44e8 454e c516 4571
c577 4511 452f 44bf 45a0 c592 430e c4ed
c5ba c238 c567 c50a c503 43e8 c5c9 c480
c5af c584 c62a c52a c4ad c460 43f2 44ad
c537 c4bd 44b0 455b c47e c41c 4405 c529
c4db c594 4464 c420 c50e 44b6 c5ab c4ae
4478 43cc c320 442d c438 c4c4 c521 4504
44c6 452c c612 4550 4561 c47c 4583 c4fc
c564 c615 441a c599 4500 443f c500 44b0
c3b9 4540 c4ea 4544 c1a0 44de c578 4590
c5c4 421c c484 4499 c542 4468 c42d 448c
455f c5de 4100 c515 c4a0 c4de c4ec 4581
c442 c484 457c c54a 4496 442b c545 c592
c48a 45d0 c347 c5af c5b4 43ea c640 c566
44f0 c58b c4de c59d 4560 4402 c53b c54e
c4e3 c290 c598 c4d1 c4ba c470 c5dc c60b
43d8 c487 c5b2 c5d6 44dc c588 c55c c552
c42e 4508 c491 c56f c59c 44f4 c4ee c55a
4436 c582 c52f c601 452f c585 c495 c583
c5e9 4482 4507 457c 4518 c5b2 458f c503
c524 4510 c320 c4ce 44be 4524 44ec c4de
c5a2 4410 c584 44a6 c5f4 c607 c4c1 c36a
c49c 4478 c5b0 c59c c506 4593 44d6 c370
c3ef 44ee 44fd c5f6 c480 c564 c44e c5a2
c601 4580 44e7 c4f0 c4c8 c3de 44de 4508
c329 c510 45bc c579 c394 4535 c49e c5a4
4520 c509 446b c5c6 4567 45a6 c4dc c63c
4457 c5e6 c4ba c498 4427 4563 455f c48a
c5b6 c504 c513 c45c c5ac c4a7 c538 44b0
c480 430c c58e c508 44af c4ab c533 c58f
445d c308 45b1 455a c58e c578 44ea c5a8
c57d 4399 c593 c547 c4a3 c539 c524 45e8
44bc 444a c4da c4ba 44a6 44be c512 4528
c583 44e4 452c 452a 458d c522 451e c44e
c583 4460 c45f c4ba c485 c398 c594 4308
c5cd c522 c611 c4b9 c57b c2b2 c2d0 c462
c55f c441 4421 43df c2f8 450a 442a c53b
c51b c5a6 44c4 4485 c555 4514 c55a c47d
4550 449c c419 4477 c3c8 c454 c43e 4509
453f 44da c5ac 4560 45a4 c539 45a4 c55a
c478 c60d 4492 c5a4 443a 4416 c384 4522
c457 4542 c527 4516 c451 4477 c53d 4596
c5bf 4481 43a4 c34e c4e9 c3c4 c4fe 4506
4508 c5cc 43cc c396 c4c5 c512 c470 4513
c4a5 c51c 454b c550 453b c52d c520 c592
c4e7 45c0 c476 c5a6 c5be 433a c636 c588
c39c c51e c4b6 c5b4 44dd 4425 c518 c411
4374 437a c596 c475 44be 4470 c601 c614
4484 c519 c554 c5b2 44e3 c528 c57d c50c
c493 44cc c4a2 c56e c5a7 4597 c2d0 c52d
4530 c543 c419 c5fa 44da c553 c298 c53f
c603 44bc 4520 c382 43a4 c5c4 4538 c556
c412 44e5 c309 c54d 454f 43fe 4460 c516
c587 c486 c4a6 44dc c555 c5ba c4dc c491
c43e c496 c540 c58f c502 45a1 448c c475
c4d3 4536 44f7 c5bc 4448 c4a2 c546 c5d9
c5b0 45a0 4488 c411 4436 c402 c44f 44d6
c4a0 c544 43ea c54b c3e1 44d8 c566 c544
4544 c4ac c505 c4be 4590 4595 c403 c61d
44c4 c5e1 4342 c44a 44d7 454f 450e c426
c4ed c562 c556 4378 c556 c4bf c53b 4489
4260 4490 c5dd c425 c3f8 c506 c50b c572
c4bc c523 4563 45a9 c57a c58a c430 c5b9
c539 433a c57b c55b c460 c529 c507 45e3
44b6 c427 c576 41f0 44a2 4581 4250 4512
c5b3 455c 450b 452d 45a8 c532 453b 43ce
c51d c400 43ae c41d c333 c412 c584 c3b8
c5ca c4da c60d c4a8 c529 c483 c4c0 c4cd
c53f c443 44f4 4588 44d2 44e3 44c2 c572
c4ce c5de 4516 c498 c5a5 458a c5c5 433c
457f c220 445d c41f 44c4 c3db c436 4522
4513 450a c5e2 4552 459c 43ed 44e3 c562
c484 c61b 4485 c180 4480 449c c42e 43ca
443c c4e4 4462 450c c364 44a7 c583 4572
c5a2 c462 c468 c3bf c49e 4424 c4ee c42a
4504 c5e5 4517 c4ee 4526 c524 438c 457a
4483 c4a9 453b c49a c360 c522 c54c c596
c4d1 45b4 4432 c572 c56a c4ea c644 c597
44de c524 c49a c562 44ac 43be c4fb c594
c40d 4503 c5af c3fd c504 c364 c5e4 c60a
c3b0 c42c c564 c601 452a c550 c52e c536
4478 4489 c4ff c59b c5a8 4566 42b8 c564
4425 c599 c401 c605 c56b c585 c478 c579
c60c 4496 447f 43d0 44eb c5ac 454f c596
43fa 448b 42b6 c494 4498 4532 4492 4493
c552 c51f c433 44b2 c54b c598 c4cf c49b
c4cc c510 c58a c58e c4fd 45bc 4568 c508
c4c4 44b7 454e c5f0 c508 c50c c55e c5af
c5b9 44de 4405 c41c 4388 c498 4472 44d6
c455 c57d c407 c43d 4510 44e1 4330 c530
44de c5a1 43ae c4a2 4571 458a c47c c602
44b8 c5e6 c45e c464 44bd 4555 4514 c47e
c514 c566 c4af 4398 c5a1 c4f4 c46f 4424
c45c c45c c5c2 c511 4431 c4a8 c50b c4a7
c48e c4f6 45a4 44e6 c581 c523 c444 c58a
c54e 444d c54e c58c c401 c59a c49e 45a2
454a c35a c530 443c c496 4595 c481 44d8
c5f0 4544 44fd 4589 457b c530 4525 42b8
c47c c508 c4a3 c4c4 c4d1 c452 c586 4444
c5c8 c548 c615 4280 c572 449a 44b5 c3f0
