bd16 bd48 bea2 3f1f bee4 beb0 be4c be46
be51 3e1b 3e81 be0f be67 3d7f be51 bac0
3eee 3eae 3e44 bdae 3e09 3e88 be30 befd
bed5 3e14 3ef6 3e01 bdd8 3e25 3e22 bf34
be74 3dbe 3db6 bee1 be4d be2a 3e21 bf62
be5f bd1f 3e24 3c20 be8c 3cee bd88 3ed8
bf07 befe be9b be42 3d14 bf55 3f2d bf26
3e86 be3a 3e47 bd98 bed4 bf62 be8b 3de0
bde8 befa 3e1d bebc bf15 3c7c bdb6 3e89
bd60 3e46 be85 3dfb 3e49 be24 be72 3e7a
3e40 3d93 3b88 3ec4 befc 3eb3 becc 3ebc
be95 bde4 be85 3cc8 bf63 3f11 3e7a 3e72
3d00 3ea1 3e86 bebc bd6e 3cf8 be88 3c60
3ed0 3d72 3e1a 3c18 be09 bed8 bebc be7a
bedd bde6 bf6e bf01 bc0b bda8 befd 3c3e
3e7e 3d86 bb60 3d72 bdbf beb0 bf12 be04
3d7e beb3 be91 befd 3ed0 be3e bde4 be1b
bdbc 3d03 bed9 bf15 bee8 bea0 3e41 bf04
be7c bf2a be52 3ef8 be86 3c00 3e8d bec2
3e5e be64 bf00 be2f 3ccc 3e3d beb2 be04
3e88 bef0 be05 3e34 beec bd8a 3e54 3f0a
3dbc bdca 3dac bd41 bed6 be3d bd82 3ec2
bd9b be74 3deb be9c 3e5c 3efe 3d10 3e38
3c54 3e65 bdbb be00 3e4b bdb0 3edc 3f05
bed4 3f79 bedf befc 3e52 be69 be51 be32
3e5a bf40 3f1f be63 3ed6 bd19 bed5 bf72
3e7a bd86 bd8a be6d be31 3c78 3edb be87
bd10 bf7b bebd 3d24 bf3e 3e70 be43 bee0
3c88 be82 bea6 3ea7 3f9e bc00 bf17 beac
be60 bea8 bdde 3e20 3e35 bf7d 3dec 3ed6
be97 3f62 bf23 3e3a bf33 3df2 bd60 3e18
be2f 3d8b bdbc be38 3e8a be82 be63 3d74
bea4 be8d be8d bf1d becc be54 3e28 bef5
bef6 3ed4 bf26 bdf8 bf2a bf1c bcea bec2
be49 3e94 bf0b 3d34 3ddb bf0c bd48 bd1c
be86 be03 bf32 be40 be0d be8c 3d1e beaa
bec4 3e13 bef0 3cc0 bf4a be36 be90 bddb
bcf0 3f07 3f03 3e61 3d64 be90 3daf be73
3e0d 3dc9 3e89 bdf7 bda2 bedc bd93 3e48
beb2 3e98 3dac bdee 3ecd bef2 be34 3d38
3e8c be04 be87 3d8b bea8 be15 beb0 becf
be26 becc 3c86 bd8c beb8 bee5 3e1a bec0
3ef2 be87 3e38 3e73 be09 3e11 3e7b 3f39
3de6 bedd 3e69 bdfe 3d5c 3f0f be7b bce8
be8b 3d86 3e7a 3f09 beb4 3d02 3e88 bd36
be69 bf02 3daa 3c9c 3cd4 3f8d bf0c 3e21
bdf6 bdd4 bc90 bd8e 3e5b 3e2e bea2 bea5
bf29 bed4 be60 bea2 bd70 3e10 be95 be13
3e31 0000 3ba0 3d88 3ead 3de9 be82 3da0
bf8e 3eb8 bf26 be11 3ee4 3ebf 3e5b bdb2
3ed0 3f70 3a00 bf3f be51 be16 be76 bf37
be83 3e5c bd18 be01 bf2a bd5c be00 3a80
bd74 bea5 bf1f bf04 bd8c 3dd6 be28 bdb2
3ef9 bea8 3f84 be90 3db2 beb6 bc60 be8f
bd80 bed4 3d64 be96 3ac0 bf07 3c4c bc48
3eb8 bf1f bee4 3f04 3e6c be90 bd2b beb2
3f43 3e81 3e8e be8f 0000 3d18 3e8f be8a
bf0b bdb2 bf58 bf17 3f8a be9f 3e4f 3d81
be4b beb2 3ea7 be5a 3e61 bf41 be83 bd4f
be80 bcaa beb0 bea9 bef4 be99 bec2 beba
3c90 bd08 bd0a bf03 3e60 3c08 bf3b be8e
3e6c be80 be2a 3f0b 3ecd bd76 beba bef2
bec2 bee0 be15 bc38 be05 3cd0 bdd6 bea8
bf1e 3efb 3d93 bcf0 3e1e bed4 bec2 bd7a
bdab be4e bdde 3ebe bee0 bdfa bec6 be75
3e52 3c10 bd1c 3daa be06 be5b be2e be34
be4e 3e41 3e21 bee6 be70 bcb0 be64 bf0c
becc bdd4 3e82 be2e 3d44 bdea 3b00 bf1b
be98 bd82 be83 bf19 be7c 3df0 3e3a bf36
be19 be3b be19 be93 bd94 bedc bebc 3c0c
bf4e bf1a beb1 be9f 3c9a bef1 3eac be80
bdd8 be8c 3c84 be69 bf09 bf36 bebd befe
bdff bece bdf8 bee1 beb2 be88 3e30 be0a
bda5 bf04 be5c be1e 3e74 bcba bf08 bc87
3dfc bea9 be12 3de0 bf48 3e9c bf01 3ebe
bec8 bdf3 bf3b 3e98 bf27 bcd0 3d37 bd48
be66 3eca 3eb8 bf18 3cec 3e12 bf16 bebe
3f07 be60 bef0 bebc bebe beff be37 bf17
bec6 be9c bf11 bee8 be97 be92 beb9 3d6c
3e64 be96 be86 bde8 be3e bf3f be49 be0a
3e2a bda2 bee6 bf36 3e97 bf24 be99 be5d
bedb bbc9 bedc bf58 bf02 3d31 be12 bf06
be7a bef2 be89 3ea2 be16 bead 3de6 bebb
3e30 bb00 bf80 be3e be4f 3e0e be60 3e81
bcc0 bf10 bd9e be30 be0e beac bd12 3ed3
3d87 beb0 bd68 bea6 bf5d be65 bea0 3e03
3ca0 beea 3e10 bf17 3c06 3e95 bd3a 3e04
be46 3e16 bd4a bc70 bece bde6 3d1c bdd8
bf3e 3e3c bf32 bf93 3dbc bdd8 be04 bea4
bf01 bf75 3d8e bf10 3e9a be10 beb3 bf48
bd9e 3ea1 bf08 befe bd3a be48 3e2e bea8
bdfe bf35 bf29 3dd8 bf2f 3d0c be88 bf1f
be75 bec9 be3f 3e96 3f03 be54 bec4 bf2c
bec8 bef5 be8e 3e36 3e6f bf60 bd86 3e8c
bef6 3d7e bec4 3e78 bf1e bdfa bec4 3db3
bca4 3dfb be13 bf01 bc29 bf20 becd bc10
beae bee0 bec6 bee4 bebe bed6 bdc5 bedc
bec2 3eba bf1d bebe bf1e bf28 3e81 bf0d
bdf6 3e0f bd58 bebc be1e be83 3e29 bdc6
bebe be62 bf0f bef3 3d98 be23 be5c be84
bef2 3e0f bf5c be60 bf13 be63 beed befe
be2c 3d30 3e04 3e34 bdee bf19 3d5e 3d9d
be40 be9b be1b bdfb bdc4 be60 bf12 3e20
be60 3d92 3e90 3d98 3e31 bebb bee3 3eac
bcac beb4 becc be44 be52 bf2f bd9c be31
be9b bed8 3ea0 be2d beaf bf1a 3da0 bef2
3ea0 bebb 3c98 3e98 be8c be65 3e14 3ec4
3e5c bf14 3e4f bedc be95 3edc be96 be49
beaf bef3 bb20 3e25 bede be8f bdf2 be8b
3e0d bdea be83 3de0 bea8 3eca bee3 3dd4
be03 be4a be76 3ddf bdaa 3e26 be6b be75
bf6d bf02 be45 beff be41 beb8 3d8c bef3
beaa bd00 be5c be70 be4a 3eb5 be8d 3e42
bf97 3f1a bef6 beca be71 3da9 3d9a bc43
becf 3ede be36 bf1f be0a be8a bf01 bf56
3dc4 bdfc be22 be03 bf3f be92 be94 3e60
bd83 bf22 bf07 bf0a 3d23 be23 bf0c bece
3e9f bd58 3ef5 bea6 3da8 3c18 bec2 be9f
be68 be32 be39 bee9 3db3 be44 3d9a be73
bcb4 beb3 bf16 be14 3e2d be67 bd38 be47
bdd0 be67 bd06 bec1 be3d bdea 3d54 bd6b
bf1f bf08 bf9d bf24 3f34 bf0b 3d8b bef4
bef6 bf22 3e40 be0d 3e42 bec4 bdd1 be44
beea be82 beba becc bf12 bd84 beb4 bf0d
be32 3daa bea4 bf15 bd38 bdb9 bf44 bec8
be0b bf04 be09 3cd0 bca4 3d10 bebc bf1a
bf37 beee bf1d be44 bed1 be87 bea4 be84
bf89 3e9e be49 bdc5 beb3 bf27 bf36 beac
3d8f be16 be13 3e52 be62 be2c be90 beb0
3eb9 bd20 3b80 3de0 bd98 bd1b bea2 3a80
3e17 3e57 3e9a 3e40 bd2a 3d50 be9a bf15
bead be22 3d38 be3c be57 bde0 bc10 bf12
beba 3d60 be51 bf44 bd60 3b38 3ef5 bf00
bde7 be6f bec4 be48 bea2 be94 bdf7 3d14
bf5b bf0f bf09 bf15 bd3c bee4 3e87 3e72
bcc9 be96 bdca be91 be9a bf09 bf0a bf30
bd76 be86 3dc4 befd bed2 bd6e 3e3b be1a
be88 beb6 bded 3e2a 3e92 be0c beb3 3e8f
3e36 be95 be9e 3e3b bf2f 3e66 bf36 3e96
be77 be1d bf5b 3ec2 bea5 be80 bcfe bdf6
bd00 3d60 3ec8 bee8 bdc0 3e80 bf3c bf12
3f07 bea8 bef2 bdd7 bf1a beef bdb2 be86
bee1 3b00 bf0d be60 bebf bf50 be3f be5e
3e9e bf04 be9d bd56 bd36 bf53 bd34 bdd6
3ddd be07 bea6 bf1b 3e87 bef7 bd60 be92
be6e be60 be42 bf72 beca 3dbc be12 bf1f
bdc3 beca be2e 3f16 be68 bf07 3e53 be43
3e89 bd68 bf96 3c10 be52 3e46 3b10 bda7
3e94 bf4b be9c beaa be1c bdee bea6 3ed6
bdc0 bef5 3e9c bf04 bf31 3cf4 3d08 3e34
bd66 befd 3e00 bf3f bbd8 3e4c 3e6b 3eb0
be3c 3e0e bcfc bf10 be84 bd89 3e5e 3e94
bf50 3eea bf01 bf66 be1c be26 bd9a be8a
bf10 bf8d 3db2 bf17 3e83 3e70 bea8 bf06
bd46 3e14 bef0 bf46 bdcb be3e 3e4a beb0
be0c bf58 bf06 3d34 bf24 3eb9 be22 be8c
be6b be90 be36 3eb4 3e3d befa bf02 bf2a
beda bee6 bee9 3e3a 3ea0 bf30 3cb4 3eb1
bf11 bcca beda 3e5a bf41 bd9f bf10 bd0a
3d2c bb20 bea8 be8c be62 bf08 bebb bd7c
bd3c bbb8 beb5 bf4d be85 be80 3da9 bf05
be41 3ece bee6 bf18 bf4b be7e 3cb8 bf2b
beb8 3f00 bedb be8a bd4c beb5 3e76 3e0c
be9a be36 bf1b bf1a 3e2d be52 bd65 bf0e
bf0a 3e72 bf13 be68 bec8 be76 bef2 be30
bebc 3dfa 3e71 3e98 bf30 beca bc50 3df6
be83 be2b bdf9 3e1a 3d12 be28 bf0d 3d4a
be1b 3e9e be2a be8a 3e0d bef9 bf01 3f26
be31 bf43 befd bead 3da0 bf22 3cc0 be02
be2e bf14 3e5f be13 bf13 bf0f be47 bef0
3ed9 bf0c 3d14 3e29 bed4 3d7a 3e38 3dc3
3e73 bf43 3ed2 bee2 be95 3e87 bf02 bde6
be08 beeb bd6c 3ee4 bef8 bf1a 3e96 be70
3ddc be6d be66 3daf bee1 3e3c beef 3e7f
be3e be8e be80 3eb4 bec2 3e0a be4f bdbc
bf21 be14 bf14 beb6 be1d be91 3c90 beca
bea5 be30 be17 3e90 3dbc 3e50 bf05 3e9a
bfb4 3f0e bec3 be6a beaa 3d89 3d0a 3e66
be9c 3f19 be6b bf28 beaf beac bf50 bf51
3dd3 be8e bbf0 3d2c bf36 be8e bdd4 3e86
bd60 bf5d beb1 bf04 bbc0 be3b bf18 be34
3e67 3e09 3eb3 becc bda1 bdad bec7 bdec
be73 bdda bea0 beee 3e78 bf08 3da1 beac
3e4e bf04 bf1c be52 3d02 3b00 bdaa bf00
be90 3d9c be14 be94 be5a 3b80 3d66 bdfa
bedb bead bfe4 bf1a 3ea4 bedc bda2 be88
be2e befa 3f08 bcc8 3dbc be9a be0c bd63
bec5 bd24 3bc0 bee1 bf03 3d80 beeb bf0e
bed8 3c10 bed9 bedd bd08 bdba bf32 bede
be3d be94 be22 3da0 be4b be4b be7f bf34
bef2 be6c bf75 be3d bf17 be9e be64 bed8
bf7b 3ebd be52 be41 bf1d bf26 bf43 be97
bd21 bddc bdd8 3e74 be98 be88 be4a bc70
3ed5 3ce0 be82 3dec bd94 be4e bec5 be03
3d9e 3eb9 3ecc 3db2 bddc 3cb0 be39 bf15
bede bea3 3dd8 bdce bdc5 be40 3da6 bee5
bec4 bda4 beae bf38 3b60 bd90 3f0a be68
be0a be74 bebc be18 bec2 be9b bd7a 3d08
bf68 bf09 bf08 bedd be12 bf47 3ea8 3d44
3e02 be79 be4d be82 bec4 bf22 bf1e bf1c
bdbc be58 3e08 bf0c be9c be30 3e0c be48
be8c bd86 bda6 3aa0 3f06 be4f bf0d 3de6
bda4 bdac be26 bd08 bf6a 3e5f bf18 3eaa
be68 bdd2 bf3f 3e3f be8b be2f 0000 bdc6
3b80 3d96 3ed8 bf14 be18 3ec8 bf77 bf25
3f2a be85 be9f bd1c bf3e becd bd01 be68
bedc 3d8c bf25 bed2 bec6 bee2 be62 be33
3e2e bedd be9b be00 bc9e bf17 be26 bda8
3f01 be1e beef bf24 3e1c bf02 beb0 bec0
be70 beb8 bed0 bf6a be66 3e93 be0e bf10
be99 beb7 bd40 3f18 be36 befb 3e90 be4c
3e26 be68 bf88 3e74 bdcb 3e0a 3d0c 3d48
3ee6 bf56 bf1d bdc8 bead 3d81 be5a 3efc
bd60 bed7 bc98 bf0f bf3d 3d85 be2b 3f00
3dae beff 3d96 bf42 3c40 3e7f 3ed9 3eac
bdca 3da1 be9a bebb be83 be67 3ea0 3daa
bf15 3f0c bf19 bf71 bec2 bea6 3c60 be15
bea7 bf9c 3e54 bf24 3ead 3e13 be41 bf1a
3d82 3e6a bf27 bf3f be92 be67 3e23 be82
bd10 bf6f bf04 bdc0 bf00 3f12 3cb8 be7e
be38 bef0 3ac0 3eac 3cdd befb bf07 bf01
befc bedc bf10 3d92 3e46 bf2e 3cdc 3f0d
bf57 bd5d bf00 3bf0 bf46 be8c bf45 bd29
be64 3dca beb1 bed7 3c58 bf1c bec4 be46
be1e bc0b be88 bf30 be15 bd86 3e0c bf00
bdfa 3ef3 bf18 be30 bf24 be4e 3b20 bee2
bf21 3f00 bdf0 be9f 3cd8 bef1 3e12 3df5
bec7 be1c bee6 bf13 3e4e be94 be7d bf07
bf20 3e2a beda be56 bead bd85 bf0d 3df2
be1a 3e88 3ebb 3ea4 bee3 be9e 3d5c 3de4
be0a be7a 3dce 3dc6 3ca4 be23 bf0a 3d92
be2e 3ea8 3d3e be83 3e48 bee2 beec 3f2b
be8e bf51 beea be90 bcac bf5c be20 beba
3c8c bf26 3e00 be92 bf2b bef4 bdec bf19
3ee9 befa 3d58 3dbe beba 3e0a 3d34 3e64
3e0e bf0f 3eb3 bef7 be4a 3e89 bee8 3d8d
bdcc bf1a be6b 3eac bee1 beec 3e1a be84
3dd7 bec7 bea3 3c08 be56 3e7e bec6 3d48
bdd0 be86 be6a 3e68 beee be00 be76 beca
bf0a bda5 bef6 bedc be38 bef4 3e96 bec3
beb0 bdb6 be30 bec4 bd94 3dfa bec5 3eb7
bfa0 3ebd be54 bf11 beae be29 3d50 3dac
be6c 3f43 be16 bf0d bdbc be92 bf5e bf3c
bdcd bea5 3e1a be7a bf1a bdc2 be93 3d99
bd4c bf5e bf01 befb bdd5 be59 bf14 bdc0
3e5e 3d3a 3eab bea6 be48 be54 beb1 be14
beb3 be3b be6f be98 3d52 bea9 be5f befa
bb80 bf41 bf28 be23 bcb2 be53 bd2e befc
bf16 3e22 bdcc bed6 be74 3e05 bc70 be7a
be9e bec8 bfbe bf0a 3f0d bee8 be62 beb2
beeb beec 3e50 be19 bdeb be7a be26 be16
beb4 3cac bc60 bef3 bf29 bd78 bea9 bf1a
bed0 bd3c be93 becb bd48 bd80 bf5a bef6
3cd8 bebd beb2 be02 be91 bd48 be81 bf24
bee0 be6e bf78 be95 bf28 beb2 be87 befc
bf78 3ea7 be87 be88 bf10 bef0 be92 be77
bc89 bdc0 bd51 3ec6 bea8 be93 be85 be07
3ed2 3d82 bf03 be18 be66 bd86 bec1 bdb0
be07 3e9a 3eb1 bdb8 bdfd 3ce0 be97 bf14
be9c be68 3dac be82 be12 be58 3d8f bf0e
be2e be29 be83 bf2a be64 bd30 3eea bd3c
be16 bea5 bedf be6c becc bea3 bdf1 bc20
bf42 bef8 bf02 bf18 be8f bf0f 3e14 bdaa
3ef4 be62 be57 be7c bef0 bf3a bf0b bf11
bc90 bef5 bd8a be9a bf0e be53 3e40 bde4
be47 bddb be85 3daf 3e2c be03 bf0c 3db0
3bc8 bd4a bea0 be36 bf49 3e7b bee8 3e73
be5c be51 bf37 3ec9 bec2 be86 bde6 3cc8
bcd0 bd14 3e47 beff be6a 3ef1 bf21 bf1b
3ee0 befc be19 be2d bf23 beb0 bd5a be9d
be98 be28 bee0 be94 bec4 becc be78 be79
3e62 bec0 be92 bdf3 3e6b bf05 bd84 be2f
3ea5 be43 bee6 bf59 3d54 bed7 bee7 beba
bdb8 bddc be8b bf45 be48 3dbf be92 bf0f
be3a be88 bea4 3f02 bd28 beb2 3e7f bd20
bc00 be20 bf40 3e64 be53 3e22 3d65 3d01
3eb4 bf44 bed8 be64 befa 3d96 3dae 3e9e
be01 beb6 3cb8 bf0c bf3b 3d1a bca0 3eb8
3e2d beee 3dac bf28 bd8e bc90 3e78 3e42
3c78 3e8a bcf0 be98 beaf 3d3e 3e21 be98
bf23 3ece bf09 bf79 bdf5 be66 be28 be4f
3ddb bf99 3e02 bf2c 3e5d 3dfd be12 bf18
3d43 3e88 beda bf37 be2f be20 3e4b be2b
3d30 bf37 bf05 bdd5 bf47 3e76 3ca8 be87
be89 bef7 3d44 3e4a 3eb3 bec9 bea0 bede
beee bece be74 3e64 3be4 bf27 3b00 3ef4
bf22 3dcd beb4 bd5b bf19 be14 bf1a be5f
bddd bd18 be7b bf15 be50 bf08 bf20 be3d
bd9a be89 bed4 bf1d be5e bda0 3e4b bebf
bea1 3ecb bf1a be88 bf1c beee 3a80 bef4
befd 3ed4 bdfe be9c 3e7e beb6 3e0a 3d6e
bea2 be3b bf0e bedc 3df7 be48 be90 beca
bee6 3e18 bf02 be48 beda bdbc bf1c be54
bea8 3e20 3ead 3e90 bee4 bf16 3dba 3d78
bd90 be2a 3d9b 3d18 bd28 beaa bf04 3e76
bda0 3e50 3e14 bdee 3e88 be72 bebd 3ee1
bd5c bf10 bedc bed2 bd10 bf51 be1c be76
bdbf bf20 3e0a beae bf47 bf0b be09 bedc
3ee8 bf0d 3c98 3e25 bec0 bd94 3eb4 3e7a
3e14 bf1d 3e4c bef9 bcf2 3ea9 bec6 3df2
be3f bf1b be42 3e73 bf1f bea4 3e54 bedb
3e11 be7c be56 bd1a bec0 3e9d bea6 bdac
bdfe be68 bdc5 3d38 bea8 bdf8 be8c be53
bf13 bdb7 bf15 be89 be09 bebb 3e3e bee7
be85 bce0 bd82 beb4 bd5f 3e3a be42 3eaa
bf53 3ed5 bef2 beed be82 be2d 3d86 3e03
bec1 3f54 be2d bef9 bdf4 be76 bf5d bf46
3d97 beda 3d54 bdaf bf22 bcfc be5f 3df7
3de6 bf44 bf19 bf0f be50 bda2 bee5 beb8
3e88 bb00 3f0d be91 be87 be2c beb4 be2d
bf1a be44 be1d be57 3dbc bed4 be96 bec8
be3c bf06 bf41 3e40 bd46 be30 3df8 bf07
be66 3e11 be0c bf19 be91 3d84 3de7 be60
becf be89 bf99 beb3 3f22 beb3 bd7c beb1
bed2 bf1b 3eb1 bd78 bd36 beee be44 bcff
be85 bd21 be64 bef5 bf36 be10 bebe bf54
be8c 3e20 beed bf0b bd80 3c40 bf4d bec3
3dba bdd6 beba 3cc0 bd0b bdb9 bed5 bf2b
bf09 bec0 bf48 be84 bedd bea3 be9e be86
bf57 3ea8 be82 be6f befa beb6 bec6 be2c
3e89 bee2 bee0 3eba bebc be11 be58 bd7a
3e80 be82 bf01 be40 3db9 be6e bebe bcd8
3d24 3ecb 3e9e bec1 be2d 3ce0 be73 bee5
bf0b bf31 3ecc bde7 bcb4 bc20 3dc1 bf03
bc90 bdaa be8b bf15 be95 3e14 3e44 be81
bdbb bece be88 be7b beb2 be9e be9c 3b40
bf6f bef6 beda bed5 bdc8 bf2a 3e68 be71
bd33 be88 be5d bec2 beb3 bf45 bf31 beeb
be93 be88 be89 bde3 becd bede 3e7d be43
be3e beaf bd7e 3ca2 3e05 3ddd bf23 bde3
be01 bedf 3c1c be0c bf6c 3ecc beae 3e8f
bed3 be8e bf62 3ecc bf30 be99 be16 3e09
3ca8 3db6 3dee bedc be2c 3f0d bf0a beeb
3f27 bf2f be6c bd1c bef6 beca be2c be3c
bdbe be95 bf18 be82 bed0 befe be50 3c56
3e16 bf04 beb4 bead 3e8b bef9 be21 3dac
3e9f be6a bed6 bf6b 3ea4 bf35 be30 bea4
bdef 3d35 becd bf48 beb4 3e50 be35 beb9
bde8 bdb4 beb2 3f12 3d73 be06 3d4a be23
be34 bd6c bf5c 3e0d be9d 3eb8 3e1f 3dd2
3e0a bf26 beff beb4 be81 bd2f bde6 3e93
bdaa bf2b 3e18 bed6 bec2 3cdc be1f 3e98
3e74 be53 3ce4 beca 3e36 3db4 3e23 3db7
bdd7 3e5e bd0a be10 bf43 bdb9 3c70 bd37
bf19 3eee bf1e bf68 3d94 be55 beb4 be2a
bd4e bfad 3e59 bf11 3eb9 bd8f bdfe bf29
bcd2 3eec bf02 bf20 3dc2 be24 3eae 3c28
bd8c bf2a bf12 bc20 bf12 3e2b be95 bf3a
be54 bea4 3d40 3e8f 3ed9 bea6 bea3 bee1
bf14 bed8 be04 3e86 3e88 bf19 be29 3e56
bea2 3da2 bf1a 3d16 bee0 bd9a bebd 3e40
be27 3db6 be89 bede be91 bed1 bf38 bd68
bebf be64 bed8 bede be90 bc00 bd64 be97
bed6 3e66 beaa be32 bf5c bf23 bd78 bef5
bec2 3e7f 3d50 be28 bb90 beb6 3e1a 3e54
beee be15 bea0 becc 3d97 be36 beba bedc
bf03 3dfc bf40 becc beb7 bcd6 bf2a bdc2
bf0a bc40 3e34 3e71 bf01 bf03 bda0 be85
3dc6 bd8e 3d62 be0b 3e1a be8e bf0c 3e2c
bed1 3dc6 3e47 3d01 3e56 bdb0 beae 3f01
3c40 bedb bf01 beb3 3e18 bf58 be90 bf10
be49 beeb 3e76 be09 bf53 be9f be76 bed0
3ee6 bea4 bcd8 3db8 be94 beab 3ee0 3e64
3b40 bf59 3e28 be82 bc44 3d98 beaa be2f
be45 bf33 3de5 3ec8 bf14 beed bdda bea6
3e6c bec8 be14 bcf4 befa 3df8 bee3 3d84
bd16 be12 bdfe 3e76 be41 be07 bed9 bec7
bf16 be28 bef0 be97 be3d bea5 3c40 bef5
be4c bd78 bd24 bdd0 be06 3d7a be98 3e83
bf7c 3ef9 beb5 bf35 bd8e be7c 3e14 3ce8
bef4 3f09 be89 beb6 be52 beb2 bf2a bf35
3d4e bd52 3e3c bd8f bf33 be2f bec6 3e8c
be12 bf4e bf08 bee5 bc70 bb40 bedc bf06
3ea2 bb90 3e8c beca bec6 3dbe bf06 bebd
bdf4 be38 bec6 bee6 bdaa bf07 be98 bef2
bf0c bebd bf36 bd0c bd0c bee8 3cba bf14
beec bd34 be6e be9e bea3 3d64 3dd2 bec9
bf1c be95 bf92 befb 3f38 bf09 be0e be89
befc bf26 3eb5 be24 3e6c becd be8a bd39
be88 3d22 bdac bef8 bf00 bd64 be8a bf92
bed8 3dc8 be8c bf0e 3c40 bde8 bf3b be67
bd4c bdd0 be8e bd80 3e40 bd9c bef5 bf04
bea5 be9e bf37 be8a bec0 bed0 bede bdc4
befe 3e86 be8b bdd8 beb7 bf05 beca 3e74
3de0 bed8 bea2 3ee0 be88 be35 bdac 3cb0
3ded be84 be50 bdee 3c48 3dad be85 3e2e
3f09 3e4e 3ed5 3dc4 3e38 beb3 be64 becd
beda bf0e 3e6a 3c98 be8a 3e92 3eae bf6f
bdb2 bda8 3c98 bf36 3b60 be02 3ed1 bedb
bef5 bef3 be5e bc60 be88 be0e be67 3ee2
bf4b befa bed2 bf7f bedc bf3b 3f10 be05
3ed0 bd54 be0d be43 bf30 bf52 bef6 be29
3d74 be0a be36 beac bf0a bc84 3dae 3daf
bcd4 3d85 3e9e bd93 3eba beaa bea9 bd52
3ea1 3e41 beb8 3e80 bf2e 3ef6 bead 3f42
be96 be6a beee 3b40 bf16 bd38 3e6e 3e12
3d94 3e41 3efe bf1c be8d 3f1c bf4c bede
3f48 beae 3e90 3e6a bf12 bf1a be8f be7c
be9c bf08 bf6b be63 be71 3dc4 bea6 bc68
3e64 bd0e bd0c bc18 bd14 bf21 beff beb2
3e66 be04 be91 bf5a 3e62 bf1e bdf8 bead
3dab 3dcc be90 bf74 be98 3d1c 3e08 bed5
be7c bed1 bb00 3f46 be8a bec0 3e35 3e97
3da4 bee1 bf1c 3d08 be12 3dc4 be61 3e5c
3f3b bf34 bed7 3e04 bf87 3ec9 bd10 3f1a
3e42 beca bdbc 3d5a bf02 3ec0 be98 3f06
3d8b 3da4 3da8 bf04 3deb 3f06 3e9e 3e14
bc10 3e32 bea2 bd46 3e20 bdc0 3e14 3e97
bf0c 3f6c bf03 bf86 bdce bf01 bdf4 be2a
3f10 bf9e 3f20 bf0d 3e9e 3eeb be60 beeb
3e8c 3edb be48 bed6 bd48 be78 3e95 be87
3dc8 bf2e bea5 bd5a bf50 3e57 3e4c bf07
be2c bed5 3d54 3ee4 3f14 bd44 bec5 bee6
be88 bf08 be8f 3e48 3d6a bf70 3ddc 3f49
bef8 3f0e bf2c 3e68 bf04 3e1a bf17 be0b
becc 3dc4 bdb8 be9c 3e4f be0c bef0 3e08
bef6 be5e bea0 bf4c 3d5c 3e02 3e97 bf15
be5a 3e9e bf20 be58 bf38 be97 bd8b beea
bf28 3f23 bf03 beaa 3e71 bf0e 3e88 3ece
bed3 be0e befa bf1d bd4f bdf2 bc28 bf1f
bec9 be59 bf35 be5a bea7 bd2c bf0e bed7
be62 3ec0 3ea5 3ef2 3db8 bec7 bdb3 beaf
bd0c bd37 3e0f bcf3 3b90 bd20 be7a 3def
bf0c 3f10 3ea0 bd8f 3eb6 bf15 3d0c 3f00
3db2 bf00 bf29 beae 3dae bf1c 3cbc bf2e
bed5 beeb 3e17 be92 bf39 bef4 be63 beec
3f2f bed0 3de1 3ec0 be81 bcfc 3ea2 3f36
bbe0 bf35 3e8e beed bd7e 3e84 bebd 3be0
3e3a bf0a bdd4 3f8c bee1 be67 3ec2 3e50
bda4 bf24 bdc0 be61 bd40 3f42 be8a 3e1c
bdb4 3cea 3d15 3e1d 3e2e be82 bea4 bf26
bf06 be95 be4c be9a bdb6 be9e 3e98 bf4a
beae bd9c be62 3c80 3dfd 3ea4 be46 3ec1
bfad 3f08 bf14 bec8 be91 bda0 bdb6 3d86
bded 3f7c 3d2a bec6 3d18 beae bf63 beb8
be12 bd7c bd3a bdcc bf25 3da0 beaa 3df8
3ece bf18 bf4e bf12 3d80 3e00 be84 3e42
3f29 be52 3f47 be0a bec5 bd7c be3d 3d27
bda5 bf06 3e9a 3dfd 3d37 bf0e be4a bf3b
be2f bf40 bf0e 3cac bd1c bcf0 3e96 bf0e
bea6 3e60 be47 bdb4 bde5 be12 3e2a bd9c
bea4 be27 bfb6 bf35 3f5d bed4 be64 beb1
bc8c beee bed9 be40 3e6d bef8 bf0c bd6c
bd9e beae 3d00 bf41 bf02 bdb3 bf14 bf4f
bce0 be16 bdb0 bf08 3f0c 3d7a bf91 bee6
bd58 bd02 bf09 3e28 3c00 be65 beab bf7a
bebc bf00 bf63 bf21 bef6 be08 bcac bf0e
bf51 3eb0 be7e be8c be3a bf28 bf10 3d9a
bdc4 beb4 be7e 3eb6 bf18 be90 be8d be3f
bdb3 be71 bdfa 3e79 befa 3eda bd0f 3e46
3e5c be86 be16 bf02 be7a 3c50 3c7c bec1
bda0 be8b 3edf 3d02 bce8 be10 3e26 bf15
be60 3d88 3d76 bf16 be87 be04 3e94 bf04
be67 be2e be9e 3b60 bb20 3e35 3daa 3dcf
beda bf30 bea1 bef0 3df0 bf0c 3ec8 bedc
bdc0 bed9 3cc5 3e91 bf35 bf45 bebd 3d18
3d5c bf1d 3dad bdd8 bf27 be05 be26 bc86
bd42 be7f be00 3e9c 3f4c bf0a beda bda4
be0e bebb bd08 beac beaa 3e2e bea2 3e8d
beb0 beaa be7c 3ccc bf41 3e31 3e16 3e88
be3f 3e7c 3db5 bedd be92 be06 bda7 be72
3edb bea9 be72 beb1 bde7 bed8 bea6 beb8
be6a bea3 bf16 beeb be4a bd5c bf37 3cfc
3e5d 3d74 bd64 bdad bd62 bea2 bdfb bda7
3ce4 bf12 bea3 bf2d 3eaa bf1f be76 bd02
bcd6 3daa be92 bf4c be95 beb0 3d2a beda
bebc bf0a bf43 3eb6 be2e 3d0b 3db9 bf02
bea5 bf10 bf1e be99 bef1 be6a be44 bdd0
be13 bf2e bee1 bc20 beac be42 bdbe 3e97
bdea be26 bde0 3e32 beb2 be81 be1d 3ec4
bdef be90 bea2 bed2 bbb0 3d48 3daa 3cd8
be14 bcc0 be8a be9e be8b bd65 3d20 3e72
bef0 3f15 be91 bf1b bd14 bd52 bedf be50
be51 bf3a be3b bf05 bdba 3ce0 bdd4 bf4c
3ec1 3d07 bef5 be34 be46 be60 3e3e bdcf
3b00 bf3e bf12 be88 bf17 be12 be48 bee8
bdd4 beb2 be04 3e99 3f0d be86 bf3e bee8
be82 bede be18 3df4 bc9e bf8d bcb0 3e18
be79 3ecf befe be1a bf0d bea2 be9e bd32
bd98 3df8 bf48 bec3 3c34 bef2 be21 be01
be58 beb5 be7e bf0f bee9 be74 3a98 bf26
bf47 3e97 bee7 bce8 bec3 bf21 bdce bd84
be40 3eac beb2 3e16 3ddc bee1 3bb0 be66
bee5 be59 bf1d beea bd7c becc bd25 beac
be80 bd7c bece be2e bf3e be52 be68 bef0
bc90 bd85 be03 3d39 3e90 bf04 bdba bece
beb2 3d68 3ed5 bea0 be89 bf14 be9b bea0
bef4 3e9b 3e6d bead 3e0a be97 bef4 bea0
3e39 3d40 bf0a be94 bcd4 bebc bf1e be6c
bef5 be12 3dc3 bd88 beee beea be84 be62
3ea6 be89 bcdc 3da1 bd48 3eb1 3e26 3f25
3e18 beb8 be9d be88 3e19 3ec4 be67 3c80
bee3 beac bdf1 3e58 bf22 be15 bc30 be22
3d07 bf1a 3e36 3d54 be43 3f23 bf17 3e6b
be55 be1e bece bdb1 3d12 beab bf25 bda3
bf38 bebe bd78 beef be09 bc30 3cb6 bec2
3c70 be8e bedf bd00 be83 3e30 be9c 3ddf
bf52 3eb9 beb6 bf02 3f1b bd52 bdcf 3cd2
bbe0 3f0a 3d84 beda bd8d beee bf19 bf0e
bdb0 bdb6 be9b bea6 bf0c be1d bb20 be16
bdd8 bf36 bf24 be92 3e45 be7a bf17 3e20
bda6 be04 3ef7 be19 3e75 be33 bd58 bd6e
be86 bee0 3ede 3d86 3db8 bf05 be96 be96
3e69 bf07 beb8 3e37 be2f bf0c 3c90 bd7c
3ec6 3c8e be25 bed1 be7f be76 3b20 be34
bf0d be8a bf94 bf33 3f0d bea5 be87 bc26
be47 bf04 3e12 beb0 3d8d be57 beee bee0
bebe bce8 3d77 be9e bd98 be00 beed becf
3e7e be60 beec bea7 bcbc bdfa bf45 beed
3e07 3c80 bd8a 3e65 3d22 bed2 be7f bf19
bf3c bf24 be31 bdfe bea3 be02 3c49 bec4
bf8c bd9c 3cb4 be29 3cc0 bec6 bf41 3d32
be7b bf03 bea3 be1f bed8 be64 bf20 be5b
3d1c be6d be0c 3de4 bebe 3e42 bdc3 be06
bc70 beca 3cbe bed6 beb4 be9c be65 befd
be3c bec5 3dd2 be34 bd3c be6d be5b beea
bdc0 bef7 be57 bf0f bdcf 3d0b 3d64 befb
bda2 bd85 bf41 be00 3e92 be42 bcc0 bdb4
bec4 bf0e bec6 bf01 be17 be84 3e3a be6c
3d86 bda8 bed9 bbb0 bed4 bf38 bf04 bef2
be24 bf09 3d84 bc78 beb1 be47 3e13 bebd
be27 bf5a be68 3e20 3e92 be6c beca be9a
bc58 bede be90 bf1e bf32 3d5a be27 bcf0
bf1e bf17 bf18 3e2f bf17 3e41 be35 bde4
beed 3e13 3d85 bf27 bc3c 3b05 be6a bf15
3dcc bf18 bf63 bf3c bf09 bf04 be88 beff
bf1e be9a beba bec8 bed5 3d9e beab be38
bda5 be81 bde2 bdd8 be9a bf37 be48 bd50
bb60 bee5 bf23 bf5a bcd8 bf03 be7d 3d99
be8c bde8 be78 bf27 beb8 be60 be6c bf04
bebd beab bf2b 3d54 3e34 be0a be40 be22
beb4 be87 bf2e bf0b be94 be9c be9d bb60
bf5c bf0a bf1c bd1c 3dd8 be85 be0e 3dbb
3da2 be37 be81 beb8 bf12 bebc 3c6a 3ca2
bd73 be48 bdba bf33 3d38 bd0c bd8b bd94
be8c 3df6 be84 bee8 bef5 be4c 3e9d be04
bf00 3e75 bf12 bf69 be44 be0c bf1f bec6
bf4d bf0d bf10 bf50 3dca be89 be5d bf5c
bd3a 3e7f bf1d bf03 be47 be47 be8c be94
be0e bf1b beac be8b bea7 be8a bea3 beb2
be3c bef9 bcec 3e99 3c8c bea6 bf20 bf1d
bea9 bf28 be3e 3e92 bda8 bf8e be8a 3dea
beae bdf4 bed2 3e20 bf58 bee9 beb6 bdac
beba 3e88 bf05 bea7 be2a bf36 be66 be0a
be6a bf3e beec be38 beb8 bf28 bea6 be83
beea 3e48 becb bebd becf bf78 3b46 bc98
beaa bdf1 bebc bed4 beaf be99 be0a be01
bf16 bed7 bf5a be5a bc4e beeb bdd0 be0e
beb4 beba bf0f be93 beff bed4 bed4 bf48
be6b be0f be24 3d67 3e96 bf2b bdbc bec0
be69 bda8 beaf bd47 be7d bebe bebb bec0
be14 3d48 3ec4 bef2 be62 be60 beda bd87
be8c be5a bf27 bf26 3e08 bed8 beba bf02
bf00 bd22 3e9e 3bc0 beac 3ba0 bf2e be88
bd9c bee9 bcca be11 3e02 3c5c 3e82 3efa
3e33 bf37 3d33 bef8 be4a 3d34 be3c be15
bf09 bf08 be3a 3a00 bf43 be4b bc10 bed5
3e12 bd9c be6e 3e1d bf0f bd10 be8e 3e54
bece be97 bec1 beba bf5b bf1c bf2a bf1c
bf09 becd bf34 be42 befa bea6 be7b be01
bd90 bf1a bf03 3e08 beca be0a bedf 3e5e
bf69 3e8d bed8 bf36 bd46 be1a be96 3d8d
be36 be27 beaa bde3 be5a be97 bf1e bf23
bc84 be32 bea5 be1a beee bec8 bea5 be92
be0f bf7a beb3 bea3 3e30 be02 bf1e bdc6
beaa 3dd3 3e3e be47 3e8b 3e9e bebe be7b
bf12 3be0 3d20 be9e be85 bef0 be0e bf01
be7a bf21 bf46 bea2 3d6e bf3e bebf bd98
be1b bd0c be70 bef8 bed4 be5b bec6 bcd2
bebc bf01 bf88 be8a 3d48 bf01 be49 be72
be82 bee0 3da7 be2a bda9 be78 be43 bedc
be40 be12 3d9e be74 bea6 be3a beb4 bf34
bd82 bebe bd46 bef1 bd88 be7e bedb bee0
3d42 beda 3dda 3d8c be4b bec4 be33 bf3f
bf3a bf62 bf0a bec7 bf12 bcf3 bda4 be6e
bf3f be32 3d80 be69 bee8 bedb bf07 be86
bea7 beb2 beb6 be36 be88 beae bee2 bdec
3ea3 be50 be00 bd7c be63 3e3c bda7 3e24
bdcc bede 3d78 bec1 be97 be88 be73 bf18
be43 be85 3c80 be60 3d38 be2b bed4 bf01
be87 bebc bec9 bf54 bda6 3e4a 3e36 bea6
be5a be38 bf4c be8a bda4 bec0 be15 bd1b
bea0 bf0b bec8 bee6 bed6 be14 3e58 bd82
3cfc bd7c bf1c 3d16 bec8 bf24 bf27 bee3
3e02 bee6 3e04 be14 bec1 bdc7 bce5 be91
be56 bf2f be69 3dfe 3e8c bdd0 bec1 be88
be1b beff bf03 bf06 befa ba00 bee7 3eb1
befe bee5 bf1e 3e93 bedc bdd6 bdd7 bdea
be43 3d58 3e30 bed1 bdd4 3d0c beed bf2a
3e86 bf0a bf5d bf24 beed bf2a be7c beb8
bf26 be01 bef5 bebd bed6 bdce bea8 be6a
3d38 bed5 be46 bd63 bdd5 beef bece bd8a
3e08 bea3 bf34 bf4a bdd6 bed9 bed6 be20
bc2d be20 be2c bf2b be96 3e80 be9b bee6
bec3 be9e bf34 3e28 bdb1 bdeb 3ca0 be5b
be0c be86 bf30 bee8 beae bcc8 3bd4 bdea
bf66 bf00 bf28 bdca be54 be38 bd0a 3e19
bb80 be41 be90 be46 bef5 bea8 3c24 3e2f
3deb be80 be6d bf26 bca8 bcc0 3daf bc60
be9c 3bc0 be5b bf18 beb8 be43 3e62 3d00
bf17 3eb4 be9e bf3c beef be08 bef3 beaf
bef1 bf48 bf0c bf67 bd80 3d93 becb bf43
be90 3b40 bf04 bf2a beb2 bde4 be76 be2f
bdc3 bf2c be7e bf0e be68 be1a bde3 ba00
be10 bec9 be00 3e29 bd56 be7c bed9 bf50
bebc befa be25 3e99 be58 bf41 bec4 3e6b
bf54 be9a beb9 bd54 bf41 bf3f beaf be37
bf06 3ebc bf07 beb5 be6e bed3 be76 bedd
be28 bef2 bec0 be2f be9e bef6 bdb1 bec6
be4c 3e1d bf16 be89 bea2 bf5c bd3c 3e79
beb3 3dbe bf27 bed2 bf08 bf10 be9c be21
bf0a bea7 bf32 be85 3db6 be7a be32 be08
beb0 bf00 bf03 be8c bec0 bebb bec4 bf46
be4a bde7 be58 3e9e 3d02 befc bd7f bee2
bd9b be20 be89 be83 bd40 beaa bf0c be63
be07 3e7d bda9 bf05 bdc3 be74 bec4 3ddc
bee2 becd bf32 beec 3e44 beb4 bf14 bec1
bed5 be70 3dfe be3d be8e be9f bf3b be84
3cc2 bf05 be83 bdcf bdfa be27 3ec1 3eae
3e9c bf07 bd18 bef1 be4a 3ca6 bde1 be0a
bf02 bf40 be92 bd62 bf68 beb2 be1b be84
3ec9 bec3 be52 3e1d bf12 be60 bea5 3e18
bee7 be9c beac bea2 bf60 bee9 bf17 bf1c
bec6 be6a bf32 be8a be88 bf15 be74 bdb0
be47 befc bf17 be3b bea2 be48 be4e 3e4b
bf81 3dbb bdc6 bf60 be96 be74 bea6 3cba
bba0 bd3c bebb 3a90 beb9 be5a bf56 bf1d
bce0 bed2 be9a 3e2d bf19 bf11 be21 beb8
be15 bf89 be66 be8d 3d9b be10 bf20 3ded
bf09 3d30 be15 bde0 bc48 bc90 bf32 be20
bf05 bd84 bc30 bdcb be38 bf38 3e41 beff
bd8d bf1b bf66 be95 bd74 bee4 be6f be04
bef0 be62 be9a bec6 beb0 be8c be9f be2a
be62 bef4 bf9b be7e 3e4e bec6 be8e 3dad
bdbb bea6 3d66 bc40 bde2 be4a bea5 becb
bd7e bb80 3e36 beb7 beb8 bd6e be93 bf19
be87 be5a be81 beb9 bd8f be30 bf13 bef3
3b40 bf03 be3c bd1e be75 bec2 bda2 bf04
bf0e bf73 bf3e bef3 bf00 be87 3e46 be60
bf2f bd86 bd10 be03 bf12 bf3b befe be9c
bea6 be9a beb7 bba0 bee6 be9a bf0d bd10
3ee6 be2e be9a 3b70 bea2 3d36 be6a 3e5f
bde0 be98 3d8a bedc becf 3d30 be96 bf00
be0c bec9 3de4 be3b 3de5 bec4 beed be98
be8c be37 bec2 bf2d bdbb 3e2e 3db6 beb6
be58 be69 bf40 be5d be42 bea2 3da0 3d7a
bebc bf08 bec0 bed2 beaa be9f 3e21 bdc5
3e2e be1f bf18 3e06 be93 bf28 bf10 beae
b980 beed 3e5a bdc1 beb5 bd60 bcb4 bed7
beb0 bead be6f 3dda 3e99 be4e becf bea8
bebb bf0c bec4 bf36 bf0c 3da2 bec0 3e86
bee1 bf08 bf09 3e31 beb1 be51 bdfe be81
be86 3cbc 3d00 bed4 be87 3de1 bef8 bf2c
3e6b bef0 bf46 bf0c bf06 bf1a be9d be9a
bf07 be12 bf06 bedc beae be02 bee8 bea8
3e18 be93 bce4 3cd0 bd12 be9f bef8 bdd4
3e3e bec7 bf2b bf46 be2c beb2 be4c be2d
3d8c be4e be9e bf36 beab 3da3 be64 beb0
bea2 be93 bf28 3e34 3d12 bd88 bc60 bdb9
be79 beca bf41 bf06 be86 3d21 3dbb be2d
bf5e bf0a bf52 bde8 be8a 3c46 be08 3e2c
bd44 be30 be62 bdf5 bf10 bdcc bd91 3e5c
3e4b be86 bebe bf37 bd10 bde4 3e61 3c92
be85 bb40 be94 bf27 bec9 be2a 3e86 bd38
bed7 3ec4 beac bf54 bef7 bdde becd be90
be32 bf52 bed8 bf50 be6e 3e0c be81 bf58
bebc bddc bf0c bf3a beb0 3d59 be66 bdcf
be00 bf44 be92 bf36 be2e bc20 3cc0 bc40
be74 beaa 3d82 3ec2 bdfd be7c be84 bf5e
bea0 bebf be6e 3e35 bec4 bf3c bedc 3ee0
bf84 bee7 bee8 bd70 bf3b bf2f be9c be2e
bf18 3e96 bf0a beb6 beb9 be92 be85 bf12
bd90 bf0e beed be5e be9c bec6 3ce7 be92
be8f 3ea0 bf07 bd26 bed3 bf4a 3ce6 3e5e
bef0 3ea2 bef0 bed2 beb8 bf3c befc bdf8
bf08 be8e bf20 bdf2 3e1c be89 be8c bd8b
bec3 bf03 bef2 bec0 bec4 bed4 beb8 bf3b
bdb8 bc30 be4c 3e6c 3dc5 becf bc40 beea
bc48 be38 be35 beac bc88 be94 bf1a be00
be3e 3e50 bde8 befb be26 be6e bf08 3e24
bee6 bebc bf19 bf09 3e0b bee0 bf1b bf08
bea5 bea4 3db6 be7a bebe bea2 bf29 bea2
3d8e bed4 be90 bb54 be02 be59 3ed7 3e78
3e5d bef9 bda7 bf06 be50 be63 3a40 bcc0
bee8 bf47 be94 bd7a bf70 be9e bdbc beda
3ee7 bf02 be1a 3e80 bf02 be96 be4a 3e08
bed6 bec5 beb8 beb8 bf62 bf34 beef bf21
bef1 be58 bed8 be82 be2a bf23 be76 be0a
3ba0 bef8 beef be0f be90 be8e be4f 3dee
bf62 bcb5 bc50 bf5e be30 be98 be12 3de3
be60 3e83 be99 3c85 bed0 bdc1 bf62 bf21
3d00 bef1 be2c 3e31 bf45 bed0 be20 bead
bdf8 bf9f be48 bec4 3e38 be47 bf23 3d8a
bf00 3d08 bd92 be22 be4b be6e bf2b befe
bf19 3dd4 bd96 be22 be10 bf27 3d84 bee4
bea6 bf31 bf60 be56 bcd8 bf22 be5c be9a
beeb be11 be6d bebd be62 beea bed5 bdf4
be3d beea bf8b be6b 3eb9 bea4 bea3 bc40
be8c bea6 3cec be18 bdfe be2f be92 bebe
be10 bca7 3e5c bead be9f be04 be8f bf04
be9e be62 be6c becb be5b bdf3 beff bec2
3e0d be9e bdfd be60 be8e be82 3c80 bee3
bec0 bf5c bf16 bf05 bee9 be23 3d83 bd84
bf1f be53 bd76 bdc3 bf24 bf30 bf1a be6b
beca bf02 bea0 3d27 be9a bef0 bec9 3dc4
3ed5 beb0 bef3 3c08 be9a 3e8b be37 3dea
bdfa bec4 3e54 bedb beab bb80 bebe bedf
bdf7 bec6 3e3c bd9d 3d52 bece bf01 bec5
be22 be80 be92 bf14 bea7 3e15 3e52 be8a
be8f be28 bf32 bcd0 bece bea2 3e10 3d24
be92 bf18 bed9 bec4 bed2 be40 3dad bda2
3e82 bdc2 bf0e 3d84 bf08 bf36 bf02 bea6
3d3c bee4 3d96 bdb6 bed8 be38 bc38 beaa
be40 be75 be22 3dc3 3e85 be94 bef8 be3a
be09 beee beea bf53 beae 3dcb be24 3e2c
bf0a bf19 bf0e 3d98 befb bea2 be85 bea0
be9e bd84 3e22 beee bedf 3d8a beb0 befd
3d88 bf49 bf39 bf00 be68 bed5 be72 be72
bf04 be5d bf08 bee4 beba be4c be94 be85
3d4c be81 3cea 3bb8 3d68 beb1 beee bdf5
3de0 be93 bf24 bf46 be78 beeb be13 bdd0
3e46 be17 be88 bf1c bee8 bbc0 be8b bec5
be74 bea4 bf11 3e67 3e1e 3dd4 bd9c bd82
bec9 be91 bf57 beb5 bead be88 3e0f be02
bf4b bf06 bf63 be60 bed8 3c87 bdd3 3dfd
be72 be11 be8a be08 bef0 be56 3dd4 3e62
3cec be72 bed0 bf33 bdd4 be58 3df8 bbc0
be27 3d98 bf0c bf01 bf07 3cb9 3df6 bdc4
bf01 3e4c be91 bf71 be5b beb8 beeb be88
3e46 bf4f beb9 bf67 bea6 3e4d be54 bf24
be04 bcde bf16 bf26 be7a 3d08 be86 be17
be4a bf2e bea9 bf30 be82 bd2c 3e57 bdf6
be98 bed1 3dec 3ec7 3d7b be34 be98 bf21
beb9 beec be64 3e3a be4c bf47 be6e 3e87
bf32 be88 befb 3e0f bf1e beae be5a beb8
bf04 3e44 bf29 beb5 beae bea6 bede beff
3d6a bf33 beed be77 beb6 bf09 3df1 be8d
bebe 3e97 bf10 be1d beba bf66 3c55 bdb8
bee0 3e52 bead bf0e be61 bf38 bec7 bcc0
bf0b beb1 bf21 be22 3dbc be62 bd89 be22
becb bf0c bedb bec1 befd bed6 bf01 bf41
be05 be3a be3d 3e8a 3cb8 bee3 3dd4 beca
3e22 bdda bdb4 be9a bdd7 bee8 bee6 be13
be7f 3e8a 3e3e bece bdd4 be7d bed2 bd12
be4e be61 bf45 bf09 bd6d bec3 bf04 bf16
bec8 bee2 3e39 bea4 bf06 bede bf0a be70
3dae bef0 be06 3d3b bd98 be00 3f11 3e88
3e50 bf28 bde2 bf20 bdd8 be13 bdc3 3d70
bee4 bf47 bedc bd2c bf8d bed4 bd94 beb1
3e96 bee4 bda7 3e3c befe be0e be9a 3da2
beb5 bed8 beb5 bf07 bf4c bf0f beca befc
bee5 be89 bf08 bdfc be3e bf17 be86 be91
3d82 bf08 bed2 be09 be94 be4c bdab 3e6d
bf4e 3dd8 be28 bf2e bdff be64 bdc2 3e48
bedc 3df5 be9e 3db8 becd be8d bf73 bf44
3cc6 bea9 be54 3e76 bf30 be9e be2d be81
be83 bf7d bebe bf0d 3e1e be96 bf06 3dca
be5c bd95 3d41 be86 be08 be89 bf50 bf15
bf34 b9c0 bb00 be19 bda0 bf3c be58 bee3
bf01 bf20 bf78 be1f 3d41 bf2b bdce be91
bf11 bd19 be3c bece be34 bea8 be9c be38
be75 bea6 bf86 be15 3eae beae bea1 bdcd
bdc4 bf05 3e2d be22 bd60 bec6 bf05 bebb
be5d be44 3de8 be9c bf0e be7a be66 bf1b
be94 be95 bea6 bee8 be24 bd87 bf03 bf1d
bda8 be56 be8b be2b be52 be84 bdb8 bf0c
bf12 bf4c bf1f bf05 bee4 bd6c 3d8b bb90
bece bd4c bc88 bc40 bf06 bf14 bee4 be8c
bede bf74 bf0f bc94 be90 bf14 bf14 bea1
3e32 bf13 bf47 3de5 bd73 3e42 bdfc bd1c
bcc8 be82 3e29 befa be90 be6e be00 bec1
be55 bef2 3dc4 be78 bdb2 bd28 bf10 befb
be6f bd4a bf03 bf12 beee 3e80 3d74 bed8
be4f bdc4 bf2a bea0 be08 be0f bec8 bcb4
be9a bf2e bf14 be7c be90 bc88 3e52 be3c
bd7a bd6c bf06 bdba bf0b bf56 bf2e bee5
be4f bef6 bda8 3b60 befe be1a 3de0 be98
bdcc bee5 bea4 3e33 3f0b be9f bf1c bd9b
be72 bf3f bebe bf4a beef be08 bd76 3b80
bf44 bf2a bf54 3e57 bf2c be08 bee2 bdd7
be22 3e36 3cf0 bf07 be38 3e3a be33 bf17
3d78 bf79 bf56 bec3 3d44 bee0 be48 bea4
bf12 beb1 bee3 beee bf2e bce4 be1e be64
be50 bed3 bced be35 be50 becc be2e bd79
3e5c be5e bf55 bf58 bda9 befe bdb4 3c7c
bdb8 be4e be40 bed6 bef8 bc8c bef4 bee6
be5e be3a bf19 3e94 3e7b 3d1a bd4a bdf9
bf01 bec4 bf6c bf05 bed6 be91 3e06 bc88
bf87 bf27 bf5f be38 3db2 bca8 be7a 3daa
be2b bee4 3ce8 be78 bdf5 be78 3db6 3df5
3d9e be82 bef0 be81 3e04 be8b be08 bde6
be91 be3e bede bee8 bf64 bda6 3e07 bdba
bf04 3e10 3b30 bf56 bd9b beff bf0d bea5
bed2 bf5e bec3 bf64 be54 bd2d bec0 bf6c
be0e 3e69 bf2a bf48 3c88 3ca0 be28 bd43
be98 bf52 bedd bf04 be26 be46 bce9 be95
be9f be30 3d7a 3e94 3d76 be8d bf10 bf20
bf08 bef1 bedd 3ede bcb0 bf64 be92 3da6
beaf bea8 bf2c 3e8e bed0 bef8 beb2 bd40
bedc 3ec1 bf4c be96 bed4 bf03 bedc beb8
bea3 bee2 bee3 3ddc becb be7c bca7 be35
bf08 3d35 bed6 be83 bf10 bf8a bcb7 becc
bed7 3c78 beb7 bee3 be75 bf14 beb8 3d80
bf3b bede bf39 bea7 3dfc bea0 be85 be6b
bed4 bf30 bf60 bec4 bf39 bf2d bf15 bf14
bed6 be10 be7e 3ea9 bbf0 bf35 bd3b bef1
bcc2 bd98 be37 bcf0 bc86 bea9 bef6 beda
be73 3e31 3e99 beb7 be62 bdc9 bf23 3dc6
bdd5 be2f bf7c bf30 3d6e bed4 bf1e bef4
bf27 bedc 3e9b bbe0 bf29 be98 bf16 bdc2
bce0 be9a bc9a be12 be21 bda3 3f11 3ea9
3e81 bf78 bd98 beff 3a90 bee8 be12 3d4e
bef0 bf30 be4d bb56 bf74 beb7 be07 be0d
3edb bd9b bde5 3e12 bf3d be0e bed7 3d94
bf0a bea4 be64 beca bf92 bf24 bf68 bea8
bf18 bed2 bf57 be78 bedf bf06 bf0c 3d58
be78 bf47 bf03 3d7c bef6 be44 be5a 3e0b
bf5c 3e50 be94 bf84 3cb8 be8a bc98 3d9d
be60 3d0c bebb 3cfc bf00 bef1 bf5a bf5c
3e85 bea6 be51 3d9c bef8 be9d be98 be4f
be9b bf8e be5b bee0 3df6 bdd8 bef4 bdea
beb2 3e2a be2a be34 be4b bc38 bf75 bf19
bf13 be0c 3c70 be89 bef8 bf65 be98 bf22
bf55 bed2 bf7a be92 3e03 bf50 beb4 be4c
bef0 bc30 bd1a beed beae bd9c be51 bec8
be54 be8c bf8c be3d 3ea1 bf04 be67 3b90
bde7 bf04 3ebb bdc0 be6b bea4 bf1b be93
bdcf bdc8 3e84 be3c bee9 be3c be98 bf67
beb6 beee be92 bec1 be28 be64 bec1 becb
3d5b be84 3cc8 3e24 be40 bf01 3e25 bf31
bec7 bf63 bf2a bebd bec8 befc bd93 3d64
be56 be16 bd9e be00 bec7 bf32 bf04 be4e
be0a bf30 bf1e 3ed5 bed2 bec8 beea 3e0b
3d74 befc beda 3e37 be32 3e7e be26 be08
3d80 be41 3e98 bebb bd57 bebe 3be4 be14
bea4 bf13 3ca0 bdac be43 3e5a bde1 beee
bdba bbf0 be7c bf19 be5b 3de8 3e1a bede
bed0 be15 bec2 be02 bdda bc68 be19 3e9a
beb4 bf04 bec6 be99 be98 bf27 3f04 be08
3cb6 bea0 be9e 3e58 bec4 bf56 be70 be2e
3e2f bf08 bd68 3db8 bea8 3de1 bd93 be82
be35 3d70 be7e be86 3eda bee8 beec bea4
be0e be7c bed5 bcc0 beb2 be1e be16 3ece
bed3 bf1a bf0d bd24 bf48 3dff 3c74 3cac
bdd6 3e96 3e9f bf04 beb0 3eb0 bded bed8
3e97 bf18 bec8 be88 be84 bf1f be6c be7d
bed1 bdf4 bf28 bee5 bef6 be05 bea6 bd6e
3cb9 be8c 3e6e 3bb0 be0c bec6 be44 beb9
3d9d be20 bf07 bf3a be08 bec1 be74 be0b
3cad be54 be60 bf45 be6b 3e43 be6a beb1
be9c be70 bf00 3ec8 bc7c be38 3da6 3e5c
bea6 bf0e bf2c bea7 be74 be72 3d9e be29
be75 bf18 bf2d be3a bec4 3ec5 be08 3eef
3ca0 beaf 3d36 3dd4 be04 3dd8 beb4 3eba
3ccf be73 be83 be99 bdf7 3e49 3dc9 3a80
bcd0 bd40 bee4 be88 be89 be3e 3dec 3e04
bee0 3eff be04 bf53 bd48 bed8 bee6 bd53
3e84 bf68 3e2e bf22 bd6e 3e2d be87 bf51
3dac 3e60 befc bf39 3d27 3dfe 3a80 bd8f
be6b bf1b beeb bf0c bea2 3e87 3e1e bef7
beb0 beb7 3e00 3e84 3e8c bdb4 bf0d bf22
be65 bead bee6 3ebd bdda bf51 3d48 3f40
be79 be92 bf34 3e54 be34 befe beca be2f
bedf 3ec6 beda be30 bea2 bece be18 be66
bea6 bebb bece bdde bea3 be18 3d75 bedd
bee5 3ee4 bebd be82 bf0d bf0c 3cd4 be08
bf1e 3f04 beac be1f 3e3d bf2c bc10 3ddf
beb6 be8a befd be69 3d9a be81 be66 bedd
be43 be8d bf30 bf08 bf14 becc bf09 bf14
be0b 3ea7 3a80 3ebc 3ea2 bf0c be0c bf07
bbae bc48 be03 3e19 bcf0 be02 be82 be84
be20 3ebf 3e50 be81 3d9e beaf be95 bcbc
3e04 be69 bf3c bf01 3e24 beba be74 bf0a
bedf be5a 3e2b 3c18 bf3e beba beec be50
3ea5 bece bd30 3c90 be08 3e16 3edf 3f3f
3dac bedb 3d8f beca 3dca 3d26 be2e 3e1c
beb4 bf14 be70 3df8 bf52 bd93 be09 3e2c
3e18 bdd5 3e3e bbe8 beae 3db3 beb3 3e23
bf00 bda8 3e1e be36 bc10 befd bed6 be82
bf26 bef8 bf36 be90 be40 beae bdbe be4c
be28 bee0 bed6 bdac beae 3dd2 bdea 3eab
bf81 3ef9 be78 bf29 3e40 be36 bd12 3e9d
3e23 3f1b be89 bd1f be59 bec2 bf3e bf31
3e6a beb4 bcc4 be04 bf4a bba8 bea5 bdc3
3df8 bf5c bef8 beda 3dd3 be2f be88 3e42
bdd5 3d34 3eda bc69 beb5 3be0 be98 be96
bede be82 3ebc 3e04 be37 bf6b beac bf3a
bf0f bf10 bf19 bdaa bbe0 bec4 bd5a bec1
bddf 3d00 3cf0 bf05 be58 be60 be81 3d72
bd60 bed6 bfa1 bec2 3f24 be92 be07 bd97
bec3 bee3 3cac be93 3d09 be0a bf17 be92
bdc6 be3f 3e58 bf17 beab be76 bf20 bf14
be2e becf beb5 bea4 3e34 3e18 bf19 be80
3e6d be72 3d12 3e41 3d93 bf04 3d6e bf34
bf20 bf05 bf32 bee2 beab be90 bcfb be3d
bf45 3b80 bc88 bda8 be8c bf24 bf27 be6a
bd49 bef0 be92 3e58 be9e be2d bd8e 3cf8
3d61 bed3 bb60 3e37 bf1c 3eb3 bdeb 3d63
3e44 be25 be14 be8c be8c bdc1 be3d becc
be1a bd38 3e18 bca8 be8a bc54 bd68 bf13
be32 3d26 bd3c bf45 be5a 3d97 3e5a befd
be16 be1c be99 3d99 3d80 3e1d bd5c bd11
bef8 bea0 bea5 bf05 be39 bef1 3e85 beaa
bdc6 bcd5 bcd4 3e56 be9f bf28 be08 3da4
3e4e bf15 bdf6 bed0 bf3c 3cb0 0000 3d84
3dfd bbb0 be6b 3d9e bd1a be8e be9b be0f
3db4 be1e bdd4 be9c be87 3df0 bd2a bda2
be88 bed8 be8c 3dcd beee 3e20 3e81 3e6a
be32 bdda 3e48 bee8 be46 3db6 bc9c be30
3e0a beff be44 be25 ba80 beb2 be3f be7c
bea3 bea4 beb2 bee3 be81 be3c beec be23
3e6e bb80 be69 be22 be84 be7c beec be20
3d1a be17 beb6 bf02 3ecc be85 beba 3d2c
bdd6 bce8 be2d bebe bd18 bf0d bc30 beae
bee3 be90 bf34 3dd0 bc50 bd02 3dea be9f
bed0 be26 bf38 bdf8 be83 be3d bdb4 bec5
be46 bece bed3 3c60 3dae be0e 3dd2 3dfa
be84 bd6e bd52 be08 be7a bdf5 bc24 3e08
be87 3bc0 bd8e bef8 be45 bcd0 3e86 3ca0
3da9 3d06 bdf0 be96 be7c bd7e 3e3a bd92
bea0 3f23 bd56 bec4 3dcc bd9b bee1 be31
be8e bf2e be8a bf14 3c84 be14 3de5 bf0d
3e64 3d38 beaa be4d bcf8 bda8 3de1 3cae
be03 bf15 bece 3c70 bf20 bf00 be95 bef0
bcfc beee be72 3cb8 3edd bd3a bf3b be72
be0e bee7 beb0 be0c bde7 bf72 3dea 3e34
be39 3f06 beac 3cfe bf04 be4c beb2 be71
3dea 3dcd beb9 be9d bd0d beba bd04 bdac
be9a be81 be8d bedb be85 be3b 3d5d bed2
bee5 3e8a be94 bde5 beae bf23 bcb8 bd8f
bea2 3e68 bf06 3d92 3dad bd7a 3e17 bdf2
beb1 beb4 bf18 beaa 3d48 be08 3dd7 bef8
be55 be93 befb be7e bf04 bead be98 bf08
3e0b bdf0 ba40 3dde 3d9f be70 3db0 bed8
bd88 3d15 3ed4 be15 3c14 bedf be1f be76
be15 3e7e bcf4 be8f 3e45 be84 be19 be16
3e48 3d1f bea9 be07 be0d bebd be81 be64
be9f bdd8 3e7b be22 be66 be0a bec1 bdc5
3ee4 be9b bd15 3de8 3e15 3eed 3e69 3efa
3cb8 bed7 be5c be36 3dfe 3f0a be7f 3d9c
be9b bf0e bcf8 3db3 bf19 be77 bd24 bedb
3dbc 3dad 3cee 3c0c bee2 3eed bedd 3d10
beaa be89 bdb6 bdf3 be28 be94 bf0e bd9a
bebc be96 beac be9b be4a be9c be02 3d23
0000 bebe be8f 3da2 be26 3d28 bef4 3cb8
bf4c 3e8c bf20 bf11 3de2 be03 3cb3 bd10
be1d 3e8f 3c24 be2a be92 be3c befa bf0f
3c34 be58 bde8 be8a bed9 bc24 3cbc bdce
3e45 bf19 bf04 bee2 3e4b be0e becc bd92
3e7b bda8 3ecf bcfa 3ed5 be68 be30 be38
be3e be02 3dc4 beb8 3d9a bef6 be46 be9c
3eca bee4 bf04 be32 be15 bee4 bccc bdc8
bd9a 3e07 3c30 bee2 bdb9 bec3 3def bdc5
beaa be87 bf53 bf20 3e6a be62 be73 bd85
3c88 beaa 3f00 be32 bde1 be36 be9e be8b
be44 3e59 3e68 be88 be64 bd3d bee2 bed2
3e52 beaf be53 be81 bdec bccc be90 bea0
bd9c be64 be36 3e6d bd41 be70 bcbc bf24
befa bed6 beb7 3be0 be90 3d7a be1d beb6
bf48 3dfa bdd8 bc84 3d90 bec1 bdc1 be23
bd24 bea0 be7a bd3f be7e bded bee5 bdf4
3e5b be81 be04 3e10 bef0 3db4 bd63 be42
3d28 bef2 bdd4 bed6 be66 bebe be96 bf16
bddf bd87 3db0 be72 bda2 be73 bdf9 befa
bdc1 be89 be16 beed 3d5e 3e8b 3dcd bee6
bde3 3d5f bed2 be8e 3980 be38 bed4 bdc0
be1f bed4 be82 be86 be89 be34 3e74 be82
be7a 3da8 be57 3e04 be14 bf1f be70 be50
3e1e bef6 be13 be7a be4d bde4 3e10 be99
3e01 beeb be82 bdc4 bd5a bd7c be60 be3f
bd0f bea4 be96 bef9 bf50 3e32 bd64 3c40
beca beeb befa 3e8e bec7 bdc8 3a40 bcc2
bf05 3dcd 3e72 bea4 bba0 3b28 bd72 bef6
3dcc bf21 bf05 bf2f be5c bef2 be91 be9d
bead beda be35 bf1e be90 be5a be70 3c80
3da9 be84 bec9 be6a be4e befa bee8 bd8c
be08 be25 bf12 bf28 3e28 be82 beda bdf2
bdea bcf0 be42 be90 3dae be12 be13 bee9
bf0f be7d bf24 be98 3e0c be79 bc98 3c7c
be32 be30 bf26 bf0e bd98 be6c bdb9 bdbc
bea6 beb0 bec3 be1a be0e bdf2 bdd0 3d50
3b40 be57 be8c bec3 be4b beb3 be30 be32
be5f 3e0e 3c98 bf19 be69 3e6a 3e3c 3ba0
bdae bddd b880 be99 be36 be9a 3d9c bdfe
befa 3e87 be35 bf15 bd78 3d8b bef1 bf05
bf34 bf06 befd bf2a bc82 be92 bdbc bf0a
bdda 3d98 beb5 bed2 be12 be67 be50 bdd3
be86 bed8 be52 bd93 bf05 bebf bef0 be0a
be5a bec3 bddd 3d8f 3e10 be46 bf03 bf12
beaf bf0c be2d 3d98 bdb0 bf40 be3d be20
be62 bdd0 be98 3e3b bee9 bed0 be55 be81
be22 3dec be9c bea4 be22 bf05 bd20 be4d
beb8 bea9 bee4 bdf5 bdcc bf09 bece be56
bdd6 3ea5 beca befa bf16 bf53 3dcc 3d85
beb3 bd32 befe bda4 be26 bdcc 3db1 bde1
bed4 be9e bf4a be40 3e84 be8d 3dda be6c
be3a bec3 bf03 be2f bea1 bed9 bdec bf1b
3bf0 be9c be56 3e92 3d0a bedc 3da0 bec6
be2e bdf3 bdca bef2 3dec be18 beeb bd8a
bdfb 3e06 3e52 be7b bdf8 beb8 bedf bcee
bdc4 bde0 bf1a beaa 3e75 be66 be31 bec0
bec1 bd63 3e2a 3db4 bca5 bea4 bf0e bb80
3e4d bea3 bdbf bbac 3ded 3e87 3ea8 3e92
3d20 befd 3d50 beac bdcf 3e71 bdf2 be36
bf15 beb1 bdb6 be3f bf1e bed3 bd40 be98
3e86 bead be83 bd78 bf1b 3e0c be9d 3ba0
bf00 bee1 beb8 be3e bf55 befa bf0e bee4
bebd bebb bf10 be9d bec0 be86 be49 be95
bd26 bec8 bed8 be10 be3d be22 bee0 3d8e
bf5c 3e22 be9d bf31 be66 bdc4 be29 be28
be52 be9b beb8 bd59 bec1 bcf1 bf16 bf11
3d3c be6a be3e bd55 bf3b bece be88 be73
3c08 bf36 bf01 bed0 3e44 ba80 bec7 be0c
bd15 be55 3ddd bd31 3e97 3e18 bf1e 3dcf
be8e 3de5 3d24 bf2f be8b beb9 bd06 bef0
3e6c bf16 bf42 bf06 bd11 be9b be08 bddb
be48 be26 be6e bef3 bed7 be1c be64 bcfc
beaf bec7 bf5a bea8 be27 be8c bdd0 be1f
be90 be9b 3dec bc8c bd5f be84 bd08 bee0
be62 bd70 3dcf bedb bea3 bc18 beae bef6
bd82 be8e 3e14 be2a bd3a bdea be81 be9e
be22 beba bd83 bd08 bd8d bef4 bc9c bf1e
be9d bf25 bed4 beac bed4 bb0a 3d3c beb7
bf1f 3ce4 bd99 be0e be8e bf03 be97 be44
3d61 be2a be1c 3e1e be09 be78 bf24 be11
3eba beb4 bdb4 3cc6 bf08 3de9 be8e 3ba0
bcd4 bf0a be12 bec5 bd38 be81 bed2 bf1d
3b60 bdcd bddc be50 be21 bee3 be73 bed7
be82 be92 be14 bf0c 3e1c 3e24 3e86 be36
bd10 3da1 bf06 bed2 bea0 bdfb bed2 3cfa
bd88 bed1 be35 becf bebd be96 3e42 beb4
bd8d bdc0 bed0 3e36 be8e bf18 be61 bdf2
3e88 bee0 3e0e beb6 be6a be37 3de5 be3d
bca8 be7b be63 be2f 3dff 3cbb be2d be97
be4e beb4 bea0 bec2 bf49 3e14 be84 bd24
be30 be9a bf1b 3ea6 be91 be6a bd5b bc00
bf15 3d92 3dc7 be2f bdcb 3dfc bebb bf1c
bd0a bf19 bf00 bf0a be0e bf1b bea3 be0e
bec0 be79 bec2 bede bdfb be74 bef0 be41
3ea1 be8c be9a bdba bd4a beb5 befc be86
3dab be26 bf32 bec7 3d50 be45 be88 be22
3e47 bddd be06 be6f 3d17 beaa bdd0 bf13
becc bea4 bf1f bdfc bc0c be37 3d9a bdb0
bed7 beaa bf0c bea6 be80 bdd9 3d06 be47
beb9 bedc bee2 be1e bedc bc98 bd23 be14
bde7 be8e be88 be90 be8b be6a be9d bdf6
be15 bc8c bda8 bf0a becc bdd0 3e59 bdc3
be4a bdf0 bde4 be98 be58 be66 bc9c be96
befb 3e88 be0a bf16 be2b 3e5a bef8 bf1e
be94 bf22 bee8 bf55 be2d bd04 3c82 bf18
be58 3dbb bea8 bec2 becc be60 be95 be0f
bdfa bf08 bdec beab be8d beb1 bec0 3e6e
be8b becc bc0c 3da0 bd4a be24 bee9 bee3
be9c be92 bda2 bdcb bea9 bedc becf 3d8b
bf15 be86 be9a 3d30 bf08 bef1 be47 be5d
bed1 3e01 be9b beb0 bed0 bec5 bdd7 be96
be81 bead bebb bed4 be17 beb9 bcf3 be87
bdf6 3e9e bf11 be21 bf01 bf36 3e4b bc90
bf11 3e31 bf0c be3a be1a beb6 bd1e be7e
bef5 be3f bf5e be51 3f02 beb8 3dfe be82
bd6e bf23 be9b be8c be95 be92 bd9a bf0c
3e30 be13 be1b 3e99 be10 beec be3e bec4
be8c be26 ba80 bf00 bda3 be5c bf05 be15
bcdc 3cbc bda0 be4a 3e26 bee1 befd 3e7a
be3c be64 bf0d bed8 3eb4 be9e be83 bef2
bd6b be89 3cce be55 bdad bf0a bf22 be10
3e98 be9d be4e be28 bd18 3e54 bc78 3e92
be02 bf32 be67 bebe bd48 3e7d be98 be70
bf1e bee9 be13 be44 bf31 beb8 bd34 be91
3e96 bf19 be22 bdc4 bf05 bd4c beb6 bd44
bf0b beca be96 be6c bf62 bf30 be84 bf2a
beac bdd7 bf20 bed0 bd57 bebc be46 be46
3d04 be94 bebb be88 be16 be59 beae 3dd1
bf33 bdd8 beee bf13 beb0 be68 be5c bece
be6c be5a be7b bda2 bea6 3e52 bf21 beba
bdf6 bec1 be00 bd74 bf28 bf01 bd22 be59
bca8 bf50 bf33 bde6 3de2 bdf2 be87 bc94
bd35 bee7 bd40 3c80 3aa0 be87 bf24 bd8d
bed2 bd59 bdd4 bede be71 bebe be0c bec7
3cb4 bf23 bf54 be91 3db2 bec7 bd9e be24
bea0 bd06 be86 be8d bf03 be76 bdf2 be86
be94 be60 bf3a be08 be07 bdd8 be72 3b60
be36 bdc0 bb00 be55 bd74 be02 3a80 bf0c
bdea bd32 3da1 befb bed1 bc48 be16 beb6
be5b be5b 3dc5 be80 bde3 bdf8 be6b beda
bbb0 bea6 be60 bd86 be80 beb8 bda6 bf14
be75 bf1a bf01 be8c bf14 3d8d 3d8c be77
bf10 be10 be5c bd4a beaa befe beac be0c
3e22 be14 bdb2 3e5a bd99 be86 bf03 3d86
3e81 beaa be75 3c84 bef0 3e85 be84 bdb5
3dad bec3 3dab becf bdd0 be0b bee0 beff
bc70 be1e 3d40 bda5 be56 be70 be6e bea0
be78 be21 be30 bf05 3dd2 3e34 3e9a be1e
bd5c bc40 bef8 be93 bea5 be80 be29 bb10
be2d be86 be2e beb7 be94 bed4 3e73 bf0d
bdd0 3d66 be9e 3e1e be84 bf14 be9b be8c
3e82 beb6 3e5a beb7 be09 be01 3e35 beab
bd1a 3d27 bdd5 bdec 3e6e bd4d be70 bdbd
bd94 be9e bea6 becc bf2a bc94 beb4 3da8
be8a be9e bf2e 3e95 be45 be41 bc90 3db1
bef9 3e00 3e14 be3a be10 3e14 be8f bf1a
3d78 bf34 bee3 bf34 be30 bf16 bec0 be4a
beca be1b beda bea0 bde4 be69 bec8 be28
3eaf be98 bd73 bd7a 3d84 beba be5e bea2
3d92 be2e bf43 beea 3d00 bea9 beb1 be0a
3ea2 3c98 bd04 be9d bcc1 be90 bdf6 bf19
bee9 be77 bf35 3c80 3db6 be10 3dca 3b10
bed8 beb2 be85 beb3 be3a bde1 3dc6 be16
bf18 bee2 bec6 bde8 be9d 3d8b bdee bcb4
bdca bdf0 be1d befc beca be46 bdf4 bd5c
be26 3bd0 be82 bf05 bdec bdd6 3e23 3d0c
be1e bda5 bd9d bf01 be00 bdca 3c45 bec7
bee5 3e6a be08 bf1c bdf2 3e41 bf00 bee3
bdd4 bec6 bee5 bf45 be5a 3e08 bd96 bf21
bdb6 3d86 be81 be96 bee0 bdee be26 bdca
be94 bf16 3d5a be60 bed2 be9b bdd3 3ea8
bebe bea5 3c88 3dda bc18 be7c bec9 bf02
be4c beaa bd58 bdca bee4 bed4 beba 3e22
bf28 3d16 beb9 3dba bee6 be80 be33 be5e
be82 3ca4 bec7 be3f beeb bdc1 be2d beb2
be94 bea2 bebc be6a be26 bea8 3e50 be4c
bde3 3e6a bedf be21 bf20 bf56 3d6d be7a
bedb 3eec bf06 bc8a bda8 beb3 be19 bde2
be87 be6f bf3c be8a 3ebd bead 3e89 be90
bdfe bf02 bebe bea6 be52 bec4 bd96 beb1
3e2e bd5a be74 3e82 be27 bea8 bde7 beb3
be92 bd28 bd84 beb4 3d0d be75 bf11 bdaa
be58 3cb0 3b98 bdff 3d4c befb bf08 3e94
bd99 be9b bf21 bef8 3ebb be86 be1a beae
bd94 be2d 3c44 3ca0 bd14 bee0 bf03 bda4
3ea0 be81 be7e bca0 3d50 3e3d 3e0f 3a00
bd6b bf38 bd5c be5e bdc5 bc3e bee2 bdf6
bef4 bf06 be4a be38 bf5c beaa 3e22 be56
3eb5 beb2 be25 ba00 bf1a bd34 be64 bd5c
bf40 be87 bea4 be9a bf43 bf46 be9d bef6
bead be3a bf07 be69 bc82 bf01 bece 3d0f
bcd0 be04 be60 bd9e bda8 be36 be78 bcee
bf14 bd8c be9a bf30 be06 beab 3dbc beae
beac be24 bdac 3d75 bed2 3e5d bef0 be87
bd89 bedc bd27 3e96 bee1 be5e 3bd0 bca9
be08 bf52 bf59 be9e 3e01 be5d be8c 3c08
3dc6 beb3 bdbf bd63 be40 beea bf23 becc
bebd 3c51 3de4 bf0a be90 bedc bdf6 bef8
be2a bf27 bf4b bde2 3e2d bf03 3d54 be99
be3a be2a be72 be91 beea bed0 3a00 be96
beb4 be5a bf2e bdb1 bbc0 bdb2 be50 be1c
be86 bdab 3e50 be1d 3d66 be04 3c8c beaa
be6a 3d19 3de5 bea7 be98 bd98 be59 beb8
be30 be7c bd62 be68 be80 3cba be36 bed2
bd79 be28 be1a bca4 be6c bec4 bda7 bf1a
be11 bf28 be36 be91 bf02 3e2c bb80 be00
be82 be28 be8f 3ea2 bed7 bea4 bf05 be22
3dba bec6 be09 3e44 bcb8 bed4 bec0 3e98
3e52 bee8 be40 3dcc beb5 3ebc be5b bdfe
3d86 be9f 3e34 bf10 be48 be88 beda bee2
be0f be01 3df8 3c48 be18 be41 be9e bed4
bd60 be8b bd43 becc be80 3e7a 3e50 be19
be57 3cd2 bea2 be65 be30 bea2 3c8d be34
be35 bea4 be87 bdba be4a bebe 3e3e bf05
bb00 3e78 bec9 3e2c bece bf22 be99 be62
3e09 be1b 3e36 be9f bde5 be14 3de9 be34
bcfc be32 be3a bde9 3e22 be79 beb2 bcf8
bd86 bf01 be9c beee bf3d bbd0 bd67 3ded
be9c becf bf22 3e30 beae be2c bd98 3cc0
bf0a 3e28 3e93 bea7 be3a 3d14 bd45 bf0a
be5a bf71 be96 beef bea7 bee7 be84 bd28
be79 be82 bebc bee9 be51 be77 be70 bdfb
3e3b beaa ba00 be07 3db1 be7c be10 be97
3dbf be07 bf4b bed2 3dc0 bec6 beec be42
3df2 bc00 bda0 be89 3d05 be99 be8d beca
bed2 be04 befa 3d4e 3df9 3dbb bd1c 3de7
beec beda bf03 be19 be3c be7e 3cda be10
bf11 be98 bf1d bde4 bdf2 3e72 3cd0 3d65
3d60 be6c be7a bf12 be8b be5f bce4 bda5
be6d bbc0 bca2 bf1e bd20 be5a 3e20 3e01
be5a 3d15 be58 be71 be09 be12 bce9 bec7
bec2 3e6c bdef bf1f 3d74 bd81 bf11 beed
3dba bf14 bed2 bf54 be22 bd55 3c3c bf2d
3cd8 3e3e bec0 be96 be62 bd9e bede bd84
be40 bf26 bd88 beae bece be0b 3bea bd04
be7d be97 3d82 bcd7 3de1 bdc4 beaf bee4
beb2 beb3 be6e bdae be91 bf08 be2e 3e76
be96 3ec2 be7c 3ea4 be7c be5e be66 be8d
be7e 3dac be95 be04 beaa bec3 be4e bea7
be6e be9c be25 bd72 be45 bed0 3e69 3dd0
be2b 3e7b be94 be3c bf3d bf80 3d9b bddd
bee1 3ea9 be86 be48 be34 bef5 be82 bdd7
bed3 bed1 bf1b be8c 3e61 be66 3e82 be96
be32 bead beca befd be94 bf00 bde3 be64
3b88 3d0e be68 3e8e bd8a bed1 3d7c bea1
bd66 3cae 3ae8 bede bc38 bea8 beb2 bd18
bdff bd5a 3e68 be20 3dcf beeb becc 3da9
3daa be7f bf37 bef2 3e07 bea6 be34 becd
bbb8 be20 3e39 be0e bea0 be6b bee0 3c90
3ea0 be6b bd13 3dd2 3e28 3ea9 3e83 3e1c
be40 bf48 be07 bdd0 3db0 3d79 beb2 3d7c
bedc bf1e be9a bed9 bf66 beb4 3d58 be4e
3e14 bebc be2b bda2 bf23 3cfd bf19 be78
bf2e beaa be3a bef3 bf13 bf3e bf28 bf37
be8e be85 bf0c be13 be18 bf17 becf 3db1
bca4 be25 be03 be1a bdbc be69 bd96 bda8
bed2 3b20 bed2 bf30 be08 be22 3ddc be9a
bef3 be6c be67 bc54 beb6 3c9c bf17 be67
3cae be5c 3e19 3e82 bf10 bde5 bcbc bddc
be8f bf3b bf3a bf14 3e50 be68 bdce be88
3e75 be71 3dec bd9e bdd8 bed9 bf52 be4a
beac 3c26 3d9e bf36 be98 bf0e bea2 bea9
bda2 bf26 bf7a bcc0 3de8 bf32 be1c be62
be50 bc44 be11 be96 beb4 be93 bd51 be89
be92 be94 bf06 be38 3e8a bdce be29 3d8a
bede be7d 3ee2 be91 3df2 be28 bde3 beb9
be4f 3e10 3cc2 be46 bed2 be66 be3c be8c
be97 bde2 be5a be84 beb8 3e94 be2c bf02
3ccc be44 be32 bce8 be28 be5a bd0c beea
bea0 bf45 bea3 beae bec1 3e2b be29 3e0e
be12 bd8a be7c 3ecf be9b be90 beee bda2
be87 bebf be57 3e88 be27 bedc beee 3e49
3e84 bef4 befc 3e38 be42 3cbc be66 bca4
3c58 bec6 3cf6 bf00 be8b bed6 beba bf13
be8d be37 3e69 be0d bd34 be60 beb9 bf06
be0c be62 bd89 bf1a be4c 3ee0 3e40 be22
be7a bdc8 bf02 beac be12 bf07 be90 bc14
be3b bea6 bf0b be8f beb1 3c90 3e4f bf03
3dd8 3e28 bea8 3dd0 be82 bf20 beae be91
3e32 be7c be1c be18 be5c bd8e 3d5c be04
3d64 bd0a be94 3d0d 3e26 be1b bed3 bc50
be4f bf10 be75 bed2 bf5e be2b bdf8 3df1
bef4 bf19 bf48 3ed6 bedf bd20 bdf3 3e07
bead 3dbe 3e11 bf00 bdee 3e09 bc9f bf07
3da3 bf86 becb bef2 bd1e beb6 be40 bbc4
beb8 be85 be86 bf00 be78 be22 be55 bdaf
3e48 bf00 bccd be78 bddb be91 be5c be4c
3dc2 3d48 bf19 beb9 3e90 beea bec7 be89
bde3 be15 bd9d be3a bdb8 bdd4 beb2 bec9
be93 be97 bf5c 3ca8 3d89 3d54 3db4 3dc8
bede be82 bf2a be1e bed2 be80 3e1e bd92
bf37 bee0 bee8 be69 bdde 3d90 bdbc 3b68
bdc2 beb1 bddb bec5 bceb be69 bd90 bdf3
bcc4 3c70 be5c beb2 bd62 bdf7 3dc8 bdb5
be95 bd48 bdb8 be4a becf bdde 3dec be60
bf17 3e58 3e4e bf0e bd28 bddd bf0b bf13
be6d bf2c bef4 bf45 bd5c bde7 bc2a bf52
3d4a 3ddc beae beae 3d52 be31 be77 3de9
bde0 bf14 be60 be2d beeb be67 be48 be56
bde2 be91 3d2d 3d2c 3c78 be57 bf06 bf18
beab bec2 be6e 3e3e be55 bf39 be68 3eb4
be89 3e7f beae 3e2f bd68 bea4 be9b be08
bebb 3e5d bef2 be8b befc bec9 be99 bea8
beaf be16 bed6 bdab be27 be88 3e9b be2c
be20 3e64 beba beb0 bf2e bf51 3dc1 be08
bec6 3e5f bf06 bdcc be15 beb9 bd10 bdf2
bf1c bea8 bf2e be9e 3e2e bea8 bc68 be3b
be20 bed3 bf16 bf1a bee3 bf25 be93 bf2d
bd31 be12 be0c 3e67 bdf1 bef2 bd6f bea0
bd9f 3d1d be06 beae 3dd2 beb9 bf02 be8c
be87 bba0 3e7f bda0 bd1f bf14 beaa 3eb0
3e68 beb5 bf54 befe 3e12 bf02 beaf beb0
beb4 be98 3e8d b900 beb2 be6e bed9 bd78
3e5f be82 bd9e bd87 3e2a 3ed2 3e1a 3ec9
3d40 bf4a be10 be53 3e46 bead beaf bcfa
bef8 bf2c be52 bdf0 bf5c bece 3c10 be7d
3ed0 be34 be86 bd04 bf10 bc4c beeb bd7c
bf0e be9e bd90 beba bf30 bf6e bf3f bef2
be92 beb4 bee8 be92 bebd bf06 bf0b 3d9d
be4e bea2 be13 bd2c be2a be62 bdf1 bc95
bf46 bba0 bea2 bf40 bde5 bd75 be46 be9e
be9a be8a bec1 3e2b bee6 be3f bf15 bf00
3e7a bea8 bd76 3e27 bee4 bdf1 bd3c be3b
be15 bf4f bf42 be74 3e4a be0d be75 be80
3d23 be32 bddd bcae be85 bdaa bf4c beac
befc bd53 3da5 bf00 bebe bf06 bea0 bf22
bf03 be97 bf70 be54 3dd3 bf18 bce4 be40
be62 be7a be06 be36 bf0f be22 bdcc be95
bef6 beb2 bf54 be78 3e50 be95 3ceb bcad
beb0 bec9 3e85 bec8 3d79 be41 be74 bee0
3a00 bd9b 3e19 be7e bec8 bcd4 be8a bf08
be94 be53 bdd6 be24 bebf 3d39 be70 beaa
3dae be3a be40 3e20 be22 bef8 bb00 bf1e
be1e bf38 beba bec1 bef3 bdd6 bd8d bd2c
be65 bd8b be2f 3d3f bd72 bf14 beab bd2d
bd9c becb bed7 3ee4 be5d bebf beb8 3ebc
3dec bf04 bd3c 3e21 beab 3bda be72 be0a
3e3f bde4 3de2 be8d bdaa bebb be48 beea
be97 be46 3e0c bce0 be26 bd5e bce0 befe
3d13 be4f bdbe bf36 be69 3e88 3e58 be72
bec9 bd2a bedc bd2e bd7a be78 bdbc 3ea1
be9c be9b bed9 beff be77 bec3 3ee3 bed4
3e87 bd42 bdf8 3e29 be34 bf59 be2a bdfe
3e83 bed2 be3b be09 be7e 3dcb bcfa bd7a
bd9a 3dfe be21 be14 bd1a be9e be8a bde7
3ca4 be7b be6b 3e8e bf1d be00 bd33 3e94
be89 bf24 bef4 3e58 bef4 3e15 3dcc 3d68
be64 3ba8 3eae becb be95 3e6c bdcf beca
3e3c bf30 bd4e bea4 3a48 bee2 be13 be0c
bec5 be09 befe beee be59 be94 be7c bded
3e47 be9e 3e3c 3ddb be4c be48 bead be81
3e12 be10 beae befa 3e1f be66 bea2 bdc6
3d6c bd7e be0e bef0 bcb8 be46 be39 bee2
be77 be8e bf22 3e1a 3d24 bcd0 3d64 3ec6
be98 bee8 bf2a be30 be80 be94 3db5 be96
be82 bec4 bf0b be3d bd08 3e82 3d7c 3dcf
3e0f beb0 bd18 bdbc be27 bdc3 bda0 3e94
3ca5 bd2c be0c beef bdac 3d4c 3df1 3cfc
bcd8 3cb0 bde6 be92 3d66 be48 3e53 bb80
bed6 3f3e 3b48 bf08 3d84 bdf0 bef8 be50
3e48 bf50 bd92 bef8 bdbd bd9d bdae bf24
3e20 3e08 bead be4e 3dc8 3c18 bdb0 3ac0
be1c bf0a be75 be6c beff be53 3cc2 beae
be3f beda 3ca0 3d3d 3e96 bd5a bf0c beb8
bb04 bed9 bebd 3e34 be05 bf5e 3dac 3f4d
be02 3ec6 bef9 3e64 be84 be88 bebf be18
be7e 3e66 be77 be3a be74 beae bc78 bdfe
bee6 be50 bea8 bde0 be20 be4c 3e6f bea1
bea6 3e95 bea4 bec0 bf21 bf11 3d2c 3cba
bea9 3ec2 bf08 bd82 3d2c be98 3da8 bc08
bebd be7a bf26 be31 3e05 be91 bd6c bebe
bd48 be2a bedc bf10 be9a bede becd bf02
3d07 3e4d be3e 3e5e 3e03 bee0 be20 beb7
bd41 3e0c 3c4e 3e14 bd84 be02 be08 be10
be0f 3df9 3dea bdb5 3e23 bef3 be6b 3e9b
3df0 be96 bf12 beec 3c30 be4e be50 be81
be9e be2c 3e7b bd10 beae beac bea0 be07
3ec1 beae 3dd4 3cf6 3e4e 3ec4 3e1d 3f14
3c78 bf05 3be0 be57 3d96 ba80 bea1 bd14
bec7 bee4 bb00 3d06 bf1e be8c 3daa bdb5
3e26 3e56 3bf0 bcc8 bed5 3e5e be88 3cf0
bf27 be1b 3ddc bed5 3c10 bece bf00 beb6
be9c be7f bf08 be1d be67 be76 bec9 3db0
3ce8 be57 be79 bde0 bdf5 3cfa be93 bbb0
bf65 3e8a bf08 bf00 3dbb bd46 be36 3e10
bd60 3e96 be79 bcf4 be9c be81 bedb bf16
3d0e be97 bdff be1c bf3a bcf2 be90 be6c
3e74 bf46 bed6 bf08 3dca bd80 bdda 3d79
3e1b be2c 3eec bb65 bec0 bd48 bed5 bdd6
be58 be01 3e1a bc84 bdae bf1a be86 bf09
bd9c bee9 bf2e be20 3d7a beb4 3df2 be57
3dce 3e49 bde3 bebb be60 be81 bd1c bdeb
be26 beaa bf6a bec2 3f16 bd5a 3c90 bc44
be06 be8b 3e41 be9b 3dab bdd9 be87 bea7
bc5a 3c94 3e14 bea2 beac be72 bf0e beee
be37 be2c be79 bdc2 3d58 3dfe be96 be30
3e1c be28 be9e 3e36 bd86 bea9 3aa0 bf2d
beb2 bf04 bf08 be11 be4a bd03 bdda be67
bf1d 3d88 bd99 3e50 be20 bf06 be7d bdb8
be45 bebd beba 3ed4 bec8 be91 bda4 3c00
3daa be9c 3e35 3dad bec7 3e6e be8c bc1e
3e83 be0b 3d85 bea1 bdb2 be03 be8c beda
be84 3e33 bbe0 bb30 be4f bd14 bd26 bf17
be84 3d5c bdce bf72 be21 3e42 3e19 bf02
be62 be16 bedb bd7c 3d2c bdef be56 bd02
beff befd be84 bedf be4c be5b 3ee4 bee2
be6d bdd2 be0e 3e1c beb9 bf41 be74 bd22
3dea bf24 be34 bf0a bf08 be28 bc58 3dd2
3e1b 3de2 be28 3e54 be64 beab bec6 be50
3d30 be1a be57 bed4 be2c 3e38 be4b 3e26
beb4 bea2 bed9 3e7a bf08 3e34 3eb9 3e77
bd9c bd3b 3e76 bec6 be98 bc60 bd06 be80
3e58 bec4 be2b bea9 3e84 beca be63 bebb
be88 be1f bef4 bef0 be88 be7f befa bdcb
3e8f bcaa be37 bda1 be4c bee6 bec4 be90
bd78 be26 beec bf01 3f1a be74 be20 bd12
3d6a 3e05 bdb7 bed9 3d67 bec4 bdb4 beaa
beb4 be7a bf5c 3df2 bdb6 3d5e 3c70 be31
beeb be2f bf36 be7e be85 bd46 bae8 bece
be13 bf16 be9c bdb4 be9d bd1b 3a00 3e1e
bd8d be0c be3f bdf4 be4b be4e bd79 3e51
beab 3e4f be45 becd bea4 3d20 3e49 bc78
bdce 3cb0 be21 be84 be83 3e3d 3d74 3da3
befe 3f28 be20 beeb 3e6e be02 bed5 be3b
be5c bf4c be7e bf23 be15 be24 bd57 bf28
3e4a bc70 be97 bdb2 bd9c bd1e 3de4 3cf4
be94 bf2d be90 3d2a bf40 bec0 beca bf2d
be35 beb1 beb6 3d9e 3ef4 bddc bf32 bee0
be81 bee2 bed4 bcdd be34 bf5e bd6a 3e27
be50 3f42 bf2c 3e5c bf0b beae be62 be5f
3d4e 3de2 bf14 be60 bc3e becd be6e be92
bed5 be4b bea2 bea8 be56 be90 3d94 bf03
bef8 3e8f bece bdc4 befc bf30 be0e be92
be8b 3ea8 bf16 3d30 3d2c bdc4 3e0c be84
be8c bebe bf47 bec6 3c3e be68 3d20 bef6
bdf9 beb2 bf17 bea2 bef0 be3a be7a bf04
bdb0 bdab be29 3d98 3e14 bea6 3dc2 bee3
be12 3d0d 3f0f be54 bc8f bee2 be93 beb5
be36 3e09 bd14 be4d 3e18 bec0 beed be87
3e63 bdd9 beb8 be9f be81 be70 be81 bd97
bedb bd28 3e0a be5d bde8 beb7 be9c bdba
3ecb be6a bd02 3e22 3e3a 3f0b 3e1e 3ed2
3e1a bebd bd40 be4e 3d80 3f25 bed9 be24
bee9 bf03 3da2 3df2 bef2 be2e be3d be99
bd7b 3e19 3b10 bca4 beeb 3f06 bec6 3d10
be95 bee8 be6e be87 be18 be86 bf0f be40
bea8 be91 beb4 bed9 be8f bea5 be28 bde4
3dde bed0 bec6 bd9c bdc4 3d8f bf1c 3dd4
bf87 3ddc bf2c bf22 3dd4 bd9c 3c48 bd90
3c9c 3eb8 be42 be94 bedc be08 beb2 bf50
bd20 be29 be45 be92 bf42 3db2 bd99 be5a
3d18 beff bf14 bf46 3e27 be22 bedc bd4c
3e72 be3e 3e9c bda4 3e95 be1a be8e be67
bdee bdf1 3dfe be84 3de6 bf21 3d72 be60
3ec4 beb4 bef8 be04 bdea bebb bc78 bdb0
bcf0 3e4c bddc bf14 be59 be48 3d66 be38
be84 bd7a bf79 bf24 3e51 be36 bd4c bdb4
3d8e bea0 3ed4 be47 bcc0 bed9 be3e beae
bdf5 3e43 3e3e bd4e be9b bdf6 bee4 bee1
bdb1 bea1 be8d be4c bdaf bddd beab beb5
bd64 be50 be8f 3d90 b960 bef0 bde8 bf53
bf32 bee4 be9a bdbc be20 3c20 be30 be66
bf48 bc30 bdc9 3da4 3e0e bf0a be78 bd0b
bd9d beae beb2 3dcc be97 be96 bf0f be4e
3e96 be48 3d5c bcd8 bf01 be62 bdda be69
be4c bed9 3dd9 bede be82 be7d bea0 bf20
be50 3e4c bd96 bd80 bdf6 be26 be05 bee4
be7c be7c be35 bf4d bcae 3ea0 3df8 bed8
be0e bc2c bf20 beb7 bdd0 bec8 befb be1a
be8c befd be86 be8c bebe bd26 3e6a be14
bef0 bdf8 bee6 3e48 bd1c bef6 bea7 be6a
bd8e bf10 be8c bebb be4b be65 3c20 be24
3d26 be6f be89 be2e 3ca8 be42 be9e bee1
be3e be60 be89 beee bf10 3df0 bdc4 bd0a
bec9 beba bf25 3e9f bed7 be03 3d04 be38
be8f 3e1d 3e15 be96 3daa bd58 bd44 bebf
3e01 beff bee0 bf31 be0a bf00 bdf7 bf00
be5d beac bebe bf1a be86 be6c bed0 bd0c
3dfb beb8 bf05 bea0 be47 befd be8f bea5
bd8a bd64 bf27 bf1a 3e01 bd9c be87 bdad
3dda 3b50 bd3a be98 3dce be36 be3d beed
bef2 bea2 bf36 be3b bc54 bd8a be22 bb40
be15 bdfc bf34 bf16 be1a be47 3d0b bb88
be8d bed2 be6f bdf6 bed5 bd9f be5d 3d22
3e1e be6c bed4 beb6 be20 be8b bee4 bdda
be98 3dd8 be4f bed0 beaa 3cc0 3e88 bdd4
be85 bd43 be13 be97 beeb be51 bdc7 be94
bf04 3cd0 be8c bf41 3d86 bd38 bed8 bf08
bf01 bf40 bf0d bf22 be1c be86 bda6 bf01
bdbb 3d46 bed0 bea0 be73 be08 be38 bd60
bead beba be8f be18 becd be2b bf1b bf10
be39 bef2 beb8 3bcc 3e3c be41 bf16 bf30
bec8 bef2 be30 bdda be3a bf24 bec2 bdc2
beb9 bd6c bee7 3e41 bef3 bef3 be9a beba
bd68 3e94 bed7 be78 beb3 befd be0d bec2
beb8 bee0 bed7 be4c be76 bf19 be81 beaa
be6f 3e9d bece beb4 bf03 bf4f 3e0a be76
becb 3c80 bec2 be13 be20 be1c 3ddc be20
bea0 beb6 bf6d be46 3e6a be90 bcf2 be6a
bd99 be8a bf1b be82 beb9 be8c bdf4 bf22
be3e be84 bde8 3e70 3dc0 beaf bd58 befe
bea3 be69 bcb4 bf0b 3dbe be9c bf2a be1a
bdb0 3c84 3e16 be90 be1c bee2 bee9 be40
bd35 3c34 bf0c be89 3d0c be9c be80 befc
beaf be89 3e17 be56 bccb beee bf24 bdbc
3e46 be4c be65 3d2f 3d5b 3eb1 3e6d 3eae
3dca bf01 3d48 becf bdf4 3ecb be64 befb
bf2c bf01 bdc6 be0c bf17 be86 be3e bdfb
3de2 beb6 be47 bdfd bf06 3e0a bebf bd1c
bebb bf14 be9f be88 bf4f bec8 bec4 bf0b
becc bef0 bed2 becf bebd beb2 bd9c be83
3dd0 bec3 bee2 be8e be78 bd40 bf06 3d70
bf90 bd02 bed4 bf68 be8e bd38 be31 be11
bd44 be20 bef9 bd3c becc bd2e bf12 bf15
bba0 be52 be0b be98 bf5b bea6 bea1 be3b
bcf4 bf15 bf1d bf0f 3e26 bdc0 bef5 be84
3d01 bde3 bd75 bdaa 3dcc 3da1 bf4a 3d9f
be81 3d16 3d0c bf1d be54 beea 3e16 bee4
3e20 bed6 bf66 beda bd76 be94 be7f bb20
bee6 be30 bd9f befe bf06 bdcd be93 be04
bebc bea2 bf5c bf00 bdee be07 bc12 be89
be90 beda 3d82 3ba0 be4e be9c 3bd0 bf0e
be19 3db8 bc8d beb2 beb0 3dea bdb8 beda
bdfb beb1 bd7c be13 bd9c be2e be56 becc
bd09 bed0 bbb0 bc40 3b00 bec7 be4c bf57
bf0f bf42 be8d bedd bea4 bd69 bda2 be26
bf21 3d62 be02 be0c be44 bef6 bed4 be93
bc08 be26 be40 3e60 be4a be97 bedc 3d30
3eea be94 ba80 bdba bf16 be60 be45 be01
be34 bed1 bc36 bec3 be11 be1f bf02 bf37
be06 bc10 bd10 bd5d be54 be8b be35 bedb
bd02 bef2 3c57 bf28 3e07 3bf0 3e27 be3a
bdf5 bd41 bee6 beba be57 bebd beb8 be16
be40 beb8 be27 bedd be76 bde1 3e5f beb2
be00 be84 bed1 3e29 be64 bee8 bebf be9a
3db2 beb5 3da6 bef5 be22 be66 3cd0 be40
bbc0 bd83 bdad be15 3d54 bd84 be28 bedd
be93 be86 be9e bed2 bf25 3cd4 bead 3dbc
be44 be31 bf2b 3e9a beaa be88 bd84 bd7e
bedd bd1c 3e3a be7a be02 bcb4 bea0 beeb
3df2 beea becd bf13 be70 bf05 be28 bed6
be86 bed8 bec3 bef5 be0e be47 beec bde3
3e84 bf05 be88 be24 be14 bed7 bed6 be8b
3cd8 bd49 bf2c befb 3cd4 be21 beb9 be78
3ea8 bc30 bdd8 be8c bd9d bdfb bdf3 bf12
beb1 be9e bf33 be1b bda4 bd96 3ac0 bd4d
be5d be17 bf0b bec2 be90 be32 3e38 bdd2
bebe beeb be8c bd8e bef6 bcfa bd9d bd83
be46 bea3 bea4 be64 be82 be34 bec4 bd9a
be07 3e52 bea4 bf07 be8d bca0 3eac bdbf
be86 be1d bdb6 bed0 beb5 3bd4 be50 be69
bf13 3e94 be57 bf3c 3d00 3d20 befa bee7
be1e bf5c bee8 bf32 beb2 3cde bd7a bedb
be83 bd58 be33 bebd bec2 be0f be17 be36
bea9 bebc be28 beaf be89 bea0 bea8 be7b
be9b bebc be23 3de7 bba4 be30 beb6 bf0d
be68 be43 bd67 be9e be88 becf bec6 3e7b
bf0e bdaa bec4 3c98 bed6 beaa be2e bec9
be9b 3dd6 beae beb0 bef2 be9b be0f bebf
be88 beb3 beb8 bf0a be8b beab 3e4c beba
bdd8 3e55 bed8 be9e bee8 bf62 3d46 be5e
bec1 3e22 bee0 be70 be20 be90 3c86 bdfc
becb be6b bf71 be8b 3eb6 be97 bbe8 beaa
bd66 bf03 becd bf04 bdfd be7f be3f bf01
3b20 be0e bd15 3e77 be1c beac be33 bebe
bece bdb7 bdc4 beeb 3e01 be19 bf02 be11
be00 bc8a be1d be41 3e0f bef0 beee 3e1b
bd3a bea0 bf23 be95 3e5e be82 be5c be9c
be36 bee1 bcd6 be62 be1f bf1a bf1e be0a
3e85 be85 be79 bca6 3d53 3edc bdb5 3e44
bca8 bf33 be44 beaa bda8 3e94 be9e becd
bee2 bf1d bdba be22 bf35 bec5 bd8d be12
3e57 bf0e bdf5 be75 bf35 3c04 bed9 bd6c
bf00 be87 be60 be74 bf5d beef be8d bf15
beb7 be9e bee8 be27 be03 be3a beab becc
3cc8 be4b beb5 bea2 bd45 be0c be8a 3d51
bf74 be86 be76 bf33 be54 be2e be1a be8e
be90 bd15 bea6 3c68 bee4 3e25 bf16 be95
be05 bed3 bb50 bdab bf49 bedc be0c bd89
bd2f bf5b bf26 bef3 3e2c be32 becc be34
3cd4 be89 bdcb bc84 be2c be96 bf35 bd70
be68 be48 3d38 bee8 bd9c bee7 bac0 beb6
3e2e becc bf7c bec0 bdcc bdaa bd0f bd80
be3b be16 be97 bedd bf02 be9e bd9f be2c
bed6 bdfb bf34 bea2 bde8 bcf7 be12 be4c
be52 be3d 3db4 be9d bcd2 be6d 3e0a bedd
be86 3e14 bcaa beb1 beaa 3e16 be58 be6a
be50 be1c be56 be30 be26 bd92 be12 beec
be00 bea0 bebb bd99 be06 bea0 be26 bf51
bedc bf20 bedc beb3 bed9 3c96 bdc8 be5e
bec7 bd22 be16 be6a be98 bf02 bec5 bd44
3d70 be60 bd84 3e7e bdb1 beae bf16 3d1c
3e8a be89 bce0 bcca bf12 be0a bdd2 be21
bd8c bec2 3e14 be97 bdb0 bcc8 bf03 bf16
be00 be21 3e0d 3d5e bdf3 bdea bd78 bed0
bc92 bead 3c44 bf0b 3e6b 3d83 3e83 bda8
bd5d 3a00 bec6 be6e bdb4 bec5 be26 3d01
be9f be82 be1a beba be6c beb2 3e58 bee1
3dcc bc98 be9a 3e24 be18 bee3 bed2 beb0
3e7b bea6 3dd7 beea be46 be52 3d94 be1e
bdd3 3d15 bd80 bd2a 3de2 bda8 be15 be03
be03 bea7 be72 be98 bf3f bdb7 bebc 3dc9
be8b be83 bf3c 3e85 bea8 be20 bb40 3cd0
bf1c be1a 3e95 bdaf be1b 3de4 be6a beee
3db6 bf18 be9e bf04 bdb6 bf08 be74 be52
be94 be2a beb0 bf05 be09 be26 be85 bd0e
3ebf bee5 3d06 be2f be4f be6b be7e bea2
3cc8 bd0e bf1f bf05 bd24 be6b bec2 be83
3ee5 bd61 bdb4 be68 bdf2 be90 be1c bf12
bec2 bdbe bf18 3d0c 3dea bdba bd14 bc85
be96 bed2 bedb be72 beae be9c 3e98 be10
be86 bf09 bebc be04 be61 3dc9 3caa bd9b
bde2 be90 be72 bed7 bea0 bda5 be86 bcdc
bd86 3d9b be8e bef1 be16 3cc8 3e51 3c14
bde0 bd15 3cdc beb3 be2e 3d2c bdfe be75
bed9 3ef8 be2a bf32 3d88 3e12 becc beb8
3e0f bf02 bee8 bf1d be7f bd4e bcb3 bf04
be70 bd3a be10 beb7 beaf be1a bda4 bdbf
bee2 bee6 3dca bdca bedb beb2 bcbc be5c
bed2 be32 bc28 bcca 3d92 be8a beb6 bede
bcc0 be33 bc2e be64 be2e bf05 be9a 3ec5
bf0c 3e3e bebc 3db0 be6d be2c be0a be7c
be91 3e02 be8e be37 bee6 bd8c be74 be8d
be85 bec3 bee0 beb8 bdd2 be85 3ea5 be40
be8b 3e18 be9f bed1 bf12 bf5f bd50 be81
be96 3e6d be9a be37 3cc1 be93 bd9c bc20
beb5 be18 bf30 be20 3e72 beda 3e6a be75
bd88 bea0 bee0 bf09 be25 bea2 be4a bee3
3bb0 bdb4 3c96 3e44 be18 beb6 be74 be9c
be5c 3d3e bdfb be7a 3dd6 be40 beac 3c40
bdf4 3b40 bcd1 3c96 3dc2 bf0d beaa 3e94
3c9c be69 bf30 bf1e 3e37 beaa be5d bea6
bdf2 bebc 3ca7 bda9 be38 be80 bf18 bd93
3e8a be83 be89 bb56 3da7 3eee 3dce 3e4e
3c10 bf17 be8b be44 bac0 3d79 bea6 be10
be96 bf08 be30 bcf0 bf62 bedc 3ddc 3b38
3e2c be3b bd6c bc38 bf2c 3d41 bebf 3d46
bf1e be72 be89 be98 bf16 bf1d beb6 bf1c
bebd beaa bf20 bd4e be0a be17 bed6 be63
3e3e bdca bde4 be13 bd2e bdca be6b bc18
bf70 be05 bec6 bf15 3c64 bdfa 3d3f be4d
bebc bc08 bdcf bba0 bea5 3e83 beb8 be96
bdc5 bee1 3df9 bc21 bf0c be22 be34 bdc8
bd37 bf5b bf48 bef4 bd00 be54 bea4 be34
3e27 beaa 3e1e bd90 be60 bef1 bf1f bea2
beb8 bd7c 3d16 bec0 bd90 bedf be1a beb4
bde2 bebc bf62 bd37 bdbe beba 3d34 be8d
bd8a 3cf6 be76 beb2 beeb beb0 3bc0 be46
bec3 bdf0 bf10 be1a 3e06 3ccf bdef be86
be38 bdd2 3e56 be96 bd2d be47 3dc4 bec0
be78 3e0a bdc4 be7e be74 0000 be41 be59
be4a be1e bdb7 be48 be33 3dbe bcd4 bebb
bbb8 be1a bece 3e43 be18 be63 bd7a bf3a
be87 bf0c be4b beb0 bf0c 3ea7 be30 bdb0
be41 bd04 bd96 3e0b be9a bec6 bee7 3d03
bdb4 befa be3f 3e97 be18 beda be9f 3e10
3dc3 bed2 3d22 3d54 bec5 3d42 bda9 be58
3d4c bee7 3e9a be9e be16 be88 befe bf08
bea7 bdc3 3db4 3e4c bd7a 3e06 be50 be70
3de0 befc 3c67 bf14 bde4 3e43 3e0b be51
be73 bdfc bedf bd96 be18 beda be4a 3c72
be82 be9c be56 bed0 bd46 beb2 3e7c be9d
3e56 3dcc beb6 3e5c be6e beb2 bf05 bee3
3e80 be1b 3d94 beb1 bdcc be06 3d48 bda3
bdaa 3d04 bc20 be1c 3e23 3c88 be28 be61
3e03 bd73 be28 bea6 bf20 bc44 be6c 3e74
be8c becf bf15 3dd0 beef be48 be64 be3e
bec9 be32 3ed5 be69 be69 3d8e 3bb0 beb6
3dfb bf79 be29 beb2 be09 bee2 bd45 bd84
be61 bec4 be05 bede be08 be31 bdba 3d42
3e8f bef5 3caa be37 3bc4 bea8 bed6 beda
3cf8 3d48 bf1f bef0 3da7 be28 be80 be2f
3e92 bcbe 3d98 be82 bd9c be93 bddd beee
bf07 bd2a bf10 3dd3 3e0e bcc0 bde6 3de7
be91 bea6 bf11 bd88 beb6 beba 3e0b be0e
bece bef6 becf be4b be90 3e99 3caa bd8b
be55 be26 be4a bea8 bdb4 bde3 be44 3e0b
bd9c 3e26 be91 bf40 be2d bd80 3e6b 3caf
bde2 bd38 be30 be83 be93 bdcb be1c beab
bed3 3e92 bdba bf16 3df6 be0f bef9 be4d
3ed5 bf55 bf17 bf27 beba bdc9 be38 beda
be21 3ccc be8c be60 be8b be26 be4f 3b80
beeb becc be21 bdb0 beba be6c 3e3c beff
bea6 be46 bc18 bde3 3e72 bc8e bec1 bebd
3d28 bec1 be1f 3c28 bc78 bf23 be1e 3f06
be97 3f23 bf0b 3eba bd81 be1a be3b be33
be25 3e5d be1a 3cd0 bf0a be39 be89 be8d
be8e beec bebe be3f bd6c bee5 3e8f bd32
be82 3e3e be99 bf01 bf1b bf83 bdcd bea9
be9d 3e55 be58 be57 bd70 bea1 bb80 3cf8
bed3 be9c bf12 be1c bb54 be9c 3da3 be9d
bd9b be6f bed4 bf07 bec0 be88 be8c beb7
bdb2 bd10 be84 3e45 bcc0 becb be0e bece
bd9f 3e32 bb74 be7b bdd4 bec4 bead bcd8
bdbe 3b40 3db9 bd16 3c58 befb bec8 3e1a
3c94 be64 bf32 bf12 3dea bed7 be28 bea4
be5a be96 3e35 bd34 beb2 bedb bf0c bd9e
3eaa beb2 be49 3d64 3e40 3f0a 3e66 3e72
bcdc bf32 bea1 3c18 3dca 3db5 beb4 bdd8
be89 bf0f be78 be5c bf64 bef0 3d86 3dae
3da2 bdd6 bc54 3bb8 bf30 3d1a bef7 bd9e
bf0b be4d bdfc beee bea0 bf1a bed0 bf13
be74 beba bf09 be36 be56 be86 bf03 be6b
3e52 be88 bd9d bc40 be26 bdc5 bea2 bd89
bf72 3a40 be98 bf18 3d4a bde3 bc10 be52
bea2 3da7 beaa 3d21 beb1 3db8 bed1 be6a
3d91 bea9 3e0e 3ce7 bf41 bd38 beb2 be4c
be88 bf1a bf58 bf20 3dcd bec8 be5c be14
3e97 be5c 3e29 be43 bdd4 beb1 bf34 bce6
be91 be15 3dfa bed1 bd90 bf0a beb4 bead
bdfa be71 bf72 be0a bbfa be9c 3cb8 beaa
be3e 3c30 bdc2 be77 bea9 bea9 3d6b be82
be98 be8f bf22 be82 3e81 3dd1 bd76 b900
be28 be02 3ea8 beb3 bd0a bec3 bc98 bea9
be8d 3e06 bc1e be1e bea9 bded be45 be34
bead bd80 be87 be50 be32 3ea6 bd87 becc
3e17 be45 be91 3d96 bc08 bddf bd78 bf22
befa bf33 be46 be48 bea7 3e9e be90 bddb
be12 3cdc bb90 3e7e be68 bf05 bed4 3b22
be07 bec0 be56 3e8b be6d becc bea2 3eaa
3dd1 be95 be8a 3ddb beab be41 be66 bd90
bd18 be9d 3e28 beca bea2 be70 bee5 bf05
be8b be09 3e95 bd4f 3d37 bd90 be6a bee1
3d88 bea7 bdc3 bf08 be4e 3ea4 3dbf be70
be72 be8a bee1 bea4 be86 bf17 bed4 bd4a
be8a bed9 be3c be42 be07 3c00 3e84 bee7
3e4b 3d56 bec4 3e68 be86 be92 befd becd
3e35 be44 be29 be86 3d84 bdbe be2e bda0
3d02 bdc2 bdff 3e38 3cfc 3d2a be9e be9e
beaa be5a be1a be92 bf48 be0a be48 3e26
bea2 bf1d bf12 3d53 bf01 be26 be24 be23
beda be56 3e82 bea9 bcf4 3e42 3c38 bf07
3bec bf7e be8f be92 bdf2 beb3 be02 3d54
bdd8 becc be22 bf05 be46 be95 bde4 bc00
3e1a bf08 bd86 be92 bdc3 be6f bf03 be44
3d36 bc68 bf26 beeb 3e2b bee2 bed6 beac
bd62 bd44 3b60 be4a 3de6 3c2e be6e beae
bea2 bd5a bf5b 3d3a 3d0b 3d02 bd92 3db5
be7c be9f bee8 be56 bebd bebd 3e78 bd0a
bedc bed4 be90 be28 be8b 3ddc 3d72 bb14
3c8e bec9 be93 bed9 bd99 bdae be6f 3d14
bd0a 3bc0 be47 bf04 bde0 be7f 3e24 be28
be59 be3c be70 be68 bf1a be48 bc18 be48
bf14 3e13 bdbb bf49 bd94 bd80 bf12 beb3
3e4c bf2e bf14 bf4c be09 bdea be1f bf0c
bd83 3c90 bed4 beaa be13 bd7c be8b bd70
beb1 be88 be8b bd30 bee5 bda2 be04 beb9
be15 be94 bc38 bd19 3bf8 be30 beb3 bee7
be33 beeb be69 bc30 be35 bf18 be4c 3f0f
be78 3f01 bebe 3dee bc64 be84 be59 be88
be04 3e95 be81 be38 bed7 bec4 beba bebd
beb6 be98 be9c bde9 be47 bed5 3efd bdc2
be56 3e7c be55 be99 bf14 bf52 3b3c be8f
be93 3e16 bf18 bde5 be96 be9d 3c19 3a80
bf16 beb4 bf2f be86 3dea be97 be74 be82
3b60 be83 bed2 bed6 bead bedb be83 bf03
be01 bd30 be8c 3e81 bdeb be92 bd72 bf0f
bda2 3dca bdfa bec9 3da4 bee8 bf23 be28
beb0 bd68 3da9 3cdc bb90 bf10 be94 3ef6
3dc9 be86 bf26 bee8 3e7c bf00 bea3 bee9
bea1 be7c 3e45 bc88 be90 bee2 bece bdbb
3eb6 be91 bea4 bb4c 3e6d 3f02 3e1a 3ef4
bd74 bf1b be86 bdc7 3da4 beb8 be73 bba4
bede bf1c be7a be93 bf3d be8f bbc0 beb3
3eae be84 bdf3 bc90 bf08 be1e beea be1a
bf07 be60 bd3a be9e bf34 bf5f beea bee8
bdca be9b bef9 be2a be92 bea4 be92 be2a
3dec be19 bdc2 bdec bdb4 be36 be18 3c80
bf74 bdc7 be28 bf21 3db2 bde4 be22 be9a
be68 be0a bee3 3d1d be3b bdb9 bf2d beaa
3df8 bed6 bc60 bd44 bf40 bb60 be97 be5e
be31 bf4d bf74 bee9 3df7 beb8 be95 becb
3e00 be7a bcc0 3d02 bdf0 be21 bf47 bdf3
becb bd31 3d82 bece be81 bed0 beb4 be92
beaa bec6 bf6d be5b be1b beae 3cc4 be8f
bea4 3ca8 bdbd be74 be96 be00 3d09 bea9
befa be96 bf14 be5e 3e7a bc2c bdc4 bd13
bedc be83 3e85 beee bc62 bd64 bbd0 bea8
be85 3d3e 3d8b be78 bea0 bdc4 be82 bedf
be35 be13 be6d bdd9 be7b 3e11 bdc7 bede
3e06 be4e be85 bd14 3da5 bead bdfb bf1e
bee4 bf3d be94 bedf beb2 3e68 be91 bdc8
be5a bd2a bd84 3e0f be01 bf03 be6e 3d3e
bdce bedd bee8 3ea6 be40 bec4 bf04 3e35
3e52 be4e bd6c 3e08 be93 bdd3 be0e bd8d
3e0a be74 3dcb be97 be27 bea2 be82 bf2d
be36 be82 3e00 bd65 bda7 3ddf 3d6e bf0a
3d02 bec4 bcd2 bf30 be01 3e68 3e58 beb3
be7a be32 befc 3d07 be4d be66 bd58 3de4
be62 becc beaa bf07 be98 be65 3eb5 be9b
3e58 bd93 bebc 3ea1 be5f bf1c be7e bde8
3e46 bec2 bdd6 be8c be76 3d96 be05 3e04
bdc6 bdd0 bdee 3db6 bda2 be7c be34 be58
3c18 bdf0 be63 3e88 bf12 bc84 be12 3e85
be5c bf1a beaa 3cec befd 3ddc 3db6 3c78
be96 bdc1 3ea8 be8e be90 3e3e bdbc bf1b
3e44 bf13 bb40 be4a 3cd2 beda bda0 be58
bebc bed2 be8c bf07 be95 beae be7c bdf0
3e8d be62 3e81 bc8a bda1 be6b be90 be90
bd16 be41 beac bf0e 3e18 be97 be88 be4e
3e0a 3d3b be1a bea0 bdcd bea1 bdd5 beb8
bed6 bebd bf13 3e41 bb00 3dff bd08 3e44
be39 bee5 bf26 be60 be88 bec8 3e52 3ab0
bd6a bed8 be4c be34 be47 3e32 3d6c 3db2
3eb1 bedb be0a bdfa be6f be52 be91 3ea2
bc29 bdce be22 becc bca8 3c60 3e27 bd82
bca8 3d68 be75 be42 bce4 be64 3d8c bde6
bed0 3ee6 bddb bf0d bde0 be10 bebc be65
3eab bf28 be18 bf00 bda2 be05 bdc5 bf0a
3e74 3c44 be8b bcc8 3ad0 bd30 be44 3990
be30 be8c beae be31 befa be49 be0e beb0
be59 beeb 3ccc 3dbf 3e8b bcca befe beb6
bd30 bf10 be95 3dde bd9d bf5b 3ba0 3f72
be3a 3f09 bece 3e17 be01 be8a bed1 be56
be06 3ead bd8e bdea be64 beab bddc be20
bed2 be67 bece be96 be54 bede 3ec7 be83
be88 3ebc bede be78 bf15 bf1e 3db1 bdb2
bead 3ecc bf27 bde2 be1f be46 3c40 3b60
beef be19 bf38 be72 bca0 be8c 3d5e be85
bc60 bdf0 be87 be96 be90 be88 be37 bee7
bc6a 3dc4 be89 3ea0 3dff be56 bcb8 bee2
be0e 3d94 bb00 be5c bde2 beaa be8b bd9d
be93 3e5c 3e52 bd7a 3dc6 bf08 be2a 3ed3
3c70 be82 bf0e be8d 3eb0 bebd be71 bef8
bebc bde8 3e4c bdbf be28 bea2 bea4 bdfc
3f00 be52 3cf6 3d5e 3e3b 3ed7 3e58 3f2b
bc94 beda bd1e be76 3c97 be20 be3e be12
bed2 bed1 bcb4 3da8 bf06 be53 3e16 bd9b
3dce be96 3c40 bdad bed1 3e90 bebd bc70
bf15 be32 3d1d be21 3d98 beb3 bead bebf
be80 be26 be8c bda1 be72 be5f be4e be33
3d60 bd96 be95 bdd0 bd85 3c28 bea4 3ac0
bf58 3e6c bf01 bf00 3db0 bc40 be94 bcc0
bb9a 3e90 be82 bd45 be61 be36 bf1d bea3
bc38 be04 bea3 be81 bf4e bd64 be81 bd5e
3e8e bf44 bf06 bef8 3d93 be6a be71 bd8e
3e77 bdb9 3f0b bbd0 be66 bde1 bebc bd12
be87 bd14 3ea2 bb40 3c44 beb4 beae bec2
3a00 bec0 bf28 be6d be0d be0e 3cb4 be81
bdaf 3e57 bebd be69 be2c be02 bc48 be05
be8e bea5 bf50 beaa 3e68 3d6b bde6 3c65
be23 beae 3cee bebe 3d26 bd78 be06 bed4
be23 3c60 3e0a be95 be82 bd84 bf02 bee3
3d40 bd08 be69 bde1 bc94 3dfa beb1 be4e
3d18 be0f be70 bc20 3b98 becc 3dc3 bf3a
beb8 bf1a bf09 be77 be81 3e8c 3d98 bed0
bf12 3dc4 be1d 3e58 be51 bf01 bee9 3ded
be27 be6a be2c 3e96 be5f be6a be18 bca0
bcdc be7d 3e2a 3d2d bea9 3e84 be56 bb48
3e20 be84 bc40 bef9 bdd0 be80 be0b beba
be50 3d33 3e04 bd8e be6c bda6 3c5a bee5
be21 bd6d be1c bf4f bd81 3e50 3e83 bed6
be52 be1c beff bbe0 3e0e be6f be42 bd98
bedc bf09 be57 be9f bde8 bec4 3e50 bed0
be6a be6c be7c 3ea0 bf06 bf40 be40 3d30
3e2a bf29 be81 bef0 bf1e bd97 3d04 3c20
3e4e 3d12 be6a 3e8c 3de6 be95 bec9 be78
bd4f be20 be5f bed4 beb7 3dd9 bd01 3e5b
be86 be9b bf04 3e92 bf06 3d90 3f00 3ed2
be81 3e4a 3e56 bed5 be58 3c00 bde4 bea6
3db0 be90 bd9c bef0 3e64 beb9 be62 becd
bc20 3d39 bee6 bef8 be36 be14 bf0e bd4f
3e96 bdb2 be77 be2c bdd5 bed6 be97 be26
be0e be56 bee6 befa 3ec8 be93 bda8 be1d
3d2c 3d87 bd04 bf10 bda7 bead bce8 beaa
bed1 be84 bf50 3d04 bd9d bcfa bd20 be51
bea9 be96 bf2e be7e be62 bc1a bd51 be7f
be85 bf00 be50 3da0 be89 bd3b 3d46 3e46
3ddf be41 beb8 bdfe be14 beb0 be0c 3da0
beb8 3dc0 be5b bed6 be90 3d7c 3e72 bd93
3d7c 3dba bdac be5c be72 bd82 3cd0 bdd8
befb 3ee2 be4d bf1c 3e66 bd00 bede be1f
be94 bf41 be8f bf31 be18 bdc4 bcee bf1c
3eaf 3cd4 beb2 bcf8 bcb2 be23 bcc4 bd94
be28 bf0a be79 bdd4 befc be28 bef0 bf15
be29 bef6 be34 bd12 3eec be37 bf2a bec9
bf02 bf02 be50 3b14 3d24 bf53 be81 3dce
be86 3f13 bf1c 3d8f bf0b bf03 bed3 be88
bbe0 3e1a bf04 be93 3c58 bebd be47 becc
be87 be8d be9c bed6 be34 be3a 3d92 becc
bee1 3e5e bf04 be32 bf05 bf17 0000 be1f
be3b 3e47 be3e bd84 3d8c be17 3c88 be6e
be63 bed4 bef8 bee2 3d70 be5d bd0d bee2
bdc9 bdbc bf17 beda befa bdbc bd91 be8a
3c82 bdf7 be08 3e1a 3e21 be66 3dd0 bf0d
bdb8 bd74 3f06 bf13 bdb7 bf02 bed6 be68
be78 3e93 bc60 be88 3e78 beaa bed8 be9c
3e4a be86 be4c be84 bdab bed8 be2b be7a
bea0 bdd1 3e57 be94 be0c be9c be46 bda4
3ee9 bd7c bc94 3d5d 3e80 3ed8 3da0 3ebd
3d46 be31 bd46 be83 3dc0 3f2e bee2 be85
bf1b bf1f bb80 3e0e beec bd3c be5a be70
bd82 beb9 3d68 bde2 be84 3ef6 beef be14
bea3 beb0 be23 bdce bd22 be8c bf2e be99
bf12 be96 be8a bef9 be74 beb2 3d88 be6f
3d8e be02 beea 3e27 be49 3e33 bf05 3c5c
bf79 3ddb bf1b bf2a 3cca be14 be11 bd97
3e0e 3e96 be96 bedb beae be38 bee4 befb
3bb0 bdf7 be4c beba bf24 3dea 3dd4 be1a
3c48 beb4 bf1d bf38 3e06 be85 bec0 bdbe
3e8a be21 3e22 be00 3e88 bda6 be3c be3e
be19 be05 3e0e be93 3e57 bef2 bde6 bdc5
3e87 bed5 beb5 bd44 bd1d bec3 3d8f bd44
bdac 3d46 be30 bed8 be74 be2a bd68 be5c
bea2 3bf8 bf4a bf04 3e6c be1a be18 bdca
bd78 beb7 3d60 be9a bc30 bedf be3f bece
be1c 3e6e 3e19 be8d be96 bd1d be5c bf10
3d9c bea7 beab be7c be55 bcc0 beeb bec8
bc20 be85 be43 3c40 3d97 bd15 3d7a bf13
bf5e bf20 beb6 bec4 be63 3d74 be4f be67
bf60 bc00 be14 3d00 3d97 bec2 be9c 3d22
be1f be7b be7b 3daa be84 becc bef4 3d98
3e14 bdac 3d81 3c88 bec8 bd7a be5e be4f
be32 be9c bd80 bef2 be50 beb3 be8d befd
be49 3e40 bc50 bdb4 bdab be4f be8f bebc
bdfb be06 bec9 bf4b 3cdd 3e78 3e68 bf00
be7c bd84 bf1d bf02 3d6c befa bf0e bda6
be14 bf00 be54 bde8 becf be32 3e11 beb8
be88 be23 bec7 3ebd be14 bf06 be91 bdee
3d08 bf0a be4c be84 be3c be11 3d0d bbe8
3d88 be2e befc 3d98 bd34 bea7 be94 bebf
be90 be54 be32 becb bf36 bde0 3dbf 3e40
beb7 beed bf2e 3ebf bebc bce4 3e20 3d32
bebd 3e5b 3d60 bec4 3e0a 3d56 bd0c bef6
3de0 bf12 beaf bf56 bcf4 bf18 be8c bef7
beb1 bdf4 bea0 bf04 bea0 be65 bea6 be10
3e14 bef4 bf07 bed1 be47 bf1d bdc8 bec0
bde1 3ba0 bf37 bee6 3e1f be17 bed6 be1b
3ded 3d04 bd82 be88 3e1a bcf6 be44 bec4
bf09 be9c bf30 be5c bda6 be6e be5c 3e24
be23 be22 bf19 be9d be0a be56 3d67 3d29
bf03 beba bd96 bdda be3f 3b60 3dec bcd8
3e05 beb4 bf27 be8f be83 bee3 bea2 bda4
bed6 3d91 3d49 be7b bed8 3dea 3e44 be4e
be38 3bc0 be0a bea4 be9a be3a be56 becb
bf00 bd64 be8f bf2a 3e38 bd92 bf04 bec3
bf06 bf39 bf0c bf60 be02 be61 bc00 bf46
bc94 3c68 beb2 be7c be6d be20 be2a bc08
beb0 beb7 bd9d bebe beec 3cf0 bee8 bf04
be64 bf01 be4a be38 3e9e bda6 bf24 bf15
bf15 bf0a bc10 be12 bda0 bf33 bee8 bd95
bed4 3d37 bf04 3d8a be9b bf12 bebe bea8
be0d 3e9d beed be34 be6b bf14 bd64 be93
be9a beea bee7 be21 be2c beee be5f be3c
beaa 3dc8 bedc be82 bf08 bf6e 3e65 be90
bec1 3d89 be98 be1a 3d04 bdf8 bcc0 be3e
be8e bed7 bf42 be33 3e48 be82 bda9 be9a
bcd8 be9d bf03 bebc bea2 be82 bc9e bf1b
be1e be7e be02 3e92 bd27 be81 bdfc bef7
bea8 bdc9 bd56 bf20 bd4c bec4 bf20 bdb4
bda3 3d87 3e2c beb4 bda8 befe bf0f bd81
3d8b be76 bf15 bebf 3bcc be86 be55 be90
be76 be72 3e5e bdb9 bd40 bf02 bf10 3d74
3e83 bdce bcf4 3d26 3dec 3e12 3dbb 3e7d
3e81 bef1 bd0a beb6 3c24 3e9c be89 bea7
bf1f beca be26 be88 bf1f bba0 be63 3d92
3d5e be2e bd86 be3e bedb 3dd6 bee5 be5b
bf16 bf00 be84 be09 bf2c bf0c bf0f bf1f
bf04 bf08 beea bf0d bedc bec6 be02 bdca
3c94 be73 bee3 be71 be0a 3c70 bec5 3d43
bf9d 3daa beb2 bf60 be3b bda0 be72 be4c
3c68 be5a bf01 be9a beaf bbf8 bece bf06
bd2c be3a be31 bece bf7e be89 be93 bea1
bd9e bef1 bf1a bf3a 3bf0 be07 bed1 beb1
3e0b bdda 3d8d be09 3e30 3ce6 bf40 3c0a
beb8 bc40 0000 bf22 bdbd befe 3de4 be88
3d3c bef9 bf37 bebc bb00 be9c bdb3 bca8
bf12 bdef be76 bed1 bf0a be66 beb7 be28
bee4 be9c bf35 beb8 3e54 bd50 bd7b be90
beda be7b 3bd3 bd8c be31 be64 3d8d bf16
3d08 bdcb bcea bea7 beb6 3c38 be07 beec
be52 bedd be69 be42 be29 bd94 be63 beb6
3ce8 bee2 be1a bdda bdc1 be32 bd40 bf22
bf37 bf46 beea bf06 beb2 bbf0 be04 bd9f
bf40 3d30 bd9e bdd9 beaa beea bf04 bdf6
bc90 be32 be4a 3e74 be32 be74 bedc 3df8
3ea6 bea5 bcb4 3cba bef2 ba50 be2a bdec
bdf6 bece 3dc7 bea9 be0a be10 bf03 bf47
be1f 3ded bd2c bb80 bd00 be4f bdd8 bebc
3dbd be89 be7f bf4b 3dd3 3e5c 3ddc be34
bd60 bd6a bee9 be71 bdec be89 be55 be41
be38 bec2 be23 be89 beaa be00 3e18 bea9
bcd4 bda0 beea 3e4e bd85 bf0a be6a bda7
3e47 beba bdcc bea2 be5c bce3 3e36 be21
bce8 bd2e be2a bd2d 3d96 bd8a be6d be9c
bdca be9c be8c bec4 bf1e 3b40 be4f 3e24
be46 bea5 bf1f 3e81 be62 bd8e bd4e bc64
bef2 3c00 3e91 bec8 3c7e 3e23 be74 bed7
3dec bf04 beee beec be83 bf13 be9a be9f
be95 be85 bedb bf00 bda6 be71 bed2 be26
3ea5 beee bea2 3aee be4f beb6 bea3 be90
3ddd 3c90 bf3a beb3 3dd6 bdce beb0 be37
3e51 bd9e bdfb bdc1 3ce6 bee0 bde3 bf04
be7d be40 bf0a be02 bdcc be01 bd52 3dec
bea3 bd56 bf00 be8d be84 be00 3e52 be24
bf1e bf03 bea6 be0e bea0 3bf7 3d70 be08
3c8c beef bebb be4e be89 bd93 bea6 bd14
be48 bc18 be03 bead bea0 bc98 3e85 be26
be7f bdb2 bc42 bede be89 be90 be08 bef9
bec9 3eb0 bdae bf48 bd28 bb98 bf12 bed3
bd5a bf27 bf0e bf47 be2c bba0 3d1d bef7
be5a bd0a be0c bea2 bea7 bd33 be84 3bf8
beda bea4 3c60 beb6 be77 bea0 becd bef6
be3a beef bcbc 3d28 3e0f bddc beb3 beea
be94 beaa be05 be6a be6d bf10 bea6 3e95
bf0a 3e31 be87 3df5 bed0 be10 beb1 be90
be16 3e4a be3c be7d bec8 bec8 bdf8 beab
be95 bec2 be9c be8a be9d beb0 3e69 be84
be9c 3d5e befa be28 bede bf68 3e3d bdd3
bee9 3e0c bea8 be1c 3bca be18 bd84 be22
be9c be56 bf36 be0d 3ea0 be96 3d43 bec0
bdb4 be90 befa beda be33 be5a be1e bede
3d8a be09 bdbb 3dea bd90 be80 be7b be96
bebd bc83 be0c bed5 3e03 be5d be98 bc38
3c84 3d7e be30 be4f 3df9 beb2 bebe 3e60
3d95 be94 bf03 bea0 3d3a bea2 be1f bee7
be04 bed2 3e2f bcb6 3c12 bed0 bf2e bdcc
3e99 be60 be48 bdee 3d91 3e39 3d0a 3e86
bd54 bf21 be18 be5f 3c63 3e14 be8b be76
bf03 bf25 bd50 be0a bf19 bec5 bded be0c
3e51 beae bd58 bb90 bf14 3db8 becc be1e
bf20 beb1 be1e be61 bf15 bee6 beb8 bf04
be6a be8a beee be84 be7a be76 bea2 bdb5
3de0 bd88 be7f be3a bdf9 bdca be74 3c02
bf89 bd7f bee0 bf35 be49 be4b bd81 bdca
be64 bdd8 beb3 bd94 bef3 3d9b bef6 becb
bd8e bee1 3cfa be22 bf43 bebc be52 be4f
bd09 bf3e bf07 bf0f 3cb8 bdec be94 be32
3d86 bea1 3d80 bd9a bd7f be20 bf02 3d65
be50 be25 3c70 bf06 bd8b bee3 bd68 be3e
3e7f bed9 bf6a be68 bcf6 be6c 3d56 bc28
be44 3e05 bea3 bea8 bf06 becd bdb4 be36
bee5 be89 bf07 be26 3df6 3d1c bd0a be6b
be25 bdd6 3e8c be3e 3ad0 bd4a bd86 bee5
be32 3e18 3cb8 beb2 be8c 3be0 be2c beac
be5a be75 bd4d be86 be94 3ac0 bdc1 beab
3df6 be84 be4e bd8b be16 bda6 bd70 bf2a
bee5 bf1c bed5 be93 bec9 3c24 be20 3c10
bf04 3e0f be04 3cc8 beb6 bec2 bec9 3e01
3c46 be58 bdde 3e92 be23 be82 be78 3e8c
3e91 be15 bd87 bae0 beef 3e07 bd8e bdc1
be07 bef2 3e0a beec be42 be2f bf0c bf13
be06 bd1e 3e74 3c38 bd0d bda1 3d0b be54
3dae be9b be46 bf0b 3e3e 3e9f 3e4b be4b
be4c bdc0 bedf be22 be05 beb8 be70 bdf8
be64 beba be2f bec3 be2b be48 3e89 bee9
bd09 bc40 be7d 3e0e be99 befc be94 bde8
3eb1 beb6 be0b bed5 bd8b bdb7 3e00 be0f
3d4a 3df8 bdc0 3d95 3dd3 bd89 be1f be53
be29 be86 be96 be9b befd be08 be9f 3e5c
be0a beab bf2c 3e85 be9e bea1 3c00 3ca4
bf09 be5e 3e9c bd83 be4a 3d8a be1c be9d
3e6d bf16 bed0 bf0e bd41 bf08 bedf be82
bde3 be83 beb3 bec2 bdad be8e be78 bc0c
3eab bf0c be1e bd35 bdde be58 be4e beb0
3dd0 3d93 bf32 bee6 3c50 be91 beda be7d
3e8e be1a bde3 be9b bd75 be11 be12 bf0e
bece bc80 bf38 bd84 3d52 bdb7 3d08 3d86
be72 bee0 bec9 be5f be97 be93 3ec9 bc40
bee8 beec bea4 be38 beb6 3d9d 3d8c bd7d
bdb3 bde8 be1a be94 be3c bd2a be59 3db7
3c7c 3dfc be9a bf04 bea5 bd50 3e62 bd04
be38 bd2c bbd8 beba be7e be0b bdbe beb6
bf0e 3ec5 bda9 bf1b 3d18 bd56 bed1 be86
3df3 bf14 bf15 bf14 be9b 3d28 3e04 bee8
be5e bdbe be38 beb6 be47 be44 be09 be02
bf02 bec7 bd40 be2c be93 bea7 3d88 be02
bec8 be76 bd06 bd16 bd64 be60 be8e becb
bdaa be98 bde6 bdbd be3d bf16 be1a 3ed2
bf05 3e8e be85 3d8c be8f bdd8 beac be12
be82 3e0a bebe beb3 bead be1d be30 bea2
be34 bedc bee3 ba80 be8c be4b 3e8d be94
be0c 3dd2 beeb be93 bed8 bf63 3d93 3d0f
bea5 3e41 be66 bdc9 bd99 be87 bd89 bd0c
be9c be82 bf26 be0e 3e56 be8e bcc2 be9e
bd9a beb4 bf0e bf0a be6d be7d be6a bf03
3cb0 be42 bd96 3e85 be2e be34 be5c bed2
be86 3daf bdcc bec2 3db8 be7e bf01 bd6c
be28 3da4 bd87 bd48 3d88 bec1 bea1 3e90
3e15 beae bf04 bee9 3e62 be9e be2f be99
be20 bed2 3e47 3980 bd6e be1f bef4 be03
3ea0 be5d be3a 3cd3 3d61 3ea6 3dd0 3e84
3d86 befc bdf8 be61 3bb8 3e2f be6e be16
befd bf2a bdf3 be47 bf38 bf08 3d88 3bfe
3ea6 be60 bd8e bd1e bf2d bc88 be26 bdba
bf2a be18 be98 be9d bf0a bf0b be9f bef2
beb4 bec4 becc be41 be3e be62 bf01 be94
3de8 bdac be84 be9c be20 bdb5 be85 3d2c
bf64 bdc2 be1b bee4 bcbc be47 3db0 be72
be8f bdda be95 3c10 befc 3dd3 bed2 bee8
bce8 bee7 3d34 3dc4 bf4e bdf2 be8b be10
bc00 bf46 bf2c bf16 bda9 be06 bec8 bda2
3e08 bea1 bde2 3ddf bdef be69 bed4 bde0
beed be6e 3e2c bf07 bd90 be92 be44 beb3
3e0a beda bf37 bdaa bd24 be20 3cce be21
be3e bde2 be8f beb4 beb6 bed5 3d66 be49
bec6 be17 bf1e be13 3e36 bd8c 3b8c bea6
be68 bd63 bbe8 bea6 bd49 be25 bdb2 be9f
be8e 3d84 bc28 be92 beb9 bc18 be34 beb2
be6d be79 bd68 be4c be62 3e05 be74 beb6
bcea be2f be3f bb80 bd20 be41 bc10 bf19
beb7 bf28 be7b beec bede 3e08 be36 be03
bef3 bd89 bdfa 3e74 be1c bedd bee2 3d76
be42 bea6 be69 3e84 be18 beec be56 3e74
3e6a be72 bc96 3c3d bf08 3e21 be78 beae
be55 bef1 3e8f be92 be9d be71 be8b beda
be6a 3d39 3e42 3e3f bdd3 bd7d be52 be63
3e01 bec2 bd82 bee8 bdb0 3ddc 3e15 bea1
be82 bd04 bf20 be62 be15 bef4 be99 be17
bda6 bec7 be0e be41 be21 be96 3df2 beb9
bd8e bd44 beb9 3e65 be63 bf07 bec7 be17
3ea1 be90 bd8c be4f be0c be3a 3dcd 3d74
3d93 3e7b be44 bb9c bdf9 be0e be84 be06
be34 bd8f be91 beac bf06 bdf2 be68 3e0e
be12 bef2 bf24 3e90 beb7 beb3 be4e be1a
bea9 be6e 3e99 be7a be85 3d2a 3df8 beaa
3de4 bf54 be89 beda bdc6 bea9 bd0d bdfa
bdd4 be42 be2e be96 be40 bead bd20 3c3c
3e84 bf03 bdbd be43 bd1d be4a be92 bef2
bc94 3da1 bf38 bf05 3d14 be1a be85 be3e
3e24 bc4e bdd3 be9c bd37 bd35 be34 bed0
bee3 3c40 bf4f bc90 3d8b bcc8 3ba0 3ea9
be66 bea6 be91 be53 be34 bec5 3eb4 be1b
beaa be9c be87 be36 beb6 3e59 3e52 be6d
3d42 bd8a bdd3 beac be72 bcdc be1f 3d64
3dc5 3ca2 be6c bf35 beb8 bdc7 3e7f 3c60
bd13 bb80 bdfa be86 bebc bdbc bcc4 bec4
bed4 3e74 be09 bf2e 3e0e bd56 bebe bd2a
3e9b bf48 bf24 bf15 bebb bd56 3ca0 bf1c
be22 bd66 bebd be64 3ce0 bdfe bd88 ba00
bed6 bece be88 be5c bea0 bd94 3e32 bec1
bebf be82 3d24 be0d 3e1f bdeb bec0 be83
be02 bece bd97 3c50 bd54 bf1e bd64 3eeb
be89 3f14 bec5 3da5 bcd0 bdac bdf8 be6e
bd44 3e46 be69 be56 bf04 bead be85 bec2
bdf0 bef9 bee2 3cf8 be4b beb2 3e42 bcb0
beaa 3e9c beb4 be8d befb bf85 3de6 bd9d
bebe 3e12 be5f be60 3d3a be43 bd06 3dd3
bece be94 bf0c bd62 3d08 be08 be3e be2a
bdb4 be1e bebf bef7 bebc be89 bea1 bebc
bd92 bde5 be8a 3e92 bd8a beaa 3d1e bf04
3a80 3dce 3bde bed4 bd32 bed6 bf07 bd88
bdf3 3c48 3e69 bd71 bdcf beb9 be92 3e2b
3e5c be0a bf1d bed1 3ebf beb2 be24 bebe
be32 beba 3e33 be12 be3a beb4 beca bd96
3eb1 be9f be33 3d2a 3de6 3ec1 3ea2 3eb3
bc70 bf11 be1e bdca 3e4f 3e88 be41 bdf0
bec2 bf38 be89 beb8 bf22 beb8 3e34 bd2d
3e2b be4e bdc6 be02 bf13 bdc7 bed3 bd82
bf03 bdbe be5a beb8 beab bf37 be87 bec1
beac bed6 beee be00 bde1 be9a bf0d be7e
3e1f be6d bd54 bdb6 bd88 be23 bdfc 3e76
bf32 bbd0 be30 bf06 3c60 be0a bcc8 be8a
be0e bd82 beb5 3e09 beef 3d9b bf0f be6d
3de1 be9f 3db6 3e2a bf54 3ca0 be9f be07
bd9f bf1e bf38 bf42 3c9e be34 be1b be53
3e95 bd9d 3d1c bda2 bd6e be2f bf1d 3d28
bed0 bdb8 3e94 bf02 bd84 bed4 beb9 bec0
bdd0 be22 bf4a bdd9 3c8e be1e be1c be80
be81 bd37 bc87 bebf be03 be9d be32 bd40
be88 be62 bf36 bed0 3eb4 3cb2 bd44 be93
beba be30 3e01 bea9 bc78 beac be1e be57
beaa bcd0 3dbc bcf4 beae 3d88 bdd8 beac
be90 be8e be66 be4a be30 3e83 bd29 beb6
3e52 be78 be87 3c98 3df2 be1d 3d58 bf2e
bf12 bf5e be10 bf02 be4c 3df8 be7c be78
be9e bd89 bdb3 3e7a be12 beeb bf1d be06
be20 beec bf02 3e14 be6e beb6 beab 3d58
3e8d beb6 be7f bd89 becd be28 be84 bdfb
3d54 be99 3e22 be53 be9c bdfd bec6 bf09
bd14 3ca5 3e17 3e1a bbdc 3d10 bea4 bf01
bd26 be7c bd94 bef8 be8b 3e69 3ca1 be7a
be45 bdea bec2 bdd4 bea6 bf1c bec3 3c38
be6a bedf be88 bdd0 be51 3dd2 3e2c beac
bdb4 3dd1 bf02 3e6a bd8c be79 bedb be7a
3d81 be60 be00 be68 be47 be0e 3d0c 3d90
3d30 3e15 3d28 3ebf 3d2f 3dae bea2 be2a
bdf4 bebb bd83 be72 bf21 3cdc be2f 3e0c
be8f bf0e bf52 3e7c beb7 beae bddb bdc9
bed6 bcfa 3e82 be99 be84 3dcf 3da4 bf09
3d97 bf76 be94 beb4 bd88 bf17 be28 ba80
bea4 3c10 bcac beee be9a be7b bd68 3e34
3ea8 becd be27 3c2d bdfa bebf beb2 be2b
3d97 bcfa bf33 bef0 3e82 beaf be8d be85
bd36 3d64 be5d be98 3dc0 be46 be3e bed7
bedb bddb bf39 3bc0 3de0 3ccc 3d2c 3e52
bec8 bdcf beaa be2d beb4 be96 3ed4 bd40
bf23 befe bd78 be45 be62 3de2 3cf8 be33
3dc3 bef4 bd78 be98 be83 bc60 be71 3d72
be0b 3d39 be9d bf0b bdf8 bdfa 3e08 bd98
be90 bdb6 be49 bed1 bf1e 3b10 be26 be29
bf06 3eb3 bdee bf37 3e15 bd2a befe bebf
bcea bf0b bf02 bf3c be98 bdc4 be18 beb8
bd40 bdf0 befe be31 3e4c bdc1 bde4 3da0
bef2 bed8 be9a 3e71 bee3 bed4 be36 bf0c
be52 beb3 3c50 ba40 3e3b bdef becf bef2
bdba bef6 be29 bc90 3c21 bf23 be35 3ed8
be43 3f10 bea6 3d6c be19 be46 bdd6 be40
bcca 3e82 be12 bdf7 bedc be8e be90 be1e
bed1 befd bec9 be1a beba be95 3e97 be2f
bedc 3e24 be8c be0a bf25 bf50 3d33 be8a
be90 bbe0 bf1c be25 be3e bdfc bd82 bb80
bf17 be41 bf38 be9d 3e2f bdcc bd43 becf
3cfc be8a beec beb7 be9e becf be89 bf15
be7a beac be66 3e88 bdbe be66 bdd7 bea7
3d4e 3d8e bb20 becd 3ddd bef0 bed7 be39
be6f bd83 3de6 bdc8 3d07 bef8 be90 3eb0
3e43 be4c bf0e bed8 3e7a be90 be76 be3e
bef2 bdb3 3e82 3b20 be59 bf05 bf24 3cd4
3eb3 bed4 be7f bd11 3be4 3ebe 3e32 3f0d
bd8f bf3c be26 be1e 3ddb be7b be59 3d96
be54 bf4a be77 3dbe bf3c bf14 bd82 bde8
3eab b980 bdfc 3d1a bf0f bda7 bf00 bd14
bf29 be74 beca be49 bf08 bf51 bed5 be85
bd63 bea8 beb8 bd91 be92 be44 bf0a bd56
3dd2 be6d bdd7 bca0 3cf0 bd6a be30 3e0e
bf5a 3def bed4 bf32 3980 bd80 bd14 be0f
bead be0d bec2 3c58 bed5 3dda bea4 be8f
3b90 bebe 3c7a be06 bf5a bcea bda0 bdcc
bd0c bf69 bf38 beff 3d3c be5a be8e bd83
3e1c be06 bd66 bd11 bd0b bacc bf55 bdb6
be4d bd49 3e93 bedf be24 beea beee be91
be30 bdc7 bf6b be99 bdcc be30 bdd4 beca
bed0 3d13 be15 be86 be8c be14 bd7e be54
beb2 beaa bf24 bd98 3d8c ba58 bdd5 bd25
be0a be5b 3edf be96 bdc0 be0f be82 be2a
be99 be47 3e5a be05 be95 bd7b be82 bf1c
be16 be52 be0c be51 be9d 3d95 be06 be30
be0e bddf beed bc90 3dd0 be41 bd84 bf3e
beaa bf1a be51 be29 beaf 3e42 be08 bd9f
bed6 be7a be09 3ead bdd0 bef8 bef6 3e36
bdba bea0 bf1b 3ea2 be5c be48 bea0 3e86
3e68 bea9 bd46 3dd4 bec4 bd34 be21 bcd8
3d86 bde6 3d26 be84 be77 bdc1 bed0 bf23
be53 be1c 3d82 3dda bd8c 3e3b bd2a bf10
3d8c be42 bde2 bf0a be35 3e9b 3e8c beae
be61 be76 bf0c 3d06 beaa bebc bdce 3e2d
be5c beaa be8e be9a bf05 befa 3e80 be88
3d5a bdce bec8 3e80 bd91 bf25 be85 be66
3e42 bea0 bd54 be5e bef8 3c30 bdf9 3e47
bd6e 3b00 bdde 3c26 3e44 3d90 be88 bdf4
3bf8 be6c be9c 3e8f bee2 bac0 bddf 3e6d
be48 bed4 bf2c 3dd6 bf0b bce0 3d72 bd98
beda 3d1c 3e76 be89 be75 3e64 bdcf bf08
3e26 bf0c 3ca0 be5f bdaf bf06 bdb0 bddf
bea2 bd58 be90 bef8 be8c be8d beb2 3cd2
3edc bdbe 3e16 3db7 bd00 be98 be85 be87
bd8a be46 befb bee6 3df0 be46 be36 be32
3e15 3d88 be8e bea2 be09 bea1 bddd bee9
befa beb2 bf38 3dbc 3d9c 3b80 bd6c 3e83
be08 be35 bf18 bdd3 be81 be6e 3e1d bd24
bdb4 bece be1b be28 bed4 3e04 3d3c 3e13
3e93 beb0 3dc4 bcd0 befb 3cfa be96 3e5c
be15 bd7c be69 bec8 be29 3e1c 3e38 3b30
bd58 bc68 bea4 be0b be00 be2b 3ccc be20
bf01 3ef2 bd43 bf59 3b40 be02 bea4 beb7
3e87 bef7 3bd8 bef3 3d88 bdc8 bded bef5
3e00 bd40 becc bc00 3ea7 bac0 bb40 3d40
be6e bec2 be74 bbd2 bf0c bd16 bda4 bf04
be76 bed3 3d82 bdf3 3ed8 bdf0 becb bed6
bd93 bf06 be7b 3d34 3d7e bf3f be47 3f5c
be27 3f0a bedc 3e79 bdf0 be42 be9d be80
3dab 3e87 3d96 be2b be5e be5a be26 bdad
bebe bea1 beee bec2 be87 bea2 3e8e be88
bea8 3e9c bf00 be90 bf35 bf1a 3d48 bdc3
be7f 3ec0 bf11 be26 bda0 bd4f 3c10 3b00
bef4 be1b bf38 bea5 3d5c be92 3d5e bed5
3d20 be6b beca bede be5a be8b bdc8 bf17
bd4f 3da6 bdd4 3e48 3d4c bddf 3cdc bed7
3d0a 3d44 bd3a be34 bda0 be5e be88 bd8a
be24 3eb6 3ded be07 3e52 bec2 be10 3ec5
3dba be48 bf03 bf06 3e56 beb2 bcb8 bec5
beef 3b90 3e67 3d27 be7c beec bf07 bda8
3ee9 be4d be51 bd09 3e0e 3eae 3e94 3f1e
bc40 bf20 3be0 bec6 3d03 be30 be66 bc7c
bee8 bf04 be24 3e64 bf0b be8a bb40 bdd8
3db3 be45 3ce8 bd8b bebc 3e6a bed1 3ba0
bf1e bd83 be0a bca4 3e6b bed2 beb8 be7e
be80 be23 becc bdc1 be62 be7a be83 be00
3e1c bd94 be96 bea0 bdb8 3dce be8d 3dd7
bf50 3e81 bed8 bf12 bd13 3aa0 bce0 bd6a
bcf9 3e7d be87 be16 bea7 bce4 bf01 be5f
be2c be1e be23 bd97 bf4c bd98 be10 3d31
3e6a bf36 bf0f bee3 bd66 be64 bde8 3e41
3ea6 bd16 3f09 3d17 be37 3e31 bec1 be72
be94 bde7 3e89 be60 3d84 bf20 bed6 bece
3c74 be83 bf37 be3c bdf0 bdf4 3c70 bea2
be47 3e89 be5a be87 be86 be89 bdb4 bdad
be6a bea6 bf71 be85 3e44 3c99 bddf bca5
be8c be7c 3db1 bea1 bdc2 3e34 be52 be8f
be54 bdb5 3d8c be8f bea4 3a80 befd bf02
3e14 be3c be29 be4e bb00 3da8 bec0 bd37
3d26 be2d be79 bcc0 3de0 be8b 3da4 bf49
be35 bf14 bed6 be93 bea9 3e9b bbe8 be64
bf18 bdd5 be38 3e90 bcf8 bf11 be9c 3e32
be63 bf14 bed0 3ea3 be0a be8c be89 bd64
bd92 bebc bc8a bdc8 bede 3dee be24 bddf
3ea1 be72 be06 bf34 3e2c bdbe be88 bf2c
bede 3e56 3cb8 3e00 be20 3e71 bd92 bf17
be85 bc58 be12 bf49 3bcc 3e99 3e36 bef4
bea6 be8c bf0a 3d88 3e2d be32 bdaf be05
bf04 bf02 be66 bec2 be2b bf4d 3edb beef
bed2 bd7c be51 3eb0 bef6 bf21 be99 3e16
3ebb bf11 be9e bef4 bf12 be5c bb00 3c90
3e61 bd3d bdb6 3e16 3e4e be58 bebd 3da8
3d5e becf bec8 bf14 beb4 3dfa be00 3e42
bed8 be8c bedb 3e54 bf2c 3e77 3eb6 3eb1
bef3 3d18 3e77 bef2 be80 bdbc bd97 be8c
3e8e bec8 be95 bec4 3dca beee be68 bebc
be24 be02 bf06 bf35 bcc2 be63 bf03 bd42
3ee8 be4c be56 bed1 be62 bf13 bedc bdfb
bdb8 be14 bf0e bf16 3f02 be9b bddc be68
3e3d bc0c bcb2 be9a bea4 befd 3d50 bee7
bea9 be5d bf64 3dc4 bd09 3ce6 bd42 bed1
be56 be05 bf36 be01 becc bc0e bb08 be2f
bedc bf05 be3f bdec bed8 be4a 3e85 3e62
3dee be76 becd be67 bdbf becb be56 bbb0
beee bc94 bea0 bf21 be0e 3d38 3d8a bd1c
be32 3b20 be75 be28 be85 bd9d 3dab bd04
beaf 3ee0 be2a bf12 3df4 be4f bf15 bec9
bec8 befc 3ab0 bf0d bdd2 3d96 3d7a bf26
3ea2 3cbf bec2 bcc0 be52 be92 be0e 3d82
bebc bf22 bed6 be07 bf2e bf14 beb4 bf16
be84 bf08 beaf 3d61 3f2b 0000 bf48 bec8
bf00 bee2 bebb 3dd8 be25 bf7b bd0c 3e2f
be21 3edd bf40 3e9a bf1f bf0e bef0 be2c
3df4 3e43 bf2d be1b bb60 bebf bea8 be7a
bed8 be8c bf17 beae be54 be7e be2d bedc
be8c bd03 beb6 bd5c bf43 bede be0c bed3
bec1 be2a bf16 be92 3d7a 3cd9 3dd1 3c90
be38 bea2 bf39 bf02 bd77 be86 3ea4 bf2e
be73 be9e bf24 bed6 bf14 bed4 be9c be8c
bdca be8b be5d 3e3d 3e48 be15 3d88 beff
bde3 bdc9 3ef1 bef0 3c84 bf2c bea3 beca
beec 3e72 be58 be46 3e97 beca bf0f bec3
3d82 be6c be0c befc be78 bf19 be5c bde3
be95 be9c 3e7a bd7a bea2 bdd0 beb8 bca4
3ebd bdbd bdb2 3e9a 3eb3 3ef3 3e1f 3ec3
3d3a be2a 3ccc be3c 3d40 3ec2 bf1f bb60
bf5c bf4b be36 3e96 bf06 be2f be41 bccc
3d13 bdea 3dd8 bdaa bebf 3f37 bef5 bdd5
bf0e bec6 bea1 be4e 3dcc bee1 bf21 be4a
bf0f be8f beba be9c bed6 bea0 bda8 bd40
3d84 3b80 beec 3e81 be70 3dcf bf2a bd76
bf81 3e5e bf3b bf24 3e1a 3a00 be50 bd5b
3e87 3e44 be81 bee0 befb be33 bf1a bef9
3dec bd6a be6a bd06 bf29 3d3e 3e14 be06
bd9d be9a bf0b bf1b bcde beab beae bbf8
3e18 bd9e 3edc be81 3e40 bdf8 bec0 bd70
3ba8 bdfc 3eb0 be54 3e8a bf2a be90 bdde
3e9e bef6 bf0d bdd6 be3e beb2 3c58 bed7
3d3a 3d20 bea4 bec5 bec2 beac 3d90 bef0
bed9 bd92 bf8b bee2 bd08 be1e bef4 3dc2
bca0 bec7 3e58 be82 bd93 beae bec3 bf0d
bcb0 3e4e bd62 beba beb6 be57 beb2 bf33
3c50 beb2 bec5 bed2 bde3 bc48 bf17 beca
3cf8 be3c bd01 bcd0 3e83 bcf3 be62 bf58
bf70 beaa bed6 be7b be3f 3c98 be64 beb8
bf34 bd96 be94 3e86 bd08 bee8 bec4 bd3e
be87 befc bea1 3dcd be4d be84 bf06 bc40
3e3d bea4 bd9c be1c bf0e bddc be5c bf0e
bda4 be98 be51 bf28 bdad be58 be95 bf87
bf06 3e3b bdb4 3c28 3c50 bd32 beb1 bec8
be30 be7f bee2 bf52 bc06 3e44 3ea1 bf00
be0a bd89 bf14 be66 3db5 bed7 bf04 be18
be36 bf1c be4c be8f becf be9c 3e1f be84
bec0 bc10 bf04 3e91 be8d beb7 becd 3cb8
3e2d bef6 be98 bec9 bc78 be95 3b90 bd9e
3dd5 beb1 bea9 bbd8 3e1f be30 bec5 be76
bd82 bef3 bedb bf33 bf90 bc92 be3a 3dbf
befb bed9 bf12 3ef5 bee2 3d86 3c92 bcc7
bf2b 3d68 3e53 bee1 3e21 bd34 be19 beea
3e51 bf26 bf07 bf45 be58 bf0b bd80 bf17
bf01 bf11 becf bf12 be66 be32 bde4 bdb5
3e81 bede bf1c bf22 be87 bf24 bf0f be8b
bc78 bcc2 bf57 bf1a 3d9c bd8d be8e be0f
3ecb bd7a be29 be3d bdb4 3cea be9e bef2
bee4 be66 bf5c be3c bc8e be8c be54 be14
bdb7 bddb bf3c be8c be5c be64 3a60 3e56
bf24 bec0 be42 bdfe be32 3ccc 3e4a 3e20
3ed2 bed5 bf11 bedc bece bef3 bee1 be30
bedd be70 bebb bef4 be8e bcf8 3e06 be9d
be1c bd76 be7a be76 bef4 bdf5 be36 be83
bedb 3cf0 bea0 bf66 bd12 bd26 bf24 bef4
bf31 bf26 be82 bf51 be6b bd90 3d4d bf20
3d8e 3ddc becf be86 be94 be8e be88 3d5a
bee6 bed8 be7e be9b bef8 bed4 be9a bf30
be85 bf3f be70 be1a 3eef be90 bf45 bf12
bf27 bf31 be4d 3df6 be67 bf53 be69 be80
bec0 bd82 bf3c 3e01 bf2b bf1d bf1b be8c
be3d 3e9c bf07 be4d be56 bf31 be94 bebd
be89 bf1d bf3c be33 bb41 bf1d bedb bda4
bdf6 be19 beb1 bea4 bf16 bf57 3de5 be9c
bee4 bdfc bee2 bef4 bd55 bd5e 3c60 bdf3
be84 be9a bf8e be4e 3c10 beb4 3d8a bed0
be88 beb0 bf2f be8f bec2 bee4 be2b bf2d
bd36 be9f bde8 3ee6 bd64 bdf5 3cca beff
bebc be10 bd18 bedf 3cf3 bf12 bf12 be64
be6c bd99 bd3a beb7 be3b bf1a bf38 3dc8
be90 bea5 bf32 bef0 be2e bee0 be9a bf0e
be70 bef8 3ea1 3dbc be38 bed5 bee9 bcf0
3e39 bdf1 be4e 3e1e 3e0d 3e44 3e78 3e7e
3def bf1b 3ce8 beee bdce 3d96 be99 bea3
bf3b bf1f bea9 bd1a bf16 be67 bdcd 3c08
3e74 becd bd98 be99 bf15 3dac bebe be75
bf1c bef3 bf0d be24 bf3b bf41 bed6 bf02
bef4 bef8 bf1a beb4 bedc beb6 bd85 bdba
bdac 3d92 bf11 bd54 be6e bd2c bf04 bdc1
bf92 3ec7 bed2 bf66 be50 3d0d beaf 3d25
3dd4 be1b bf1a be68 bedf bde3 bf38 bef1
bd5a bcf6 be9f be56 bf53 bea2 be1d beb1
bdb6 bf24 bf0e bea9 bdf2 be70 beb0 be25
3d48 bd0e 3e46 bea3 bd67 bc00 bf25 3dcd
bea9 be40 bdea bf35 3d58 bee4 bcb8 bedc
3e31 bee6 bf70 bf07 bab8 beb9 be3c bed4
be94 bd77 bed4 bf04 bf17 be30 be5b be98
bf15 be91 bf67 be94 bd3c bd62 bec5 be60
be03 be83 3c4d be08 be87 3df9 be02 bf2e
bdb6 bc40 bdc4 bed1 beb5 3d18 be3a bf34
be64 bf3a bea8 be96 be30 be23 be94 bece
bcf8 bf2e 3e30 bdbe 3dbd be00 bdee bf67
bf56 bf38 befe bf2c bee3 bdf6 be2c bec8
befa 3d78 beb0 3e1d be85 bf04 bebe bd2c
be2f bec3 be84 3e91 be61 be67 bef2 3d81
3eba bea6 bd4a bdc2 bea6 be11 be90 bed9
3d44 beab 3cd8 bf0b be16 be59 bee8 bf63
be90 3d17 3da8 3d95 bdbe bdbd bea4 bef4
bdb7 beb5 be58 bf2e 3d02 3e48 3dca be7b
bd20 3d04 becc be81 3d86 bebe bec6 be3e
bdba bef8 bd31 be3a be91 be72 3e15 be4c
bb80 be16 beee 3e7f bdcf bea9 be89 bc3c
3e9f beaa be29 bea0 be65 be1b 3d78 be27
3d88 bcee bd94 bdfa be3e bbe0 be3a be39
bdbe bee5 bed0 bf27 bf70 bda2 be2a 3e12
bed2 bec0 bf06 3eee be86 3dd2 bcec 3bf0
bed2 bd8e 3e8e bf24 bc06 3de5 bdd5 bef8
3e46 bf1b bf03 beef be94 bed8 bdf2 bebb
bee7 bf0a be9a bf04 be70 be0a bd94 bd22
3eb2 bedc becf bebb be7b bec0 beb7 be77
3db0 3b60 bf43 beea 3d16 be90 be62 bd2e
3f05 bd3e be4e bd6a bd38 bdac be6a bedb
bebc be3f bf1e bc88 bb60 be27 bda4 bd4f
be10 be4a bf1b bdf4 bea7 be4c 3e5b 3d8a
bf01 be81 beab be12 beb5 bcc6 3da2 be1d
3d99 beff bef5 be6c beb1 bed7 bee6 be74
be8c be34 be9e bf23 bea8 bb00 3e58 be83
be0b 3cf3 bdaa be94 bec0 be2e be5d be86
be85 3e09 be9d bf37 bd84 bca2 bf1e bed2
be97 bf31 bebe bf4f be5a be65 3e53 bef0
bd48 bd35 bdd6 be97 be44 bc88 bec4 3e06
be80 be97 be52 be99 be8a be84 beb5 bf0a
be40 bf0e bce8 bdae 3e76 bddb bf12 bf11
bf0b bec4 3cb6 3cb8 bec2 bf11 be5a 3d94
bef1 3dbb be9a 3c88 beda bbc0 be7f be98
bbe0 3e30 beaa beae bee3 bef0 be76 beb0
bec4 bebf bf38 be48 be04 bf02 3ccc bdbf
be17 bd1f bee6 be64 bef6 bf6f 3dc0 bd94
bee1 3ccc bf01 be66 bb50 bda4 bd10 bd8e
be9c be0a bf25 be7a 3de6 be54 3cf3 bebc
be18 bec1 bed4 bec7 be3c beb5 be95 bf19
bcc4 be00 bd56 3ec0 be56 bdf2 bd48 be92
be27 bdcc bd12 bec8 3e12 bea9 bf04 bda5
be79 3c38 bde4 be65 bd64 bedf beb9 3e4f
be36 bea8 bf16 bdda 3e3b bea6 bee5 bed8
bda0 bf05 3db2 3d62 be79 bede bf20 be26
3eb5 be93 be44 bd89 3db0 3e39 3e13 3e88
be32 bf52 be04 bebe 3ca1 bcd0 be9c be4a
bee5 bf31 be3f 3d82 bf1f bef6 bbb0 bdc4
3e38 bec0 be24 bdf2 bf2d 3d7b bf08 be3f
bf34 be8d be5c be97 bf24 bf10 bea9 be97
be97 bebf bf12 be68 be9a bea3 be81 bde4
be2c bd74 be88 bc10 bd85 bdcb be3e 3d37
bf88 3c7e bed6 bf3e bdb9 bd7d be94 be23
bba0 bc14 be92 be32 bf10 3e20 bf3b bf10
3ce0 be02 bceb bbf8 bf41 bea7 bde0 bea6
bd7a bf5a bf1b bee9 3d0d be24 be33 bea9
bda0 be73 bcc8 be42 be33 3d90 bed0 3d53
be23 be00 3dac bef2 3bf0 bee2 be0c bee4
3e2a be85 bf4b bea8 3dea be8d be38 be94
be73 3d9c becb be7c bef9 bf01 be10 be8b
bebd be7d bf3f beb8 3e1d 3de5 be45 be71
bd9d be76 3e7a bea4 bdd8 3d9d bdb8 bf06
be1c bc4c 3d8f bed1 beb1 3e2f be44 bf06
be92 bf02 be11 beac be61 bcbd be32 be9f
bb90 bedb ba80 bd92 3d5c bd7e be60 bf45
bf0a bf06 bec7 becc bef7 bcf7 be54 be9b
bea9 3e00 be70 3e44 bebf bf06 bed8 3df6
be68 bea8 bec8 3ea7 be6d be0d bec6 3e56
3edc bdfa be01 be77 beca 3d5f be96 bea4
3dfd be5f be10 bec2 be78 bd50 bee1 bf2f
be8d bc7c 3d3c 3d70 3d50 bdae be1c be97
bdec bea3 be12 bf05 be0a 3e64 3e31 be28
bdc3 3a00 bf05 be62 be19 be9d be49 bdcc
be32 bed2 bcd0 be86 be95 be0a 3e74 be82
bd96 3dd5 be70 3e2d bdbd bed4 beac be0e
3ec6 beb6 bd8c beb1 bdbe be65 bbb0 3d02
3d2e 3e53 bd8a be40 bda8 3e98 be7e 3d52
bdc2 bf08 be8e bf12 bf34 bb90 be8b 3d84
be6c bed8 bf1c 3ea1 be8b 3cb4 bc49 bdd6
becc be5a 3e81 be9f be4d 3d3b bd11 bebd
3e20 bf29 beeb be9e bead bed8 be38 be52
bee6 beca beb6 bed0 be82 be3f be0e bb18
3ed0 bebd bed2 be72 be33 bead befe bec5
3d14 bc90 bf1f beb2 3c50 be49 be88 bc7a
3eeb bdc3 be8e bc18 bb70 beaa be59 bf0d
be89 bd90 bf21 bd8a 3cea be0c 3d04 0000
be71 be9b bf03 bda7 beaa be70 3e8e bd52
bef0 be75 beb6 be0a bf00 3cd3 3e35 be02
bd7a bea3 be92 be8c bea0 be7d beb0 be09
bcd6 be87 bed2 bf24 be9a be52 3e50 be16
be46 3bd0 be0d bea9 bee2 bdbe be5d bec5
be9c 3ee0 beb5 bf0e bda7 bd12 becd bedd
be81 bf08 bee3 bf3f be4d bc00 3de1 beee
be6f bd89 bdf3 be58 be51 bd4a be8b 3dd6
bf0a bebf bde3 bd34 bea3 bee0 bdc6 bea0
be45 befc bd32 bd00 3ded be1f be84 befa
be64 bef4 be45 3c1c bea6 bf23 bd22 3deb
bede 3e04 bee2 bd40 bf04 3dd0 bdeb bd4e
bd0d 3e39 beb5 bea8 bf02 bea3 be84 be62
beaa bf05 bf3d 3b60 be0b bead 3dbf bea0
be40 3dad bee8 be79 beda bf73 3e36 be83
be9b 3e05 bece bd65 bd42 bd20 bcce bdd0
beb4 bd94 bf4a be19 3e26 beb0 bdaa be88
bd86 beed be9c be9c be93 be85 be4a bf29
bc58 be26 bd29 3e9f be0a bd9d be98 be10
be5a 3dba bddf be66 3dd1 be9c beba bd50
be32 3e20 be53 bdbf bdbb bef6 be87 3e31
3d4d be34 bee8 bd90 3e13 be24 bed6 bef6
be12 beb7 3e30 3e2a be4d bf0e bef0 be03
3e96 bebb be3e 3dac 3d2d 3e5f 3e78 3eb7
bce0 bf43 be04 bea7 3de6 3e1c be23 3a40
bf0f bf3e bde2 be1b bf2f beed 3d9e 3cb6
3ea8 be12 bdef be7c bf24 3de6 be81 3cd0
bf36 be74 bee4 beda bf3a bf0f be87 beaf
bec2 bec5 bee6 be01 be06 be66 beac 3d63
bc50 be4d be69 bdaa bde0 be2e be51 3d9d
bf84 3ca6 becd bf3b bcbc be1b be0a be07
be2b 3d1e be32 3c78 bf24 3e2e bf2f bf2f
bd7a bec1 bca0 3e2b bf40 be16 bd7c be27
bdd4 bf3b bf2f bea5 be68 bc10 be8c be88
3c4c bec0 bde4 be35 be83 bd46 bedb be20
be97 beba 3c60 bef6 3d35 bea0 bd22 bf1e
3df9 be88 bf36 be4b 3e1e be86 be7c beb4
be51 3dd3 be6e bdd0 beb3 bf01 bd54 be9b
becb be34 bf1a be89 3e41 3d87 bdba beb1
be04 be01 3df2 be9f be1b 3dce be04 bee2
be29 bd04 3cb4 befa bee0 bdb8 be1a bed2
bea9 bef0 bdf6 bea7 be6f 3d24 bdef be81
3d6b be88 3be0 bdac bd8e be8f be76 bf47
bead bf02 be72 beb0 bf01 bc24 be5c be22
beb3 be21 beaa 3e82 be8e bef6 beca 3e33
beb5 beee bef8 3e50 bea6 be5e be8e 3eae
3e8f be93 be02 be8f bee4 be04 beb4 beb4
3d38 be20 bcac bf10 beaa 3d68 beea bf4d
bef7 3e55 3da4 bd1d 3d86 bd95 beb5 be8c
