3e24 3f13 bee9 3e94 bf17 bdee 3dca 3ee1
be97 3e58 3f01 be86 bf0a 3de2 3e08 3c80
bea4 3f19 3de0 bee8 3e0d 3f0f beba bebe
beec 3e46 3f08 3e10 3ea6 3e28 bd22 be4a
3da2 3dda beb6 beec bec2 3e0a be9a bf4d
bcd4 be10 3ef4 3e52 bf23 3e7c 3d81 3d58
bf34 bd67 be26 be2a bdd4 bf65 3e72 bf38
3f11 bdf6 3c98 3cb8 be62 bea6 bebf bd84
3da6 be90 3e44 be80 bf34 bc80 3e60 3e9a
bd9a 3e8e bdfb 3e7c be04 3ddf befb 3d88
3e0c 3e00 3d9a 3f1e be66 3df0 be8d 3e8e
bcf0 3e10 bea1 3e66 bf36 bc40 3e45 3ed9
bec8 3ec8 3e30 3db0 3e93 3e95 bdf0 bdf8
3e9a be7a 3eb7 be89 bd12 bf3c beaa bd78
bec7 3eb4 bf09 befe 3e12 bf92 be65 3d18
3ec6 bdfe bcf0 3e60 bcb0 beb5 bf2a bd81
3e42 beb3 bf36 bf0b 3ec4 bb00 bf2c be04
3dae bd0a bf15 be16 be29 bf15 3e13 befa
beda be82 3e82 be30 be29 bdc0 3e4e bf00
3dcc 3ebc 3cc8 3cc0 3d56 3f15 be86 bd9a
be00 bd66 be42 bdcd be82 3c84 3f0b 3f13
3db8 bca0 be0e 3c70 bf11 bbc0 bed0 3d12
be22 be67 3ea4 bdf6 3ea0 3eae 3e84 3d70
3d8c 3f08 bdee 3e18 3e40 3e72 3d10 bea0
bf2a 3f0a befd be85 3ec8 bdba be42 be31
3e66 be98 3f82 bca0 3f61 be49 bec8 bc77
3ebe 3e0e 3d3c bd72 be9c bc20 3f0a be1c
3e5d bf3e be82 3e96 bf12 3e53 bd94 bed6
bcf8 be99 be1c 3e49 3fa3 3e08 bede be3b
3c88 3c06 be31 bec6 3e62 bef6 3d00 3ee8
be41 3f7f bf29 3dc4 bf23 3f24 bd18 3e9e
3de0 3e86 3e93 be1c bd91 bf01 bd83 3ee4
3d23 bf0b beb4 beaf bebc 3e58 3e5c be86
bf20 3ebd bee8 3ba8 bf2f bf83 3d92 be69
bec8 3f1e 3e64 bc80 3e90 bef9 3e4b 3b40
3e0a becc be88 3e14 bdcb bee9 3d46 bead
bda4 bce8 bec0 be86 be83 bdd2 be04 be11
bebb 3ee9 3f29 bc80 becc bdcd bd24 bece
3f0e 3e8f 3e8a bc20 3d42 be89 3e60 3eb1
3d7e 3ea5 bd48 bdde 3f05 be34 bca0 3e22
3ea2 bd32 beb4 be8c be31 be8f be18 3d1a
be0a bd6c bdd2 3e30 be81 bf01 bc88 be4e
3f00 be9f 3e96 3ea0 be56 3e56 3e4e 3f29
3e18 beb0 3eb4 bd28 3e9a 3f24 be5f 3e82
3c9c be2a bdc7 3e89 bf2c bd08 bc56 3c08
be8b be31 3ea0 bc5c be43 3ea7 bed2 be2d
befa bdcf 3d9c 3e6e be50 be0c bda8 be66
bf0e bec9 be97 be97 3da6 3dc3 bf1b 3e56
3e1d 3efd 3e88 bf54 3e6a 3e83 bea0 3be0
bef6 3f1e be90 bf19 3c58 3e8c 3e5e 3e5d
3e22 3f36 3d82 bf3c bec0 3de8 bed4 bf00
be58 3e08 3e2c bda6 bf2c 3e48 be7c bcc8
bddd befc 3e38 bf0d bcd8 be62 be3d be7f
3f09 be58 3f2e bdf5 3e56 bcb0 be6b be6b
be1d be7a beea be6c 3d3a beb0 3d9c 3da0
3f17 bf17 bed0 3f37 3d90 bf14 bdd1 be8a
3f4e be56 3e89 be62 bebe be91 3e6a be83
bec6 3e54 bef4 be8f 3f81 be34 3e25 be3e
bec6 be9d 3f1e be44 3e9c bf22 3d38 3cc0
be9a bc53 bef4 becb bed4 be83 bd38 bc40
bdea 3e95 bdc5 be54 bdc0 3db4 bf03 3d26
3d8c be90 beae 3d92 3eae 3e30 beea be86
bea1 be2b 3d13 3cf8 be17 3df0 be54 3e40
bf1a 3ee6 3e17 3e36 3e52 bc7a bd38 bd68
3d88 3f0a be94 bd7b bf1c 3c8f 3d54 3e59
bcc0 3d3c 3de6 bdd1 bed1 be44 3deb be56
bf0e 3f11 3cc0 bf20 be31 3ee2 be9a becb
bf00 bd92 3ed3 bdb9 3edf bca2 be5e be76
3d7c bd2e befe bf0a bec6 3e58 be7e bf09
bba0 be58 3e93 3ce0 bef4 be74 be90 be86
bf6c be90 be56 be19 bd9a befa be35 bed5
3df6 be9f bda4 be0e be9a bdda beb8 bed8
bda4 be3c 3d60 be92 bed7 bea2 3ee0 bd08
bc1e bed8 bc84 3dc0 bd50 3e5f bf31 be52
3e53 be38 bca4 3ec1 bef8 3dc4 bed0 3e98
be18 3dae bf48 3ef6 bf04 beb4 3c2a 3df2
bf1b 3ede 3e8a be8c 3ee2 3eb9 bed0 bec2
3e80 bf16 be6c bf0e be7f bf4c be0b be91
be8a 3eea be9d beb9 bd60 bf62 bcb8 3c60
3e95 bed7 be7e 3dc4 bd94 bf3e bec2 bdc7
3e20 be50 bf3f bf48 3eb1 bee2 bf12 bdf6
beb9 3a00 bf1a becd be58 be5b bdc2 bf26
be64 be90 3e3a be4e bd9c beba 3e20 bf05
3e3e 3f1c be9c bdc0 be04 3efe be81 3e8e
bed3 be00 be4e bdbf be92 be3d 3e71 3f18
bdda be63 be1f be5e bf6b bb80 bf04 be94
bd8b bee6 3eac bef0 3e7d 3e84 3e10 3c80
be36 3eec bdb4 3e52 bdfe 3e0a be26 bf21
bf8a 3e41 bf3f bf4c 3eaa 3cf8 be72 beb6
bee1 bed7 3f01 bee5 3f27 be03 bec8 3d66
bc32 3eca be6d be82 bdb8 be3b 3f00 be92
3e88 bed6 bec1 3ed2 bf09 3e8a be7a bf20
bdd4 bee5 bd36 3d6a 3f35 bd60 be7f bf0c
be31 beb9 be99 be24 3e80 bf0d bd62 3ea6
beaf 3d8e bf34 3cc0 bf40 3e8e be86 3e98
3e3d 3e5d 3eb0 be88 be75 bf28 be94 3ea5
bd9f bf0a bee4 be39 bece bd7c bd7a be25
bf30 3e88 bec4 bec8 bf68 bf87 3e73 bf09
be4a 3e9a 3f0f beef bc8c be68 3ea4 bc30
be0c bec9 be0d be6c 3dce bf00 be40 be96
be48 3e20 bf2c bef2 be39 be4f bea3 bece
bea2 3e89 3ec5 bda0 bf26 bee5 3d7c bd68
3e91 bdbe be04 3ce0 3df0 3d08 be55 3ecd
3e0d bca8 3e0f bd00 3eac bdb7 be9c 3ed2
3e7c be74 bece bee5 3e1a bf1c 3d5a 3d0e
be7d bd78 3e06 3e19 be80 bf1e be30 be7d
3e9b bedc 3e14 3ec5 bea5 be0e 3e3c 3d9e
3e6e bf00 3ec8 be87 be14 3f05 be61 3da0
3b80 bf25 be3f 3df6 bf23 be82 bebe bec7
bccc be0a bda2 bda7 beff bd96 be8b be81
bed3 be4a be50 3eae bece bd68 3dbc 3c20
bf2c bf06 bece bede 3c6c 3c7e beda bda0
be64 3efa 3c2c bf25 bdcf 3eda bedc 3dd4
bf52 3f4f be55 bf15 bedd 3d50 3d09 3e93
be98 3e93 3c78 bf2a beee 3ce4 befe bf1f
3b80 bddc 3dc4 bd00 bf36 bde7 bec3 3e85
bcb0 bf32 3e4e bf0c 3dde bec0 bed2 bf12
3eb3 bb00 3e2e be75 3e5e 3e8e bed6 be8d
be0e bdb2 bf47 bf20 3d8e bd84 3de4 be04
3e53 bebe bedb 3dfe 3d98 bee8 bd97 beaf
3e4a beb4 3de2 be44 bedc becd bd50 bda1
bf06 be19 bf29 be38 3f2f bed7 bc58 bf18
beab bf08 3ef8 bcc4 3e9e bed2 3be0 bd34
bedc be2e bf1c bf0b bee0 3c88 bda6 bdc4
beab 3eaa bea0 beac bed0 3c34 bf0b be11
bc28 bf04 bdb7 be39 3cf8 3e66 bef0 bee2
bf2a be9b beca bce0 beb7 be1c becf 3e4e
bf42 3e99 be20 3dae be63 be83 be84 beab
3e55 3f3f bebe be4e bf0a 3c7c 3e70 3e1f
3d52 3d2c 3e60 be32 be85 bcce 3e1e bdb0
bee2 3f20 3e6c bea5 3d0e 3eec be8e beb3
bee4 bdfa 3ed5 bdbd 3e52 ba80 be9f be6f
bd40 bd4a bee4 bf22 be88 3e1b be12 be54
bd14 be72 3ddc 3d08 bf33 bdd7 be71 befc
bf76 bdb0 be74 be6e bdab bf19 bec3 bdd8
3de0 be74 be1c be16 be14 bc5c bf09 bf1b
bd76 bd70 3e50 bea8 bf26 bda9 3ed6 bcbc
be0a be8d 3d94 3eb8 3d4a 3d6b bef7 bdfc
3dfd be20 be42 3ef6 bed0 3b80 bf0c 3ecd
3d00 3e70 bf80 3f17 be61 beda bdbb 3e49
bf1c 3e8b 3e97 bda8 3eb2 3f0c bf02 bf2f
3e31 bf48 be1c beda bebc bf87 3d18 3b00
be5d 3f64 bea6 be46 be14 bf97 3e5f bda6
3eee bf24 bea7 3d38 3dd2 bf37 be82 bd58
3e0c be90 bf59 bf3c 3e75 be44 bf0e be67
be5c be16 beee bf09 bdee 3deb 3d28 bf2c
be7a bdfe 3eeb 3cb0 bddf bec2 3e65 bed6
3e89 3f11 be72 3e01 bdb4 3f13 bdb8 3e06
beda be20 bed4 bdb4 bef7 3d2b bc90 3f2e
bdfc be18 bd00 beb2 bf34 3d84 beea beae
be89 beae 3e7e bf18 3e06 3e80 3ef2 3e2e
bdac 3f02 be0e bdc2 3c38 3de2 bd99 bedb
bfa6 3e78 bf30 bf05 3e29 bdd8 be8b be9b
bf0d bf0b 3f22 bef8 3f18 bd5f bebe 3e21
bdb7 3e8c be55 bf0e bdda bdd7 3f03 be34
3ece bf0c be57 3e96 bef6 3f0a bdc2 bed7
bdc0 bebf ba20 3cec 3f0a be4b be99 bf2e
be95 be35 be9b be66 3ea1 beb9 be10 3ed1
bedb bd6c bf34 bd10 bf3d 3e40 bee5 3e58
3e3d 3e3d 3ec1 bde2 be99 beee be2b 3e68
3dde bdbe bef2 beb2 beaa 3e6a 3ddf be42
bf14 3e7e beac bf21 bf74 bf6e 0000 bf0b
bef9 3f24 3e92 bee4 3e54 beab 3eac 3e68
bd71 bec4 bd1e beae 3e70 bef3 bd7f bf1b
be87 3e85 bf12 bf2a 3d16 be22 be9a be00
bf20 3e9e 3efc 3c30 bf92 be99 3e21 be8a
3ee4 3c4c bde1 3e4f 3e3c 3d9e be9b 3ea9
3ea0 3e9b be2e beae 3eab be29 be9f 3f34
3de3 bf18 bf0c bf14 3ef9 bf0d 3e19 3da9
bdf1 be40 bd22 3e10 bef9 bf1a bece be82
3ed1 bebf 3e20 3e8c bf00 3e12 3e78 be46
3e8d bf13 3f09 be90 bd20 3ecc bead 3e6b
3e59 bf20 bec0 3e7a bf57 bed6 bdb0 be18
be02 beb2 bd2b bdd3 bf23 be6f bea2 be9d
bf1c be44 be38 3f22 bf35 be34 3d90 3db2
bf1e beb0 bf17 beee 3d96 bda2 bf11 bda9
bea6 3ed8 3d48 bf12 3cc8 3eca bf1a 3e3b
bf2d 3f15 be4b bf4d bf0c bd28 bddd 3e9e
be36 3ec9 bda5 bf41 bf50 3dad bf49 bf01
3b98 be94 3eb8 3da8 bf3c bd84 be59 3eb2
3c98 bf62 3ed5 bf22 3dd5 bec3 befa befc
3e8e 3e2c be52 be45 3def 3e3d bf0e be3a
be75 bd58 bf3c bf32 3d4c bea0 3da7 be2e
3ef1 bf18 bf06 3e10 bbc0 bea4 be49 bef0
bdd6 becc 3d14 bd8d bf14 beea be14 be15
be8a 3d70 bf6a bdf1 3f03 bead bdcc beb5
be98 bef4 3f14 bd8e 3e8e be82 3db4 3d1c
bf00 ba80 bebd bf14 bec3 3e73 3cf0 bdf4
bf18 3e95 beaa be37 bf17 3da0 bf1c bdc8
be36 beed be82 be64 bca0 3e32 be8f bef1
be80 bdef bf0f bdf9 bef4 be76 beaf 3e25
bf0e 3eaa be16 bd26 beb2 be85 bea1 be9b
3df3 3f5b beec be55 bf10 bd4a 3e6e 3e93
3e10 3e16 bd64 be77 be96 be30 3b20 be06
bee8 3f4c 3e80 beb4 3ac0 3f04 bebc bea1
beed be93 3eb7 bd50 3e29 bd4a bebe be3a
bbc0 be16 bf22 bf1b be8d 3d8e be40 bca0
bd20 be94 3d9a 3c2c bf4c be09 be2f bee7
bf6d be2b be9f be2f be3e bf55 bea9 be78
3ec0 be94 be38 bdde be1a bdf6 bf14 bf2c
bd30 bdee 3eb3 bec7 bf1a bdf8 3ed9 bc28
be35 3c90 3c95 3ea4 3db3 bcce bf0f be21
ba80 bcfb be30 3e9d bf14 bc40 befa 3e94
3dfc 3e69 bf72 3f06 be0c bf0b be08 3e09
bf1d 3e70 3e8c be30 3eb7 3f20 bf1d bf34
3e57 bf5c 3d78 bed0 beed bf89 3dea 3dc2
be76 3f6f bec3 beac be08 bf93 3e05 be0e
3ec7 bf26 be9d 3d66 3e06 bf18 bebb bda6
3e8f be84 bf7f bf43 3e02 be0c bf27 be81
be2e beac bf20 bf16 3d57 3e14 bd2c bf46
beb9 be4e 3ed8 3d08 bdad beb8 3e8c bebc
3e53 3ed6 be8e 3e9c bc70 3f0f bd9e 3e0a
beb2 be40 bf07 bd80 bf1f 3e71 3d0c 3f27
be49 bd38 be10 bec8 bf3a 3e0e bf03 be65
be98 bea5 3e8e bf0a 3dd8 3ea1 3f11 3e22
bd78 3f01 bea4 bd8a 3d97 3d20 3d08 bf21
bfa0 3e99 bf52 befc bc1e be92 be8e be4a
be9c bf3f 3f4c bf0a 3f2b bcd2 be6a 3e1a
3c24 3e6b be9a bf06 be83 be40 3f0a be02
3f05 bf26 be5f 3e6c beda 3f3e 3d80 bedf
be22 befd 3de9 3cf0 3f02 be38 be95 bf0e
be6c be2c bee8 be7a 3e52 be91 be36 3f1a
bf20 bd82 bf2a bde0 bf36 3d78 bf1a 3d88
3d8e 3e42 3ea4 be97 be9a bf03 be14 3e8a
3d06 be18 beef bea5 becd 3eca 3e3f be2c
bf05 3e8a bee1 bec6 bf6f bf80 bc90 beec
bf2e 3f50 3eff bf03 3e8e bee9 3e4e 3e56
bda8 beb7 bd96 bec5 3e89 bef7 be6e bf2a
be91 3e62 bf07 bf42 3c95 bcb0 bed8 3d08
bf28 3ee6 3f19 3d74 bf9a be45 3e34 beac
3eff bc08 3ddb 3e99 3e22 3dbc be81 3ee1
3ebf 3e34 bdcd bebd 3ec8 bd59 be8b 3f3a
3d4a bf25 bf25 bf23 3ea8 bf35 bd10 bc10
3c60 bdcb be0f 3d8c bf2a bf0c bef4 be8b
3ef0 bedb 3e27 3e84 bf00 3e6c 3e38 be82
3e4e beec 3efc beda bd04 3ece beaa 3ead
3e59 bf25 befc 3e39 bf5f beb6 bdc4 be77
bddc bedd bd8e be30 bf1a be8a be97 bee4
bf33 be44 bdda 3f03 bf46 bebb 3e22 3b80
bf21 beb8 bf29 bf12 3e04 bd6e bf11 bd94
be9c 3ec1 3c92 bf57 bd74 3eb2 bee8 3e6a
bf39 3f05 bd8e bf81 bee6 be16 bd6d 3e70
be22 3f20 bd6c bf3e bf49 3e21 bf78 bf06
be12 be9b 3ef6 bdba bf54 3e4e bebc 3e51
3b30 bf6c 3e92 bf28 3bc0 beb6 bf00 beed
3e98 3e18 be06 bdd8 bd80 3dce beee be78
bee3 bcd8 bf46 bf1a bdb4 be86 be0c be91
3e9c bf4e bef4 3e33 bdc4 bed5 be56 bf00
be72 be83 3df8 be70 bf3c bed9 be79 be8d
be30 3d87 bf5d bd5a 3f2c be95 be35 bef4
bede beb6 3f04 be03 3dfa be92 3e23 3d46
bee8 bd08 bebc bf02 bf02 3d60 3e02 bce0
bf27 3e98 be9c be2c bf32 3d74 bf33 be5a
bb94 bec9 be78 be9b bd54 3e3a bea6 bee2
beba bcbe bf1c bde8 befe beca bee1 3e78
bf0c 3ebb be68 3cfc becd be8c bd8c be86
3de7 3f10 be74 bd26 bf1a be0c 3e55 3e64
3e14 3e26 bea5 bea0 be9d bd97 bd9a be48
bedc 3f4b 3e56 beeb 3c38 3ef4 beb0 bed6
bed4 be7c 3ed1 bdfa 3e92 be07 be63 be5a
3c60 be1d bf00 bf0a beb2 3d60 bcc8 bc20
bdbb be9c 3d90 3d67 bf38 be4c be10 be8e
bf6a be00 beb8 be83 be9b bf28 be9a becd
3f07 be8f be64 be06 bea6 bdf9 bf08 bf01
bcfc be4c 3dd0 be76 bf31 be70 3ec6 3d44
be02 3c20 bd82 3e67 bd5a 3bb0 bf11 bdbc
3d16 bd3a be50 3df7 bf18 3d60 bec7 3e60
bcc8 3d1c bf4e 3f0e be76 bec2 bd9f 3e46
bee8 3e01 3e14 be60 3e51 3f15 bf01 bf1a
3e54 bf4e 3e01 bea0 bf02 bf50 3ca0 bd98
be4e 3f16 be4e be76 be2c bf84 3d50 be34
3ea3 bf04 be90 bb30 3e98 bede be92 be3c
3e9c be9c bf54 bf5c 3dbd be98 bf3e be80
bdfc be1a bf0b bed8 3c3c 3d4c bddd bf1c
be83 bd8f 3e64 3de0 bd1c be84 3e90 be48
3dd2 3ebe be11 3e8c be3c 3eea 3c30 3dc1
be4f be6c bf03 bd89 bf1c 3e4c 3e63 3ef6
be76 be46 be20 bec2 bf3e 3dfc bec6 bd6e
bc80 bed3 3e9c bef9 3e05 3dee 3ed7 3db0
bcfc 3f03 be1e bd08 bd9e 3e82 bd5a bf30
bf66 3ec1 bf2e bf1e 3e00 bdfc be7a be3e
3e1a bf40 3f3c bf10 3f0e 3c94 be14 3dfc
3b40 3e99 be6f beda be48 be4f 3f0b bc88
3ec4 bf01 be55 3e2b bf05 3ef8 3d94 bedc
bdc6 bf0a 3e54 bd4c 3f18 be46 be34 bebc
be86 be84 be83 be42 bcd0 bed2 ba80 3f0d
bf05 3de4 bf3a be89 bf25 3e0a bef6 3d23
bc8c 3de6 3e88 beb2 beb8 bee8 bebf 3e87
3dfd be90 befd be81 be8c 3eb5 3e66 be14
bf30 3e60 becc be77 bf58 bf62 bd6a bf0d
beef 3f13 3ec8 bece 3eba beae 3e70 3e2e
bdd2 bea9 bdf8 be4f 3e17 bedb be5a bedd
be66 3de4 beea bf0e bd54 bcf8 bee1 be42
bf06 3e8e 3ef3 3cb8 bf7a beb4 3d86 be30
3ed2 3ce0 3d44 3e00 3dab bd82 be64 3f0b
3e6c 3de1 3d34 be10 3ed8 bcec be66 3f02
3e59 bef3 bef4 bf12 3e5b bf37 bd88 bd51
bdb6 be8a bc90 bd0c bf23 bf19 beac bea1
3ed4 bede 3e00 3e98 bed8 3b90 3ea6 bd74
3e44 bf12 3eae bea1 3dce 3ed2 bead 3ec4
3e2b bf3b beaf 3e3a bf5d be76 be34 bebe
bdb6 be58 bd62 be2a bf0a be1c be6c beec
bed6 be42 bd74 3eaf bf1d beac 3bc0 bc48
bf0a bea2 bf17 be82 3e0c bde5 beb5 bd5a
be38 3ef1 3dbe bf3c bcb0 3eb2 beca 3e22
bf0a 3f12 be2f bf41 beae bdbe bd06 3e7c
beba 3f26 bcde bf24 befb 3d9e bf51 bf13
bdd0 becb 3eac bd09 bf2b 3e11 be97 3e08
3db8 bf58 3da4 bf25 bd81 be73 becf befc
3ea4 3b80 3db8 be18 bdc3 3d89 bec3 be50
becc bde4 bf35 bec0 bca8 be28 be66 be70
3da1 bf1e bf0e 3eb4 be1c bef0 bc88 befa
3d94 be46 3c20 beaa bf1b beb7 bda6 be58
be8a 3d1c bf1b bdb1 3f56 be7a bdbd bed6
bea0 bf10 3f0c be01 3dcc bec2 bd58 3c80
be86 bd84 bee8 bf09 bf06 bc88 bd88 beac
bedc 3eba bed7 bea3 bef6 3e04 bf2a be1f
3d59 be66 bed0 be5b bd44 3e3c bf06 beea
bef2 be38 bef7 be2f bebf beb0 bee3 3e6e
bef4 3e94 be01 3da6 beb2 bdb8 be21 be2a
3ec9 3e15 bf06 bd16 bf18 bd56 3e88 3e4e
3cd4 be07 beb7 bec1 bdb0 be78 bd82 bde2
bea6 3f3e 3e5c bf20 bd2a 3eca be74 bea2
bf1e bf3c 3f18 bcc8 3e87 3d74 be3b bdf3
3e36 bd8c bf0c bed7 beca 3e34 bde0 be68
ba80 bec6 3db0 3c81 bf18 be24 be84 be9c
bf84 be0a beab be4d bdee bf24 be88 becc
3e33 be96 be6a be80 be4a be27 bf2a bef2
be87 bdbc be5a bd54 bf0c bec8 3eca bcb0
bdc9 be78 3d40 3e31 bd06 3e64 bf28 bea4
bdf0 be93 3de3 3e04 bf30 3df8 bea2 3e44
be4b bd76 bf69 3f10 bf07 bef7 bdd0 3e8e
bed5 3e5e ba80 be80 3e88 3f24 bec6 bede
3ede bf78 3b20 be4c beaf bf2e bdc0 bc90
bd6c 3eb4 beb9 be2b be69 bf64 3e76 bc00
3e7a bf36 beba be5e 3e9c bed2 be92 3d32
3e91 bea4 bf46 bf76 3e97 bedd befc be59
be36 3bc0 bf16 bec6 be22 3da2 bda8 bef4
bdc6 3de8 3e2e 3db0 3c80 be20 3dbe be9f
bd24 3ed4 be40 3dc2 be81 3f0b 3d94 3e42
be9e be20 bf0b bdeb bea8 3da3 3db4 3ee7
be41 bf07 bc40 be8d befd 3db4 bec1 be1e
3d8e be65 3e28 be59 3e87 3dfa 3ec0 3c40
bd5f 3ee7 be0c 3d82 bf08 3e44 be30 bf12
bf52 3e89 bf36 bf18 3e85 bdfc be94 be50
bce4 bf55 3f10 beea 3f0a bd48 be37 3e03
bd0f 3ef8 be93 bed7 3d88 be44 3f1a 3d94
3e6f bed4 bea9 3e84 be96 3ead be27 bf49
bd80 beb5 3e1e 3d9c 3f24 be4a be4a bea6
bea1 bea7 bdf9 bdb9 3e40 becb bdf6 3e7e
be62 bb80 bf74 be76 bf06 3e56 beaf 3eb9
bd52 3e4a 3e32 be61 bed8 beba bf07 3e88
3b58 be6c bef6 bd82 becb 3eac bcca bbc0
bf3c 3e12 be53 be5c bf7c bf80 bd38 bf08
becc 3ea6 3f10 be92 3e62 beb8 3e8c 3e9a
be86 bea8 3dcd be34 3dbb bef2 be84 beee
be96 3d84 bf32 bf2c bd40 3d24 bf03 bd84
bf1e 3e55 3eca 3ca8 bf6a be94 bd93 bec4
3eec 3db7 3cf4 bcf0 3e83 bcb0 be93 3ed6
bcac 3dc6 3e02 bd18 3ea6 3e28 be74 3f0f
3e96 bec5 bf12 bf08 3edc bf2a be40 beba
bde8 be79 3d80 3e08 bf3e beba be9d be85
3ed6 be97 3da2 3e38 beb8 be88 3ee6 bdef
3d86 bf4c 3e94 be2a 3da6 3e29 be82 3e04
3dcc bf5c bd8e 3eab bf48 be98 be68 bea0
3d72 be99 3af8 be58 bf24 be99 bec1 be8e
be90 be01 bde0 3ed0 bf05 beb5 be38 be36
bf06 be92 bf14 be9c 3d44 be02 bee1 bdad
be16 3ed2 3e40 beff bd94 3e61 bec6 3df8
bf0c 3f32 bccc bf56 be87 be24 3c94 3e60
beb0 3eb0 be20 bf02 beff be12 bf1c bf04
bd0d bdd4 3edc bdab bf1f 3c70 bee6 3e9b
bc9c bf54 3d7c befc 3de4 be30 bec1 bf20
3eba 3d94 be2f be8e be61 3ea0 bf0e bec0
bda5 bde4 bf50 bf2b be0e be76 be42 be9f
beaf beb8 bf0e 3e60 bde6 bf2e bdc3 bf06
be16 beb6 3d08 be54 bf13 be5a bd0c bec4
bf06 3ba8 bf17 be02 3f52 bee9 be0c bebd
bec5 bf2f 3f0b be16 3eb6 becf be2e 3ca8
be83 bcd8 bea7 bf18 bead 3e08 3d8c bf36
befd 3e83 bea6 beb0 bec9 bce6 bf11 3c30
bd34 be93 be94 be59 3e38 3e0c bf17 beaa
be88 be0c bf0d be19 bea2 bec2 befc 3e82
be3b 3e74 be58 3e08 be33 be1a be1d 3e43
3eb6 3f04 bf19 bcc0 bf0f bd48 3eab 3eb8
be14 bdec 3d2c bed6 bea4 3dd4 3e28 3db8
be1e 3f3a 3eae bec5 3e4a 3e84 beac bdbc
bf14 bf09 3eb9 3da2 3e52 3ea6 bdc6 bee0
3e53 bd4c beee bf1a be9c 3dcb be8a be72
bebe bf0c 3eac 3e7d bf4a 3c20 be57 be4b
bf7f bb80 be89 befe bef4 bf62 be28 be99
3f19 be07 be62 bdd2 bedc bd56 befe bec9
3e08 bce0 bbc0 be4e bf18 bd0a 3ee1 3e0f
bd9c 3e36 3e66 3e1e bdbe bdf4 befd bea7
3ea8 3e58 be96 3f0e be80 3e3f be9b 3f15
bd18 3db4 bf32 3e9d bebe beba 3e2b 3ec4
bf0f 3ebf 3eb4 bdf2 3eae 3f5b bf0c bf04
3eb0 bf3e 3f28 be84 bed4 bf8a bdee 3d0c
bd98 3f0b bf1c bdff 3d32 bf8b 3d70 3cf0
3ed2 be7c bce8 3ddc 3da8 bf05 bf36 be96
3dbe be65 bf42 bf70 3e34 beb7 bf38 be85
3deb bcfc bf05 bf04 3d28 3d50 3e09 bf09
bec4 be26 3f20 3d78 be25 bec5 3dcd 3cd0
3db8 3e88 3e04 3e1c 3ca0 3f19 be5a 3e6a
be3a be10 befd bd32 bf6e 3f06 3e9a 3f3c
bd82 bd6c bebc 3da0 bf03 3f0c bf18 bdeb
be20 3cb8 3eae be8b 3e9b 3f01 3f0a bb40
3d04 3f02 bed3 3e0b 3ed3 3deb be34 bee0
bf8d 3ec1 bf36 bf27 3de0 becc be64 be42
3f1d bf3b 3fa1 befe 3f36 3e54 be96 3ea6
3ec0 3ee0 3d97 be34 bdc6 be7b 3f0e be50
3efa bed9 be32 3eac bf04 3ec7 3ea8 bf0f
bd68 beda 3e02 3dc1 3f56 3dc2 be58 bef8
bca0 be2d be5e bea0 3d8e beb2 3bc0 3f4f
beb0 3f17 bf61 be16 bf11 3eff beb2 bcd9
bc28 3e8d 3edc be75 be73 beb8 be45 3f1c
be13 beb2 bef4 be36 be5c 3f25 3eb6 be70
bf20 3e2e bea0 be72 bf66 bf7c bd83 bf0a
bf2d 3f5d 3ede bede 3ef0 bf1a 3ef0 3ebe
3dc8 bed8 bc70 bea2 bc00 bf05 bda4 bf36
bdd0 be02 bf24 bf23 3df6 bd9a beb7 be98
bf3c 3f10 3f35 3e37 bf6b be44 be1e bf1d
3f18 3e45 3dc8 bc50 3e3e 3e44 3dcd 3ee8
3d10 3ec3 3d3c be21 3f0a be26 3e74 3f12
3eaa beb0 bf53 bf48 3e99 bf28 3e3a becf
be66 bdb8 bd8d 3e58 bf3a bf20 bf16 be5c
3f1b bedc 3e32 3eec bec1 3d9b 3e8b 3e68
3d88 bf1a 3eee be9c 3dd0 3eb0 beb9 3ecc
3ee9 bf3c bed0 3f16 bf44 bd25 bd07 3e5e
be7f bf08 3e5f bec3 bebf 3cf8 be4e befe
bf1f 3d82 3e91 3ef8 be18 bf10 3d78 be8d
bf15 bf02 bf01 bf09 3e72 be1e bef1 be8a
be07 3f1a 3df0 bf36 3d88 3ee9 beb2 3e95
bf62 3f20 be81 bf7c bee5 bdaa bd4e 3e7e
be30 3f2d 3dd9 bf17 beb5 3cdb bf60 be3d
be02 bdd8 3eb6 3d0c bf40 3e96 bee5 3d74
3eb0 bf28 3e6f bf2c 3dfa bdae be82 bea5
3f36 3ba0 3e8e 3cb8 be63 3e94 bee2 3cd8
bde2 beb6 bef6 be13 be04 bed9 be0e bf0d
3e78 bf58 bf12 3ebc be5a bebd 3d36 bf08
3cf0 be9b 3e0d 3d20 bf1d bf24 bd34 bda9
be04 3e7e bf34 be78 3f9f be95 be52 bef6
be42 bee1 3d05 be13 3ea5 bf0b be5c 3da8
bdd2 bea2 bec7 bf6a bee3 be30 bd3c be5c
be9b 3e6b be9f be8b be42 3e42 bf49 be1c
bd14 be9a befe be0d 3e42 3e0e bef7 bf22
bea8 be7e bef0 bed2 bec6 bd24 bea7 3e8e
bf0a 3eaa bd9d bd5e be12 be8c be8e bd18
3c92 3d81 be92 3dfe bf30 bda0 bcc4 3e25
bdc4 3d5c bd60 3e26 bf12 3ef7 3dd1 3e69
bd90 3e02 be4d bf20 be87 3e7f 3dd4 bed0
be34 be83 3ee5 3d7c 3eb9 be82 3dc0 be20
3c10 3e57 be18 bea1 be83 bce4 bc60 becb
bc40 bda8 bd9e 3e52 be14 3e96 3e60 3de4
bef7 bea8 be7c bec2 3da0 bf07 bd88 beec
3d18 be7e be25 3eb4 bed4 be8f bea4 bcd8
3e5c bee8 3db0 bdb0 bf0a bdbe bd57 3db4
bdda be05 3cfc 3ec2 3ee0 be5b bee6 be89
bc00 be98 3e04 be1b be91 bb00 be62 3dc7
be60 beac be35 3e00 bf0d baf0 3e29 3e85
bef0 3e8b be13 be31 3b80 3de8 3d8c be51
3e94 bf05 be11 bece bdcc bf06 be9b be0c
bee3 3c66 bce8 beac bd16 bf07 beb6 bc88
3e71 bc20 bcf8 3dba bb80 bec2 be86 bda4
3e2a bf18 beca bf20 3eb6 be84 bed0 3d9a
3da0 3d8a be9d be87 bdc9 bf06 3dce becb
beac be29 bee8 bd78 bd92 bddf 3e19 bf06
bec0 bea7 be37 be68 be9e 3c60 be09 bd92
be7e be2b bf12 3ce4 bd84 bdbe 3e46 3eb9
bd64 be78 be73 3e82 bf11 be16 be48 3e2c
bc88 bec4 bcc0 be96 bca8 3b80 3e48 be19
bda5 3e7a bd41 bd92 be1b 3db4 bd54 be64
befb 3ef7 be77 be8e 3e61 3e4c bed0 be49
be1a be4d 3db3 beca 3e7c bd88 bd98 be35
3ed7 3e4e be8e bdb4 be8e bdd8 3e95 bdc4
3e6c bf03 be8e be06 bea2 bdc4 be4d bed2
3d84 bed2 3d60 3e85 3f20 be96 bf29 be79
bd8c becc bcf4 bdb7 3cc0 bf51 3ce0 3e50
be18 3ed8 bf2a bf00 bf0b ba80 be3b 3e90
3d88 3e84 bec4 be16 be86 bf21 bcdc 3e0e
3d94 bf0b be61 be82 be91 bd06 3d26 bec6
bf74 3e98 be9a 3e0e beb3 bf55 3d0a bdc8
be9c 3e9c bbe0 3e14 3e39 bec8 3dde be16
be59 be42 beb0 bd26 bd4c bf29 bdac bdd5
bca0 be6e be7d be5e bed1 be15 be2e bf1b
3d12 bcb8 3de9 bdad 3cf0 bede be41 beb8
bd5c 3e58 3edd be2b be6f be9f 3d08 bdf7
be3a 3ea1 3df4 bea7 3e52 bd44 be8e be4e
3e76 3e00 bf02 beb8 3e6a be91 bf0a bd8a
bebd 3d78 3c20 3e2e be14 bed6 bea3 be2b
3ebb bebf bcd0 3dd8 bdca 3ec3 3e23 3f2a
3e0a bec6 bd85 bd88 3e90 3ed8 be23 3e82
be94 bec5 be57 3eb0 bf23 be0d be08 bea8
3ca4 be9e 3e84 3d84 be88 3e40 beab 3c10
be88 be48 be8e 3e0c be84 beee beea 3d70
bec0 be72 be27 be8f bc44 3e78 bdd7 3d7f
3dba 3e20 bd84 be8a be22 3e2c beda bdd0
beed 3ef8 be0a bf1f 3e98 bb80 3d44 3e76
3dce 3ec2 3dd6 be98 bdc6 bdf4 bf12 beec
bdce be3e bde8 be8a bebc bd78 bd9c be69
bb40 bf34 be66 bdd2 3e59 be92 becd 3db0
bd2c be44 3e86 bd64 3ea6 3d37 bce0 bc80
be9e bec4 be5a be4e 3e20 be86 be48 be82
3ea4 bedf be5d 3e98 be14 bf26 3d00 bd80
3f08 bd84 bda8 be91 bebb bebe 3e20 bd84
bed5 be0f bf2a be99 3f0f be4e be65 be4c
bcde bf00 3ece be84 3db4 be52 be96 be5d
be88 bd8a 3be0 beb9 3d40 bdba be6c be19
3e46 bde7 bdbc bda0 bdc8 bd56 befa be90
3dfc 3d88 3d06 3dbc 3d10 beb8 be62 beaf
bf04 bf12 bd16 bdbe be97 3d60 bc4c bca0
bf82 bdda 3dd8 3c20 3e1f 3dae beb8 3dc8
be4e be4f be7a be6e bf22 be2f be42 bddf
bd98 3a80 bd10 3d78 bee0 3e4f 3d3c be6c
be1c bd08 be0d bf0d be80 bd32 bbc0 beb0
be82 beb6 3edc bdb0 3e83 be3e be4f bdaa
3c40 be47 be8e be9b be02 bca0 bd9a bed0
bd1e 3c90 beda 3d8e 3df8 be5a 3a00 bdbc
bf06 bec7 beaf beb2 bd9a bd20 bca0 beac
3e2c be1f beaa bbe0 be90 be11 bef3 bec6
be08 bee6 bce8 bb00 be97 be52 3e2e be64
bdea bf3f 3c88 3e8d 3eb7 bda1 bf02 bed9
3dbd be7c bda1 beec bf12 bd6c bd9c 3cc6
bf04 bf06 beea 3e4a beff 3cdc be02 bd44
bf04 3e93 bdad bf0a 3e31 3de9 bdc4 beb3
3e18 bf15 bf47 bf42 becd bf10 be62 bede
bf08 3e5e bd04 beaf be86 bd98 3d28 bde4
bdac beb7 bd9f 3c84 be1b bf32 be70 bda5
3da4 bf11 bf18 bf42 3d75 bebc bea7 3e68
be81 bde9 be9e bec5 bea3 beb4 bd3c beda
beb0 be02 beb0 be5c 3e00 be64 bd20 be6f
be60 bdfb be86 bf20 beae be34 bebc 3d92
bf55 be59 bf2e 3e04 3e27 be2a 3d3c 3e68
be12 be3e bed4 be57 bf17 bec3 bcb8 bde4
bb40 bec0 bb24 bf22 3d42 3dd9 3d40 be1a
be86 3e84 bddb beab bea3 bd53 3e30 be82
bf02 3e65 bf06 bf18 3cc4 3dfa beff beb9
bf33 bdbb befd bf28 3e16 be70 be8d be82
3d15 3e8a bede bea2 be54 be56 3bd8 be84
bcd2 bec0 be0c bded bd56 bc9e beb2 becc
3cd0 beec 3dda 3e6c 3e0d bea4 bf24 beee
be6a bf4e bde0 3e00 bdef bf8b bdfb 3e13
be7a be1c bf59 be79 bf4c be90 be3c 3e95
be93 3e7a beb2 be2a be88 bf2f be0f 3ca4
3cff bf27 bedc 3de6 be76 beec be8a be81
bf37 3e2a be88 be9a bef3 bf7d bc94 be47
be88 be08 3de6 beca be2e be99 3d34 bdaa
becf bf00 bed9 3dba bbc0 bf23 be15 bcc8
be29 beca beb0 bed8 beca bebb be9b bf18
bd7d 3cba bd68 bd4a 3dec bf03 be6c be7a
bd81 3d82 bea4 bdb0 be80 be53 be2d be0e
be1f 3d98 3ec3 bf0e be10 bdfb bec5 bce4
bde1 be19 bf25 bf04 3ea4 be74 bea7 bed1
beff 3b90 3e34 3e86 be2d be42 bf16 be70
bce4 bed0 bcb0 be1c 3e03 3d60 3e28 3ec6
3e37 bf2f 3e2a be6c bda6 3ddb bdeb 3de5
be9a bf1f be7f 3d9e bf2c be19 be27 bec4
3d4c be1e be40 bc08 bef4 be15 be83 bd08
be6e be89 beca be3e bf8d bf22 bf06 bebc
bec7 beb8 bf29 be87 beaf bc80 bea0 3d22
3da8 be24 bea5 3cc0 be6b bd26 bf0e 3d90
bf2c 3eca bd87 bf2b be10 bd96 bea8 3e12
3d7a be3e be17 be08 be53 be33 becc bf0c
be00 be58 be6e be30 bece beaf be8f be82
be08 bf52 bd9a be97 3e7a beb1 bf0e bdd2
be8b 3d40 bdad bde0 3eb3 3ef4 be98 be46
becb bdb0 be91 bef2 be4b be66 bd77 bef2
bd8a bf0b bf08 bddc 3de0 bf60 be6f bdf9
baa4 be90 bc94 be83 becf be52 bea6 3d28
beb6 beaa bf16 3b18 3df6 beda be0b bec5
bd8a bf10 3e41 be6e bda1 be9d be49 be96
bd28 be26 bd0d bed7 be4e bdc6 be40 becb
bde6 bec9 bc48 be88 bd88 be46 bea2 be83
3e01 be9d 3df2 3be0 be5f be83 beb0 bf0a
bf2b bf44 be9c bec4 befb bd04 bda8 3c50
bf2b be82 3e38 be31 be52 bd88 beda be84
be78 bd72 be95 be5c bef7 be92 bcec bd0f
3e2f bca0 bc58 be1c be8d 3e56 3d8a bd18
be34 bd9e bdb4 bf0a be2e 3da8 3ca8 bed6
be8a be88 3eaf bdae 3e89 be16 becc bda8
be1b be11 beda bf12 bd9a 3dcf 3ca0 be1a
be22 bd70 bee5 bc43 be60 be94 3d2c bd90
bf0d beac bec6 be8f be91 3c40 bd9c bdb0
3e67 be0f bef6 3d5f be87 bd04 bf1a be8e
3e20 be8e 3d78 be10 bee1 bd5a 3dba bdbe
be34 bf15 bc9c 3e88 3e8e 3cbf bef0 beb0
3cbe be9a be9a beac bed0 be06 be9d 3e95
beae becb beeb 3ec7 bea2 be3f bcfe bd19
be97 3e25 3c80 beb8 3e26 3e2a becf bed1
3e80 bf0a bf39 bf0e bea0 bf18 be59 be30
bf16 3ee8 be18 be7a be5b be98 3dde be5f
3db2 bef6 be32 3de2 3d30 bf0b bed2 bde7
3e64 bee8 bf21 bf3a 3ce3 be99 bec1 3cf4
bc24 be88 be2c bece be96 bd04 be42 beb4
bebf bd30 be65 bd9c be01 be3f 3e2d be9e
bc80 bc94 be68 bef6 bed4 3e0c bd90 bd41
bf64 bdc6 bf50 3dc4 bdc3 bd9d 3e0c 3e90
be81 be2a becc ba80 bf00 becd 3cc0 3cb0
3e23 bea7 bda9 bf30 bb40 3e0d 3e5c bde6
be6a 3e79 be08 bee0 be62 bda4 3e10 be1c
bf0b 3e84 be9d bee6 bde2 3df4 beb0 be9b
beb2 be91 bee1 bf3f 3dc8 3d9d beb2 be6e
be3c 3e2a beb4 bee4 beac bda9 3d28 bde7
3dc7 bef2 bd2c beb7 3d8a 3dc5 be24 bd88
3d68 becf 3d22 3e2b 3e5b be64 beda bf12
be8c bf22 bd9c 3e28 be5e bf38 be70 3e7e
bf30 bea4 bf5d beba bf36 bef2 bdf4 3e84
bede 3eba be80 be42 bed4 bed6 be1e be68
3dec bed6 beb2 3e00 be6a be8e bd73 be9a
befe 3dee bede be5a bed5 bf5e bdb9 3dc0
be84 3dfd be0b bebd be84 bf0c be02 bd72
bead be97 bea4 3a80 3dde beeb bda9 bd85
be12 bf08 be8f beea beb8 bea4 bea4 bf1e
bd8f 3d2e bd7d 3e20 be56 bed2 be0c be83
3e40 bcc6 be66 be6c bdcd bded be5a 3c80
bdb3 3ea4 be31 bf0b 3c9c be22 be78 3e1e
be87 beb6 bf1c bed6 3ebe be2b bf06 be82
bec2 be2e 3cb8 3de8 be3c beac bf25 be86
3db1 bedc be10 bdb8 bde9 bde8 3e92 3e1b
3e94 bf1a 3e09 be72 bdbd 3dce bdbe 3e38
be80 bf4a be79 3d4c bf4a be92 be64 be8e
3ea0 bec7 bdde 3d48 bef2 bec9 be92 bda4
be9e be94 be8d bdfc bf8f bf01 beec beb1
be79 be6a bf17 be9e be06 bec0 beba 3e3e
bd61 bc20 bea5 be6d be08 bd4f bedb bb20
bf35 3e72 3daa bf40 bec8 be35 beca 3e90
3e7e bd0d be34 bd34 bebf bd52 bf1e bf08
be16 bee5 bdf0 3e05 beea beeb bdb6 be50
bdd7 bf77 3dd8 be41 3e14 bec1 bf0c 3c40
bee4 3c30 bebe bdae 3db0 3e37 bf0e be09
bed0 be13 befa beaa bd1a beba 3e23 bed2
3dab bf11 bf12 bd12 3d24 bf1a bd90 be2a
be5f beb3 bd2e be50 beb6 be91 be5f bd9f
be13 be8b bf47 3e2e 3e79 beab be6a bbc0
3dbb bee4 3e29 be07 bdb2 be5e be9c be7a
3ce0 bd80 3de4 bf02 be5e bcb4 be1a bea2
be72 be8c be5b be42 be26 bdfe bee8 be6a
3e27 bec4 be21 3d00 be89 be3d be82 be97
bf01 bf46 bf09 beba bee2 be61 3d82 3db2
bf11 bddc 3ddd 3b70 be97 bea1 be9a be81
be6e bd1a be96 bd10 bf11 be92 bdf1 3b94
3eaa 3cc4 be5c bde4 beb6 3d8f bd24 bc0d
be3c 3cec bc40 bf0a be85 3ea4 bcb8 be9c
be5c bed0 3ed0 bca8 3e94 bea2 beed 3d9e
be05 bae8 bee6 bec1 bd80 3d8e bd89 be56
be54 bde6 bebc 3d14 be8b be8c 3e92 bbc0
bf10 be9e bebb be7a be43 be18 bda0 bdc4
3ebc be33 becb 3e17 be5e bdab befe be80
3d1b be95 3e32 be10 be9f bcb8 3d3b be9a
be98 be7f bd84 3e71 3e90 bd87 bee3 beb7
be38 beb9 be1c bf07 bf01 bd94 be44 3e57
be98 bf04 bece 3e75 be81 be9b bd58 be44
becc 3e06 bdbb bed0 bca8 3e69 bed0 bec9
3e5d bef0 bf1f bf0a beb1 bf07 be7e bdce
bf04 3ec8 be28 be9f be17 be84 3d70 be94
3e0e beba 3c70 3e4a 3d58 bec4 bef1 be08
3e8f bf01 bf1c bf34 bdad be4e be43 b8a0
3d6b bea9 bea6 becd bea1 be2a be0a be83
be8e bb20 be56 bdc8 3c00 be12 3e1f be36
bd92 be02 be64 bef4 be9c 3e44 3d88 bd63
bf59 bd98 bf73 3dd4 bd46 3ddf 3d94 3e8b
bead be2c be94 bcd2 bf0b be61 bd68 3d4c
3e80 bebc be7a bf31 bcf8 3d5c 3ea4 bd84
be42 3e4c be64 bf0e be98 bcee 3e57 be5f
bec2 3e8a be9f bedf be0a 3d5c be9e be5f
bd48 beb1 beaa bf30 bdc6 3e56 be6b bea0
be7e 3da6 bec2 bf01 bebe 3d48 3c6c bdd8
3d82 bf01 bde2 bf06 3de6 3e70 3b80 bd24
bd88 bec5 3e3e 3eb4 3e00 be59 be88 bf1f
be41 bf07 be0e 3dbe beba bf36 be7e 3ee1
bf54 bef8 bf5d beaf bf2c beb6 bd8e 3dd9
bef8 3e9a be9f be52 befe be90 be3a beb2
3e6e befb bee3 3dd2 be94 be53 3d84 be20
bf02 3e7a bee2 bc88 bee9 bf52 3be0 3ddc
bedb 3e7e bc08 bede bdd4 bf32 be8f 3cc8
beb5 be92 be8a 3de6 3e22 bee8 be3e bd32
be55 bf06 be98 bf0c be96 bec2 bec6 bf1b
3c24 3e4a bcc5 3e04 be06 be92 bda1 be64
3e73 bd5e bdfd be8c bdc4 bd38 be74 3e3f
bdea 3e6f be41 bf06 bd97 be09 beab 3e46
be98 bea7 bf12 bee6 3e9e be53 bf0b bedf
be89 be99 bc00 3d1e be96 bea8 bf24 be99
3e12 beb2 be2a bc8c be1a be2e 3eb6 3d28
3e4e befb 3df4 be84 bdf6 be1b 3d8a 3e95
be38 bf52 be98 3cd8 bf59 be40 be0c bed5
3eb6 beec bcc6 3df8 bee3 bee8 be1b be17
beb4 beb4 be83 be50 bf8c bf25 bea9 beb4
bea0 be26 bebc be98 bd54 bec1 becc 3e0c
3dd4 3c9c be5e be48 bdeb be0e beaf bd4c
bf1e 3e13 3e4b bf46 be88 be63 be3b 3ec3
3e32 3e7c be16 3b80 bec8 bc28 bf2e bf10
bdb6 bf03 3c80 3dd8 bf16 be99 be00 be48
bda8 bf8c 3e10 be97 3e6d becc bf03 bd86
bed6 3c68 be6e bdf6 bde2 bd26 bf0c beed
bf02 bc50 bef6 becb 3bc0 bebe 3cde beba
be57 bf28 bf17 3c28 3dca bf41 bd7c be9f
be74 be89 3c18 be62 be53 befc bea2 bcf0
bda6 be8e bf21 3e20 3ec8 be7f be8f bdc8
bd85 bef8 3e4d be75 bdf3 be32 be8c be60
bcb8 bd36 3e0f bef8 be44 bda8 bdd2 be55
be9d be88 be6a be7e bea8 bd32 beab be54
3e8a be1b bdb0 bdb0 be9c bd6c be21 be73
bec0 bf31 bef1 becc bed0 be06 bd82 3e4e
bee0 be6b 3e01 3dcc bece be84 bed2 be59
be8f be60 be86 bd70 bef4 bec8 bcd2 3de6
3e84 bdbe bebc bd96 beaa 3e89 3c68 bd35
be2a 3d9a 3df6 bf14 be5a 3ea4 bdd9 be91
be6a bed1 3ece 3c93 3ea4 be94 bf04 3d9e
bda3 bd3c beab beb0 bec0 3d98 bc9a be0d
be86 bd86 bebb 3e04 befc be71 3e84 bd18
bee6 beaa bed8 be5d be8b bdb2 be4e be45
3ea0 be24 bf02 3dcd be9e be0e befc be77
3db9 bea0 bca0 be12 beb6 bdbe bb78 be32
be1e be26 bcc9 3e05 3ea0 be11 bef3 beaf
bd02 be9f be96 bf23 beb4 bd96 bcc0 3e2c
bee2 bf0a bed0 3e2d beaa be85 be06 be83
bec3 3deb 3cac bece be46 3def be6f bea6
3d82 bf30 bf12 bef8 be02 beea bde8 be0c
bef2 3e6a be06 beaa be33 be8a 3dda be72
3c80 beca 3d70 3e11 3e47 be9f befc be10
3e91 bed2 bf16 bf3d be23 be9a be66 3d93
3e09 be4a be94 bea9 bec5 bda4 be03 be89
be40 3ca8 be81 3cf0 3dc6 bc8d 3d3c bdd4
be29 be0f be98 bed4 be9e bdd2 3dde bd03
bf5d bd98 bf64 3dad be2f 3db7 3d70 3e6e
beb7 be22 beab bd12 bef6 be75 3bc0 3d24
3e3e beb2 be86 bf25 3ac0 bdca 3e63 be0f
bdc6 3e6e becc bed0 bee4 3e18 3d40 be78
bedd 3de0 bea1 bf06 bb40 be25 be9c be82
3e8a bebd be38 bf3c be0c 3e28 be40 be70
bd41 3dcf beea bee2 be8a 3db0 bcc3 be01
bd0b bec9 bde8 bee5 3b80 3e44 3df8 be7c
bcc8 bef4 3e8c 3ec6 3e26 be45 be99 bef6
be56 bf18 be37 3d2c be83 bf42 bdce 3e8a
bf1a beae bf68 be77 bf06 bdcf bd4e 3c94
bee4 3e5c bec7 be4f beec beb9 be9c bea0
3e7c bf20 bed2 3de2 be97 be92 3e20 be42
bf21 3e5a bec8 bd96 bec4 bf74 ba00 be86
be9d 3e12 3dfe bf00 bd0d bf26 be76 3d7c
bebc bead be9f 3e0a 3dda bef8 bdef bdb9
be62 bef8 be94 bf0c bed0 beae beda bf1a
bde2 bb50 bdb7 3e0a be06 be89 3c48 be84
3e9a bc70 bd9d be7c be0e be4f be3a 3e16
be43 3e86 3ddc bef1 bd4d be13 be96 3bf0
bdb6 be87 bf2c bef8 3de6 be68 beeb beca
beae bed2 3dbc bd8d bebc bf03 bed4 be65
3e02 beba bd95 3c04 bd99 bdb8 3ee4 3dc8
3e82 bf1e 3ddb bea4 bc7a bd90 bcc8 3e8d
be3a bf4a bedc 3c80 bf81 be95 be71 bea2
3e3a be9f b9b0 3dd0 bee6 bebc be90 bdfa
be90 bec4 be78 be9e bf83 bf02 be8c be51
be83 be4b bed8 be17 bcec beb5 beab 3d94
3e20 bc58 be2a be43 be10 bda6 be7e 3d1e
befc 3e2c 3d72 bf2f be56 be37 be02 3ecd
bd62 3e30 be35 3d1c bece be04 bf3e bf29
bc70 bec5 bd92 3e1a bef8 be5a be15 be4e
bdf0 bf5e bd5c bee1 3e7a bef6 beee bdab
be12 bd26 be41 be3f bd75 bd63 bf1c bf0c
bf11 bd74 bed2 be9c 3d96 bec6 bdde beb6
beb6 bf16 bf32 3d58 3d8c bf3e bd30 be88
beb5 be6f 3dc4 be5a be6e bed3 be62 bdab
be46 be30 bf14 3e4c 3eda bea2 be82 be20
3d4c bf30 3eac be83 bc97 be89 befb be52
bd58 be38 3dc1 beea bea7 be30 bdbb bea7
be9d bea2 bea9 be98 be81 bce0 bea6 beaf
3d58 be04 be53 bdc2 be58 bd48 be52 be9e
beed bf2f bec7 bef6 bebd bd8d 3ba0 3e6e
be8e be36 3e1c 3df3 be81 be28 beb0 be85
bea8 bf24 bee4 bd4e bf04 befa bdf4 bd82
ba80 bea2 bf26 3d68 bde2 3e41 3d94 bdb9
be07 3de8 3d58 bf28 be66 3dc0 3daa be43
be99 befc 3ef2 bdf6 3e52 3c70 bf06 3ba6
bd55 3df4 bf01 be91 bef0 3e68 bd1a be83
be03 bd92 beb0 bd82 bec6 bde8 be5e bd10
bef2 bed9 bf0b be1e be5a 3dd4 bd24 be86
3e16 be47 beeb bd3f becc be99 bf30 beaa
be06 be9b be72 3db0 bef4 be27 3e49 be32
bd31 bec3 be00 3e56 3f12 bd5a bf24 be82
be76 bf02 be44 bf18 bed8 be90 3c80 bc45
bf1b bf22 bf32 3e77 bf18 be98 bead bd0b
beb8 3e70 be22 bf04 3c08 3e80 bdcc beae
3e47 bf70 bf32 beb4 3e20 bee5 be5a be43
bf03 3e76 be48 bed8 beea bde8 3e8b be2b
be20 befc bca8 bd0c 0000 beba be70 bd30
3eb2 bec5 bf47 bf4d bc00 beda be75 3e2b
be00 be97 be8e be28 bf0c be15 be98 bece
be20 bba0 be46 bc00 3e30 bd39 3d88 be90
be9d be4f beab bf0a bede bdf4 3df4 3d34
bf70 be8a bf73 3db5 3d54 3d5a bd82 3e46
becf befd be01 bd9a be23 be8a bd32 bd1c
3e1c bee1 becd bea8 3dc5 bdd4 3d62 be54
be4a 3da1 bec4 bea4 bf4a 3d39 3c60 be97
bf01 3e09 bd30 bf16 3de9 be89 bea2 bea3
be98 beaa beaf bf35 bddb ba80 bec0 be82
bd0c 3e95 bf04 bf1f bd4c 3c90 3db6 bdc7
bde3 bf08 be41 bea6 3df4 3cd1 be00 beba
bdf6 be8c 3e85 3e80 3e4e be9f bf12 bece
beb0 bf1d be9d 3e50 bdc8 bf59 be12 3ddd
be9b bee4 bf8d be22 bed7 be2a be30 3ec6
beae 3ebe bf19 be11 bf1b bed0 bec6 be4a
3bc0 beee bee0 3ec9 bebc bd6e 3bcc be29
bf46 bb80 be99 be44 bf18 bf8a bd58 befb
bebd bd68 3e07 beec bd7c bf10 be08 3e18
bf11 bf04 be80 bd62 3e17 bf0f be70 be17
be6c bf26 bf22 bf1c bf19 bf22 becf beea
be97 bb8c bd6a 3e51 be40 bf01 be16 bea2
3e1b 3d00 be17 be16 bba0 be42 be8a be29
be2b 3e56 3e66 bf08 be0f bdc8 bf14 3e11
3ded be69 bf48 bf08 3e6d be7c bf10 bec0
bf1a beaf 3e6b 3e34 bf0a bec6 befa be1d
3cde be97 3cd2 be36 be29 bd16 3f03 3e24
3e89 bf70 3cdc be8d 3db4 bec2 bd6e 3e8a
be83 bf5e be9f 3e32 bf62 beb2 be54 be5d
3ea2 be42 bd8e bc8c bf2d be9a beb0 be11
bec9 bea2 be6e be4c bfb5 bf3d bf39 bd78
bed0 beb9 bf28 be3e be9f be84 bf1a 3e79
bd7c be8c be84 be0d beb0 be14 beab 3dc5
bf01 3e8e 3be0 bf67 bdd8 be2c be0d 3e78
3dfc 3d23 be72 bb00 bf02 bea7 bf08 bf54
3df2 bee2 be05 3d5c be9f be70 be90 be0c
be34 bf86 3dae bec9 3e2a beae bed9 bd12
be88 3dfc becc be00 bded 3df7 bf57 bf0c
bef4 be7d bea3 beef be9d bef4 be86 bf14
bf31 beb8 bf30 bca1 3dfa bf68 be3e be8c
be96 bea0 3e25 bea0 beb6 be30 be07 beaa
be5b bdba bf18 3e24 3e85 bf01 be51 bdfc
bb20 bf2a 3ed1 be31 be2a bea6 bf36 be16
bc88 bd95 3dfe bed4 bea6 bcf8 bdae bf32
beaa bee5 be66 be6a be84 be54 be9d bdba
3e6a be3a 3c92 3d58 bdff bebf bd18 bee6
beb0 bf44 bee0 beb6 bec3 be97 bd9a 3e95
be25 be7f 3d54 3dd8 be16 be84 beb1 be51
bbd8 be81 bf08 3e32 bf18 be9c 3b20 3e6a
bd28 be8a bea7 3d08 be9f 3e8e 3d12 be03
be08 3e72 3db4 bf0e bd1a 3ddd 3e26 bc90
bec5 bf15 3e87 3c84 3e14 3dc0 be54 bdfc
3b60 3e11 bea6 bec1 be80 3c4c bd15 be9e
be9b bdaa bcf0 3e18 bed0 3d28 3a80 3e20
bf18 be9f beb6 be0f be48 bf10 3e0c be34
3e3c bea3 beb2 3e7b be97 be85 be7c bdf9
3e6f be9b bdfe 3de8 beab 3db8 3d93 be3b
be5c 3e14 bd9a be54 3ea2 be90 bf24 befc
bdc9 be06 be84 3e3a be63 be8c bdd6 3e95
be92 befa bf04 3d2e bf1f be50 3d0c 3d6a
bed2 3ebf 3e2c beb6 3ba0 3ee6 bd50 be90
3e52 bf23 be5d beb1 be88 bf24 be64 bd8c
beca 3f12 beda beb4 be89 bebf bca0 bd6c
3dad bea6 3e7b 3db6 3c50 bed5 beaa bec0
3def bea4 bf02 bf34 bdb2 be72 bec5 3d71
3d32 be91 be9e bef0 be2c bdbf bdb6 bea2
be5e bdaa bcc8 3b80 bc98 bea1 3e38 3d70
be62 be69 bdd2 bec5 be92 3d77 3d0a be1d
be9b be3c bf4d 3d9f be9f 3ef0 3df8 3f23
be2c be9f bde6 3e06 be81 3dca bec9 3df2
3d78 beb9 bdca be83 bcb8 3e89 3e80 be02
3d0a 3e42 bebb bdff bd08 bcac bd87 be8f
bf06 3eaa be4e bf22 3e6c be2e beb6 bcd0
3ea9 bec7 3ed4 befa 3e1b 3e58 be84 bdbf
3e29 3eb2 be93 bf08 bd0c 3df4 3e3a bdcd
bb00 bea7 be22 be8a 3b80 3e82 3da4 becc
be54 bed1 3ea4 3e2c 3eea be34 bf00 bed7
bdfa bec8 bea3 bcdc be27 bf2b 3e1a 3f40
be72 beba bf89 be96 be83 be88 be3a 3e22
be94 3ed4 be12 bd5e bf0a bee0 bdec 3cd8
3ce0 bee6 beb6 3e43 bea9 3daa 3de4 be9a
bf58 3ec4 be75 be4f bf22 bf25 bca4 be6e
bf00 3ed9 3e91 be53 3eac bf44 3e24 3e0e
be28 bec7 bddd bd9a 3dde bf0f be69 bec2
bd24 be98 bede bf38 bece bedc beb1 bee4
be0b 3ecf 3e8c 3e66 3c40 bee8 be8e bee4
3e6c 3d78 bdd5 3bc0 bc60 bbe0 3d20 3bf0
3c88 3ead 3d84 bebf 3e3f be33 be1b 3cdc
3e9b be58 bf13 bf06 3ec8 be92 be14 bece
bedc be28 3dc6 3e71 bf13 bee7 befe be32
3eab beda 3da1 3ddd be32 3e4d 3ed2 3f0e
3d66 beee 3e25 be12 3e1b 3de0 bde8 3ecc
bdf5 bf44 beb6 3e54 bf55 bd46 be93 3dc7
3dda be30 3e8f bd93 be91 be76 be3e be31
beda bda2 3e4f 3dc0 be83 bf1f be84 bc90
beee befb bf1e be9c 3c40 bd05 be92 3d93
3de6 3da8 be28 bea7 be86 3e64 be66 3e45
bf2a 3f0c bd38 bf3e bb00 be00 bd66 3efb
3e90 3f11 be1f bd40 be7d be12 bf15 befd
3e05 bf00 3e2b bdb9 bf28 3d50 be9a bdd6
3e0c bf49 bd83 bec3 3e3f beba be41 3db8
bd34 3d3c 3e03 bd20 be7f 3e0b bebf be7d
be9b beae be29 be14 bdfe bf09 be5a bf30
becd bf03 bf01 3e67 3d08 beed 3cd8 bebf
3e3e be90 3e43 bea8 bea4 bea9 be3e 3e03
bc40 be64 bf38 3cd4 3f28 be3c be38 be38
be7f bef3 3e3c bea0 3cc4 be6e bf11 bdd2
bd94 be22 39e0 bf43 be86 be53 be90 bea6
be36 be7b be88 be36 bd58 3e35 beea bd40
3e9b be60 3ca8 3ce0 3de0 bea0 bd70 bee6
bf2c beef befc becf beb0 be14 be08 3e34
bf1e bdd2 3d8e 3e40 be31 be73 becc be86
3d5a bdf0 be80 3d20 bedb bc88 3e4c 3e21
bc30 be16 3df0 3dba bf20 3ec7 3de2 3d60
bca0 3e86 be9c bed6 be3e 3e26 be0c bed0
be3e bd30 3e87 ba80 3d8b bd8e bdc2 be0b
bd81 3e62 be8b bf18 be5c 3dfd 3d12 bee9
bd28 bdea bce4 3e7a be00 3e2c 3d00 bd98
bf05 bdee be7e bece bdf4 bea8 bcb0 beeb
bd92 3d98 be30 3e88 be0c be1f be10 3dbc
3ea1 beca be51 bed4 bf0d 3c38 3d2a 3e15
3de4 3df0 bbe8 3e12 bd46 bde6 bec2 beb2
3e1b be04 3cfe bdeb be68 bca8 bd1c bdc2
be30 bea5 be52 3e2a bebc 3b7c 3e8f 3e75
bec4 3cae bcb1 be44 3c88 3e6f 3e0d be16
3e2d bf12 bdb4 be8b 3ce8 bf0d be30 be00
bec5 3ab0 3e1e bec3 bdad bf24 be25 bda0
3e8f bda8 be68 bddd be2c bea3 bf17 be28
3e48 be95 bf01 beee 3efa be1d bf06 3dc5
3c88 3d2a be4a bd1e 3d58 bf2b 3e40 be99
bed5 3c00 bef0 be5e 3d04 be14 3e3c be9c
bea3 3d98 be8f be2c be4d bce0 bdb2 bea3
be1a bd60 becd 3d3c 3e1a bcfa 3e7f 3e65
be78 bdbe be45 bd26 bec6 ba80 bdca bd30
bdd2 bd92 3e34 bee3 bdbe bda2 3ecc be25
3da0 3e26 3d60 bd0e bcbc 3d63 bd14 be9a
beaa 3ee0 bd84 bdba 3eb6 3e81 be9b be38
be74 be6e bd14 bee8 3e73 bdf5 3dc4 3dd2
3e5e 3e4a be26 bdd4 bd8a be07 3e84 bce6
3b00 beb2 be02 3e58 bec6 be8d be89 befa
3d98 beee bbb0 bcc8 3f06 bd98 bf28 bd8b
bca7 bee4 be88 bec8 bde4 bf3d 3e1e 3e6c
be21 3f06 bf0c be85 beeb 3d7e be69 3e11
3e82 3e58 be0d bd0e be84 bed4 3c90 3e67
3c4e be93 be7f be0a bdfa 3ce4 3ddc be76
bf2c 3e66 bdfe 3d12 bedc bf42 3cc8 be52
be9b 3e55 be27 3dbc 3e0c bdf8 3e7d bcd0
be0a bebc be92 bd44 3d89 bec9 3dc2 bead
bcb4 beb8 be9a be9c be78 be8c be08 bf08
3e68 bd5e 3d9b bb80 be2a be00 bd99 bee0
3e0f 3e35 3ede be54 3d48 bea5 3c20 bd4c
3c80 3e8a be03 bea3 3e80 be13 bdd0 bd44
3e8b 3df6 be9a be80 3e31 be8f be2b bdb1
be8e 3d14 3e06 3dd0 3d1d be45 be9e bda2
3ef6 be99 bd44 3e28 3dd8 3f00 3e48 3ed6
bb00 beea 3c50 3cdc 3e7e 3f19 be19 3e62
be1c bf22 bdeb 3e57 bf26 be87 bde0 bee2
3d6c 3e0a 3dea 3c30 beda 3ddb be94 be34
be9a be90 bd9c 3e04 befb bed2 bec2 3da4
be0f be82 be97 be65 bd16 3c30 be3e 3e60
3e09 3de2 bd2c be13 bd84 3dbd bf20 be43
bed1 3ed8 be98 bf22 bd30 3c30 3d70 3dde
bc98 3df4 3d83 be3a beab 3df0 bed1 bec9
bc94 bea3 3c90 be83 bed5 3d9c bc92 be01
3e56 bf12 be5f bed4 3e7c bea6 bec0 bd08
3e86 be2f 3e1f 3d54 3f00 bd34 be2e bdfb
bdb1 be12 beb4 befa 3e21 be7a bdec be83
3f09 beaa be95 bcee be16 bef5 bc50 bdee
3e0c be34 3cf8 be99 be58 bede 3e86 bca8
bea7 be03 bec9 bea0 3e64 be0e be6b be37
3e07 bebe 3f18 be6a bdf1 be96 be37 bdff
bdf3 3e0c 3e1b bea9 bd9b 3a80 be85 be17
3ddc be36 3d90 bd2a be54 3cac be40 be0d
bd96 be2b bd94 3cc0 bd34 be65 bd38 bee3
beaa bea9 bdd3 bbc0 be7b 3db8 be29 be18
bf18 bc50 3c82 3e4c 3e43 bca8 3d58 be00
3d04 bd58 be4d be3f bece bd96 bd8b bd4c
3d50 bdfc bd02 3d4c bf0f 3dca 3df8 bead
bd8e bdf0 be7a bf0b be11 bdbd bddf bf03
be7a bdce 3ea2 be2c 3e10 be27 be18 3c28
ba00 bd54 be60 beba 3d04 3e36 3cbc bed8
bd40 3e0a be1e bd15 bdec bde1 be92 be20
beb0 be4a be58 be56 be1a bd30 3b00 beb0
bde8 3d7c be55 3e0a 3c9e bcf4 be76 bdee
3e15 beaf be8b be96 be25 bda0 3e53 be36
3dc9 bebf bdda bd34 3d70 3d63 bea4 becc
3d5c be25 bdda be9a bf3d bd34 3c90 bbe0
beb0 bed6 beaa 3eb9 be83 be4e 3db4 3c0c
bf03 3e7b 3d8a be95 3e5c 3d9d 3cc4 be8a
3db9 bf17 becc bf1e be2a bef7 be26 be2c
be82 3bd0 3e02 bf04 bda6 be9b 3e00 bcb8
3d8d bec0 bec1 bdb2 be0e bedf bf04 bdc8
3d3d be9c bf04 bf22 3e69 bdab bf02 3d08
be15 bd00 be44 3c54 3e0c beaa bc8c becb
bf05 3c88 bea8 bf02 3da1 bebd 3dc9 bd82
bd60 3cb0 be60 bf14 bdda bdcd be12 bd80
bea0 bd1d bf04 3d88 3d8a bd20 bc30 3e6c
be37 be54 bec1 be82 be80 be9d be56 be82
be0d 3c98 3dd2 bf09 be12 3e8d 3ea4 bdca
bdb2 3c34 3db0 be74 bd58 be3e bca8 be9f
bec1 3de2 be34 bec0 3e08 3e91 be9a bf03
bf1f be01 bece bef8 3cdc be6c bdae bca8
bd86 3e53 be87 be5b be68 be58 3cac be14
be13 be4a bc98 3df0 be45 be45 bef7 be38
bb00 bee9 3d5c 3d14 3e42 be6d bf04 bec5
be5f bf27 be1b be0f bd9f bf2f bd7a bde5
be21 bdfe bf44 be51 bf00 be24 bddb 3e06
bd8c 3e17 bd90 bddf beac bf05 3d08 bd56
bdf8 bea6 bec3 3dfd 3a80 be90 bebb bdfd
beaa 3e8d be55 bece bf22 bf52 3db4 bdbc
be83 be01 bcd4 bdad 3bf0 bd98 3e7e bc50
be7f beb2 bedb 3dca 3e86 bf08 3df0 be2c
bd00 bea7 be96 bea2 be6b bebe bd85 beee
3e53 be09 be06 3dc6 bde0 be91 bd96 be68
bcec bc24 bd9d beb8 3dbc 3c40 be7b 3dd0
bd60 3e36 3dbc be9e bd7e be81 beb8 3c70
3b60 be16 bef6 beb4 3ee7 be06 bdfc be84
beb2 bd88 3df5 3e9d 3dde bea3 bf0b bd28
3e6b be8f bdb0 bbb8 3df4 3e98 3e84 3e1c
3d94 bf08 3e66 bdb8 bc9a 3e9e bd87 3d61
beaf beff bd9c bd96 bf05 bebe be1d bea0
3e4e be58 be32 be3b bf09 be0d be7e be37
beb8 bed6 be9b bd72 bf8c bf07 beec be84
be24 be95 bef3 bea7 be84 bdac be73 bbd0
3d83 3cdc be58 be38 bdf1 bd4f bf1d be0b
bf06 3e96 bdc0 bf23 bead bdd6 be34 3bb0
3d50 be92 be46 bd8e bea0 3db8 bea9 befa
bd7c be9c bd50 be1d bf13 bea2 be96 be46
3dac bf24 be4c be84 3e93 be60 beae be3d
bc84 be3a be13 bd00 3eca 3e91 bee8 3e08
be1b 3d8c beb9 bf52 be62 bd48 3cb4 becc
3eb6 befe bf14 bea4 ba80 bed2 bd88 bdaf
3c88 bea7 3d60 bea7 bed4 be21 bd5e 3d5c
bea5 be81 beec 3c8f bdb8 be7c bdfd be80
bde7 bec8 3e70 bcf5 bcce be6b bd62 be98
bde8 bd1a 3d40 bf1a be1e 3d20 be1f be70
be02 bea7 3e2e 3c70 be04 bd86 bdf6 bdd8
3c90 bec6 bdb6 bc10 be08 bea5 be38 bee4
be85 bf0d bea7 be82 bec8 3cb0 be0e be32
bf06 bd08 3d8e bd64 bd8e be02 bdd8 be52
3e18 3db8 be02 3c70 be90 be4b be70 bc64
3e55 be3a 3c7e bdad bf1a 3dbf bd4a be4c
bda8 be41 be59 bf00 3d7c 3ccc be34 bef4
bdcc be00 3e73 be02 3d06 be92 be95 3c4c
bdf0 bdd7 bea0 bed0 3e26 3d8d 3dfc be1e
bd1c 3dec be28 be3b bed6 bda7 be8d bd9c
be6f be0d be08 be88 be49 be30 bd00 bed0
bd7f be05 bebd 3e39 bdd6 bba0 be5a bd90
3e80 be53 3c60 bec5 bdf8 be01 3e1e bdc1
3c38 be3a bd60 be01 3e88 3dcc be69 bede
bdb9 be7c be48 be65 bf2f bd90 be21 3dae
be03 be82 bee9 3eb1 be1a be7c 3cec 3d4a
bf04 3e80 3cf8 be26 3da6 3e5f be75 beef
3d1c befc beca bf09 bcfc bf1c be36 bd74
beab 3df2 3d26 beb0 3cfc beb4 bdb4 be2c
3e81 bec3 be8e 3cd6 3cc8 bea4 bf07 be81
3e83 be97 bf2a bec6 3dee be05 beed bccd
3e2e bd71 be1c 3d25 3d76 bea7 3bf0 bef4
bedf bda4 bea6 be9b bd8c be86 3e4d be48
be7c bdaa bc50 beb6 be82 bd2d 3c78 bdba
beb3 bd69 bf07 3d81 be82 3d81 3cb0 3d66
be9e be6a bec4 be11 bea7 be5e bea3 be76
bc60 bdac 3ce6 bf0e be54 3cc8 3ec0 be3e
be12 bd40 bd02 be94 bdfb bdd1 bdbe be9f
bee5 3e57 bdf4 be82 3c76 3ec9 beb0 bf16
be5e be62 bea4 bf32 bc44 bce8 bd40 be54
be06 3e3a be2d be54 bed6 be85 bd88 be3c
bc10 be9c 0000 be39 bd68 3c30 bec4 3e1c
bdb2 bee8 3dd6 3d34 3d79 be14 bef0 be9d
be50 bede bd2e bea3 beae bed5 be82 3dc9
bef7 be91 bf2c be86 bf02 be0b bdae 3dd2
bea2 3e26 bdf6 be1c beef bed9 bba0 be02
bd93 be52 bea1 bdc9 bdb8 be3d bc6c be68
be82 3e7b beb6 bda4 bf20 bf46 3e2e be1c
bef2 3e3c be52 be48 3cd0 bea0 3e02 bdea
be8e be31 bee2 3c6c 3eff bf0a 3e1e be50
3d99 bf18 bdd1 becf bdff be88 bca6 bec0
3e88 3d38 bd84 3e6d beb2 be77 be88 be6e
bcb8 bce0 3c8e beca bc28 bd8c be8b 3d94
3cec 3d96 be41 be80 3e60 beb0 beb6 3e90
bdd6 be78 befa bebd 3f12 be01 be4c be99
bc0c be8c bd91 0000 3d62 bf04 bf08 bdc4
3ea6 be8a be52 be24 bd18 3e7a bd96 3dba
bd81 bf41 3c10 be1b 3d0c 3ea0 be86 bc60
bea4 bf04 be10 bdba bf23 bebc be0b be54
3e52 bef2 bd8f be6b befb be66 be8b be8a
bee5 beaf be7c bdc0 bf8d bf3b be4e bef2
be2e bd2e bef9 beb6 3d6f be10 be8c 3d7a
3d68 3e24 be12 beba bc40 bdb5 bee0 bd96
beca 3d4a bdb4 bf1a beb5 be23 be82 be33
3e3a be66 bde4 bda8 bea2 3e8c bec4 be97
be45 bed2 3d24 bdaf bf0e bee3 bd44 bda8
3dd0 bf40 bed4 bd68 3e42 bea2 be81 bdfc
bd0d bebc be57 3d8e 3d9e bdd6 bef8 bbe0
be55 bdb0 beb0 bf18 be2a bda7 bda5 be8a
3e39 bf19 bf22 be2a 3d80 bef8 bcc8 be17
bdbe be8a bc28 be6e bf00 be68 bc94 be2b
be54 bdd6 bece 3db6 bb90 bdf7 be50 bda8
be15 be5e 3e11 be66 bd13 bd6c bcf4 bea9
bc88 bdb2 3db8 bf14 be88 3d90 bda8 bd20
be23 be84 3cf8 bd81 be59 bda3 bdc3 be5d
3de2 beb2 be89 bc20 be8e be81 be62 beca
bdc4 befc bec2 be64 bf00 3d60 bd30 bdb9
befa be74 bd18 3bea be21 be16 be35 be18
3e8b 3dc5 bbc0 3dfc be67 be63 be18 3e2c
3e2b be2a be0a bb00 bee7 3e78 bc94 be5d
bc40 bda2 bce8 bef1 bca8 3d93 be38 bebb
be2a be41 3e9c 3cfc 3c96 be00 be6a 3def
bdde 3c96 be85 bea9 3e17 3e1c 3e1a be0b
3ba0 3e0a be3a bdb7 be9d be76 bd80 bd98
bea0 3c90 be2d be73 bdf1 be70 3c20 bf07
3cfc 3d0a be66 3e40 be1a bd08 be89 be13
3e8a be0e 3d80 bedc bd40 bd96 3e44 be53
bceb 3da9 3da0 bd9e 3eaa 3d2c be54 be5a
3e15 be11 be32 be7e bf2e be34 be02 3dec
be54 be8f bf04 3eab bd0c be5e 3e1b 3e34
beec 3e97 3d0c be32 3cf8 3e82 be4b bebd
3e10 bf26 bea9 bf24 bdc9 bf11 be6c bc20
bec7 3e56 bd32 be80 3c48 bec4 3d0c be0f
3e99 bec3 bd1c 3dd0 3dfa be6f be40 bea8
3e83 be74 bf1c bee3 3dc2 bdd8 bebc bd34
3e91 bd86 bdd8 3bb0 3d1e beb4 bc00 bee4
bf01 3c30 beb4 be4c 3d28 be42 3e4c bdce
be92 be4e 3d2e be98 be5a bcce 3e04 bc58
bf13 bd2b bf00 3d9e bd6e 3e12 3d14 3db3
beb5 be01 beb8 be93 be9c be61 be2e be00
bd4c bda6 bddb bf00 bdec 3d82 3e9a bcc8
bd7f 3c96 3cb0 beec bd82 3c50 bd98 befb
bea1 3e77 be2f be24 3db7 3ebf beac bed5
3b40 bd02 beee bf29 bde8 3dc2 bd10 be22
3d04 3e1e be02 bdce bef8 bdfa 3c7c bdff
be11 beac 3e22 be09 bd44 bd34 be2b 3e72
be1d beaa 3ded 3d64 3d7e be60 bed1 bec6
bd8a bee8 3c88 be14 bee8 beeb be6c 3e35
bf0c bb00 bf25 be87 bed2 3d06 bdc2 3da7
be66 3d94 be3a bd4c bf0a bdd2 bd81 be72
bd88 be84 beb5 3d58 bdd7 bdc5 3e62 be14
be8e 3e0c be92 bd83 bf1e bf5b 3dde be98
beb4 3eba be0a bc88 3de2 bea8 3db7 3c90
bde1 be60 be9c 3dcd 3eba bf06 3e8e be3f
3cde bf0c be4c bed2 bda2 bea3 bd2f be60
3eab 3da5 bdc5 3e4e beb4 be11 be66 be30
bd97 3d6b bd48 be83 bb90 3a80 be9c 3e4c
be03 3db3 bdba be34 3e1a bebe bec5 3ea5
bb00 be83 bf02 beaf 3f0d bdd0 bdd5 be84
bc10 be25 bbe0 3e18 3d7e bebc bedf bd8a
3eb4 be3c be4f bca9 3d98 3e54 bbf0 bd8e
bc70 bf48 3dff bda9 3ba8 3d16 beb7 3e08
be86 bf11 bdde bdf4 bf43 bea0 bbe0 be3a
3e8b be82 bde2 bdc6 befe be18 be28 be5a
bf18 be86 be8c be40 bf6a bf42 be85 beb6
be2f bdc6 bec6 be86 3d80 be93 beb4 3e39
3ca5 3e70 3cac be1e bca0 bda0 beb5 be16
be98 3cb2 bd9e bf26 be6c be98 bc22 be1e
bc68 be15 3cd4 bbc0 beac 3e92 be4a be7e
be16 bede 3db8 3e11 beaf be42 bcc4 3ac0
bc40 bf4e bed6 be37 3e57 beb0 be63 bdcc
3e01 beba be64 bcc8 bdc5 be9e bed6 be9d
be67 bd38 be62 bf2c be1a bdac bc81 beaf
3ce7 bf20 bf10 ba80 3e35 bf28 3e04 be6e
bc54 be80 3d1a be4c bedb beca 3d8e be5b
be87 bdb2 bea4 3e39 3dba bda0 be39 be4c
bdcf be6b 3ea7 be4a 3d50 bd58 bc88 be70
bdd2 bc28 3e05 bf07 be1c 3ccc bc90 bda0
be3a beae bdd6 bd68 beb0 3d9c bd58 be3f
3d70 be1d be30 bc90 be9e be60 be74 bebe
3b80 bef9 be03 be76 bedd 3e51 bdac 3d34
bea6 be35 bdcc 3e99 be53 3d48 bea5 bdf2
3e23 bdbf bd56 3df0 be6a bea4 3cb8 3ec5
3dd0 be44 bdbd 3da9 beb2 3eae bd8f be11
bc90 3d48 3df0 bf0e bdf2 bbc0 be92 be9c
be7f be4e 3ec1 3dcf 3def be00 be9c 3e51
3dbe bd04 bdff be91 be62 3e7b 3da7 bd9a
be0d 3d10 be42 bb88 be97 beb4 bb00 be20
be9c bcf4 bead be0a bda8 bdf0 3d38 bf1f
3e42 3e04 be9c 3e5c be31 bd9e bea8 bcf4
3e3e bdc1 bd18 be98 be26 bdb1 3dee bde7
bd87 bd85 3c70 bd84 3e8c bd64 bea6 be4e
bca8 be7d be22 be90 bf39 be5c bcd8 3e00
be94 bec1 bed2 3e75 be58 be98 3d8c 3da5
beec 3ea7 3db6 bea7 bc78 3dc2 3db3 be92
3d64 bf57 be36 bf00 be54 bf00 be1f 3d58
beab 3e4a 3a80 bed6 bcf8 bec4 3e1c bdae
3e36 bf01 3b40 3d2e 3e84 be1e be42 be9a
3e82 be77 bf18 bec6 3e35 bdeb bee1 bda2
3de7 bd1c bdea bc48 3d9b bee8 bda9 bea3
bec2 3d9d beac be52 3cb8 bd43 3d9b 3d92
be82 beb1 bde2 be43 be86 be0a 3cf2 bd03
bef9 bd22 bf0c 3d36 bd03 3e91 3e13 3e11
beb2 be26 beb6 be93 be8c be48 bdd2 bdd2
bdb4 bdbc 3d12 bf1e bd95 bd4e 3e98 3ba0
be1d 3dcb bde4 be94 bda4 3dac bdce bf0a
be92 3e3c be0a be53 3e68 3e18 be96 bedc
3e50 be2c bee4 bf2a be1f bd4a 3c50 bd8f
3e0d 3e2c be69 bdfa be7a bdc0 be05 bb00
bdd4 be9c 3dd0 be14 bda2 bc5a bd80 be34
bd40 be9d 3e5a bd8c 3e30 be06 bec0 beb8
bdd1 bf02 be0a be62 bea7 bf19 bdd7 3e90
be7b 3eaf bf16 bd8e be44 3de3 bde8 3df7
be57 3d55 be08 3c81 bf02 be7e be1b be59
3cd4 bea5 be62 3e05 be06 be64 3e8f bb60
bed2 3e4c be46 bddd bf2f bf7b 3da9 be91
beae 3e46 3db1 be36 3ca4 bed8 3d42 bcf8
be68 bef0 be6b 3df9 3e5f bef7 3e27 be3e
bbd0 beb3 be4e bf1a be64 bebe bd1c be33
3e24 3dc1 be14 3e16 be6f be1f be18 be5e
3c00 3e00 3cb0 bea2 bcaa be06 be78 3e28
bde6 bc98 3e06 be86 3e00 beba beaa 3deb
3e3b be8c bf16 be92 3ea3 be0e bde7 be5e
3b1c be29 3df4 bbd0 bde8 bebe be88 bce0
3eb2 be18 bd18 3db2 3e58 3eb5 3e0b 3d8e
bda6 bf4f 3cf0 3d70 3e26 3de2 be9e 3e23
be82 bf36 be91 be5c bf52 be96 bd16 be1a
3dac be82 be04 be3c bf05 bdf7 bf03 be8e
beed beaa be0e be8c bf41 bf2e bee2 bee8
bd98 be0e becf be37 bd03 be74 beba 3e61
3d3b 3e46 3dda be3f ba80 be28 be42 be30
be42 3e2f bdd2 bf1c be3c bdd0 3d14 be0b
be30 be26 bdb2 bd8c bec2 3e10 be91 be87
3bc0 be9d 3e28 3e18 befd bd38 bdb4 be16
bda6 bf30 beee bed2 3e98 bee2 bdf1 be1d
3e91 be7e be1a bd18 bd31 be83 bf1d be21
be90 bd68 be42 bf40 bda8 be6c be46 be9a
3dc4 bf02 bf26 3e0a 3e13 bf37 3d78 be72
bc04 be81 3e21 be2f bec0 bea4 3db4 be32
beb7 be0b be36 3e1d 3e5e bd71 bdde bcd0
be60 bebc 3ef9 bea8 3e36 be05 be2e be72
bcb0 3da8 bc82 bed1 be8f bd20 bc84 bc60
be6b be47 be68 bdca beb5 3e95 bd3c be39
3e0c be2e be54 bce0 be1a be4e be4f be88
be08 bf10 be0e bea8 beb0 3e35 be28 3e20
be47 be2e bd94 3ed0 bd82 3cc4 be8d bde1
be2a be2a bdc4 3e0f bea2 beb3 bdb4 3e9c
3de0 be96 bebf 3db0 be85 3b90 bd2e bdec
bdee bc30 bd9e bf14 be5a bdba be40 bed8
bec7 be3c 3ece bce8 3e51 be51 becc bc62
bc18 bc2e be6d bec5 be6e 3ed0 3dee bdb2
be45 bdca be63 bd9e be9f bef8 be00 bd90
bea9 bdca befd be11 be9e 3e1a bc50 bf04
3e77 3dea bec9 3ded be17 bd48 bebc be5d
3e35 be2e be87 be1a be23 bda4 3de1 bcf0
3dac 3c90 be1d 3dac 3eb2 3da7 beee be4d
be15 bea9 be0b be73 bf45 beab bd86 3daa
bece bf0c bf26 3ee0 beaa be5b 0000 3e26
bed6 3e57 3bc0 bedc 3dca 3e46 3d2c bea8
3dca bf6f be91 befe 3c30 bedb bd9a 3cf8
bea5 3e87 3d4a bef0 bda0 be6b 3e1f bd80
3e0a bf16 bc20 bddc 3d8a be37 bea1 be26
3e85 be10 bf1a bebd 3ea1 be8c bee9 be22
be11 be19 bde8 3de8 bd5f be7e be52 bead
be9d be18 bef0 be7e 3cb4 bd0e 3e4c bca8
be62 be1c be09 be4c beac be26 3dfa bc10
bf24 be03 bef4 3d1e 3dee 3e2d 3b90 3e28
be4c bebb be5b be90 bdc6 be51 be12 be57
3cf8 be57 be04 be98 bbc0 bdbd 3e8a be2a
be3f 3e08 bcd4 be1a beb0 bcc9 bc60 bed2
beec 3e46 3e24 be92 3d94 3dd2 bea6 bf06
be15 be26 bec8 bf30 bcd4 bdb8 bde1 bdb5
3ddc 3e6e be78 be6e bbe0 be24 bc88 3d8d
bcd4 beb3 bd90 bc20 be2f be0c be50 be8f
3cd0 beaa 3e34 ba80 3db3 be93 bf12 bedb
be68 bf04 be76 bde8 be6a bf2e bdc5 3eb8
be5d 3e4a bf2f be61 be06 bde0 be8a 3e4b
be8e 3e4f be9d bda0 bf18 beba be4d be36
3cc2 be36 be9e 3e0d bdfb bc88 3eae be02
bed4 3e35 be82 be96 bf43 bf58 3d6a be8a
be91 3e06 bc80 be1d bd3f bed9 3df0 bd98
bef4 bedc be9c 3a40 3e30 bf1a bc20 be01
bcc8 bea2 bec4 bf33 beb7 bf20 bd46 beee
3df1 3d56 3c78 3e24 be76 be8c be18 be3e
3cec 3e06 bde6 beb2 3e0c be57 be9c bd34
bdf7 3d66 3e19 be82 3c60 bef8 be8b 3ec2
3ebb beba bf33 bec0 3e9b bea5 be91 be75
bea8 be8e 3e70 3ddf be56 bea2 beb4 bd62
3e78 be89 bd48 bdc7 3e2f 3ee5 3dd0 3e89
3d08 bf43 bbf0 3d18 3e73 be89 be81 3e1b
be87 bf48 be7a 3ce0 bf59 bed8 bdc8 be64
3eab be30 be68 be2b bf06 be64 bed6 be8c
bee0 be95 bdac be42 bf6f bf72 bf22 be90
bddc be83 becb be6a be7a be89 bf10 3ea6
bcca 3de4 3d3e bdc8 bdee bdce be9e be28
bee6 3e14 bc50 bf3c be8a 3bc0 be3e bd98
bd6c be61 be82 3dcc bee5 bd88 beb8 bed4
3e05 beca 3be0 3cf0 be8e bd87 bd46 be0e
bd99 bf36 beea be7e 3e7e bec6 be54 be71
3d9b be21 bea2 3cb0 be2a 3cee bf33 be84
beb6 be17 be66 bf36 be97 be5b be37 bf10
bea6 be58 bf49 bcce 3d8a bf30 3d6c be2a
3c90 bea6 3e11 bdbb bf09 bdde 3b20 be60
bee1 be4d beb4 3d8e 3e4a be83 3b80 bd88
be69 bf02 3ecb be91 3d07 be07 bea1 be9b
3d9a 3a40 3d7d bef2 be94 3d74 bd7b bec6
be70 be54 bda3 3bb8 bee4 3d97 bde0 be08
3e72 be3e be2e 3d98 be4a beaf bdcc becd
be32 bf21 be7b bebe beec 3d24 bd96 3dbc
be0c be20 bd2d 3e4e 3e13 be36 bdfb bdbc
3cf8 bdc5 beca 3e57 bed4 be65 bd5a 3ef2
3ce0 be8a 3d08 3a80 bed3 3c84 3cc0 be0e
bd96 3e3c bd8c bedc bd1a 3c28 bc00 be9f
bea3 be53 3ea7 3cd0 3dac bdc4 bdc5 3ae0
3d46 0000 be5a bf02 be6f 3e64 3dea be6e
bea4 bd40 be27 3e4e bea8 be2c bc90 3dd4
beee bd54 beaf be69 bdac be9a 3e10 bedf
3ebd bcf4 be58 3e49 be38 be92 be2b bd48
3e83 be88 bea4 be34 be84 3dda 3da4 3c8d
bd9d 3e50 bcaa be04 3d1a bdbd bece bec4
3c84 bd70 bdaf 3ee9 bf00 be85 bd74 3e62
be76 bf0d bed4 3e61 bea4 bdc6 3e38 3dea
bed7 3e15 3e69 be6d 3b00 3eaa 3b00 beae
3df0 bf18 3da2 bece bd72 bf08 bda6 bd40
be86 3ede be76 beab bcdc bed4 3d3c bd68
3e55 beb7 3e40 3d7c bc30 bde0 bee0 be66
3e88 bea4 bed0 bef4 3e3c be15 bf04 3c91
3d88 bd7d be61 be30 bca4 be9b bcd8 bebc
be66 bc78 be50 be4c 3d18 be21 3e1e 3e7e
be3f be6e be1e be52 be52 bde4 3cf6 be1d
be9b bd0c bf10 3d99 bd08 3eac 3e54 3ea3
bc00 be9f be58 bd2c bea4 bd88 be76 3d8c
3dda be4d bce8 bec3 bd9f 3d9a 3e91 bd96
3d28 3e38 bd57 be0f 3e70 be00 3be0 bec8
becc 3f01 bd50 be9f 3e4e 3de8 be99 be50
3e82 bea3 3e31 bec5 3dc8 bdaa be0c bd02
3e7c 3e91 be1c bde6 3d2c bcd8 3bc8 bdb0
3d2c beb3 bd3a bd90 be45 bc70 bdce be5e
bdd6 beef 3e84 bd86 3ebe bdf8 bf06 be72
3cf7 bedd be6b be0c be23 bf37 3e00 3f52
be2c 3ea9 bf29 be62 beaf be00 be6d 3e56
bdda 3e7d bcb0 bddc beee bec0 3cf0 3d67
bd70 be46 be92 3e44 be34 3d31 3e90 be82
bf0e 3e75 be5e be60 bf23 bf24 3be0 bd18
be9a 3ea4 bd1e bdbe 3e2b bebe 3e44 3d58
be54 beaf be87 3db8 3e0f bf0a bd49 bea4
3dbe be0c be5a bf2a be5b bed4 be30 be92
3db5 3e84 3d6e 3e10 bd00 be93 be70 beb6
3e3e 3e1e 3c78 be31 bd70 bd2c bc90 3d1a
bac0 3e6b 3d2c be40 3e53 beba be08 3eae
3e80 be87 bec3 beb0 3e96 be0f be0e be59
be6b be22 3e23 3e0e be2a becb be5a be0c
3ec2 be92 3dfb 3d6c 3e24 3ed9 3e14 3ef7
bc38 bf04 3e42 3d87 3e36 3d60 be70 3e6e
be34 bf0b bdde 3c20 bf22 be5d bcf4 bdda
3dec 3ca0 3c9e bdc2 bead bd60 be43 be85
bf0d be0f 3e34 be21 be90 bf0e bebd be27
be50 be5e bebc be2a bd3c bdba bf03 3e5c
3e82 3e86 bc20 bea2 bdb4 3e05 bea8 bdc7
bf00 3e9b be01 bf10 bdc4 bd6c be62 3e79
3de6 3e58 bdf4 bd78 be9c bcb0 be8a bede
bbe0 bed2 3c10 bdfb bf25 3d7c be5a be1c
3e82 bf2e be0b beed 3e20 be76 be03 bba0
3e37 bdca 3df9 3ba0 be87 3d92 bee2 bdb4
be32 be3c be40 be60 bd99 be37 be18 bf08
3ca0 becf bf1e 3d25 3cc0 bef0 3db6 be2f
3ea3 be26 3db8 be89 be8b be7c 3ce0 bcf8
bdf2 be4a bebf bc60 3f1b bbfc bb00 bd84
be12 bebb 3e47 bea4 3dae be36 be6e be11
3c88 3bd0 ba80 bf04 be78 be21 be6b be86
bdfc bcc4 be4a 3d4f be00 3e1e be4a 3cba
3e66 be66 be58 3c00 bc98 be7e bdba bed4
bec0 befd beb3 be2a be85 3d68 bdfc 3bc0
bf06 bd00 3ba4 3eb6 bc88 bd8c bdae be0f
bc8c bd3c beb2 3e39 bef4 be0e 3e58 3e90
3cb8 bd78 3e8f 3a80 bedd 3e8a bce8 bc78
bd9c 3e88 bdfc bee0 bda2 3e4a bde8 becb
be93 3e12 3e35 3d04 3dda bd80 bdf9 be09
be0a 3e4c be95 bf25 be1e 3e19 bc07 bed8
bde2 be03 be27 3e3e be2a bd53 bdd9 bdf0
bf0f be53 be3e be60 bdfe bdcc 3cd0 beeb
bddf bd94 be8e 3e74 be34 be2b be71 3ca0
3e48 beb0 be4e beeb bee2 bdc0 3d80 3e50
3e01 3e50 bd39 3e96 be3a bde6 befe bef0
3d9d bcc8 bdda be67 bd34 3da4 be30 3cd2
be54 be71 be9b 3ea6 bec6 bd32 3edb 3e42
be85 3dc4 3d16 be22 3bc0 3e34 3dc6 be58
3e62 bed5 bd9d bec0 3e4c bf06 bdc3 be84
beb0 3e2a 3ca8 bebd bdcb bf14 be12 bda8
3e87 bdc0 be28 bc88 be0e bec2 bf02 be94
3e00 be97 bf0b bef4 3f16 bd4a bef1 3d4c
3dd6 3dbe be0d bd99 3e41 bf03 3d83 be8a
bec5 3d8a beec be8b bd94 bdb8 3dce be31
bea1 3dc6 be0a be81 be17 3db0 3c78 be87
be1f bd8b bea6 3dc6 bd8e 3d10 3e28 3e90
be0b be2e be96 bcf4 beaf bc88 be23 bc8c
be88 3d74 3d76 beae be34 3d1a 3ecb be23
bcc8 3e58 bc80 bd25 bcfc 3e8b bdcb beaa
bef2 3eaf be5a be70 3ee6 3e2c be98 be54
be44 be9a bcdc bef6 3d50 bddb 3c90 3d1c
3e94 3dde be40 3c88 bdcb bd30 3e46 bdb4
bda2 bee2 bbf0 3e88 beb2 be16 bece bf20
bc40 bed0 be22 3d00 3f1f be0d bf20 be26
bd90 bee5 be8e bec5 be02 bf27 3cb0 3e46
be06 3f39 bf48 be2d befa bc60 be27 3dd8
3e70 3e76 be69 3a90 be6e bf04 bd8a 3d0e
bd6f beb3 be7c bd7e be00 bd78 3e04 be91
bf34 3e7c be20 3d82 bee8 bf50 bcc0 beac
be6f 3e92 be42 3c88 3e37 be18 3e84 be04
bde3 bedb bec6 bdbd 3cd0 bee5 bbe0 be94
3da5 beaa bea5 beb7 be41 be2c be0c bee3
3d81 bd88 3c54 bc30 bdc0 be36 3b00 bec8
3d84 3e14 3f0b beaa 3b80 beb8 bd9b bdee
3d12 3e72 bdf8 be8d 3e50 be95 be86 be32
3e8f bbc0 be70 be94 3d92 be60 be35 bbd0
be94 3d98 3d94 bc00 3dd3 beb8 be70 bd50
3ee2 be82 bdea 3e2f 3e00 3f15 3e08 3ec2
3e06 bebd 3de0 bc34 3e46 3f37 be85 3db1
be7f bf16 bd81 3e3c bf06 be24 be36 beab
bd84 3e86 3d83 3cb0 bee4 3de5 be8d be6d
be77 bee6 bda4 3c28 beec beb4 beb8 3c30
be19 be3c be8c beb1 bdc6 bd9e be47 3df2
3e20 3e01 bdc0 be8e 3cc8 3e3a bf3a be14
bf1c 3e75 be95 bf40 bde6 3d04 3d3b 3db8
3e31 3e72 bdf2 be7e bec8 3e18 be6b bf14
bdea be97 bd60 be6e bf18 3e6a bdc1 be2c
3e0a beee be4c bf45 3e68 be8e beac be1a
3e89 be2f 3dba bc30 3ebe 3d4c be99 be3e
bda8 bdce be99 beee 3e15 be95 3e0c be34
3ef9 be90 bec6 3cc0 be37 bede bd82 bd4c
3e71 be30 3d1c bec6 be80 be75 3e44 bdd2
be28 3c4a bef8 beb0 3ea0 bd89 bd18 be25
3d9e bec1 3f0e be12 bd89 bebe bdc0 be0c
be12 3e1e 3dd1 bde2 be18 bd64 be58 be43
3c18 be4a bda7 3ca4 be36 bd8c be3d be06
bd15 be52 be12 bc00 3cf8 be9e be1c befa
bf0b bec1 be18 bd1d be0c 3dd8 be64 bc90
bf2e bd08 3c8e 3e75 3e84 bb80 3c60 bc60
bb60 bde6 bea5 bd4c bee0 be80 be10 3c14
3dec bd20 3e25 bdd6 bf0b be65 3da2 beb4
be4a bd81 bdca bf13 be3f 3d27 be0e bf0c
bea4 3e33 3e2e 3bd8 3e1e bdc7 be34 bd13
bda6 be0f be99 bf03 bc40 3e35 3c8c bec7
bd9d 3d08 bea2 bdea be98 be97 beae be3c
bed2 be86 be46 be55 be94 3d20 bce8 be66
beb8 be02 bee3 3e62 3d88 3d0c beb8 be1b
bd80 bec0 bea1 bea6 bde3 be26 3cdf bcec
3d8e be24 be0e be06 3db3 bd19 bedc bf14
bd08 bd30 bd9f be86 bee5 bd98 3d50 bd7a
be9b bea8 bef8 3ec2 be9a be69 3ddf bdf5
bed2 3e70 bd1d be3a 3e85 3d84 3d4e be81
3e11 bef8 bea0 bf21 bcf8 bf14 bd38 bebd
be31 3d58 bd7f bef2 bd9b bea4 bcf0 bd96
3db0 bee0 befb be40 bdc8 bf10 bec0 be92
3d73 be77 bf3a bf17 3e82 3bac beeb 3d1e
3d5c 3b90 bd86 3d04 3e22 beb7 bda5 bed7
beec bd2a beba bee1 bd3a be40 bd3a bd9a
bca0 3ccc be69 bf16 be29 bdb6 bd30 bc20
bea5 bd48 bece 3d8f be8e 3cd4 bdf7 3e54
3c00 be9a bee3 be82 be9a be60 bf09 be7c
be5a 3b00 bdcc becc be46 3d28 3ece be67
be32 3d42 bda3 be3a be93 bdec be64 bedc
beeb 3c8e bea2 bef7 3e88 3e04 be57 bf05
bee1 be9b bedb bf03 bd92 be2c bda2 3b80
bc68 3e10 be90 be19 be5d be31 3d4e be10
be28 be4c bd56 3dda be37 bd00 bf16 bf13
bd58 bef6 be2f bd74 3ea0 be2a bf0b bee4
be82 bf16 be2a bea8 be26 bf19 be5f bdae
be76 bd80 bf6a bdee bf10 be50 be63 3d66
bc0a 3e8f be2b bd93 befa bf0b bd7c be6a
bd80 bee7 bec8 3d24 be2e bec1 be5a be57
bee7 3e8e be51 be6e bf1c bf52 3dcd bed4
beac bcf4 3d14 be16 bc60 be50 3e7b bd44
be5d beb0 bf10 3d60 3e72 befe 3d68 be85
3dc5 be58 bec2 bee2 be7e be7f bd5f bede
bd86 bd90 bc72 3d93 bd90 be65 be14 bea0
be72 bd58 bc20 bf00 3d98 be0c beae 0000
bd0c 3da8 3b40 beaf bd80 becc bec4 be10
3dc4 bdb6 beda beb3 3e64 be12 be2b beb4
be98 be32 3d90 3cd8 3d95 bee0 bf0e bd9c
3e52 be5b be3e 3b90 3d8c 3ec5 3e2e 3e3a
3e18 bf18 3e58 be10 bc8d 3ee6 be42 be44
bec8 bf1b be0c bd38 bef6 be8e be46 be28
3cc0 be82 bde5 be6e bef8 be05 beaa be88
be93 bf07 bea4 bd36 bf84 bee8 be91 beba
be5a bebb bebc beb0 be8c bdea be28 3d60
3e20 3d8c be87 bed4 bdda 3c90 bf31 be2e
bf41 3daf be09 bf56 bee4 bd44 be32 3bb0
3e7a be16 be8e be1c bec6 3e16 bebf beec
be0f be91 bd28 be96 bf44 be65 bea0 bd7d
3da5 bf0b beaa bf06 3e84 beae becc bea4
3d80 bda8 be83 bc70 3e5a 3e75 bf21 3dbe
be00 bd4c be9b bf44 be40 be09 3e12 beae
3e71 beba bf32 be6a bd9c bebc be14 bdc4
be77 be84 3d90 beb3 bef2 be22 bdcf bd9f
be98 be1a bedd bdc4 bdf3 bdb6 3c20 bea6
be6a bef8 3e19 bcf2 be11 be5a bd30 bec4
bd80 3e0c bc60 befe be5d 3dbd bbb0 be23
be00 beb9 bd1e 3d2f bdf2 be14 bde2 be39
3c20 bec8 bd6c bd30 bd78 be85 bead bf19
bf03 bf26 be82 be95 be9b bc00 be77 3cc0
bf06 bd80 bcc0 3d0a 3d7a bda0 be1e be8b
3d94 3d5c be57 3dc0 bea3 be8d bdf3 3e02
3e97 bde7 3db0 be2a bf15 be5a bd86 be84
be3c bd8a bdbc bee2 bde7 3e0b be94 bf14
be3c bd40 3e29 3d7c 3d4f be52 be54 bd26
3cbc be82 bda4 bed7 3e01 bc96 3d9a bdf0
bdaa bcd0 be2f bdc1 beaf be74 be7f be4e
be98 be22 bda4 be6b bdac bd58 bd92 bec0
bdb0 be8a bee4 3e5a bcc4 3d98 beba be2a
3da4 be4d 3c40 bed8 bdc9 bdf3 3d2c bd1d
bb60 3d2a bd5c bdb1 3e02 3d3e be51 bf12
be09 be08 bdf4 be73 bf06 bdfc be85 3d6b
be28 be41 befa 3eaa be29 be85 3d3b bd6e
befc 3de5 bc30 be59 3dd6 3e0b be32 beca
3d8a bee4 be9e bf09 be29 bf10 bdbc be88
be67 ba80 bcb4 be9e 3d32 be59 bdbe be17
3e64 bf09 be6d bd83 bd78 bec5 befd bea5
3e29 be27 bf1e bee5 3dc8 bd26 bef0 bdc6
3e95 3c30 bde4 3d99 3d7b be98 3b30 beef
bebe bc80 beaa beb8 bdda be1b 3da6 bdc2
be2c 3b90 be08 beca be6f bdc2 3e3e bd89
bea6 be16 bede 3daf bebf 3d79 bd8f 3da8
be93 beb0 bed3 be14 be9d bdf4 bee9 be1a
3c50 3d36 be17 bf04 be29 3cf8 3ee8 be2b
be0a bb80 bca4 be94 be5b 3cab be58 bebc
bee7 3e62 be76 bece 3e1c 3ea2 bea6 beee
bd8d bec6 bea6 bf1b bdcc 3d58 bdd8 bd82
be32 3dab bd8c be45 bedb bdfe 3d5c be56
be4d be3f bc90 be08 bd68 bda2 bee6 be94
be0a bebd 3cd2 3d90 3df4 be2a bec5 bebb
bdd9 bea8 bd5e bee9 be8a becd be72 3e85
bef4 bdf3 bf38 beb3 bee9 bde1 bd80 bb40
be58 3e20 bdcc be16 bf19 beac bd90 be83
bd4b be93 bea1 be1b be26 be30 3e63 be73
beb6 3e1a be98 be22 bf06 bf60 3d30 bebd
beb0 3e15 bdd6 be46 bd10 be97 3def 3bc0
be86 be3c bf0c bd1e 3eb2 bf08 3be0 be6c
3dfa bebf be40 bf0b bd86 be69 be0e bec2
3e1f 3d7c 3cea 3e17 bea1 be47 be71 be47
be40 3c60 bdb5 bef8 3dea bd14 be6c 3d08
bd3e 3d84 be69 be70 3e48 bedd bea0 3e48
3d0d be8a bf01 be8d 3eb4 bd83 be11 be98
bd76 bec4 bdc2 3c40 3bf0 bf10 bf13 bdd1
3e86 be6c be56 bd9a 3d6c 3eea be05 3da6
ba80 bf29 3c40 bde6 3c4b 3ea8 bea2 bdac
be81 bf1b bdc4 bdbe bf21 beab be00 be1d
3dfa bf00 bd69 bea0 bf1e be40 bed2 be81
bec6 be75 be44 bd85 bf85 bf02 be2a bee7
be46 be44 bebf be16 bcae bbb4 bebe bde8
3e19 3e7c be28 bea2 3d44 bc63 beed be0c
bf2e be07 bdd5 bf31 bea3 be1f be1f bdca
3d8e 3d18 be0c bd8e becf 3eac beb6 be78
be43 bedd 3d54 be12 bf2e beb2 be2c 3cba
3db6 bf42 beab bec9 3e80 beb2 be9a be9f
3d7b be73 be49 3cb0 bd3a be02 bf09 bce8
be17 be69 be80 bf10 bd82 be1c 3cf0 be89
3e87 bed0 bf3b be4e bdef be74 bcc8 be1f
3d4c be70 bd2e be8d beee be98 ba80 bd94
be9e bb40 be85 bc54 3d8a 3cac bdf1 be54
be4c be91 3e16 be59 bd58 bdb6 3dbd be96
be1a 3e2e bc68 bef8 bdc3 3e03 bd8e 3bc0
be0a be6a be12 bcae be70 bd12 bce8 be6b
3d38 be8e bea4 bd10 be16 be60 be98 bf15
be9e bf08 bebd be86 bec6 3d78 be68 bd3c
bec0 be1f 3b40 bd52 bd8a bddf bded 3b90
3e18 bbf8 3c50 3e6c be83 beb1 be5c 3e0e
3e20 bc10 3d66 bda0 bf0b be0d 3dac be69
bdd4 bca0 3d50 beca bd5a 3e66 be94 bed4
be3a be3e 3eb4 3db4 3de4 bcf0 bdef 3d4d
3d7c be0a bdba be96 3e52 3da6 3dfa bd6c
bd44 3d20 be0d bd21 be5a beb8 bde6 bdbc
beb6 bd1c be16 be7d bd9c be62 3be0 bed9
3e28 bdaf be9a 3e33 bd16 3a80 beca be71
3e82 be4e bc40 becc bd86 bdfb 3d8b bdcb
bcf8 3dd6 3ba0 bcd0 3e55 bc58 be2a be99
3ba0 be23 bdc6 be21 bf15 be59 be82 3deb
be79 be64 bf14 3e90 be47 be34 3dc6 3da5
bf14 3b90 3d64 bd69 3c88 3e51 bd99 bebc
3e28 bf06 be5e bf16 bc9c bf08 be22 be12
be7e 3e46 3d1b bedb bc08 be55 3cc8 bd58
3e9e bf03 3d8a bdf8 bd58 be34 be95 beb8
3e35 be1e bf0c bef0 3cda be04 befc be17
3ed4 bd5f bde8 3d44 bc24 beae bb40 beee
beea 3dd4 be8e be5a 3d4c be03 3d9f bd9d
be3b bea2 3d26 be7c be76 be63 3ea3 bcdc
be58 be1f bedc 3dcc bdec 3e29 3d7c 3cf0
be87 be86 beba be98 be8c bd9d beaa bd68
3d20 bdd2 be01 bee4 bdb5 3dba 3ec4 bd51
bc64 3dae 3ddc bea0 bd57 3d7c be12 bed0
beac 3ec0 be47 be94 3e22 3eb5 be70 beac
3e4b bd92 beb4 bf08 bd9e bbd0 bdca bdb3
be08 3d43 3c40 be2e becb be16 3dec be04
be9a be62 3e4d 3d46 be2f bda6 bdd0 be4f
be5b be2c 3e0e bda0 3dec be74 bec2 bea3
3d9e bea0 3d1c bea8 be48 bf09 be2e 3ec8
bef5 3de0 bf2f bea2 be82 3d87 bd95 3d90
be49 3dcb be2d bd9f bf05 bd92 bdfe be2c
bd11 be99 beb8 bc88 bc88 bdc3 3eb0 be20
bed8 3dc5 be64 be8a bf13 bf64 bd28 bea8
be8c 3e82 bc9c bde4 3dd3 bea6 3d92 3d88
be3c be41 be8c 3dea 3e74 bf12 3e28 be0e
3dce be90 be3b bf12 bd69 be95 bddb be8b
3e19 3e18 3dc8 3e11 be79 be24 bea8 be38
bdeb 3dbe be09 be9a 3df7 bd40 be54 3e52
bdd8 3d3b bda8 bd9e 3e0b bef4 be8a 3ea8
3d8f be51 bf12 bed0 3ea1 be0a be36 be75
3b00 beb7 bd4e 3dda bc14 beb1 bef8 bd81
3e95 be58 be7a bd33 3dc6 3efc bd18 3d88
3d8c bf0f bd32 bc28 3daa 3ddf bea3 3d9a
bdf9 bf0a be3b bd24 bf4e bebb 3c80 3b94
3dd0 be30 bb86 be04 bf12 bdca be9f be1a
befc be52 be55 be0e bf3f bf18 be80 bed9
be94 be95 beee bdb3 bbd0 3c4c bed0 bc88
3e95 3e94 3d6b be74 3d5a bd52 bebc be1d
bf20 bd6f bdf1 bf08 bdc3 bd5c bd0b bde6
bd5a 3cef 3a00 bd6c be96 3eba be45 be8f
be08 bee5 3e1a bda8 bef8 bdda be2a bc08
3d5c bf4c bef3 bef2 3d8c bec4 be86 be91
3e3a be9e bb90 bc60 be16 be9c bedc be8a
be98 bdef be51 beff bc00 be2e bd36 be98
3d18 bec0 bf26 3daa bdf0 befa 3d34 be94
3e13 be2b 3c60 be3c beda bec0 3d90 bddd
beb2 3d11 be1a 3dd6 3e62 3d31 bdc8 be99
be05 be79 3e96 be82 bd5e be55 3d4c be74
bdde 3dfa bd82 bee0 be21 3d30 bd96 3ca0
bdc4 be73 bdfa bca8 be68 3de7 3d10 be4a
3da6 be00 beb6 3da4 be1f be1c be64 befc
bdcf bee4 be02 beb6 befb 3ea5 be43 3c60
be76 bde4 3d42 3e09 bde6 3cb0 bebc bca0
3cc8 be78 be18 3e16 bea8 bec0 3d92 3ec8
bbc0 be10 3e0b bca8 bed4 3d1a 3da6 be52
bb00 bd8c 3e3b beb8 be13 3e03 be8d beb6
beb8 bdd7 3eae 3e95 3e4a 3e2f be56 3e36
3e42 be90 bd08 bea3 be0c 3e12 3d78 bdd0
be4f bdf6 be47 3e0d be98 bed1 bdd5 bde0
beae bd82 be5b be2f 3d80 be42 bd3c beba
3e9c bcc2 bec1 3e84 bd9a 3e0c bf04 beac
3e86 3c88 bdb0 be8c bd7f bcec 3d16 3c8f
bbe0 3dc8 3dac bdbf 3e60 3df0 be62 bed9
3df6 3dd4 bd13 be24 bf04 be04 bde2 3e52
be61 beb1 bede 3de6 be95 be82 bd2a bdc2
bee9 3b40 3e63 be2a bc20 3e18 3e0c be90
3e08 bf56 bdc3 bebc bddb beff 3ce0 3b80
be40 3d82 3e4f beb6 3d04 be80 3e42 3d3c
3e6e bf0d 3d4c bdc4 3e0f be61 bee3 bee3
3e39 bdfc bf08 bedc 3e18 bd3d bee9 bce4
3e60 bc80 3a80 3cbb 3c70 beba 3d19 bec1
bf02 3e09 be70 be2c 3dae bdee bc54 3d6c
be37 be82 bc90 be16 be87 be76 3e1e bd4a
bea8 bd6d bed4 3dcc be75 3eb4 3dcf 3d0d
be8c be6b bea3 be60 be37 bd9a be81 3d64
3d08 bd06 bdbc bf30 bd8b 3d10 3ecc bce0
bd62 3dfe bd79 be45 be1e bc85 be3f bf06
bebf 3e9d be25 be64 3e6c 3dde bea2 be55
3ef2 bead bed1 bf06 bdf3 bd6c be1a 3d28
bcc0 3dc5 bdd0 bd78 bea6 be19 3c98 bd4d
bebc be12 3d4c 3e00 be04 3bee bc80 bedb
bde0 be64 3e37 be10 3e7e bdbb beba be70
3e24 bf01 bdad be16 bdd6 bf25 bd76 3f06
be98 3f05 bf4e bde8 bcf0 3db9 bddc 3e2c
bdb8 3e51 3dbc 3d91 bf23 be42 be30 bdf4
bcc8 becc be96 3e20 bcb0 be8a 3e9e bd48
befa 3e32 be48 beaa bf1b bf84 bdc7 becb
be8f 3dfa 3d52 be2a 3cc4 beb1 3e10 3e04
be94 beb5 be2a 3dc0 bb00 bf02 3d24 be66
3dde be30 be45 bf17 be88 be78 bdf4 be25
3ccc 3e0c bdd2 3e16 bdf4 be30 be54 be9e
3cc0 3e73 bd01 bec6 bdb0 be5f be2e 3e2c
bd76 3cba 3d4c be23 3d94 bedf bea0 3e4a
3e46 be60 bf10 bece 3ea6 be6b bde2 be44
bd98 be91 3da2 3dc4 be01 bf01 bea0 bd50
3ebb be7b be43 3d66 3e5d 3f0f 3e00 3de2
3c60 bf27 be02 3e45 3e2a 3e05 be9b 3e0c
bdb2 bf0c be84 be24 bf52 bec3 bd02 bb00
3c88 be03 3c99 bdb6 bf1e bde4 beda be85
bed4 be3f bdcb be66 bef8 bf26 be97 beb1
bdcd be67 beb2 bdf0 bd96 bca6 bef5 3c50
3e97 3e3c 3dac be0e bd38 bc98 bed6 be11
bf10 3def bd4c bf10 bdb0 bd96 bde4 bdcb
bd1a 3dda be50 bcc0 beaf 3e8c be32 be1a
3c80 bed2 3e20 bbf0 bf23 3ce0 bea1 be15
bdf6 bf08 bf10 bf1c 3e3e befe be32 be22
3eb2 be48 bc90 be00 bc70 be5a bf0e 3c80
be35 be49 be1b bf0b 3ce8 be47 be6c be9c
3b00 be41 bf34 3c92 bdb7 bebb 3d60 be9a
bd4e be1c 3dca bdd8 be86 bea6 3e0a be21
be80 be00 be4e 3dad 3e6e 3e16 bce0 bd70
be00 be8a 3ec5 beb5 bcba be9c bd9a be3d
be38 3e14 3c98 beac be5c 3cb0 bda4 3dc4
be37 bd9c be8c bcfc be63 3eb0 3d60 bdc6
3e51 bde4 be8c bcc0 bc94 bd5c be1e bed3
beb4 bf22 be07 be7a be9b 3ebc be8f 3d14
be33 bdd0 3d99 3edf b9c0 bdae bea4 bb60
bdca be3e be06 3db4 bec3 bea8 3c2c 3e9f
bd2a bdfe be22 bcfc bec2 be4b bcfc be32
bca8 3d5e 3cd8 befc be69 bb20 be88 bed3
be98 be14 3eda 3cc0 3e85 bd4c be87 bb7c
3e1c be40 be48 bec8 be3b 3e98 3c70 be50
be22 be36 be89 bdad bebc bf00 be76 be16
beb3 be35 be48 bdf8 bd80 3e34 3cc0 beee
3ea9 3c80 bee4 3e8a bd8c 3e44 befa beb0
3e22 bd88 be95 be8f 3cf8 bd2c bdc8 3c89
3d0a bd7e bd10 3e49 3dc5 3df1 be9f befb
be56 bdb7 3ca5 bde6 bf2b be80 be35 3dc8
be78 bf14 bedf 3df2 beb0 be8b bd7c bd92
becb bd96 3d10 be99 3e0b 3e84 3e12 beb7
3bd8 bf68 be3e be7f bd7d becd 3c00 3d28
be45 3cf8 3e22 bece bd6b beba 3e5e bd40
3e32 bf1a bd86 be0a 3cd8 be5a bf12 be5b
3e28 be3a bf1d bedf 3e66 be81 beec be3a
bdab bd8e bd38 3e0f 3e19 be3a bde6 be87
beac 3d0e beeb be56 bd3a bd84 3c20 bd68
be28 be0c 3d24 be8f bea2 be80 3e3a bd0e
be8f be15 beb5 3d74 bcc0 3e48 3e0a 3e00
bdec beea bec4 be6c be07 bdc0 be91 bdf7
3d04 be17 bd9b bef3 bd80 be32 3e9e be87
bdc7 3d6a bde3 be3a bee4 bdc1 be16 beee
bed5 3e10 bdf2 beff 3dde 3e19 bead beae
3e8e be91 beee bf32 bda2 bddd be52 3cd5
bc50 3e3a be5c be2a be5e bdfe 3bfc bd7c
be88 bdbc bdeb 3e14 be38 bd12 be32 bed8
3d28 beb0 3e22 bc80 3dda be2a bec4 be96
bcb2 bf0e be4e be55 be65 bf1a bd3e 3f15
be6e 3edc bf42 be6b bda8 bd8c be47 3e0f
bdd8 3e90 bd7c bcea bf0b bed8 be86 be61
bd71 be9c be62 3e09 be31 be64 3f05 3ba0
befc 3e44 be17 be86 bf2a bf5a 3be0 becc
be57 3e0a be50 bd64 be12 beaa 3dc1 ba80
bedd beaf beb6 bc9c 3dec bf07 be16 be60
3e04 be46 be73 bf0c be87 beaa bdd7 bed6
3d68 3de8 bdcf 3e55 be6a be12 be2c becc
bcc0 3e26 be06 bec8 3d41 be85 bec2 3ce0
be50 3c97 bc88 bdd2 3dc2 befc be91 3f05
3e72 be7b bf0a bedd 3ed6 bea4 be99 bea6
be88 be87 3e0c 3e19 be1d befa beb0 bd83
3eb8 be9c be3d bd5c 3e7e 3f0c 3de4 3eb5
bc84 bf24 be12 3d68 3e28 be98 be5c 3e0b
be85 bf36 be45 be06 bf3c be82 bd38 beb2
3e7c be27 bd58 be38 bf0b bea6 bed8 be82
bee0 be60 bd4a bdec bf70 bf60 bec0 be95
3d00 be8b bec8 be01 bdee bdfa bece 3e1c
3e5c 3e6b 3dc3 bde0 bc90 bd93 beb0 bdd4
bf21 3d88 3ce4 bf1c bd9a bcf0 be78 bdc1
bdc8 bd93 bea6 bc00 be96 3dab bece be8f
3d86 bef7 3d0c be01 bf0d 3b40 be89 bdfe
bd1e bf46 bf21 beec 3e6a bf0c be70 bec2
3e2a be6c be56 3d18 bd06 b980 bf12 bcc0
bea2 bdce be66 bf13 be3b bd83 be54 be44
be08 be86 bf39 bc16 be32 bee9 3dea be85
bd26 bd28 3e24 be00 be9a bda8 3ddd be84
bece bde8 be40 3d88 3e8e 3c54 bd8b bdc4
be93 beb9 3eac beba bc48 bdff bda4 be5a
be0f 3cf8 3cc8 befe be1c 3c98 bd8c be89
be29 be2b be65 3c9e beb0 3e24 3d2c be67
3e47 be2d be75 bd18 3ba0 be97 be84 bef0
bebb bf24 be60 beb6 beb0 3e86 be90 3dc0
be24 be21 3cc4 3e9a 3dbc be54 be12 3d40
3d1e bdc2 bec2 3dc0 bec1 be8e bd58 3ebd
3d04 bd0a 3d14 3a80 beef bdc5 3d6c be14
bd92 3e54 3b00 bedc be05 bd48 bd8e bede
be96 be83 3e9e 3cd4 3e59 3daf bd5c 3c04
3e04 bd97 be21 bf14 be0e 3e60 3dde bea8
be4c bdec be58 3e62 bee9 be18 bd14 3b80
bee0 bdc3 be76 be98 bdd2 be62 3ca0 bec8
3e90 bdb1 bec8 3e9f bd4e bc98 be97 bdbc
3e5c be65 be34 be95 be70 3cb0 bd25 3e52
bdf1 bbb0 3d80 3dc3 3c10 bd32 be98 bebc
3d36 3d18 bdeb 3ee9 beda be34 be33 3e54
be1f bf0e be82 3de8 be96 bdb7 3dc9 3d32
bee2 3dc2 3e5e bdc0 3c60 3e92 bc60 beb1
3dae bf1b 3e0d be94 3d50 bedd bcd0 bdca
be75 3ea6 bc38 bebf bd82 bf08 3d90 bdba
3e85 bea6 3e82 3db9 3d44 be5e bee1 be8f
3d9d bea5 beb3 bf07 3e64 bdb3 befd bc54
3dd4 bb80 be3e bda6 bc00 bead 3d64 beac
bea5 bd62 be4c be0c bc10 bd32 3d7e 3dac
bd90 be56 bdfb be8a be76 be4e 3e00 bd1e
be04 bc88 bec0 3c50 bdaa 3e89 3e58 3e99
3dea be9d be98 bdb4 bea4 bda8 bebc 3dd6
3dbe be7e bd80 beb8 bd36 3dc3 3ea4 be23
3b40 3e1e be35 bd8c 3e0a bdc6 bd82 beda
bedc 3e8f be0b bec8 3daa 3d7c be49 be40
3ede be70 3de3 becb 3db6 be2d be3e 3d9b
3e86 3e25 bdaa 3d98 bd14 bd9a 3d29 bd18
bd12 be0e bd98 3d3a bdfd 3c98 be01 be96
bd08 bed8 3e4c 3b80 3ebf bdee bed9 be32
3dae bf19 be02 be67 be06 bf36 3daf 3f78
be3c 3f00 bf44 be8a be92 bd81 be76 3e63
bd12 3ebe 3e28 3d09 bed8 beb8 0000 3dae
bd7a be96 be98 3c48 be46 bdea 3edf bdf2
bf18 3eac be74 bdb1 bf16 bf2e 3d85 be75
be73 3eb9 bd4f bdfb 3c90 be92 3e68 3d68
be70 be8c bea4 3d81 bbe0 bf11 3c48 be3a
3e18 bdc7 bdb4 bf01 be19 be76 bd2f be99
3cc8 3e46 3d26 3e08 be1e be06 be35 bea8
3e1f 3e5c 3cb4 be5d bd9a bdd2 bd44 3dba
bda2 3e8a 3daa be03 3e31 bec3 bbc0 3ee7
3e3b be88 bef2 bec9 3ef4 be92 be0a beb8
be79 bdd7 3e1c 3e10 3cf5 bed3 be74 bde4
3ef4 be80 3d56 3d97 3dec 3eec 3e0e 3f02
bba0 beed 3e01 3d0e 3d85 bdce be58 3dc3
be35 bf39 bda8 3d44 bf04 be1c bd66 bd5e
3d38 be54 3db3 bde4 becf bd84 be81 be70
bf06 be2c 3e1b 3d7c be38 bf02 bdec be36
bde2 be52 bea6 bd2a bcec bdbe beba 3dbe
3e95 3ecd bd0e be94 bd18 3dd2 beda bd42
bf0b 3ea7 be16 bf03 be2a 3c90 be76 3dea
3dad 3e33 be2c bd48 be68 3d7f bea4 be56
bd04 be5e bd84 be7f bf1e 3c70 be8c bdb6
3e90 bf20 be46 bedd 3e26 bebd be57 be02
3e90 bd83 3e2d 3c20 be05 3cca bebb bb80
be60 bdc0 be48 be51 3cdc bd04 be48 beae
3e11 bea8 bf12 3cf0 be34 be9d 3d38 be5c
3e34 bdaa 3ca8 be02 be68 be60 3d50 bd83
be42 be19 be87 3ca5 3ed3 3dec bd81 bd8e
bde8 be94 3e25 bed2 3d95 bda2 bdce be6b
bda0 3dd8 bcee befd be26 bcfc be48 be58
3ca0 bce0 be26 3d98 be2f 3e2d be0a bd18
3e00 be64 bea8 bd3c bc70 be92 bd70 bee2
be9d bf03 beae be78 be5d 3eae be24 bd95
bef6 bd08 bccc 3eba 3c85 bdef bdd8 3c50
bd6e 3d7a be72 3d82 be9c bddf 3e01 3e92
bd76 bb40 3e82 3ca0 bed0 3e9f bd74 bc88
bd58 3e17 bde8 bef9 bd7c 3d6c bda7 bed8
be91 3d10 3e5a bbe0 3e14 bdc4 bd6c 3cab
bc80 3d8d bede bf1e bd6c 3e46 3dda bed2
bd0c bdfc be5c 3e6a bd78 be2c bda0 bd8c
bee5 be5e be2c be7f bdb2 be4b be00 bee9
be54 be38 bec2 3ecc be22 be2c be4a bbc0
3e94 beba be3d bec0 bed3 bc50 3db3 3e1a
3e02 3e34 bdca 3ecc bd14 be03 bed5 bede
3d8e be10 bd7a be74 be83 bbe0 bdd0 3e03
be0c be92 bec3 3ec8 beb4 bdb2 3f11 3e97
bec1 3e8a 3d2a be11 3d8a 3e44 3da0 be99
3e00 bee8 bc7e bef1 3e55 bf05 bde7 be6b
be8b 3e60 3da8 bec6 bb50 bf15 be2b bd8e
3e8d be2c be6c bd82 bd9c bed5 bee6 be72
3d14 be83 bf09 bed3 3ed8 bd94 bed5 bd78
3e04 3d96 bd82 bdfc 3e13 bed0 3dc4 be8a
bece 3d5c bf03 be9a bd5c be4d 3d4c be2f
be46 3d72 be7c be60 be10 3dfd 3c30 be3e
be60 bdba be95 3db0 bd04 3d48 3e42 3e98
bc88 be61 bee0 bc08 beb4 bd68 be09 bdb7
be88 bd0e 3dd6 bebd be04 3d84 3ed2 be6e
3d91 3e80 3d8c bd20 bca0 3db6 bda4 beb8
beec 3e95 be4e be9f 3ec6 3e7d bea4 be2d
be7a be8c bdce bf0c 3d6c bdcf bce8 3c68
3ecb 3e08 be61 3d86 bdc3 be38 3dfd be00
bd77 beb3 3d18 3deb be6c 3b90 becd bf06
bcc8 bf08 bcae bd98 3f12 be2b bf1c be05
be6e bf09 bdf4 be98 3d68 bf1c bddc 3e34
be4a 3f25 bf4e be64 bf01 bdf7 bea6 3dfa
3e2a 3e93 be80 bcbe be42 bf03 bcd8 bd22
b980 bed0 be9a be08 bda8 bd1b 3e01 be22
bf24 3e60 be4e 3ca2 befc bf35 3e14 be8f
be50 3e39 3dce bd3c 3e30 be30 3e3e bdf2
bcfa bece be6a bd9d 3d64 bef6 bd08 be86
3de0 be19 bea6 bed7 be15 bd7c bd2d becc
3e06 bd9d 3c28 3d28 be16 bd90 bd64 beec
3db8 3da5 3f06 bedc bcb0 bec9 be26 bd34
bd8f 3eae be1d be97 3e97 be88 be84 be4d
3e81 be23 be5c beab 3e3c be98 bdab be41
be35 3d52 3e13 bd40 3e10 beae be6d bd74
3ef1 be48 bdfe 3d5e 3e56 3ef0 3dc4 3ebd
3ddd be66 3e14 bdbe 3e64 3f3e bea7 bcb8
becd bf23 bd9c 3e5c bf05 be08 be4c be80
bd9d bcc0 3e0c bd81 be9e 3d81 be88 bea1
be9e bebc bda2 3dfe bead bebc bedc bdbb
be9a be52 be9a bea0 bd7e bd98 3ca8 3d9b
3dd4 3ea2 be16 bd94 bd08 3e53 bf2e be40
bf3f 3e9c be8e bf40 be12 bd6c bcf7 3e11
3e80 3e0f be4c be97 bea0 3e10 bebc bec7
bda0 be80 bd24 be7e bf12 3e68 3b80 be3f
3e30 bec7 be70 bf22 3e0f beb6 be9c be02
3e91 be3f 0000 bd68 3eae 3dbc be42 bdf2
bded bdcc beb2 bee0 3e64 be83 3d6c bca8
3ec4 be80 be84 3c70 be05 bef3 3d74 bdc8
3e0a be5c bda5 be9c be87 be58 3da4 bdd6
be86 3d78 bedc be81 3ec2 bbac be11 be3c
bba0 beac 3ea5 be3b bd93 bebf bdcd be30
bd74 3e30 3d9f be8d bde0 bbe0 bd10 be84
3d8a be78 be04 bca8 be8c bbd0 be88 be2c
bd63 be62 bdb5 bd90 3da0 bd38 3b00 be94
bf1a befa be51 be91 be76 3e14 be4c bd04
bf4b bd98 bb40 3e0b 3e3d 3d5c bd51 3dae
bd93 bcd8 be1e bd3f beb0 be8f be1c 3e0e
bd04 3c90 3e04 bdb2 beee bd8e bce8 beb0
be68 3d42 be4a bf0a be28 bdd2 be05 bee2
beab 3e20 3e6c bd3a 3e0b be2e be8d 3d5a
3d3e bd08 bf02 bf22 3d3c 3e10 3de0 bec1
be06 bcd0 beb8 be36 be39 bed8 bec2 bdc4
bea6 be8b be5a bde8 beb6 bdf4 bd38 bebf
be45 be54 bef4 3eb8 3b20 bc88 bea8 bd10
3d63 beae be95 be97 bd56 be32 3dfa 3d88
3d81 bdef be74 3db0 3d70 bde4 becf bf0a
bdf6 bd06 bced be63 bf23 be81 3de4 3dd6
be88 becf bf0e 3ed8 be9a be6e 3e54 3d00
bed8 3e92 bd2e be8e 3e98 3e0a bd94 be98
3e22 beea be6e bf42 bd08 bf15 be3a beab
bea0 3e74 bd2b bedf bdf8 be98 3cf0 be0e
3d98 bf09 bf00 be4a bde2 bf2b bea6 bea5
3d86 be29 bf44 befc 3e86 bdc7 bf01 bd60
3dca bcbc bdcc bcd8 3e2d be96 bda6 bec6
bf06 bda5 bec0 bed0 bd98 beaa bdf3 3d84
bd3c 3bb0 be3d bea1 be3a bda2 bc5c 3c40
beba bdd0 be65 3d97 bdb0 3dab 3e18 3e43
bcc8 bebe bf24 be57 beb0 beab beb6 be2d
be6e bd36 3e00 bebc be66 3dfd 3eb4 be99
be22 3e4d bd9e be38 be3a be04 be9a bf02
bece bda0 be9c bf10 3eaa 3e02 be9e bece
bedb beac bef7 bf40 bd99 be0d 3ba0 be33
3d02 3e18 be81 bdf2 be8c be4d 3d3a bdf8
be56 be36 3e1e be0c be3e 3e0e bef2 befa
bda2 bf17 3bc0 be58 3ec0 be02 bf1c beaf
bee3 bf26 bd74 bee3 bd4b bf1d bea0 bd51
beaf 3cb0 bf6b be86 bede be88 be8c 3d97
bdb2 3ea3 be76 bc91 bee2 bf25 bcf0 be36
bd70 bf10 beb4 bd0e bd6c be8d be3e bdaa
bf10 3da6 be8c be48 bf26 bf58 3e46 bed4
be96 ba00 3e24 be12 3dc1 be3a 3e18 bdd8
be1b bec5 beef 3d80 3e52 befc bdaa be7d
3dc9 be7e be93 befe be30 be80 3c24 beeb
3d38 bd92 bcf8 3dde be2a be62 be82 be9e
be44 ba80 bc2e bf16 3d36 be86 beb6 3d08
bcd4 3e0a bb80 bef0 bc90 beda bef0 bba0
3e27 be9e beda beb8 3e2e be33 be0c be6f
be5c be3c 3e2d 3e04 3cf2 bee9 bf00 3c98
3e8c be3b bd77 bc7a 3e15 3e42 3d20 3e20
3e5d bf08 3e08 be0f 3daa 3ebd be66 be0c
beba bf19 be38 bd84 bf05 be10 be5e bba0
3c50 be0d bcff be91 bec6 be17 bea4 bebc
bec5 befe be76 3d48 bf69 bf1a bedc bee4
be86 bed7 bec6 bee6 be9e bdd9 be20 3e07
3ddd 3e36 be72 bea0 bcb4 3d74 bf18 be04
bf66 3e48 be46 bf47 beae bdf6 be58 3d22
3e93 be41 beb2 be8f bea3 3e16 be3a bee6
be2a be8a bd8e bec7 bf43 be4e be98 be80
bb40 beec beb2 bf28 3daf bec8 bec2 bea4
3e26 be14 be12 bdb0 3e83 3e38 bf12 3d6c
be69 bdf2 bec5 bf38 3b40 be4d 3dbe be76
3e06 bedf bf08 be30 bcd8 bec2 3b00 be0c
be9c be41 bd82 be9a bf07 be86 be3a bde2
becf be13 beaf bd1a 3df8 bd0c be02 bec2
bea6 be9a 3e07 bcf5 be1b be66 bc90 bed7
3db2 bc70 bd76 bf08 be8c bb80 3d08 be8d
be54 bee3 bde0 bcb4 be2a bd1a be14 be22
3e29 bed9 be0a bdfe be1a bbc0 be41 beda
bf2a bf3d becd bef2 beb8 3da8 be85 3d14
bf18 bcf8 3c82 3d22 bde8 bd8b be4b be05
3d14 3dae be37 3dbc beb3 be6f bd9c 3e29
3e19 be03 3d31 bdb9 befe b880 bc30 be92
bdf6 bdae bd84 beda bd88 3d89 be97 bf1a
be7a 3d20 3e84 3cf0 3e2c bd73 be48 3d57
3df2 bddb beb4 bf00 3dc0 3e20 3d70 be05
bd20 bd74 be24 bcb9 be96 be6e be15 be8a
be98 be2c be12 be19 be1e 3b00 bd4c bea9
3cba be2f bed2 3e71 3c89 bcf0 be84 ba80
3e36 be7d be62 be93 bdf0 3d02 3e27 3a98
ba00 3d32 bd08 ba80 3e1d 3ad8 be90 bef6
3c08 bdee bdec be60 bf0a be24 be0c 3e24
be0c bea1 bef8 3e95 be12 bdf2 3d0c 3c08
beea 3df7 3de2 bea0 3e0d 3e60 bdf2 beb0
3e37 bedf beac bee8 be3c bf12 be2f be7a
be7e 3def bdae beae 3d85 be96 bca0 be33
3e8a bf0a be90 3b40 bdaa beae bed3 be9d
3e60 be1e bf34 bea4 3e54 bd6a bf05 bc88
3e3f bdac bdee 3e07 3d79 beeb 3c32 bee0
be92 3d8f be8c bea5 be10 be50 3cd4 3d50
be35 3d6c bc90 be86 be71 bd95 3e3f bda6
bf06 be13 bebf 3db5 be84 3d9c 3d9c 3c94
be59 becc bed6 bdaa beba bd52 bec4 be24
bd00 bdd8 bd3a bec9 be06 3d4a 3ee8 be86
be25 bc6b 3d18 bea6 be25 be2d be7b bf03
beac 3e69 be10 bec9 3dc1 3e39 beae bec4
bc40 be89 bee0 bf30 bd9a 3ca8 3c50 bd81
bdfd 3da9 3d18 be32 beb4 bdf2 bd44 bdc8
bea4 bdab 3e16 be2a bcd0 bd38 bee0 bef4
bd80 befa 3df0 ba80 3e74 bd96 bea6 be93
be14 beee bda0 bed6 be75 bf0b be49 3e9a
bee6 3e12 bf29 be68 bec2 3de0 be6a 3dac
bd91 3e2b bde8 bd89 bf06 bed7 bd8b be78
bd32 be98 be91 3d54 be7a be38 3e76 be5a
bede 3cee be8c bd84 befe bf70 3df4 be8f
beb8 3dfb bd3a bde0 3e11 be53 3c20 bd0a
be3e be6f be97 3c94 3ea0 befe 3c50 beb3
3d81 be3e be85 bf04 bd8d be40 bdbc be82
3e0a 3cf6 bcb4 3d20 be71 be08 bea0 be45
be76 3da8 be0c bed2 3e48 be07 be36 3d5a
bd1e 3e19 be7b bea3 3e22 beb2 be9b 3e83
3e3a bead bed8 be93 3e6c be0c bdf0 bebc
bd72 bece 3da6 3e38 3dce beee bf05 be0d
3e9a be4a be40 be0a 3d6c 3e5a bc94 3df9
3bc0 bf13 3d40 3cac 3dd1 3e58 be7a bc94
be8c bf2d bd90 bd44 bf0e bedb bdb7 bdef
3de6 be9c bcd0 be17 bf00 be16 beaf bea8
bef0 bea4 be20 bc98 bf56 befb be7f be96
bdba be6e beaa be6e bdf4 3b2a beb4 3d24
3e1c 3eb0 bd50 be84 3ca8 3ac0 becf be15
bf3c 3c9c bdf8 bf2d be8a be2a be06 3cb8
3dc2 bd99 be47 bdfe bf02 3e68 bea4 bec5
bdfa beea 3d88 be1e bf39 be84 be63 bccc
3ddc bf2a be90 bf07 3db0 bec0 be96 beba
3d85 be72 be07 bc20 3d0b 3cf2 beb9 3d64
bdaa be5e be50 bf25 3c40 be3e bd0e bdfb
3eb1 bec6 bf25 bd8e bd98 bea1 3d20 bdb3
3d63 bddf bd82 be83 bef7 bed2 3c10 bdc8
bec6 bde5 be27 3dc6 3e2a 3d94 bd14 be87
be29 be5c 3e8c be68 bac0 bd5c bda7 be8c
bdc0 3df2 3ca4 bee8 be19 3da9 bd80 bddc
be25 be93 bdc9 bdba bead 3d19 bbc0 be0e
3e08 be70 be4a bd8a be05 bb00 be40 bee4
be92 bf0b bea6 be6a beaa 3a80 be57 3c90
bee0 3d30 bccc 3dde be04 3c30 be97 3d58
3db1 bb72 be0d 3e0d be92 be67 3cd0 3e9a
3e29 3cd0 3ba8 bdcc bef8 3e03 3dc8 be4a
bd84 be00 bd04 bef6 bdd7 3e3e be94 bee5
be4c bdc4 3ecb 3e0a 3e60 3c78 bc40 3e0e
3df8 be04 be61 be9f 3e37 3e6e 3dd0 be15
be16 bcb0 bdea 3d86 be58 be72 bd9d be45
beaa bdda be26 be39 bd10 bcf0 bd54 bedb
3d97 bca0 be91 3e35 bd9c 3d86 be8c 3cf0
3ea9 be11 be44 bed2 bc8c 3d40 3e3a bc98
3d89 3e2d bc10 3dba 3e50 3d26 be3e bebe
3cb8 be01 be0c be0e bec6 be6e be48 3e41
bdd8 bea6 bf09 3e96 bdfc be88 3e16 3d97
befe bd96 3de0 bd60 0000 3e39 3aa0 be7e
3e50 bf0e be9c bf00 bd52 bf0b be9e be10
be02 3e1c 3b20 be70 3d2e bea1 3d38 bd1c
3e92 bf17 bde9 3d0f 0000 be00 be5e becc
3e90 bd74 bf08 becc 3da8 be28 bee6 bd7c
3e87 be25 be03 3e09 3dbb be91 bd1c bed7
bedf 3e34 beb7 be84 bb20 be28 3e05 3ca8
be11 be70 3dbf be48 be6e be36 3ed3 3d2e
bede be16 bece 3d88 be36 3e09 3e11 3d91
bea2 be5a be83 bdec be64 bca0 be8a 3be0
3e1d bc48 bdc0 beee bdc4 3c20 3eb8 bdf2
bd6d 3e04 3da4 bebd bda8 bd88 be13 bf01
bec8 3ec2 be17 be70 3e28 3e30 be85 be8b
3e47 bd9f bedc beee bde8 3d3c 3df4 bc18
bdb0 3d08 bc40 be06 be89 be32 3da0 be13
beb2 be0c 3dea 3d0e bd8a be03 bc98 be3a
be20 be8d 3e16 bd1c 3d79 be24 be9e be88
3d5c bee6 bdde be79 be46 bf1d bce4 3ed7
beee 3e6a bf22 be8f be90 3dc2 be80 3e2d
be36 3e32 be18 be19 bedd be76 bd99 be52
ba90 bead bece 3e9f be3d 3aa0 3e92 be3a
beb0 3cf0 be9a be40 beff bf6a 3d5c bdbc
be76 3e0f 3db5 bd4e 3da0 be7b bbe0 3d84
be24 be5a be8a 3da4 3e53 bf06 3c60 be80
3dbe be83 be94 bf0b be0d be72 be1c bea0
3e34 3d5c 3caf 3e3a be9a 3d10 be96 be82
bdf5 3e20 be01 beb7 3da4 bd80 be45 3e16
bddf 3e0c be21 bddc 3e1b be9c be62 3ea5
3e6c beaf bea8 bed1 3edd be17 be0c be6c
bda2 bed7 3e0c 3e3c 3db2 be28 beeb bd9f
3e9d be1d bdca 3cce 3d84 3eb2 3d5e 3e10
3e08 bee1 3d9e bc98 3ddc 3e5d be6d 3e0c
be8b bf28 bd8d bd86 bf2c beef bd14 bca0
3e50 be15 bc20 be22 bf14 be1f bdd4 be3e
bf0a be0f be82 bde8 bf39 befd be6e be91
bde9 be67 be95 be24 bd86 3b60 bf08 3da8
3e78 3ea8 bca7 be81 bc50 bc32 bed2 be04
bf1c 3d24 3c60 bef1 bdba be17 bc94 bccd
bd04 bcec bdf2 bc20 befc 3e71 be1b bebe
be10 bee1 3dc8 3d30 bf1e bd54 be7f bd58
3e06 bf36 beaf bef4 3d18 be98 be8f be76
3e31 be88 be44 3d90 bc88 bd04 be64 bd85
be92 be68 be32 bf2e 3b40 bca4 bdc2 be92
3e90 becb bf02 3d7a bd30 be88 3d20 be45
3d98 bde6 bc30 be6e beaf bede 3ded bdd3
be8e bc82 be4f 3e20 3e7f bd05 bbc0 beaa
bddc be37 3e07 be61 bda5 bdc9 be2a be14
be08 3cbc 3d54 bee0 be1f 3d0c bde5 be14
be2c be9a bdb4 bd7d be9a 3e2a bd98 bd9c
3dda be21 bdf2 bc20 bd48 bd30 be02 bec9
be5e bf12 be36 bea2 bec1 3e3c be53 bd1c
bed1 be23 bc20 3ea3 3c4e bc70 be9e 3dac
bdc9 be18 be2d 3dd2 be97 bebe 3dba 3ec2
3e07 bd0e 3d3b bd8c bf03 3e12 bd04 beb2
bddc bcd8 3db4 bed2 be55 3e4f be30 be9b
be92 3ce8 3eac 3e81 3e38 bca0 be6e 3df7
3e60 be46 be2d bea4 bdde 3d44 3d8c be3c
be67 3d28 be90 3c60 be8f bee4 be18 be6c
be5c be3c be08 bd4c bc70 be0f bdec befb
3cc8 bdbf bee2 3e66 bd43 3d3c bee4 bd10
3e9b bda0 be09 be5e bbf0 be13 3e14 3dfa
3deb 3e9c bd7c 3cdc 3d40 3ce8 be91 bea4
bdbc bb90 be04 be0f beea be60 be0a 3e4e
bde6 bee6 befb 3eac be65 beaf bd28 bdfa
bee8 bdca 3e1c be1e bd64 3dc4 3e52 be73
3df6 bf2c be26 bed3 bd22 beee bba0 bd38
be30 3e62 3e24 be8c bc58 beda 3e3b 3c88
3e52 bf0a bd8f bd56 3dda be87 bec6 bef8
3e2d bde8 bf2c bef6 3e24 bdb2 bea8 bd80
3de8 bc18 be20 3d94 3dbd be63 bc3c bea9
bedc 3e1d bee3 be70 3ca8 bde1 3dcd 3e85
bdb6 be4e 3e3c be4f be42 be7d 3ea5 bda4
bea7 bdce be94 3d2c bdec 3e8b 3e86 bdae
be0f be52 be24 be49 be91 bdb7 be48 bc40
3e23 bdaf bd08 bf27 bdca bd99 3eb7 bde5
bd4c 3e06 bd26 be64 be5c bcf6 bdf2 bf05
be96 3e88 be4f bece 3e94 3e15 be82 bd14
3ecc be6d bed9 bef6 bdcc 3cb0 3d28 bd23
bd5e 3df9 be72 bd9c bcd8 be16 3da3 bd0a
be92 be29 bd0e 3d2c be1f 3dfe 3d38 bec4
bde8 bea2 3e86 be00 3e68 be11 beba bde9
bc9a bf07 bd9a be04 bd8f bf20 3d70 3ee5
be98 3f0a bf38 be5c bdfc 3e47 bd08 3e3c
3c54 3e44 3ce0 bd9a bf11 be92 be3a be20
3d3b bef0 beb6 3e87 be3c be41 3e77 3d53
bf0d 3e76 be40 be0f bf1a bf80 3d99 be8d
be7b 3d85 3e0e be2c 3d8a be6b 3d9e 3e1c
bea0 bea1 be92 3df6 3d00 bedb bded be2e
3da2 bde6 be00 bf14 be80 be84 be0b be5b
3d9f 3de8 be24 3e28 be48 bd7e bdff beb7
3db0 3e0a bb50 bede bd84 be64 be7c 3e2e
bce0 3c83 3d82 be0a 3a00 beb6 be94 3e58
3eb8 be46 befe bed6 3f16 be30 bdba be8a
bdec beb4 3e21 3d21 3a98 bec8 bea6 bdaf
3ebe be7a bdf6 3d2c 3e0e 3ece 3e56 3e54
3d87 bf24 3ca8 3dea 3e92 3e9c be34 3df0
be2e bf40 be67 be4a bf1e bec7 bcfc bd7c
3d70 be0e bcf1 be37 bf0c be72 beb5 be71
bed6 bd5c be6a bdac beea bf32 be1a be4b
bd50 be8b beb0 bdb3 3c68 bd4b befd 3dd0
3e85 3e48 3d2e bdec 3d04 bdb6 beaa 3d80
bebd 3e18 3c88 beee bd84 bdab bd90 bda2
3d14 bd46 be59 3dbc bf06 3ea6 be9e be15
3ba0 bec5 3e09 3da6 bf32 3db8 be8e bdf0
3cc6 bf1b bee6 bf2e 3dbe bec0 bdb8 be34
3eaf be05 bda6 bda0 3c9a bd52 beec 3da8
be37 be2c bdf6 bf32 3d00 bdf8 be56 bea3
3b28 bde5 bf1c 3d18 3bc0 be84 bcc8 be81
bdb6 bdc2 3e0d be18 bdc8 bea6 bd44 3d10
be72 bda4 be9a 3d1e 3e6e 3daa bd7a bea1
be29 be7e 3e87 be84 bba0 be3b be6c bde4
be4c bbb0 3db1 be55 be4a 3dbf bd6e be34
be51 be96 be72 bd90 be74 3e8e 3da0 bda6
3ea8 be2b be79 bda8 3ca8 bd70 bdc8 beec
bed8 bf47 bde9 bede be90 3e52 be5c bda1
be72 be5a 3bb8 3ef2 3d34 bde7 beba bdec
bd94 be8e becc 3d08 bec3 beac 3d05 3e0e
3e10 be3e be31 be02 bee5 be2d bd9f be83
3c10 bcc8 3d04 bea8 be78 3dd5 be32 bef0
be43 bc98 3e98 3e2e 3e32 3d14 beb0 bd4e
3dc1 be00 be39 be9f be83 3e36 bd4e be51
bdd2 bc50 be50 3d47 becc bf0c be56 be20
be94 be12 be78 bb20 be10 3e48 bdb8 bec1
3cf8 3d10 bf05 3e86 bcb2 3e2b bee2 be55
3db6 bdb3 be94 be52 be25 bd97 3c78 3e28
3d3e 3e39 3dcf 3eac 3d87 3e2d bebe becc
bd84 be37 3dbd bdb5 bf0c be12 bdc9 3da6
be58 bf0a bf2d 3ea5 be60 beb0 bcc8 bda3
bed0 3d1a 3dad be6a bce8 3e52 3e0a beb8
3dbe bf4e be48 be88 bd66 bf16 bc60 3d40
beb4 3e9d 3e6f beaa be16 be99 3e84 3dc0
3e9a beee be24 3da6 bcd0 be9d bed5 be2c
3e56 be0b bf2e beea 3ea0 be30 bece bdeb
bdee bce0 be82 3d2a 3dfc be65 bd74 bebb
beca 3d6c bec0 be77 3cb8 bd45 3dda 3d9e
bea2 3b20 3e46 be6c be8c be52 3ead 3cf8
bf15 bd55 be04 3db0 bc90 3e2f 3e02 bd3e
bdfa bf00 be34 be31 bea2 bdb3 be8f bd97
bd5e bdc5 be66 bf02 bdd2 bd5e 3e96 be25
be3e 3d96 be00 be9f bf05 3dae be6a bed6
bec2 3e88 be37 bede 3e96 3e1d beb4 beb1
3cc0 bdfd bee6 bf26 be3a bd9b be02 3c28
bbe0 3d74 bead bd76 3e0a be14 3d86 3c9c
beac be6b be21 3eb6 be1a be84 be4b bf04
bd14 bec2 3e28 bd54 3e6d be02 becc be84
bbbc bf0b bd3e bd8e bc28 bf1c bd16 3ed6
be31 3efa bf20 be9b be81 3d04 bd84 3e29
bd4b 3e8a 3d28 bd94 bf07 be9e be44 bda3
be2f bef0 be9e 3df4 bea4 bd9e 3ea4 bdcc
bf12 3de5 be34 bda7 bf28 bf5c 3d9e beb9
be80 bd80 be58 be09 bd0c be1c 3d78 3cf8
bf04 be2e bee5 bca2 3e30 bea8 bcac beb1
3e02 be86 be83 bedd be89 bea7 be42 beec
bd83 be54 bcaa 3e5c be55 bdbd be46 be42
3e03 3e0c bd0c beb8 3e0b bea6 be83 bd10
bdcd 3d35 3c40 be6f 3d98 bed4 be8a 3ec4
3e9d be4e bee6 be9d 3ed7 be1f be4d bdf7
bea7 be0a 3e4e 3e36 bdc7 bf04 bf01 3b80
3ec2 bea8 be73 bdcc 0000 3ecd 3dfc 3ee2
bc00 bf3a bcd4 3b40 3e45 be46 be18 3e8f
bdda bf56 be5e 3d30 bf2b bf0a bd9b bdd4
3e93 3d47 bdbf bddf bf0c be84 bee4 be72
bf0a be76 be96 bcd8 bf40 bf5f beaa bd9e
3d0c be85 be82 bda1 be11 bdea bf11 3e64
3e2a 3dfe 3d5c bdbe 3dba 3cdd bea7 3d08
befd 3e14 be04 bf22 be16 bd74 bde7 bd0f
bd62 bde9 be85 bb80 bedf 3e90 be26 be8a
bd14 bee6 3d84 be34 bf22 bc90 bde4 bba0
3da4 bf62 bece bed6 3e14 bec0 be62 be36
3e37 bdb5 be74 3d04 3d14 3dba bf23 bcf8
be3e bdfd bbe0 bf2b bd8b be05 beb0 be69
bd5e bd40 bf3d bddf bde3 be88 bd58 bebc
be4c be0b 3dd0 be12 be8e bdff 3d44 be3c
be93 be30 be8f 3e1c 3e20 bad0 be08 bde6
bd7e be8c 3eda be9c bd3c bdda be9d bd74
be55 be27 3e26 beb8 be5a 3d5a bd80 beea
bdce be7d bdf6 bd5a beb4 3db3 3c10 bcc4
bce0 be37 bebb bc00 3d3c be13 be2c bf1a
be7f bf0e be5b be1a beb8 3e89 be2a 3d68
becf be84 bd0a 3ecc 3e22 be18 be85 3e20
3d28 bc84 bee6 3e0e bec6 be6f 3dd4 3ea4
3daa bd88 3c52 bd2c bef6 bcaa 3d20 be12
bd8c 3e68 bd9c beac be36 3daf be33 bef0
be82 be2e 3e78 3e0b 3e40 3e8a be0e bd84
3df5 3ca7 be71 bec0 be40 3e8c 3e27 be8a
be1c bdec be65 3e42 bf0a be8f bd88 bd20
bec3 bdb6 be82 be06 be66 bed3 bd8a be87
3d80 bdba bedd 3e8a bd40 bdbb be8e be42
3e6c be44 be0b be8d bea2 bd1c bd6a 3e85
bd97 3d97 3d4d 3ccc 3e5d 3d7a beb8 be9e
3d7c bdaf be50 3eda be9c be3a be01 3e6f
be01 becd bf12 3e44 bea0 be1f 3e08 3b20
bf0a 3e31 3e3b bdc8 bc90 3e9b 3c68 beaa
3e1b bf0f 3e18 be82 bdb9 bf04 3cb8 bcd8
be59 3ee2 bd20 bea0 bd98 beda 3dac 3c10
3ed2 be5b 3e1d 3d9a 3e08 be86 bec2 be9d
3be0 be92 bf01 bedc 3e3b bd95 bedd bbb8
3dcb bd0e be93 bdda bd85 be88 3d6f bebc
bef8 bcc0 be90 be52 bc40 be36 3d30 3e02
bc00 3cb8 be0f be20 be57 bdc9 3e10 bd00
be14 3c40 be91 3d76 be32 3e71 3e70 3e95
3e14 be85 bde2 bc18 befe 3deb beaa bb40
bc58 be66 be24 beb9 bdbe 3e36 3eb2 bda4
bcc8 3dba be81 bd7f 3d92 bd36 bdf7 bebe
bed4 3e99 bdcc beed 3e2e 3dc0 be03 be8d
3ea2 be32 3e3e bec0 3e3f be07 be1c 3d18
3e4e 3e3a be25 3dc1 3e39 bd8e 3e02 bd8a
bda6 be4e bd8f 3e08 be2c 3c38 bdce bec6
bd70 bed6 3e12 be38 3ef1 bdef bec6 be6a
3d91 bf08 bdc1 be3a bd1c bf1c 3b40 3f5f
be5e 3efc bf3c be60 be4e bcc8 be17 3e20
3dd6 3ea8 3e3f bc32 bed3 bea6 bd8c 3de6
bd56 beaf beae 3cec be6f bd11 3e9b be0b
bf0a 3e8d be70 be15 bf38 bf29 3daa be62
be25 3e9b bdae be21 3d98 be0b 3e3f 3da2
be7e be5b be87 bd56 3d80 bf12 bca8 be9a
3e2a be39 be56 bf13 bde1 be8b bc08 bed2
bca0 3e2a 3e01 3e14 be6a bdc8 be2a be94
3e56 3da9 bd4c be8d bbb0 be03 be08 3c20
bd4c 3ebe 3d9c be57 3e7a be92 3c20 3ed2
3e46 be4c bec9 bef4 3ecf be85 3d40 be8c
be91 bd01 3e26 3e76 bdc5 bf04 bedd bdf6
3ee0 be8d bdd0 bce2 3da6 3ebe 3e32 3ef2
3bb0 bf13 3e58 bdbc 3dd6 bddb be3b 3e36
be7a bf44 be37 3e26 bf09 be85 bda6 bdcf
3c70 be0a 3dca be0f becc be04 be90 be83
bf05 bd6e bd04 3dcd bd50 bf0c be2e bd64
be1b be6d bea3 bddd 3bb0 bdca beb6 3d42
3e95 3eb4 bcb8 bec7 3c20 3e3a beb7 3d87
bf0b 3e85 bdd6 bf1c be67 bc30 bdd2 3d8a
3d7e 3e05 be10 bdfe bea6 3e2c bea4 be39
bdda be8e 3d48 bddc bf20 bd10 bdfe 3dd0
3ea8 bf26 be59 bed8 3cd4 bebc bdf6 bde2
3ea7 3d9a 3e91 3d64 bdb0 3e99 bec2 be35
be38 be3c be16 becb 3d74 be78 be55 bec1
3e2d be43 bf2c 3ce2 be0d be91 bc20 be72
3da6 bdb0 3e15 be63 be8e be97 3cc8 bcb4
be08 be20 beca 3ccc 3ed2 3d4b bd8a bdbc
be3f bea2 3e46 bea0 bd15 bd30 be40 bdd2
bde0 bd98 bd3e bf05 be6e 3d0c be0a be8e
3e17 bdfd be23 bb90 be20 3de8 be63 3ce4
3e18 be5e be8c bdb0 3d92 be4c bdca bf08
be12 bf01 be93 be86 be9a 3ea8 be10 3cc8
bf10 bdd6 bd6d 3ebc 3e04 bdc5 be30 3da0
bd9a be55 bedc 3cc8 be92 bd66 3d99 3e8e
bdd9 bdfa 3d96 be22 bf16 3e2b bc48 bdaa
bd54 3e29 be50 bf27 3e37 3e20 bd50 bf2c
bee3 3e47 3e42 3e20 3e34 3e1c be22 bce7
be17 3e1c beba bf1c bc90 3ea5 3d00 bee4
bdf4 be51 bebb 3e7b bd40 bdd4 bd01 bdf0
bf12 be08 be57 be9e bdd9 bf17 3c80 bee4
beb9 bd6c beb3 3ec7 bda2 bd78 be8f 3e4e
3ede be87 beaa bebd bede bdbc 3dae 3e24
3dd4 3d84 3d90 3e97 3d5b bd63 bef5 be57
3e3f be90 be8c bece be9d 3c90 be2e 3d29
be89 be83 bea8 3eac beeb 3c24 3ed8 3e8b
bede 3e03 3d4c be58 3cc0 3dec 3e07 be4f
3e8a bf0c be56 bec3 3d62 bf11 bd54 be6b
beb2 3dfa 3d42 befc 3e17 bf0a bdd0 bd80
3edb be94 be4b beae bdb1 bf0c bf0d be38
3da4 be7d bf0c bf03 3f04 3d90 bedc bd46
3e92 bd48 bd18 3d02 bdd7 beec 3e04 bea0
beaf 3dd6 bf0e be9a bbc0 be06 3be0 bec0
bdee 3e06 be97 bdfc be73 3e1e 3d16 bdac
bec0 3a80 be58 3d34 be7f bde7 3eed 3ec8
bd10 be53 bf04 bda2 beaa be0c be86 be25
beac be12 bd83 bf16 bdbc 3d38 3e96 be42
bd6c 3e5a bca8 3d06 bdda 3e10 bdab beb2
be98 3e88 be1c be6d 3ea6 3dc4 beda bec0
bebc bd4f 3dd5 bed3 3b80 3cb8 3d88 3cd8
3ecc 3e18 be46 3d98 be53 be68 3cb1 bcd4
be56 bed5 be0c 3d9e bea1 bebb bea8 bf18
bdf3 bf0e be39 bb40 3f3c bd2c bf36 be17
be8a bef9 be4a be93 bdfa bf44 3a80 3e77
be04 3efa bf78 be07 bf0b bdd5 bec8 3e60
3ea2 3e83 bebc 3da2 be76 bf0c be2c bbc0
bd97 bef2 bf0b bd8b bd90 bd28 be02 be67
befa bd1b bc30 3dbb bf28 bf10 3c10 bedc
bee6 be0c be45 be64 3e82 bcb0 3e86 3da8
bc64 be9e bec1 bd2b bd58 bf04 3e5f bed8
3cbc bece bede bed6 be72 beb4 be66 bece
3d24 be96 3c88 3ddc 0000 bcb0 bd70 bef8
3d44 bc60 3ef2 beb3 3daf bf02 be02 be21
be6d 3ec7 be9e be98 3ec1 be85 bec7 be91
3e1e bd96 be0f beca 3d82 bf01 be32 bdb7
bde5 be48 3e42 3dd8 bd7c be7a be92 bc40
3ecc be56 be59 3e84 3e90 3f04 3e2f 3ed4
3c80 be2f 3e2c bd11 3e47 3eea befa 3e0e
bf15 bf50 be57 3ed8 bf07 be87 be1e bd3f
3d50 3dcc 3e08 bda3 beb3 3e55 be95 be3e
bef5 bee4 be68 3d66 be80 bf0f bef4 3d28
beb6 be5a bea4 bdd6 be55 bd8a bdb8 3e46
3d46 3ee7 bd1a bcc0 bde6 3e2e bf42 be8c
bf38 3ebd beaf bf45 bdcc 3da8 be34 3e37
3e97 3e19 be4e bea6 befc 3e11 bf05 beac
3ca0 bdf8 bdc6 bd28 bf04 3e34 3db6 bd9d
3de3 be94 be18 bf01 bb80 bebc be89 bd44
3e1d bd74 3e16 be53 3e83 3e16 beb1 bd08
bce1 bd82 be68 bede 3ea8 beac be0c bd7c
3ede be8f bec5 3d64 be75 bed4 bd0c bee2
3eae be82 bdb0 be9a bed4 beaa 3e46 beba
beb8 bcc0 bf2a be27 3e2a bc96 bec9 bb80
3d44 bebd 3ec9 be34 be0d bebd be80 be82
3d92 3e48 bdbe bebc be47 bd62 bdd8 bef1
3dc6 beb7 be3f be2a be34 3c50 bea1 be2c
bdcb be2f 3d8e bd38 3e96 bd20 be65 bf09
bf22 be66 be44 be63 be1c 3df0 be70 be4b
bf2d bd4c be44 3e92 3e08 3c80 be5b bd46
be4a be5e be96 bd6c becd be29 be60 3e1c
3ce0 be13 bb46 be7a bf18 bdca bd0c bf1c
be2e 3d2d be98 bf33 bd88 bd06 bdd4 bf67
bf1a 3e37 3e85 3da5 3e68 3cec beb8 3cf6
bd84 bc8a beff bf35 bba0 3e20 3e5c bed2
bdbc bd48 bea8 3cf4 be20 beb6 bef2 be14
be9c bec0 be30 be48 be9d be6c bd10 be9e
bea3 bdea bf0c 3e98 bd47 3e28 bed8 3e20
3e35 bead bed5 beb6 bd20 be93 3db4 bd2e
3e0c be82 bdb2 3d04 3e43 3c88 bee6 bedf
3da2 be8a be84 bf08 bf7e bdba be46 3da2
bed9 bece bed2 3f06 beae be02 3db6 3c40
bf2a 3e4c 3d82 beaf 3e94 3d76 bdc2 be9c
3e54 bf0c bed9 bf3c be3a bf12 bc88 bf02
bef0 bde8 bd8d bee4 bcf4 be62 3e26 bd1c
3e61 bf00 bf1a bee5 be17 bf20 bf2e bea6
3e1d be36 bf52 bf19 3e28 bc63 bec5 3c58
3eca bdaa be46 bccc bd73 be1b be1a bec8
bf02 bc55 bf10 bed2 bc48 bebc bd9f be73
3c00 3cd0 bec4 be80 be81 bdcb bcfa 3e57
bf02 bdd8 beb4 3d9d be53 3de0 3e84 3ead
3e3e bed8 bf21 be9d bed4 becb bf09 be83
be96 bec3 be84 bf16 bdf4 3dec 3e81 bebf
be2a 3e12 be06 bdb0 be9d bd83 be8f becc
beb8 bd04 bea1 bf30 3dab 3e40 bee8 befb
bf1a be98 be6a bf34 be02 bdea 3ce0 bda8
3dd8 3e46 be93 bdbe be98 be97 bd5c bd25
be94 be8a bc90 bdc6 be5a be15 bedc bf2b
bce8 bf4e bcd0 be38 3f02 be99 bf42 beca
bef8 bf50 be1a be38 be53 bf3e be19 be49
bea8 bdda bf94 be8c bf3a bec7 bed3 3e3d
be04 3e9e be86 3c42 bef2 bf35 be44 be78
bda3 bf30 bf24 3c08 3db2 beda bed1 bd28
bea4 be2d be38 be36 bf30 bf4a 3dbd beaa
beb8 be38 bd22 bed6 3d50 be10 3e22 bcb0
bdf1 bea0 bf30 3d56 3c90 bf12 bb00 beae
bdb4 be98 bedf bed7 be78 bed8 bde7 bf07
3e04 be89 b8c0 3e97 be18 bd60 bd9e bec5
be35 bd4a bc76 bf03 3dae becc bec4 bdb0
be5c 3c00 bdf1 bef0 bddc bf16 bf11 3e12
be2b bebe bf08 bed2 3c48 bec6 be7e bf00
be74 beca 3e8c 3ea2 bd32 bed3 bed6 bd84
3e30 be0e be6e 3dfc 3e18 3e68 3dfc 3e53
3dca bf26 3e24 be5c bc2f 3dfa be96 bdfe
bef4 bf5c be99 3e50 bf04 bea9 be4c bdb6
3e2e becb bd59 bebe bf08 be22 be8a beb0
beee beee bef2 3d2e bf74 bf4f be88 be91
be79 beea beec bea3 be90 bdb2 be12 3d94
3ca0 3ef4 be9e bdbc bddd 3cb6 bf2a be56
bf45 3eed be82 bf59 beaf 0000 becb 3df2
3e85 bdf8 bee0 be60 bef6 3d91 bec2 becb
bdf2 bd10 be4a be46 bf26 be78 be10 be90
bc8c bf0c beb1 be8e bc10 beed be90 be48
3dae bd48 bd34 bea2 3d0c 3e2d beef 3df6
be5a be5f bee8 bf50 3e10 bdfc bd27 bed2
3e8b bec2 bf3b beb0 bdae bef6 bdec bf00
bdd5 be90 be06 bea9 bf12 be72 bdfc be60
bf05 be30 bf09 3d60 3c18 bcfc beba be90
bd91 beac 3cf0 be15 be94 3d18 be38 bf06
bbc0 3d82 be10 bf1c be62 3d68 bd78 bf08
be58 bf42 be68 be20 be3a bde8 be68 be42
3d7c bf1b 3d90 be08 3ddc 3c80 be92 bf29
bf38 bf1f bec0 bf24 bed2 bd5c be98 be69
bef5 bcc0 be8d 3e60 bd86 be1c be12 bb80
be02 bdf8 be6a 3d94 bec0 be18 bde9 3e21
3e33 be4f 3d3b be22 bee3 bded be28 bf05
bd54 3d10 be35 bf24 bd92 3ce2 be99 bf4e
bee0 3c50 3e6e 3dba 3df1 bdc2 beb2 bb70
bcaa bdee beb8 bf0f bcc0 3e05 3de6 be73
bc10 3cf0 be5a bd18 be2a be9e be9c be7a
be6e be8d bc50 bdba bea2 be06 3b00 be82
3cb1 be3f bf02 3e69 3d13 3e0b beaf 3cb8
3ea5 be52 be96 be9e bddd bdfd 3d80 bd50
3cb8 3d72 3d9e bdae bca8 3e0f bea8 bed7
bc94 be9a be6e bef3 bf52 be60 be10 3dd0
bebb beab becb 3f0a be20 bdac bcfc bd32
bedd 3d5e 3dbd befc 3e1a 3e19 bd57 beb6
3e16 befc bed1 bed9 be88 bef2 3cd8 be90
bee0 be48 bd22 bebc bd1a be67 3e2d bd5c
3e98 bf01 bec8 be78 be0b bec0 bf05 be7d
3e7c be2c bf4a bed8 3df6 be0e bec1 3db1
3f04 bd1c be56 3e46 bbc8 be4c bdc8 bed5
beac 3d0a bec8 be82 bd5b be86 bae0 bdce
bda2 bddd be75 be43 bea2 bdc6 3e03 3d28
becc bc18 bed6 3d97 be7a 3d6e 3de4 3ce2
bdc6 bf02 bef0 be41 bf04 bea4 bf05 bea5
be44 bea6 be7c bf1a be3a bcf8 3ec4 beb8
be13 3dc0 3bc0 be3e be92 bd94 beaf beb7
be40 3e2d be9d bf16 3d64 3e4d bedf bece
be67 be94 be8a bf38 bdb9 be12 3dec 0000
bd24 3dcb bd64 be37 be7e bdac be0f 3b00
be40 bdfe bd24 bd93 bdb0 bda7 beb5 bf02
bd78 bf16 3e32 bddf 3e82 be49 bf12 bec6
bec2 bf01 3c98 be84 beca befb be1f 3dc5
beee 3d8a bf45 bebc bf03 3e1b be2c 3df6
3d84 3e0e be5a be02 bf1b bf00 be34 be63
bdf1 bed3 bf1f bd0c bce8 be9f 3d86 bd62
beba bd72 be7e bdde bf16 bf6a 3d52 be98
bea6 3d23 be03 be5c 3d7c be3a 3e02 bd32
be4a be32 bebc 3b20 3dfa bef1 bb40 beac
bc50 bea2 be63 bf01 bdc0 be93 be2a bec8
3e38 bc89 3b30 3e58 be94 bd0c be65 be54
be0a 3cf8 bd08 bea3 3e26 be7e beb5 3d58
be18 3dcb be68 beba bd35 bef0 beb6 3e83
bd8a beae bf0a be0a 3eb0 be61 bec4 bed2
bd58 bf01 3d10 3e74 bdab bf06 bf13 be2f
3eb1 be72 be55 bdd1 3db8 3e60 3d8e 3e28
be2e bf5a bba0 be2e 3dd0 3d16 be8a bcf0
be66 bf57 be46 3e12 bf15 bf0a bd72 bde6
3e08 be9e bddc be5f bf1a be3b befc be9e
bf10 be90 bea1 bd87 bf67 bf23 be63 be19
bdd0 bea2 bf09 bde5 be16 bdbc be91 3dbe
bd11 3e97 be12 be21 bb80 bd3f bed8 be08
bf4c 3dc9 be0c bf2d be5a bdac be78 bcd8
3e15 3c27 bdda be42 bf14 3eaa bf0e bee5
bde4 be3e bc60 bd6e bf22 be94 bdfc be81
3d2f bf40 bed0 beba 3dac bee2 be26 be8a
bd88 be54 be83 be12 bda8 3e37 be9d 3da0
bd8e be55 be9c bf29 3d82 be24 bd06 beda
3e84 be3a bf2a be3e 3d44 beb3 be0a beb6
bd30 bdc7 be4c be00 beee befa bd10 be64
beb6 bdf4 beba bd41 3e19 3e2c be61 be9b
bd1a be84 3e9e bea2 bddc 3e0b be1c bebc
bd34 3d68 3cde bf18 be63 3e5e bd68 bead
be64 bf0c be06 be2a be66 bb30 bd0c be34
3d3c bedb bcba bd96 bd1a bd18 beb2 bf2b
bee9 bee1 bea8 becd befe 3c70 be8b be50
bea2 bc20 be2d 3e81 be1b be58 be4c 3d74
be12 be1e beb6 3e0a bec3 bdd9 bd10 3ea6
3e90 3b90 bcda bea8 bed5 3d20 bd8e bebf
3d9a 3d94 be8a bf05 be3a 3e63 be98 bf22
bec8 bd88 3e8e 3ddc 3e40 bcdc be46 3db2
bc82 be28 be8b bed1 bdba 3e10 3e02 be4f
bdbc 3ca0 be71 3c3c be7f be7e bd38 be46
bea9 be3e bc20 be31 be59 bcc0 3d92 be80
3cd1 3d98 be71 3e4f bd31 3df2 beb6 bd00
3eb9 be27 be63 bea9 bdbe be12 3d36 3dd4
3d46 3e61 3d2a bdff 3d64 3ea8 be95 be1a
3cd0 beae be1a bed0 bf10 be12 be29 3d10
be6a bec2 bef2 3eb8 be37 bdd9 3d92 bda9
bef4 bdbe 3dcc be8c bcc0 3df8 3d44 be86
3e28 bf0a bebb be8d be82 bef0 bce8 be22
bedd bd22 bcdd be94 be0e be9a 3e22 bca8
3eb8 bee8 becf be22 bdaa be8e bf01 bec4
3e32 be41 bf1a bebc 3d61 be02 becf 3e0c
3ed4 bde2 be94 3e69 bc64 bec5 bde3 bef9
bea4 3d8c be99 be94 bbc0 be3e 3e0b bdee
be05 be2b bd94 be0e be98 be0d 3e80 3c50
bedc 3d38 bee8 3d83 be91 3de4 3e66 3d33
be6c beae bea9 be21 becc be6d bed3 be85
bac0 bead be9a bf1a bdf6 bdff 3ea6 be70
be1b 3e0f bd9c be8e beb5 3bd4 bea0 bf0c
be5f 3ebf bec4 be8a 3dc1 3e2a be83 beb8
be4a be30 bead bf2c bdf6 3cea 3e0e 3d29
be58 3c48 bd20 bda8 be46 bdca bdc6 3c28
bece be4c 3c78 3d8b bd48 be62 bddc beaf
bd60 bf01 3e08 bd40 3e64 be59 be85 be99
bdf0 bf1b be07 be75 be98 bf1b 3d18 3e01
bead 3dde bf44 beb4 bf05 3e9a bd5f 3e54
3d2c 3e29 be33 be2c bf1a beb2 be38 bda4
bd86 befd bf22 3e20 bde1 be44 3ddc be66
beb6 3d1c be88 be51 bf0a bf7a 3e18 bea7
be56 3daf bd9d bd9a 3d68 bde4 3dc6 bc58
be77 bd82 bee2 3d51 3e29 bf0a bcae be86
3ce8 bec2 be34 bedb be3b be6c be02 beee
3e04 3bb0 3d4e 3e86 be96 3dae be9c bd78
bdd6 3e2f bdf9 be58 3da5 be15 be16 3de9
bdc3 3e72 bea3 be2a bce2 bede be1e 3e56
3e14 be62 bebc bd88 3ea3 bd68 bebc bebe
bdd8 bec2 3e06 3ea5 bd90 bef6 bec3 be11
3eb1 be9e bdf2 3d9d 3d14 3e7b 3e19 3e46
bce8 bf56 bbe0 be4a 3e1b 3e5a bdee 3e37
bea4 bf5a bdde 3d12 bf24 bef1 3d14 bc96
3e8c be02 bd7b bea6 bf12 bddb be9e be2e
bf23 be44 bec4 be5e bf72 bf1c be37 be46
be42 be9b bea6 bdc6 bd90 bd37 bed1 3e8f
3d83 3e44 bd90 bdec bd40 bd3b beaa bdd2
bf2f 3e02 bdff bf2e be12 be18 be36 bac0
3d68 3d96 bd40 bddc bf26 3ea2 bf00 bf11
be28 becf 3d74 3dbe bf21 bdd3 bd90 bd35
3cd9 bf32 bee0 be87 bdde be86 be66 be9f
3c88 be90 be8a be1b be1d 3d4c be9a bdcc
be27 bebe be84 bf31 3dba 3c40 bbe4 bf02
3e81 be82 bf12 bccb 3dfa beb4 be54 be9e
3b80 bde2 bd41 bbd8 bea6 bee6 3dbe be86
bea4 bd8f be8a 3d6f 3e4c 3d89 bdb4 beb3
bd89 be84 3e1a be9e be22 3dc0 be2e be87
bde2 bc82 3cc0 bf1c be9b bc80 bd24 be70
be62 beee bdcf be34 be98 3d90 bce0 bd78
3dd8 be92 bca2 bd60 bdf8 be23 beb0 bf1e
bea1 bed8 be82 be96 bede 3d50 bea2 bd86
bea8 be1b be7c 3ebc bd9a be2f be92 3e36
be8b be8d bedb 3db8 bef0 be5e 3da6 3ef6
3e3f bd4b bd70 bea0 bee3 be06 be38 bed3
3d58 3e1f be2b bf17 be94 3e9c be65 bf34
bf0c 3e62 3e7b 3cb8 3e7c bd42 beaa 3d46
