bc30 3e7e be0c 3f0a bf15 be74 bcf0 3e00
be63 3ea3 3ed7 bd50 be9c 3d68 3cf0 bd91
3e1c 3ef2 3ea7 be9f 3e36 3e95 be89 beea
bed4 3e4f 3f13 3e1c 3dcc 3e54 3e0a bf31
bd1e bdcc bdf0 bea8 be86 3d9b bcf0 bf85
be8d 3b40 3ef8 3e0b bec8 bc90 3e25 3eac
bf28 bea6 be7b be5c bd91 bf59 3f16 bf4e
3e97 be8d 3e34 3d04 beca bf26 be93 3dae
3d84 be8d 3eab be34 bf1d 3cbc be10 3e8b
3da2 3e83 bd42 3da4 3d86 bda9 be62 3e8a
3dcf 3e0c 3d17 3f0e bea3 3ea5 be43 3f0e
bdff 3c50 be02 3e36 bf7f 3f39 3e53 3ecc
bea3 3eb6 3e83 be4e bd8c 3dac be29 bda3
3f1c bd82 3ea7 bdca 3dac bf1c bf0e be9a
bf05 3d68 bf2a bf34 bba0 bed6 bea4 bc54
3eac 3c10 bc86 3c98 bd13 beda befa be28
3e1e beae bf09 bef3 3ef0 be3e beec be9a
bd38 3da9 bf07 bed4 bee4 be52 3ea2 bed2
bedb bf08 3dd0 3d44 be77 3e0f 3eba bec3
3ee6 3d68 be7d 3c4e bd8b 3ea0 be8b bdde
bd90 be8a be0e 3edf bea7 bdae 3ed8 3f03
3e7b bdde be07 3d43 bee0 be32 be8d 3ece
bdc8 be67 3e66 be5e 3e33 3f34 3e28 3d8e
bce8 3e87 bdc2 3dc2 3e38 3a80 3e50 3ed6
bed4 3f8f bead be62 3e9c be24 bdf2 be44
3e49 bf17 3f4f bd35 3f35 bd88 bece bf09
3e9a bd10 be02 bc88 bce0 bc8c 3f03 be60
3e49 bf6e beca bd28 bf3b 3ecc be38 bf10
3e35 be75 be29 3ea6 3f84 3e02 bf06 be88
bdd3 be33 be79 3d10 3e4f bf5c 3e8f 3ede
be56 3f6a bf3f 3ea4 bf19 3e8e be1d 3e84
bd18 3e35 3d08 be31 3e88 be42 bd0c 3e42
bdba bebe bece bef0 bea8 be20 3e30 be66
bf04 3ec6 bf1a 3d9c bf2d bf57 bc60 be64
beb5 3eae be6e bc9c 3da0 bee6 3c60 3c31
be1c be90 bed8 be18 bda8 be80 3dd0 becb
be4e 3db9 beb2 bdba befc be88 bd68 be35
be47 3f0b 3eee 3d8e 3d90 3d4e 3df6 bea1
3ec2 3c90 3e8a bdf6 bdf7 be40 3c40 3e72
bea5 3de0 3d70 bd72 3f05 bee4 bd2e 3dcb
3e89 bd8a be5e 3db4 bec2 be12 be6d 3bec
bd9e bd3c 3cf8 3d18 beb2 bf34 3de8 beb4
3efc be68 3ebe 3ea5 bdb0 3e3e bd44 3f28
3e9d bed6 3e79 be16 3e14 3f1a be81 3da6
3cc7 3c98 3c28 3ea3 bee4 bc81 bda2 3d32
beb1 be8b 3e35 3d88 3db6 3f6a bf29 bd88
be94 bd46 bdd4 3dce 3d94 bc9c be7e beb0
bf28 be9d bdb2 be8d 3c68 3e29 bed2 bdb4
be4f 3e92 3e2e bf42 3e22 3c00 be83 3e30
bf38 3ee2 bee4 be70 3e93 3ee9 3e0d be17
3e18 3f23 bdca bf5b be70 bc88 becf bf26
be2c 3e1c bd50 bdac bf1b 3dd6 be35 bd9e
be25 bf0c bedc bf25 bc82 be4b bd89 be11
3f10 bef6 3f5d bde1 3dff be50 be1a be92
bd08 be90 be22 be3a 3d8c bec4 bd00 3dde
3eda bf20 be6e 3ef8 3e91 bf08 0000 be8a
3ef0 3e10 3e2b be94 bda4 be21 3e10 be5e
bf08 3e1a bf3f bf2b 3f2a be94 3e7a 3d04
be5d be8a 3edc bec2 3ea1 bf36 be46 bd5e
be8e bd8e bef9 bec8 be7a be60 bdc2 be88
be86 3dd8 be14 beb8 3e0b 3dc8 bf4a bbf8
bd70 be15 bed4 bd9a 3ecd 3df3 bebb beaa
be91 be3c bdae bdb7 be19 3df4 bda4 bdf0
bf45 3e82 3dae be32 3e70 be81 bef8 bd12
bdb4 3e0a 3c90 3e6f bf18 be12 bcec 3ca8
3df2 3e10 3d9d 3ded be4c be53 bd66 beae
be42 3e9f 3e2e bf1a bdea 3e2a be82 bef6
bee8 bdd4 3edf bdfd 3e30 3dc8 bdde bf1c
be0b be5e be97 bee1 be9a 3df1 bc90 bf4f
be58 be2c 3e51 be70 be82 beec be41 bd38
bf69 bf01 be88 bea0 bcc6 befa 3e5b bee5
be2d befc 3d70 bddd bf07 bf03 bea6 bed9
bd8b be4a 3dbc be97 be9a be96 3e34 bda8
ba88 bef8 bc81 bde6 3d74 bd54 bef8 bc60
3e0f be43 bdd8 3e89 bf30 3e82 becf 3f0f
be46 bd82 bf24 3ed8 bf41 3e40 3d56 3db4
bee4 3ec5 3ec0 befa 3dc0 3e1d bf15 bec6
3f27 bede be9c beb3 be74 bf37 be9e bf12
becc bd20 bef2 bf17 be5f bf06 bda5 3cde
3e8a bea6 be7d be13 be0e bf4b be52 be5a
3e40 be0a bf17 bf32 3ece bf2a bf06 be63
bed9 bc2c bf17 bf3c bf0a 3d92 3c30 beff
be9c bed4 3d28 3cc8 be04 be54 3e86 bee4
3ede 3e8c bf30 3bd0 be9a 3e60 be52 3ea6
beb7 be52 bdfa 3e2a be15 be9e 3da8 3efc
3dcc bead be60 be70 bf5f be5a bedd 3d10
3bc0 bef6 3e66 bf0f 3d10 3f0a 3d94 3d74
be6e 3e5e bdbb 3e02 be87 bdf4 bde2 bd30
bf48 3eda bf29 bf55 3e5a bd6c bdf0 beb1
bf06 bf45 3e4e bedc 3efc bdf1 beb9 bee9
bc34 3eac bef0 be92 3cf4 be49 3ebe be8a
3e21 bf1f bf11 3d90 bf35 3e85 be85 bf41
bda2 bf02 bdb9 3e56 3eda bcde bea7 bf0a
be96 bee4 beb7 3e72 3e8d bf48 3e24 3e9b
bebd 3d2a bf24 3e85 bf20 3d24 bec6 3e27
3cc8 3e4b 3bc0 bece 3b00 bf01 be70 3e20
be32 becc bef0 be78 beca bea6 bddc be98
bf0a 3e98 bf0d beab bf3a bf5b 3e5a bf09
be30 3dac 3e66 beda be24 be4c 3e0a 3b8a
beb4 beb0 bea0 beea 3de2 be80 be08 bec0
bea3 3e44 bf35 bedb bee6 beb4 bec9 bf08
bea8 3e14 3e20 3dc4 bea2 beb3 3dcc 3bf0
3d14 bec0 be08 bd82 bce8 be09 beec 3e52
be8e be0e 3e84 3c28 3e9f be9c beba 3ebf
3dce beba bea8 bcc0 bde4 bf03 bce0 3d6d
be8d bddb 3e94 bd54 bebe bf4c bcf0 bf06
3e9b bea0 3dfc 3ed2 be84 be23 bd44 3e53
3ea9 bf0c 3e5b be99 be78 3f03 be5e bd90
bd3d bed2 bdf5 3dca bf06 be9d bea7 be58
bd24 bdb0 be3e 3d12 bea3 3eca befc be1e
be8f be29 be8a 3e42 be86 bcbc be16 be19
bf69 bef7 3d28 bef0 bd63 bdf0 be36 bed8
bf1e 3e7a be12 bf21 be1f 3ea5 bead 3e70
bf75 3f25 be96 bebd be2e 3e20 bd92 bcd0
beab 3e36 be1c bf31 be84 be1a bf18 bf55
3cd6 be33 be0c bc56 bf3a be39 bea2 3e82
bd79 bf4e bebb bf1c 3daa bec0 bee3 bf1a
3eb6 be1f 3ed0 be4d 3e0d 3dce bf02 be9d
bd2a be01 beb9 bef8 3dc8 bdc1 3c88 bdc4
3d8c bed1 bebb be23 3e55 bede bd63 be60
be3e be97 bd40 bea2 be47 bea3 bc28 bbd0
bf26 beae bf92 bf2f 3ed9 bf00 3d47 befb
be96 bf1e 3e7b be9f 3e9a bef1 bdbd bdf3
befa be86 bf0b befa beb4 3d96 be06 bea6
bedb 3e65 bebf bee8 be6a 3c18 bf60 be74
be7a bede be07 bea2 bd68 3e3a bed7 bf02
bf2f be9e bf0d be06 bee2 be5c beaa bd78
bf82 3e0a be16 be5f be94 beec bf48 beac
3d40 3e9c be03 3cb8 bef1 be25 3d86 bd18
3e74 3e11 3e14 3e06 bdb8 bd18 bdc8 be0a
3c80 3eb9 3e82 be34 3dcb 3e8e be9d bf02
becd be26 3e9b be48 ba80 3dca be46 bf1a
be38 be86 beaa bef8 be12 bc70 3e30 bef8
be52 be57 bcf8 be83 bef6 be74 bd1c bdb4
bf67 bea2 beba bef6 be20 bf0d bbc0 3cc0
bd1c bee8 bdd2 be01 be64 beae bf00 bf19
3b60 bdc6 3eab be9b bef8 bcec 3e34 bd80
be22 bea8 3d89 3e4c 3a00 be08 be99 3e32
3da2 bda7 be97 3ece bf12 3e10 bf01 3efa
3d13 3c10 bf3f 3f0b bef0 bb80 bda7 3dde
bead 3e2a 3eaf bea0 3c40 3e8f bf32 bf32
3f0e bf26 be78 be32 becd bf58 be72 be92
bedc 3ea2 bee6 bef2 beaa bf83 3daa be60
3eca bf17 be9c bdc6 bc98 bf55 bd18 be06
3e58 be04 bf1e bf29 3e9d bee2 bec6 bebe
be54 be65 bece bf44 bee4 3e91 3dd6 bf08
be61 beb0 3e32 3e81 be28 bec7 3ea6 be98
3f22 3e8d bf46 3e32 be95 3e85 bd0e 3d1e
be98 be96 beb8 3d80 be24 bd65 be3a 3f04
bd2c bee4 3d97 bec5 bf2b bd96 be90 bd78
be20 bef4 3e63 bf1f bd14 3ee7 3ec2 3e2c
be3e 3e76 bda8 bea4 bdd0 be37 3c08 3e2e
bf5f 3f1c bf0c bf1a bc00 be1f bdaa beac
bf1b bf5e 3e92 bee8 3ec0 3df2 becd be13
bd1a 3d68 beda bf20 3cd0 be4a 3ea4 be81
3e9e bf38 bed4 bc80 bf35 3ed7 be1e bef2
bda6 bed3 bd50 3e68 3e06 be44 beca bf18
bece be8e bf06 3e12 3eb4 bf0f 3e16 3ec6
bec3 bd95 bf18 3e60 bf2c bcd0 bf1a 3dc9
3d10 3dff bd40 be45 be58 bed7 be00 3d90
3e06 3d04 bf11 bf25 beb5 bd00 3db9 bea6
bebb 3e88 bf09 bf0e bf65 bf1e bd06 bf18
bec2 3ec9 be14 bedd 0000 be8b 3e20 3e44
be94 be96 beb2 bf12 3e71 bec4 bc34 bf36
beba 3ead befb bf11 be76 bec6 beb1 be52
bf1e 3e88 3eb2 3dfc bf62 bdde 3e18 bd10
3cb0 be31 be00 3e7a 3d98 bdc0 bedf 3dd0
be26 3cb0 be1d beb4 3e8f bec4 befb 3f2e
bd99 bf49 bed4 be58 3e66 bf07 3dda 3e32
be12 be50 3e30 bcc8 bf30 bf3d bead bedf
3ecc bea3 3e3e 3ea7 bee2 3e08 bd94 bdf9
3ecb bf22 3ec0 bea0 be13 3eb9 bebc 3d82
3e28 beb6 be7b 3ead bf25 bf15 3d1e be54
bdf6 be13 bdcc bc00 beea 3e47 bf01 be55
bee1 be53 be84 3f00 bf1c bdeb be0d bcc0
bf33 be2d beaa beec bc50 bd74 beaa be81
bf37 3df0 bd98 beb8 3d88 3e2e bf07 3e84
bf6e 3eec be90 beb9 bea9 3e3d bdeb 3c20
be98 3e4e be76 bf42 bf0d be2c bf75 bf50
3db4 beb5 3d78 3e03 bf33 bdb1 bdf8 3e8b
bda5 bf81 be3e bf19 3dc1 bed0 bf00 bf0f
3e8f bce0 3dec be57 3c94 3cc0 bf14 be40
bd10 bd3e bed5 bf0f 3e2a bea9 bc60 be06
3e93 bf1b beec be56 3d60 be6e bdd4 bed0
beba bda4 bde4 be30 be96 beb2 bd99 bdc4
beda bdf0 bfc6 bf13 3d48 bec1 be0a be90
bdd4 beff 3f17 be80 3e89 be8c bd20 bd2e
bf03 be2f be9b bf1b be72 3e5e be38 bea5
bf4a 3e4a bee6 be98 beb7 3d70 bf4d be2e
bec3 be7c be83 bed2 be42 3dae be86 bf0f
bedc bdc9 bf61 bdfe bf24 be91 be7a be01
bf6e 3d18 bde0 bec2 bf0c bf02 bf62 bea8
bda3 3ec5 be14 3da2 bf05 be84 3e0a 3e26
3ea0 3e76 bdd0 3d96 be15 be3f be66 be89
bce0 3f06 3eab be67 3d2c 3ea0 be60 bef0
bf01 bea3 3e89 bdd8 3c10 3d78 be3d bee2
be22 beba bee7 bed6 bdf8 bdee 3e16 be6a
be75 be57 bda2 be67 bf10 be6f bca0 be08
bf62 bebc bec6 bed2 be56 bf54 3dc8 be0e
3dd4 beec be14 bdda be87 bf08 bf15 bf16
3c50 bded 3edd beb8 bebe bd92 3df8 bdca
be21 bd8f 3d34 3d20 3e46 be39 bed9 3d8a
bdaa 3d5c be42 3e3a bf3c 3e38 beef 3f02
3d72 3cc0 bf24 3ed2 bebe 3d80 bdf6 3e03
bec0 3e22 3eb7 becb bd48 3ed8 bf48 bf37
3f3c bf26 bd70 be04 bf02 bf52 bdc0 be86
bede 3ec2 bf07 bf1d be9a bf2c 3ccc be5a
3e94 bf0b be92 bdeb 3d16 bf2a be2c be23
3efc be32 bf46 bf26 3e52 beaf bf1c becd
be4b be9f bf0e bf45 be7a 3ecf 3d78 bf08
bec0 beb4 3e80 3e96 be0f beae 3ed4 be8a
3f00 3e10 bf28 3eb7 be36 3e64 bc30 3da4
bdce beb2 bf16 3e7a bec2 3dfe bdc2 3f12
3d1c bea5 be54 bedc bf42 3be0 bec5 3e47
bd70 bee2 3e26 bf1e bda4 3efe 3f05 3e1b
bcae 3e32 be88 be47 bd16 bea9 3dfe bd88
bf48 3f26 bf2e bf16 be57 be97 bd6c be4a
bebc bf82 3eca bef6 3ee2 3d3d be96 beaa
3d5d 3df7 bf10 bf0c be2f be62 3eb2 be23
3ec7 bf5f bee2 be04 bf20 3f1a 3d6e bef3
bdda bf09 3d92 3e69 3d60 be38 bed0 bee8
beb6 bea0 bf12 3ddc 3e44 bf0f 3e16 3f13
bf1f bdc1 bf1c 3dca bf36 be68 bf4d 3d0b
be01 3e2a bdbc becd bdc4 bef9 bdf2 3bc0
3d08 bba0 bef0 bf06 bea9 3e0a 3e19 bea8
be95 3eba bf28 be72 bf46 bf22 bd42 bede
bf28 3ee0 3e08 bee9 3e06 bec5 3d20 3e38
be9a be87 be7c bf14 3e8a bed1 be58 bf46
bed6 3e92 bebc bf15 be86 be3d bef3 3a40
bf0a 3ec6 3ece 3e49 bf40 bd4c 3e72 bdd6
3e08 be68 3dc3 3e78 3cc8 bcf0 bed8 3e14
be3a 3a80 bd26 beac 3ead be95 bef0 3f2f
be1e bf43 bece be58 3dce bf24 bdaa bc98
bd26 be50 3d24 be12 bf45 bf34 beb8 befd
3ee4 be9b 3e28 3e95 becf 3e57 be10 bdb8
3eab bf02 3eaa bee0 bdd2 3ec0 be99 3e29
3e2c bed3 bec3 3e3a bf1c bedf 3d14 be28
bdeb be86 be2a bd7c bea8 3e5a beee be9e
bef8 be46 be7c 3ebc bf2b bea4 bdc4 be63
bf32 be05 be90 bf0c bd28 be39 be30 be7b
bf2f 3e2d bdea bf67 bd97 3de6 beb6 3ec8
bf4e 3ea4 bdb0 bf36 bea6 bc98 be00 bda8
be10 3eda be47 bf29 bed6 bdac bf89 bf4d
bd74 becc 3e64 bd8b bf3a 3d88 be97 3df4
3ab8 bf86 bea6 bf23 ba9c becf bef6 befd
3e8e bd1c 3e36 bdec be0d bdd2 bf06 be53
be96 bdb6 bec1 bed0 bcdc be57 be46 be84
3e03 bf4d bf02 be11 3c50 beb7 bda2 bee4
bf18 3cd0 bd54 bebc bed0 be75 be24 be4c
bea4 be26 bfb0 beff 3e8a bec3 be42 bec2
bec6 bedd 3e96 bea8 3dc7 be9e bc80 bce8
bee0 bd7c be89 bf14 bebc 3cd3 bd9c beb5
bf3f 3e0c bebe be86 bed0 3d40 bf73 be81
be21 be8b bea6 bf10 be4f 3e09 be8a bf0a
bece bdc4 bf5b be4a bf26 beba bea9 bde4
bf62 3cf0 be6d becd bf01 bed6 bee9 be8c
bd2e 3e6e bd78 3e1a bf0f be9c 3ddc 3da0
3e8e 3e6b beb8 bdbe be52 bd95 be71 be82
be00 3f02 3e91 bea7 3cc3 3e8d bea0 bf06
bed7 be85 3e96 be50 3d82 bc9c bdcd bef7
bda0 bebe beba befd be8a bdc8 3e84 be60
be64 be94 bd88 be36 bf0c be92 bc8c bdce
bf57 be9a bed7 befc bebc bf1f 3cb0 be9a
3eb9 bee3 be27 bdd7 bed6 bef8 bf05 bee7
3cae be84 3e18 be45 bf0b be51 3e1d 3a00
bddc bd60 bd43 3db2 bc00 bdd0 beea 3d8a
bd4e 3d74 be84 3cb8 bf34 3e4e beb0 3ebb
bcda bda2 bf1f 3f03 beef bd70 bddb 3e50
be93 3db2 3e4e beca bdba 3eda bf14 bf1d
3eff bf27 3d50 be08 bf07 bf2e bdd3 be92
beab 3e10 beb4 bef6 bea0 bf30 bca8 be82
3e8c bee2 be8c be1a 3e66 bee0 bdb8 be60
3ec6 be54 bf29 bf4f 3e1e beea bf2f bec8
bdde be04 befd bf18 be7e 3e46 bd3e bf04
be85 be8a bcd8 3e81 bd8a be4a 3ec2 bde5
3eac 3dc0 bee0 3eb1 bea6 3e71 3d56 3da1
bd74 bead bef8 3e28 bef9 3df3 3e08 3eca
bd96 bec3 be3e bedc bf3c 3d64 bea7 3e62
3dc7 bf00 3e55 bf08 3cb8 3e85 3ebd 3da2
bd22 3ea2 bdb4 bdf2 be4e 3c88 bca6 be64
bf26 3f36 bf16 bf23 3b00 be28 bde6 be5b
3dac bf84 3ecb bf0b 3ed2 3da2 be48 be90
3d36 3e4d bece beef be06 be89 3edb bd94
3eb0 bf1e bed7 bde6 bf3f 3ee5 3d42 befc
bde6 bf10 3e28 3d87 3e85 be06 be71 beb3
bea2 beab beab 3dd8 bc1a bf18 3e21 3f05
befa 3d92 bf1b bd0c bf12 bd28 bf1e bdaa
bdda 3da2 bd98 beec be80 bedf bec4 3d8e
3da6 be3a bf0f befc be90 3dda 3e47 be9c
bf04 3e8a bf10 be52 bf3f bf35 bd96 bf00
bee8 3eae 3e1b bee0 3e66 be98 3dfd 3e1c
be87 be8a be9e bec0 3e22 be98 be2f bf11
bea0 3e1c bec5 bee4 be8c be22 bf00 be6c
bf00 3e5c 3e9f 3e14 bf20 be82 3df0 bd92
3e00 be29 3d56 3e10 3bd0 be1e becc 3eac
bdfc bd42 3da6 be11 3ebe be40 bea8 3ef3
3da4 bf14 beb5 be92 3d64 bf30 bdd0 3b30
be03 be8c 3dd9 be5d bf4e bf36 be8b beea
3ec9 bebb 3e15 3ea3 beba bc48 3dbe 3cbc
3e87 bf19 3e4d bebe 3cf4 3ec6 be94 3e63
3dfe bf0a be92 3df2 bf3b beb5 bd9b bec9
bdac be34 bdf3 be02 beb9 3e6e beb8 beb8
be8e be3d be26 3e40 bf05 be9f be37 be0c
bf1c be20 bea9 be94 3d04 bdbb bde4 bebe
bf08 3e3c bbe0 bf4b bd86 3e1a be88 3e9e
bf14 3eda be86 bf00 be3f bd1b bdf6 3b40
bec5 3f01 bdde bf20 be8d be02 bf70 bf42
bcc8 bedb 3db6 bc40 bf24 3dcd be8f 3d9a
3d1f bf6f beb6 bf26 bdd6 be90 bed1 bf0b
3ea0 be08 3eae be18 be26 bd83 bece be36
beb8 be01 be9d be58 3d6e be3d be9f be47
bd6e bf25 bf04 3dd0 bd8f bed6 3d9d bf00
be8c bba0 be2d bf01 bec8 be88 bbf0 be3c
bed4 bd9b bf85 bef1 3ec7 be97 bde8 beae
be98 bf15 3ec2 be9a 3dc1 bee8 be36 bd10
be8f bdb7 bed6 bf0d bee9 bcce be38 bf0f
bf15 3ea7 bf04 bed5 be87 3dfb bf5e be6a
bda0 bd6c bee8 bedc bdc1 3db9 bee4 bf0d
bf07 be66 bf31 be69 beea beb2 bead bd78
bf3e 3dd0 be3d bea2 bedf be86 bf07 be25
3e8a bdca beb3 3e46 bf12 be5c 3e20 3dc7
3e18 bdc4 bec6 be2f 3d7c be80 be6c be23
3d20 3f0c 3ea3 bf12 bcb8 3e7c be7f beb3
bf25 bf3e 3f0b bd8b 3da2 3e3a bda1 bee9
3da5 be90 bec3 becd beaa 3df3 3dd2 bed1
be11 bebc 3ca8 be5f beda be8f be20 bdcc
bf82 bea2 bec1 beb2 be14 bf20 3da0 beca
bd82 bee4 be2d be77 beac bf14 bf28 bed0
be7b be07 be18 bc68 becb bece 3e59 bda2
bd86 be9b 3df3 3d62 bcd2 3d6c bf06 be44
be06 be9e 3d66 3d26 bf56 3e8b be88 3ecc
be62 be20 bf53 3f05 bf3f bca0 be02 3e9d
be71 3e2e 3da3 bed2 bc40 3f01 bef8 bef0
3f32 bf60 bd90 bd58 beae bf1b be7c be57
be12 3c60 bf02 bedc bec4 bf30 3d9c bcdd
3e4a bf17 beb5 bed2 3e72 beda be21 3bb8
3ebc be80 bf13 bf69 3ebc bf29 beb4 beb4
be27 3d16 bf10 bf18 bec3 3eb0 3c98 bebb
be0f bdba bd04 3e9a 3c69 bc10 3e16 be7e
3e10 3e28 befd 3e61 bec2 3ec8 3dfe 3e35
be50 be8a bf0b 3d3e be68 bc18 bd20 3ec6
bd58 bf25 bda3 be9a becc bd44 bea7 3e3a
3e1a be85 3e06 be90 3e2f 3e99 3ea0 39e0
bdf4 3e96 bde7 bca4 bf20 bd94 bdec bd30
bf1f 3f22 bf21 bf1e 3e20 be22 be8d be58
bda4 bf94 3ebe beec 3eef bdb6 be2e be8e
bb10 3ed8 bee9 bee2 3dab be81 3eff 3db0
3e50 bf08 bf03 bd28 bf02 3eca be6c bf5c
bd06 bed4 3dee 3e2e 3ea2 bdfc be83 bebd
bed4 bec3 be5a 3e98 3e69 bf0f 3cb0 3e76
be69 bb48 bf56 bc20 bed7 3cd0 bee0 3e8a
be18 3e26 bde0 bea4 be8a be88 bf0b 3dd6
be22 bdc2 bf0d be64 beb5 3e04 bd49 be2f
bf18 3e15 bea5 be3b bf6d bf5e bda8 bef2
bec4 3e2a 3e9e be8c 3c70 beab 3e03 3ea7
becc be8c bdb3 bec2 3dd7 be9c be8c bf0d
bed4 3db6 bf1d bf16 be7e bdb0 bf0e be0a
bf1e 3e22 3e7d 3df3 bf28 be65 bce2 beb0
3e69 be0c 3d19 3b70 3e32 bde9 bf02 3e73
becc bdca 3e29 bb20 3e98 bb80 beaa 3f09
3e28 beef bee2 be80 3e79 bf29 be7e be9f
be13 be7d 3e43 bd1c bf5f bef1 be82 bedf
3ed4 be4d 3d97 3e66 be97 be92 3e54 bd10
3e0e bf4e 3e23 be41 3ce4 3e17 be77 bce0
3d86 bf1d bb80 3e9f bf2e becf be8e bea2
3cde be98 bd6d be1b beea 3e06 bf00 be52
be0d bdda be2e 3e8f bec6 bea7 beb8 beb0
bf1c be3a be8f beb9 bd18 bdfd be42 bec1
bed7 3e0c 3d2c bf12 be1e 3d54 bea4 3ea0
bf20 3f01 be26 bf27 bd20 bdc3 bd1e bd60
beeb 3e77 be81 beef bea0 be92 bf33 bf2d
3c7c bdf0 3e53 bd2e bf31 bd41 bee7 3e6e
bdf4 bf70 be9e bf03 3d9a be60 bec9 bf30
3eb0 bdce 3dba be88 be96 3e2b bf1d bec0
3cd8 bddb bf04 befe bddd bea9 be9a be99
bee8 bee0 bf06 bd80 3c60 bf2b bcc4 bf06
bf08 be05 be2c bea6 bebc be1b bcc6 beb0
bf2a bdba bf84 bf0c 3ed6 befd be2c bea0
be91 bf31 3ec5 beb4 3eb7 beee be7b bd1e
be8b bdb3 be86 bf18 be9c 3dc0 bc48 bf65
bf2c 3e6a becb bedd be4f bc96 bf52 bd13
be39 be12 bebb bee9 3e19 3e05 bf04 bed2
be94 be24 bf32 be8a bec4 bed2 bedf 3c00
bee2 3dcc be59 be85 be8e beb8 bf0c 3e5d
3e10 3b80 be70 3ea4 bf00 be3b 3e74 3e81
3d7c 3d1c bce8 be02 bd48 3dbe bd50 3ca4
3e99 3ea1 3f00 be22 3e92 bdb4 be33 be38
bf09 bf0a 3ea8 3d83 bd90 3eda 3e29 bf56
3e06 bebe be22 bec2 bdc6 bdb9 3e1a bee8
bf15 bef1 3e08 3d74 bec3 be19 bd8e 3e59
bf5a be68 bea6 bf4b bf0e bf4a 3eae be68
3ee0 be84 bdd8 bd6d bf1c bf0f bedc be1b
3e48 3cd4 3db3 be34 bee0 3d16 3cf0 3dc0
3dc0 3db0 3ed8 bc98 3dda be70 be8a bda2
3e92 3eac beac 3ee4 bf04 3eea be1a 3f70
bd48 bd80 bebc 3e22 bf30 3e8e 3e74 3eda
beab 3ea3 3ef9 befa be30 3f1d bf29 bf03
3f6b bf1d 3f0a 3d98 bec8 bf6a beaf be94
be94 be00 bf44 beec be28 be68 bc9c 3d08
3ea8 bdfb bc36 bd9e bc20 bf15 bee8 bebc
3e8e be0a bf10 bf56 3e8e bed9 bf07 bee6
3daf 3d96 bee6 bf44 be9b 3e90 3eaa bea0
beb9 beb4 3ec8 3eae be90 be7d 3e96 3e81
3f02 bdac be50 3e39 be52 3e70 be32 3e96
3d90 be84 bed5 3f10 bf6c 3ed7 3e39 3f26
3e3d bea4 beea 3e1d bee4 3ea6 bef1 3eb8
bd6e 3ccd 3e5a beb6 3d18 3f4a 3eec bc6f
bc80 3e5c be9a 3cbc 3e9b be18 bdb1 3e7c
bf1e 3f83 bf10 bf41 3cb0 bef0 bd40 be2a
3f08 bf7f 3f5e beca 3eed 3ec4 be89 bc90
3ec6 3eb7 be68 be43 3d10 be94 3ee1 be6c
3edd bf12 bec2 bd94 bf4c 3ebb 3e87 bf29
bd7a beee 3df1 3ebb 3ee7 3e42 bea6 bed6
bdf6 beb4 bea9 3e1e 3d1a bf40 3e7b 3f4c
be9b 3f03 bf3e 3e70 beff 3e3e bf22 bdf3
be56 3e50 3dfc bec4 3d4c bdf4 be5e 3ec0
be23 be2d bf09 bf0b be08 3ea8 3e91 bed2
bea5 3e2a bf1c be15 bf35 bf26 bda6 becc
bf38 3ef2 be0c bee6 3e9a bee2 3e9c 3ef8
be62 be9e be65 bf00 3bb8 be83 3cb0 bf55
be50 bdcb bf12 bede be3b be70 bedb bec8
bf02 3f03 3ed5 3ea4 be08 bc80 3bc0 bf05
3e50 bda2 3e06 bcb7 bc98 3e24 be54 3e72
bef6 3e4c 3e80 bd5c 3eee bef0 3db2 3f08
3e3f bedb bf0b be18 3e36 bee1 3dcd bebd
be9c bd13 3e02 be20 bf57 bf3e bebe beec
3f22 be8e 3e36 3f08 be79 3d04 bd28 3edc
3e45 bf23 3ea9 bed2 bb40 3ea8 be6c 3e14
3efc bede beaf 3f32 bf06 bdc6 3dae 3ea7
be84 beed 3d94 bea2 bd28 3f3b bed8 be4c
beb2 3da7 3d18 3e92 3a80 bedc be0e bf01
bf24 bea0 3ca0 bed0 3d3c be19 bd40 bf30
bf28 3e72 bd8a bf5c 3cec 3e70 be1a 3efb
bf72 3ef9 be9b bf1c beb4 3dc4 be89 bd84
be28 3f01 bd87 bf12 bdd4 be7d bf76 bee2
bd91 be57 3d20 3d86 bf2e 3e5a beac 3c9c
3ead bf43 bf08 bf40 3dd6 bdae be47 be28
3f3d be96 3f20 3d2e beb1 3d98 bec4 3c50
3c40 bedc 3e0c 3dea 3c10 becf be52 bf12
bd08 bf55 bee1 3bc0 3c90 be36 3e7c bed0
bef7 3e12 be2d be57 be4e bed9 3d3a bc84
bea6 3da0 bf9a bf2c 3f05 beb8 be22 be9e
3cf8 befc be95 beca 3ed7 bf11 bee1 bcd0
be0b beb0 be76 bf6b bea8 bcd0 be82 bf08
bee0 3ddc bea0 becb 3e44 3e2b bf94 be52
be8a bbc0 bf1e bef8 3d78 3b80 bead bf46
bebc be98 bf4b bf12 bf04 bd9e bd88 be42
bf49 3d08 be52 beec be36 bf02 bf40 3d0a
bdbe be20 be22 3e9a bf3b be4f bd6e 3da6
bd8a 3cc8 bd84 3e96 bee5 3ee7 3d5f 3e56
3e3c bda4 bd40 bf1b be7c 3dba 3b20 bef3
bddb be8a 3ee9 bbf0 3e00 bdd2 3e15 bf01
bdaf bc98 bc30 beca be5f bd68 3e1f bf1d
be58 bdc0 bdde 3d18 bd8a 3e21 3e75 3e30
bf03 bf1a be8e bf19 3e11 bf0e 3e96 bf0f
bde8 bed0 3d58 3ec2 bf24 bf1f be9c 3cfc
3e49 bedf 3e42 3c28 bf02 bdef be82 3d1d
bccc be41 3c34 3e95 3f16 bee5 be9a bdfa
be04 bea1 3d16 be56 beaa 3dd4 be42 3ece
be81 bec9 bdc9 3dc4 bf53 3eb3 3e0d 3e93
bec8 3e7b 3c10 beb2 be83 bd9e 3d93 be80
3f0b bea8 be2d bebf bcdc bf03 bed6 be94
bf07 be65 be96 bf06 be26 be2c bef9 bd0a
3e85 3d76 bd0e bdd4 bbf4 bebb be11 be04
3e04 bf14 be96 bf20 3ec0 bef8 beae bdc6
3d1f 3e1e beab bf18 bea4 be90 3e18 bebe
bece bec6 bf22 3d74 be0c 3dc1 3e5c bf02
bddc bef2 bebc be36 befc be39 bdd4 bd7a
be90 bebd bf00 3e9d be3e be45 3d7c 3e5d
3dba be50 be75 3e7d bede be80 be13 3ee5
bdd1 bead be31 bec6 bda8 3e71 3e1e bd9a
be0c 3d38 be11 be2a be88 bd2c bd06 3e76
bedb 3f46 be4c be86 3e1b 3c20 beb6 be60
be56 bf26 bddd bed7 3e1a bd91 bdad bf13
3edf 3d8a bee0 bdb5 be10 be50 3e7a bdf4
3e26 bf26 beea bedd bf0b 3da0 be87 bf0a
3d21 bedf bc68 3e9d 3ef1 be54 bf32 beb7
be08 bede bd8a 3e54 3c45 bf86 3e06 3e36
be26 3ec4 bf0d be5e bf00 be1c beab 3d8c
3c96 3e50 bf32 be71 bd04 beca bc88 bc30
bd8a bee0 bea7 bee6 bed9 bea8 3b90 beec
bf62 3e9e bede 3e30 beb6 bf47 bd2a bca0
be8f 3e87 be98 3d88 3d81 bebe 3d46 bdde
bed0 be67 befa be9d bd0e beca bd2b be82
bde4 be75 be82 be67 bf14 be86 be1b bf2b
bdc9 bd98 bd06 3cec 3ea5 bec4 bd68 bec6
be4d bc88 3ee8 be82 bea6 bec1 be52 be7a
bef7 3dd8 3e2e beae 3e49 be94 be9a be87
3e3c 3dd5 bee6 be1f 3cc8 be8a bf11 3b80
bebd 3dc6 3de3 bcd8 beac bf0a be90 be5a
3ea6 beb7 3d86 3e0f bd4e 3ec0 3d00 3f2f
3e72 bf09 be1c be1f 3e36 3ed4 be2e 3dd8
be96 be72 be51 3e61 bf22 be70 be1e be82
bc48 bec8 3e54 3df2 bdd8 3f0f bf0d 3d58
be92 be1a bedc 3cc8 bd40 bee4 bf13 bdb2
bf17 bea8 3e15 bebd bd70 3e4b 3a80 be9f
be71 be06 be88 beb1 be85 ba80 be92 3d60
bf17 3eb4 be64 bee5 3f0c 3d88 bdce bcb0
bba0 3eb8 bcb0 bee0 bd65 be86 bf2e bf0e
bd39 be3b be8c be56 bf07 bdd8 bd90 be6d
bd72 bf65 bf12 be67 3e30 be93 beeb 3d8e
bd8a be8c 3ecf bd67 3e81 bde8 bdbe bcbb
be93 becf 3e52 bd86 3e25 beaa bea8 be48
3e56 bf09 be31 3dcc be15 bf22 3d96 bdb0
3e6c bcba be98 bebe be54 be99 3d9e bd87
bf0b be49 bf7e bf34 3e8a be92 be4e bcd0
bd54 beed 3e79 bec4 3dc1 be6b bee2 bea0
beb6 be34 bbaa be95 3d2c bd5e be8b bea2
3d95 be11 bec2 be6e bc88 bd86 bf4b beaf
3cc0 3e22 bdb7 bdd2 3d77 beda be83 bed4
bf0f bf08 be00 be2b bea8 3d36 3c89 be95
bfa0 be51 3d9a be8a 3da0 be07 bf42 3da6
be5f beb8 be5b bd8a bf11 be95 be60 bd6b
bbb0 bc00 bd7e 3e45 bec0 3e4a bd62 be82
3db4 be25 bcf0 bf02 be85 bdb2 bdc8 becb
be33 bebb 3eae bdd4 3dc8 bdc6 be39 be9d
bc5c befa be42 bec9 bda3 bd49 3c60 bf11
bd94 3cc4 bee8 bd90 3e56 be87 3d9e bd23
bf02 bf04 bec8 bf02 bdcc bdc0 3e06 beb1
3ca8 be74 be5a 3b44 bec6 bee8 bee7 beb7
be01 bee4 3e15 3dae be73 be44 3daf be96
bdc0 bf48 bcfe 3e68 3e67 be85 becc be94
3d6c be98 be22 bf03 bf24 3c90 bd1f 3e01
befe bf13 bee4 3e4b bf22 3eab be20 bc9f
bee0 3e65 bc78 bf2a 3d4e 3bb0 be0e bed6
3e82 bf22 bf51 bf32 bed0 bf07 be82 bef3
bf20 bde0 be60 beeb beb4 bc80 bd18 be3e
bda1 be9d bd91 bded be5a bf3c bdee bdc2
3d9c befa bf09 bf3d 3dfe bf09 be9f 3e03
be89 bdf1 bea0 bf04 beb6 be22 bde2 bef2
be9d be6d bf00 be04 3dd2 bdd1 b980 be4e
bdc0 be12 beee befe bec2 be96 bea0 3d82
bf72 be80 bf28 3e48 3e87 be7b 3c18 3d90
bd86 be48 becc be55 bf00 bec6 3c9a 3d64
bd65 bea0 bce0 bf2e bc0c 3e35 3cad be07
beac 3dfc be46 beca bebd be39 3e92 3d90
bef9 3ee1 bef4 bf1b 3b60 bd84 bf0c becc
bf40 bed9 bf12 bf31 3d7c be53 be5d bf15
3d91 3e80 bf0b bea5 be19 be6f bd00 be8a
bcfd bee8 be63 be92 be66 3c70 bea2 bef9
3bf0 bf06 3ce8 3e9a 3c10 be64 bf21 bef0
be82 bf44 be14 3eca bdb5 bf96 bd00 3e10
be4f be0a bf40 3d24 bf3b be74 be96 3dec
be9c 3e71 bf08 be7c be0b bf29 bdf2 bcfc
bd92 bf1d bf0a bc08 bea4 bf19 be96 be8f
bf27 3e14 bea0 be9c becc bf82 ba20 be1c
beaa be2b bd8e bed4 be8c be76 bd52 bd09
bf09 bee9 bf16 bc38 bb78 bef6 bdb9 bd9e
be6d bede bea7 bee7 beee bed5 becc bf37
be19 bd55 bdf9 bc1c 3e2a befe be09 be54
be58 bdbc bea6 3b40 be9a be85 be8a be80
be9a bdd8 3ec0 beff bdf6 be62 bed1 bd26
be52 be37 bf24 bef3 3e31 be91 beba bec3
bee4 3cf5 3e8c 3e16 be98 be6e bf26 beb6
bd94 bede 3c28 be11 3e32 3d4d 3df6 3ec1
3e7c bf3f 3dd7 be88 be2a 3db3 be16 bcc4
be99 bedc be87 bdc6 bf2a be56 be1e bed6
3d5d bd89 be3a 3d18 bee2 3d44 bea4 3a80
be9d be84 bed4 be9e bf78 bf14 bf14 bef2
bef1 bebf bf0c be68 beba be05 be96 bdc7
be4e becb bed8 bd7e be8e be44 bef0 3e54
bf60 3e8f be5a bf12 3d86 bcce bebd bb40
bdb3 be8e be44 bddf bdff be94 bf0d bf25
be0e be55 be96 be00 bef2 bea6 bea5 be8d
be48 bf81 be8e beb1 3e5e be90 bf0d be1e
be94 3bb0 3deb be06 3e97 3ec6 beaf be58
bec6 bd08 be1d bea8 be3b bea3 be43 bee0
be1d bf1a bf05 bea7 3e09 bf69 be4d be25
be5d bdae be30 bec4 bea6 be95 bea3 3ce4
bee5 bec9 bf60 bec1 bd50 bee8 be2d be98
bd63 bef6 3e26 bea1 bd7e be8a be78 bead
bdbe be45 bce2 bea7 be51 bda6 be4a bee4
be70 bece bdf6 bebd bd3a be5b beea beb0
bd40 be85 3c18 bdd4 be66 be86 bea4 bf0c
bf3a bf46 beca beb8 bf08 bc81 bde6 be16
bf4b be7a 3e35 bed2 bea1 be2a bf32 be80
be97 be7c be7c bd24 bed6 bed6 bd21 3d8c
3e81 3b88 bd35 3a80 be68 3e51 bd1c bcb8
3cd8 be8c 3cd0 bee7 be5e bd22 bd08 bef2
be57 be89 3e90 be0d 3ddc bce0 beb9 beb5
be2c bed2 beac bf25 bd3c 3dbc 3df9 be9a
be62 bdde bf08 be30 be03 bec4 3d9a bd1a
bef0 bee8 beda bee8 beb3 bcc0 3e11 bdda
3d28 be8c bec6 3d81 becc bee8 bf12 be98
3e2f beb6 3e41 bd66 beb7 bd98 bcb4 be40
be04 bf20 bd55 3e44 3e01 be0f beb6 be64
bd6d be9e bec2 bed9 bef5 bd0e be9b 3ede
bea8 bee6 bef3 3ea6 beeb 3d8e bdc6 3c30
be48 3dd4 3d83 bef2 bd24 3d9c bedf bf03
3ec0 bf18 bf48 bf10 bea6 bf16 be81 be7c
bf27 3dd8 beb0 bed0 bea8 be30 bd04 be79
3d93 bedb be21 bd30 bcb4 bf0d be9e be09
3e5b bebf bf16 bf37 3d78 bef4 bed2 bdba
bbd8 be6d be54 bf0a bebe 3e67 be4c bec5
bec6 be39 bee2 3c28 be00 bcf8 3e5c be96
3d85 bdec bee2 bebd bee4 3c60 bc8a bd6a
bf76 be08 bf51 3e1d bdc3 be24 3daf 3e13
be21 be3e bed7 bd5b becf bed5 3c88 3e4a
3e0f bead be2a bf41 bde2 3e76 3e42 bd98
be9c 3dd2 be42 bef7 be99 be75 3e6e 3e32
bf11 3f10 be76 bee3 be3e bcc8 bed6 bead
becf bf1d bf12 bf4d 3d18 3df2 bec1 bf22
be16 3db8 bee7 bef2 bea5 bdfd 3cb0 be08
3da1 bf12 be3d bf14 be1c 3e16 bdf4 bdf4
3c8c bef5 bd3e 3e18 3cd0 be10 bee1 bf20
be9a bf1c bdd9 3eff be41 bf4b be17 3e81
bf27 bea8 bf38 be2d bf27 befc be69 3d28
bef6 3eb3 bef6 beb6 be92 beae be15 beac
bbc0 beb0 bedc 3c20 be88 bedc bdaf bed5
bec2 3e00 bf0f be5e bea4 bf67 bd78 3e5a
bebe 3d4c bed0 bec7 bedd bf01 be50 bcb0
bee2 be94 bee3 bdc4 3ddb be74 bdad bdc2
be5c bf0e be8d befa bed5 bec4 beda bf3e
be04 bcd4 be03 3e8a bda2 bec7 bd2e be85
3c90 be42 be6c be4e be08 be64 bec8 bdbc
be90 3e18 bdff bf06 3ca3 be93 be96 3e0a
beaf bec5 bf1f be8a 3e86 be45 bf14 be82
beba be02 3dba bce8 be99 bed6 bf2a bec2
3d66 bef2 be25 bdbb bd98 bdfb 3e52 3e52
3eaf bf14 3d4a be89 be1e 3d9c bdee 3ca8
be8f bf20 bea3 be18 bf4c bea5 be64 be9b
3ea5 bec9 be02 3d70 bee2 bdf4 bea6 bd73
beb8 be88 bea0 be8f bf7f bef3 bf07 bee6
bec8 be68 bee0 be95 be12 beec be9e bc80
be9c be80 bef6 bebc be48 be74 be84 3e5a
bf57 3da2 3d08 bf30 be5b be14 bee4 3d80
3e2d be14 be80 bc08 be88 be3c bf46 bf29
be0d bee3 be88 3e6f bf12 beef bdef be8c
be25 bf8d bde6 be90 3de0 be9a bf0a bd26
bef4 bd10 be2d bd98 3cb4 3db9 bf1e be09
bee3 bdd8 be44 be2b bd28 bf0a 3ca8 bece
3b80 bf29 bf0c be96 3d52 bf1b bd77 be6e
bf0b be55 be70 bea9 be84 beb0 be71 bdbd
be82 beb4 bf8a be6c 3c98 beb8 be83 3d2e
3d4e becc 3d44 be5e bd92 be84 bebd be87
bbd0 bd2a 3e09 bee8 be92 bc6c be57 bebc
bec4 be82 be91 be8a bdb3 be0e bf26 beb3
bcd8 be9c be6e bdf2 be84 be52 be5c beb3
bf06 bf56 bf25 bed6 bef4 be64 3d9c bdbc
bf3c be1f 3dd6 be76 bec4 bee4 bf13 be85
be91 be44 be82 3e14 bf0a beca be12 3e0f
3ed2 3d3b be70 3d30 be97 3d68 be24 3d27
3d10 be06 3daa bef6 bea1 3e86 bdd0 beaa
be1c becf 3eb1 bd8a 3e32 be6a bed2 be18
be0d be67 be9e beea bd10 3d94 3cf4 bea9
be7f be14 bee8 bdf2 be50 bebb 3e9a 3d4a
befe bedc bece bed1 be64 be4e 3de2 be09
3e61 be96 beb3 3e20 be9f bef3 beee be4c
3d52 beb8 3e93 bd24 be6f bcf1 bd19 bed4
be7c be98 bd9e 3e22 3e48 be52 beb0 be88
be88 bec2 be78 bf1c bf16 3c18 be3a 3eba
be9e bf0d bed2 3e39 bec0 bd08 bda0 bddf
be94 3d9d bd94 bf04 be56 3e03 bee2 bf02
3eb4 befe bf31 bf08 beb9 bf07 bea4 be38
bf11 3ddc beb4 bef8 be84 be57 bdde be9e
3e07 be9d 3cd0 3d7c 3d18 bec1 bebf be0c
3e95 bee8 bf09 bf31 bd19 bec2 be2e bdf7
3d5f be90 bebf bf0c bec6 3d9e be05 be94
be98 be2e bee0 3c08 3c5a bc30 3e44 be2b
bb40 be82 beda bec2 bea9 3da9 3e0a bd6a
bf68 be30 bf77 3e07 bde2 3d02 3c48 3e32
be76 be4a bead bc1a bee0 be60 bd74 3e7e
3e66 bec1 be99 bf41 bdd4 3e04 3e9a bd3d
be84 3db2 be87 bf1f bea7 be45 3e9a 3db2
bec6 3f10 be88 beeb be50 bd3c bebb be8b
bdc3 bf24 bedd bf3d be13 3e48 be5b bf2c
be4c bbf0 befe bf0a beb5 3d50 bcbc bde4
3d7b bf13 be74 bf3a bda8 3e9f bbe0 bdb0
bda7 beef 3df7 3eb6 bd90 be18 be95 bf33
be6a bf01 be3c 3ed6 beb1 bf47 be46 3ee3
bf54 befc bf3b be44 bf20 beca be2f bcec
bf06 3e8c bf06 beac bec1 be58 be3b bee6
3dd6 bed9 bf06 bcb8 be9c beb2 3d0a bea0
becc 3e86 bf08 3b9c bec6 bf56 3cbd 3e5c
bf04 3e57 be88 bed1 be92 bf27 beb9 3d7b
bee7 be91 beb6 3cd8 3e23 be8e be46 bd5a
be8b bf08 be8e bf0e bec3 bee4 bee4 bf38
bce8 3e04 bda7 3e64 3b80 be8d 3cdc be79
3d96 be58 be05 be8a be06 be08 bed5 3d9c
bea2 3d78 be15 beff bd76 be7c bed3 3e3a
beb4 beb5 bf0a bea0 3e62 be70 bf1c bed7
be80 be84 3d6e bdfb bec5 bec2 bf26 bed6
3ddd bec4 be37 3be8 bdca be39 3e8a 3de0
3e82 befd 3d46 be94 be2c be33 3d18 3e0e
be67 bf29 beb7 bdbd bf59 be75 be32 bef5
3ebc bf02 bd5e 3e15 bec3 be22 be4e bde1
bebb beac bea6 bea0 bf76 bf20 becf bef6
bed4 be26 be3c be8b bda8 bee0 bea7 bd44
bdec be4e beb8 be9d be38 bea4 be56 3e20
bf31 bc30 3e04 bf37 bdc4 be4d be71 3e3c
3d08 3e1a be4e 3c95 be9f bdd8 bf46 bf32
bd8c bf06 be07 3e44 bf38 bea6 bdf1 be8e
be06 bf9f bd94 bebc 3e51 beac bf08 bdc6
bee4 bd42 bd00 bde0 be32 be0e bf1a bef2
bf03 b9c0 be6a be64 3c3a befb bdb8 bebe
be90 bf3e bf0e be54 3dc5 bf42 bd0a bec6
bf0a bde6 be46 bea0 bdd0 bf06 bea2 bd10
be59 beb9 bf68 be16 3e22 be94 be96 bd3d
bdb4 bee2 3db1 bea2 bdde be44 beab be7c
bd84 bd11 3e27 bee6 be76 bd9d be3b be89
bed5 be68 be89 bea7 be85 bd8c bf0e be8f
3e02 bdca be2c be82 be93 bdae bdf4 be8a
bebd bf40 bf09 beeb bee6 bddf bcf8 3d60
bf24 be8d 3dd1 be16 befc beb9 bf2e be52
beaf beb1 be64 3dca bed1 bf02 bd0a 3e88
3eae bdab bec4 3d58 be8c 3e8b be08 bb88
ba80 bdf6 3e67 beec be90 3e5e be3a be99
be1e bec6 3ec1 ba20 3e1e be82 bef8 be57
bd76 beae be7e beba bea4 3d60 3db6 be95
be9b bdd4 bee2 3d30 bedd bea9 3e80 3d78
becc bee6 bee6 bec2 beb8 bdd8 bc10 be08
3e5f be85 bebd 3de8 bedb befb bee6 be52
3dd3 bea1 3e00 bb80 be96 bdf4 bd9d be8d
bdbf be50 3b08 3dde 3e17 be94 bec6 be50
bdb8 be9f becb bf36 bec1 3d08 3c64 3e7c
becb bf12 bee2 3de2 bef6 bde0 be40 be40
beb0 3d56 3d9c bf08 bebe 3d2e be84 becb
3e4a bf50 bf1f bef3 bde5 bee4 be36 be36
bf16 0000 beb1 befa be92 be86 3c28 be8b
3ca6 bea2 3d8a 3d12 3e14 bea6 becc be02
3e51 bea4 bf06 bf39 be11 becf be38 bd52
3e24 be46 beae bef2 bef8 3da2 be1d bea3
be50 be40 bed2 3db0 3da8 3e0d 3db6 bdc3
bdb8 be28 bf0a be9c beb2 be4f 3e42 bd31
bf60 bd50 bf6b 3e04 be88 3ce0 3ba0 3dd4
be94 be2b bebe bc2c bed3 be52 3b9e 3e74
3d99 be9d bea3 bf35 bdd6 3cb4 3e60 bd9b
be29 3e24 bf00 beed befe 3d1e 3deb 3d48
bef6 3eec be8c bf10 bc81 bea4 bec1 be93
3e6b bf29 be8f bf43 be5d 3e67 be44 beea
3aa0 bb60 bf0c bef1 be67 3d34 bc02 bdeb
bd16 befc be65 bf26 be49 3e47 3e15 be98
bde5 bf03 3e34 3ec6 3d5c bdcc be92 bf0a
be5d bf13 be54 3e87 be7c bf5b bd49 3e8a
bf0e beac bf3e bca0 bef1 bdea be34 be4c
bef3 3e3e bf16 be94 beb7 be8b be9a bec4
3e38 bf18 bf0a bd70 beb3 bedf 3dfa be8e
bf0d 3e52 bf05 bda3 beaf bf82 3cdf be12
bed6 3dd6 be0b bf19 be27 bf22 be89 3e04
beee beb9 becc 3c8c 3de2 be8e bddd bdd1
be8e bf11 be8e bf0e bee9 bece bef9 bf3e
be28 bd5a bdcc 3e6c bd68 be96 3df7 be8c
3e3b bdf4 bd8a be4b be3b be8a bea2 3d40
beab 3e01 3e29 beea bd12 be84 bea0 bc5a
be06 be68 bf2c bea0 bbe0 be40 befd becb
bead bea5 3e20 be80 bef6 bf13 bef0 be9a
3dce bed6 bd32 3d52 bcea bdc7 3ec3 3e07
3e97 bf23 3c68 bee9 bdd5 bdbd bd0e 3dfc
be23 bf24 bef9 bdad bf86 beb7 be46 beb4
3e46 beaa bc81 3e08 becc bdbc be99 bd94
bea7 bec6 bec0 bedb bf64 befd be9c bea9
bec8 be81 bea0 bd8e bda1 beb4 bea3 be64
bd80 be9f be9a bea8 be37 be5f bde4 3e80
bf30 3dc4 bd30 bf14 bd80 bdf7 be3a 3e79
be3c 3d68 be6c 3d3e beb7 be86 bf5e bf48
bd59 becc be4c 3e70 bf2a be5b be47 be81
be47 bf81 be76 bf18 3e5d bec6 bee9 bd5d
be30 bdfa 3cc8 be33 bde0 be3a bf36 bf0d
bf1d bcf0 be0c be67 3d50 bf08 be7a beaf
bed8 bf26 bf27 be3e 3db6 bf39 3c96 bea3
bf1d bd4c be0d beae bdf1 bef8 be90 bdce
be94 be51 bf61 be2a 3e1a bea6 be90 bde0
3d82 bf1b 3e81 be9f 3c38 be9f bf12 be70
be21 be4f 3da8 bec7 bed9 be15 bdd0 bebb
bebb be94 bebe bebc be4a bd1e bf04 bee9
bda2 bd0e be94 be96 be41 bdea be24 bec2
bf08 bf32 bf06 bf0d bed1 bd19 3d50 3d78
bee0 be3d 3e0d bde5 beb6 be9e bf18 be8c
bebd bf49 beb9 3def beda bf1e be12 bd9d
3d8c be9c bf33 3e22 bcac 3e40 bd14 be15
3dfa bb40 3e49 bf1b be61 bcd0 bcc4 be7f
be8a befc 3ed6 be32 3d38 3de8 bf0b be9c
bdb2 be18 beef beb6 bee1 3e2a 3aa0 bed0
be4a bd45 bea7 be6f be79 be3e be52 3cce
bef1 bf16 bf1a be8c be70 3d0a 3e2a be8e
bd92 be89 bea9 bd72 bf0f bf1a bf27 bec4
be09 beb9 bd0c 3dd4 beb9 be46 3dc5 be6e
3cd6 bec6 bd98 3e47 3ee4 be8a bf0b bdac
be48 bf0a be98 bf2d bf02 be5e 3da1 3e07
bf15 bf2b bf38 3e73 bf40 3d08 bec9 3b00
be88 3e4a bd14 bf16 be0c 3e20 be2e bec6
3e74 bf79 bf3b beae 3e34 bedb be6a be88
bf0d bdc4 bea1 bf12 bf13 bda2 3e18 be67
be57 beea 3a60 be22 bde0 bee6 be0c bd9e
3ea9 be94 bf48 bf4d 3d8d bf14 be10 3d85
be07 be89 be8a bea8 bf17 3d8a beb3 bee8
be23 bd91 bec3 3e14 3e29 3de8 3dfd be6e
be23 be83 bf16 bedd bf00 be70 3e1a 3d12
bf8a be46 bf79 3e1c 3e2e bcbc bdb9 3dbb
be8d bef5 bde8 bdb8 bd12 bea1 3cd4 3e11
3e03 beb5 bed5 bec4 3db9 3bd0 bc20 be2e
beae bd7e bee6 beb2 bf57 bd75 3da0 3dac
bf07 3eb6 3cc0 bf0e 3ddd beec bee1 bead
beb8 bf31 bebf bf45 be3f 3cba beb2 bf14
bd23 3e80 bf1b bf22 3c88 bd00 3dc0 bd8a
be08 bf24 be9b bf00 bd50 3def bccc bee4
bddb be90 3e03 3e90 3d24 be49 bf0a beed
bed6 bf15 bec5 3f09 bd38 bf6d bccc 3dcf
be56 becc bf85 3e1e bea6 be2b be84 3e2f
bec7 3eba bf42 be61 bee0 bec0 beaa be7c
be1d bebb bef5 3e89 becb be20 bc08 be33
bf34 bcc6 beb0 be70 bf12 bf92 bd23 bee2
beca bdb6 bcd0 bf03 be5f bf08 be84 3e72
bf26 bef8 bee8 be25 3e17 beb4 be75 be50
be9c bf43 bf1f bf20 bf25 bf33 bf09 bf0c
bed0 3c85 be13 3e83 be00 bf0b bd4a be9e
3c88 bdda be11 3b80 bd3d be3a bebf be89
bebe 3c88 3e84 bedc bdfb bdf6 bf15 3e04
3cbc be89 bf5a bef2 3dc4 be89 bf1c be98
bf16 bea6 3e93 3e02 bf32 bee8 bef9 be86
3ac0 be99 3d32 be1c bdff bd24 3ec8 3e35
3ea0 bf7a 3c2c be83 bc18 bec8 bd91 3dfa
be56 bf30 be9b 3b00 bf60 bed6 be86 be48
3ea1 bda3 bd3e 3ce2 bf28 bde2 bed2 be1f
bee6 be92 be69 bea8 bfa4 bf27 bf4d be19
beff bed5 bf18 be4e bea2 bea9 bf15 3d2c
beb6 bf08 beda be5b bebb be82 be8a 3e31
bf36 3e23 be07 bf51 3dd6 be11 be0f 3d8e
bc90 bd92 be87 3c5e bee7 bee8 bf3a bf68
3e0e bed3 be16 3dc9 bee3 be4f beae be31
be9a bf99 bdb2 bf01 3e29 be9a becc be38
be9c 3d5a be76 bdef be34 3d6e bf5f bf16
bed2 be49 be30 beae be9c bf31 beda bf0b
bf44 bee2 bf29 be87 3e4a bf6f be32 be95
bf10 bd60 bc20 becc be8e be6e bde8 bead
be95 bde5 bf6f be86 3da2 bf05 be66 bd9c
3deb bf15 3ec7 bea0 be1c bebe bf31 be35
bda2 bd70 3e1d bea6 beb9 bdac be18 bf35
bf0b beeb bea2 be90 be2c be41 beed be82
3d64 bdd5 bdc8 bd93 be1e be99 3cc8 beec
bec3 bf4a bf0c bece beb2 bebe be05 3df2
be4a be55 3d98 be66 be6e beca bf25 be4e
bdc0 bf06 bee5 3ee4 bf0b beec bd93 3e8c
3cf4 be71 beb5 3e46 be0c 3e8a bd6a be46
3e32 3c40 3e6c bef5 3c14 be04 3d0c bd9c
bebc bf14 3e3d bd87 bd96 3e8e be06 bec3
3a9a bdfa be82 bed3 be55 bce2 3dc6 bef3
bed6 bdac bd92 bd9e be3e bd8f 3d86 3e84
bee8 beef beca bea4 be8e bf19 3ee6 be71
bca8 bedc be62 3e84 bee0 bf2b be36 be04
3e83 becd 3d44 3e44 be5c 3d50 bde1 be74
bda4 3dc6 bd8d be66 3e86 befe bedc bead
be12 bddf beb0 3db1 bea9 be34 bd52 3f09
be90 bf13 bef8 bbd0 bf5c 3e72 3cc0 3dee
be88 3ead 3e77 bef5 be8c 3e9a bdea beaf
3eba bf25 be9a be8d be66 bf29 bea0 be5d
beef 3dc8 bf0f bf0f bed0 be82 be19 bda4
3d35 be9d 3e7c bd04 bd98 bed9 be44 beca
3e0d be74 bf06 bf32 bc28 bed2 beaf bdec
3c30 be58 be9c bf2c be9c 3e50 bd51 beaf
be87 be36 be98 3e45 bd4d be07 3e8b 3e10
bc10 bed6 bec6 be84 beac be0d 3d9e bdf6
bed0 be20 bf42 3e24 be5c 3ed2 3d7a 3ef2
bcd8 bec4 bddb 3e21 bd58 3c50 bebb 3eb3
3980 beb6 be2a bea0 bdef 3edb 3e38 bdc4
be14 bbe0 bed2 be41 be0f be64 3cc8 3e60
bed3 3f30 bde2 bf15 3e20 beae bed8 bce9
3e83 bf44 3e95 bf07 3d18 3e66 be8c bf09
3e17 3ea1 bedd bf18 3d34 3d87 3e3c bdc9
bd14 bed3 beb4 bf0d be88 3ecc 3e08 bf06
be45 bef0 3e69 3e6b 3e6d bcf8 bf08 beea
be42 beba bedc 3ede bddc bf46 3e87 3f42
be2c beae bf72 3d30 be22 bec3 beb0 bd10
bec6 3ecc bec2 be08 bea6 be9c bd82 bd54
be0e bea4 bed4 3cd0 bebf bd94 3d92 becc
bf21 3eb5 bebc be3a bf10 bf27 3bf8 be04
bf17 3eae bda8 be57 3dfc bf2c 3d80 3e4d
be9a beb4 bea7 be19 3de5 be96 be38 bef2
bdef be95 bef1 bf39 bf04 befd bef0 bf11
be3c 3ecd 3e03 3eaa 3e63 bec7 be2c bee4
3a80 bdbc bdce 3e01 bd97 bd26 be3b be16
be86 3df8 3e22 be9e 3e1e beaa be57 3c0c
3e55 be95 bf20 be9d 3e88 be78 be56 beb2
becf bdbd 3e34 3df2 bf39 bf02 bef3 beae
3ea6 becb 3d7c 3dc0 bde6 3e42 3e87 3f21
3e03 bef6 3e16 be1b 3db5 3dcc bde4 3e5d
be1b bf09 beab 3d84 bf50 be04 be98 3ddf
3dad bdc5 3e8b bd84 be89 3dd8 beb2 be1d
befd bd4e 3e36 bdd2 be0e bf08 beb1 be05
bf0e bf06 bee8 be84 bd3c be06 be4c be1a
be82 be6a beca becc be96 3d18 be12 3eb9
bf51 3ed4 bdf3 bf18 3e6c bd95 be0a 3e7e
3e4a 3ecc be6f bdb4 be40 be9a bf3d bf2f
3e3a bef7 3c70 bd77 bf41 3d1c bea2 be23
3dac bf6f becb bf01 3e1e bea6 be45 3c10
bd98 bd83 3ebc bb00 beae 3d38 bebe be86
be8e be9a 3e3f 3d00 bda2 bf3f bebc bf2b
bf06 bf19 bee7 bdb2 3d98 beea 3d4c bebf
be5e 0000 bc60 bedc be2b be9e be1d 3ddf
be06 be8e bf89 bed0 3ecb be80 be38 bd9e
be16 bef0 3d8b bef0 3db3 be88 bf1e be48
bdc2 be33 3d1d bf31 be8c be39 bed7 beda
bece be88 beb7 be84 3db8 3e37 bf32 be51
3dea bda4 bd6a bdd6 3d8c beb5 bc38 bf0b
bf2d bef3 bf22 beea bec2 be50 bd64 bd10
bf46 be0f 3db7 be2a be47 bec6 bf47 be6e
bd0a be9b be24 3e2f bedc be11 3e30 3e84
3d14 be2e 3d9a 3e69 bf17 3eb7 bc48 3d64
3e3f 3d08 be3a bec6 be78 3d4e be6a bee5
be44 bd0d 3e72 bd39 be0c 3d00 bdc8 bf00
bdd4 bd28 be50 bf23 be3d 3d90 3e2c bf28
be25 bdcb bd89 3dbe bd00 3da3 3db4 bb80
bf13 be8e be9b bf0f be26 bec9 3e7c beec
be17 bd18 bc10 3e88 beae bee4 bdee 3d9c
3e9c becc bd04 bebc bf02 3c7d bdc1 3ddd
3e42 3d58 bd3d 3dd2 bdef be78 be87 be3e
3df0 bdc9 bd2b be2e be66 3dbb 3bc8 3d92
be46 bed4 be33 3e28 bf10 3e91 3e5e 3e76
bece bd4d 3de8 beac be40 3da0 3da8 be25
3e7e bf03 bdd1 be57 3d97 befd be7e be86
bee8 be68 bde4 bf12 be64 bebf be8a be36
3e82 bd25 be5b be42 be5f beab bf04 be68
3e0b be49 bedc bee3 3efc be8b befa bc78
bd74 3d3e be7a be58 bd8d bee1 3e22 beb6
bee1 be53 bf0e be2e bbc8 3cd8 3e74 beaa
be14 bd24 bf04 bd9e bea2 be3b bd86 beb7
be98 be11 bedc 3e98 3e5c bdfe 3e71 3dc6
bdff bdbc be2c bdae be81 be01 bcac 3e37
be89 bd78 3d9c bef1 be4a 3e07 3eb4 bd83
bcf0 3d58 bcdc bddc be28 bdcc 3d4e 3d84
be9d 3f56 3c50 bdf4 3e86 3d30 beba be3a
be88 bf1a be37 bf02 3dfa bde1 3e02 be63
3e61 3db7 bea8 bd9e 3c98 be2f 3e60 bd71
bc64 bf03 be9a bdac bf10 be48 be93 bf0e
3db2 bf01 bdf0 b980 3eae bba0 bf2e bdea
bd9c beef beaf bde8 bdbb bf66 3e8a 3e5b
be01 3f04 beed bb80 bef4 bd8d beb8 bde2
3e4c 3e29 beb2 be13 bd48 be9e 3da4 3d86
bdf6 be8f be9d bea7 be83 be4e 3dc2 be91
bf12 3e7f be74 3b00 becd bf41 bb70 bdf0
bea4 3e05 bebe bce0 ba80 bda6 3e44 bc96
bea8 bec5 beea be32 3d94 be32 3dc3 beeb
bddb bec0 beb3 bead bec6 bec6 be2d bf18
3e09 bdbe 3cfe 3d53 3d92 bdd0 3d2c bec9
bd08 bc30 3ee2 be24 bcc0 be9f bde1 be24
be2a 3dae bdd9 be92 3e81 be99 bdd2 bdca
3e73 3db8 be9b bd04 bd78 bea9 be52 bd82
be81 3da6 3e7d bda4 bdfa be8f bec8 be2a
3ee1 bea9 3c98 3e38 3e1b 3eff 3d82 3ee3
3dd3 bf0c be06 bd7a 3e0e 3f12 be2d 3ddf
bde6 bf06 bdfc 3d48 bf23 bec1 be48 bef5
3ca2 3e3a 3da4 3d1c beb2 3ecf bee9 be44
bea9 be6f be30 3a80 be97 bebc bee6 bd54
be86 be8c be2e be7e bda8 bdca be1a 3d40
be33 be57 be50 be7b be18 bd81 bf0a bc50
bf10 3e95 bedb bef5 3de6 bbc0 3ba0 be13
be4f 3d91 bc18 be6c be8e bd04 bf0f bf04
bd5f bea7 bdb2 be34 bede 3d01 bd42 be2b
3e18 bf3c bef4 bf00 3e54 be9a bebc bdc1
3e83 be73 3e9b 3d1d 3ee2 be4b be70 be0b
bd6d be08 be12 bee6 3e0e bea6 be5d be56
3ed4 bed4 bebc be6d be16 bf0f 3d74 bdd6
be42 3d54 bd82 beb4 bd98 bedd 3e3b bcf0
bece be2f bf34 bf33 bc60 be28 be6e bda0
3e3c be9e 3f12 be8a bde3 be7f bea2 be58
be33 3e11 3db5 bea2 be00 3b60 be83 be96
3b40 be6b bdf8 be20 be04 3c44 bebd be78
be6b bddc be8d be37 bd9f be4c bdaa beee
bee6 beb2 be97 bd37 be9b 3e19 be36 be9a
bf58 bcaf bd9c be04 3e08 be3f be33 be02
bccc be3d be38 bca8 beb6 be22 bdd3 3bc8
3df5 bdae bd26 3e28 beea 3daf bb80 bea4
3e1c be8a be00 bee4 be3e be3e be50 bf02
be28 bdce 3e96 be33 bc30 bdd6 bdf9 bead
bd04 be98 be34 beab 3d8c 3e0f 3dea bf15
bdc4 3db8 be3b be32 bc8c be68 be8e bdb7
be98 bead be76 be85 be40 bd96 3e55 bea5
be8f bce8 bd8e 3e19 bdd2 bec7 be3d be0e
3e1f beb7 be09 be40 bdde bdc6 3de6 be5c
3e37 bed0 bdc6 bd60 be03 bde2 be37 be81
3d2d be48 be54 bec3 bf54 3d6c 3d08 3dd7
be9e bee3 bec6 3e9b becc 3d40 3d33 3d5f
bf01 3e26 3e2b bece 3d86 bc98 bcfe beb7
3e46 bf26 bee3 bf20 bdfc bef7 be80 be65
beac be6a bd08 bf2e be58 be89 3c78 bd2c
3d98 be9f bebd be54 be4a beec bedc bdcc
bd47 be56 befb bf1f 3e86 be70 bef5 bd95
be03 bd16 be84 be08 3d10 bdec bcb6 bee6
bf04 be1f bf00 bed5 3da5 be4b 3e08 bd25
3d50 bda7 bee5 bef0 be25 be50 bda4 bd58
beb9 bc2a bef0 3e02 3b80 bdcf bd29 3dc8
bdab be5a bec7 be93 be37 beb0 be4b bde2
be45 3d38 3d99 bf1b be6d 3ed8 3e96 bd06
be4a bd9e bc68 be86 be14 be8e 3d28 3d40
bee5 3ee8 be0f beb7 3dc6 3e0d bec5 bf09
bf2c bee0 beec bf0c 3b58 be52 bdcc bec2
bd3f 3dbf bea5 be8b be0a be93 3ce4 bdd5
be1e be8c be14 bd70 bee0 bdb1 beec be87
bd96 bef5 bd0e 3cb1 3d8c be11 bf02 beec
be79 bf25 be43 3e21 bd8a bf4b 3c00 be03
be13 be01 bf13 3cd8 becc be4e be3e bdbc
bdbf 3df8 be8b be63 be39 beda 3cdb bdfc
be72 be6a bf04 3d83 bd9c bee6 bec8 be5e
be84 3e79 beac bedc bf18 bf63 3dbb bca0
beac be14 be80 be1a be1a bd78 3e34 3d1e
beae bea5 bf10 bd50 3e88 be98 3dd7 be58
bdc3 beb4 beb4 be9e be98 bee2 be0c bf16
3db8 be36 be0e 3e62 bd12 be8b 3c78 be8a
be28 be26 bd90 beb0 3d84 bd5a bec2 3d08
be5b 3cb0 3e31 be85 bd6c beb6 beb8 3900
bcb2 be19 bf0b be31 3eae bd9e be26 be84
beaf 3b40 3e1b 3e35 bb80 bece bf04 be10
3e53 be97 bd91 3cb0 3e13 3e96 3e49 3e27
3de2 bf09 3e19 be3e bdb6 3e94 bd82 bd88
bea4 be99 be01 be3b bf12 bee6 be0f beaa
3e37 be8a be4a be1c beff 3e39 be93 be35
becd becb bed5 be27 bf75 bf06 bf03 beb9
be94 beb9 beb9 be8c be87 bd8a be69 be8e
be02 be72 bebc bea4 be16 be3e bef9 3e01
bf46 3e3a be40 bf09 bdfa bd12 be5c be30
bd62 bec1 be82 bdb0 be8f bd08 bef6 bf18
bda1 be94 be36 bd38 bf3d bea1 bea6 be7a
3cfc bf3d bed2 bed4 3e83 be04 beb8 be5b
bcd4 be8d 3da8 0000 3eb1 3e36 bf0e 3def
be28 3db9 bdc8 bf3e be61 be46 bdd3 bec2
3e9b bf17 bf05 bf10 3cf2 bed1 bd38 bdfd
be8c be21 be17 bee0 beaa be62 be01 3d52
bed9 be94 bf40 bec1 bea6 be8c be00 be4c
bdc0 beb1 3e1e be0b 3b10 be6c bdce bea7
be3e bda3 3ccf befa be5f 3d7e be32 be79
be6e be9a 3df3 bd83 bdb0 bd98 be8c be56
be37 be96 be17 be2a bdd2 bebe bdfa befa
be98 bf12 bec4 beae bed5 3a60 bd62 bea0
bf28 bd92 3d85 be7e bdfe bea1 bec6 be61
3dba bd28 bddc 3e17 be75 be91 bea2 3de2
3e90 be28 bc7a 3d36 bf0b 3dbb be4a be1a
3db4 beac bdea bed1 bc40 bd91 be83 bf06
bd39 bdd8 3e46 bdf2 bded be8d be76 bea0
be0d bebb be6c bee0 3e48 3d37 3e7b be8e
bcc6 3dfc be66 be83 bead be46 be86 3d34
be52 be90 be30 bec3 be90 be42 3dfa bed0
bdea be64 be82 3e46 be43 be98 be2f bcb8
3e86 be75 3e13 be96 bd9a bdf2 3da7 be13
3d8d be41 bccf be03 3d18 bbd0 bdfe bea6
be02 be88 be84 be89 bf4b 3cd4 be15 3dc8
bdc2 be8d befb 3eb0 be7a bd74 3b50 3db8
bf0b 3e14 3dcc be8d bd08 3e02 be9d befe
3d9b bf1f beda bef7 bcdf bf20 be85 bdad
bed7 be00 be20 bf03 bd70 bea2 be40 be49
3e87 bea3 be89 bd47 bd46 beae bee2 be8a
3e38 be4a bf24 bebb 3e0a be64 beca bdef
3e28 bdba be51 bd96 bb10 be5d 3bde bf0c
bec2 be8c beec be80 bd83 be04 3e67 be21
be3c be48 be92 be85 bea8 bdf4 3d63 bdca
bed2 be03 beff 3df8 be8f bb40 bc64 bdad
be50 be94 bec5 be2d be88 be7b be98 bdaa
bde9 bd9c 3b70 bf10 be93 3e0a 3ea8 be09
be94 bdc0 bdbe be93 be28 be56 bbd0 bd10
bef5 3f0b bda4 be98 bbe8 3e8d bede bf23
be80 bf02 becc bf39 bdae 3d0e 3d06 bed8
bdf4 3dbb be96 be64 bebe be8a bd9b be31
3bdc bec8 bd87 bea2 be5a 3cd1 bedb 3de8
bde9 bf04 3d16 3d0c bdaa bdb5 bee6 beb9
be5e bed4 bdca bda4 bea5 bf00 be56 3dbf
bef3 be92 bf09 bd82 bee3 be18 be32 bda6
beb8 3e0d be65 be7b bec6 beb6 b9e0 be3e
be36 be42 bee4 be56 bdfa beac bcbc be90
be50 3e7e bee3 bdc6 bf12 bf4e 3e4a bdac
bf10 3db6 bebb be7e bdf8 be92 3d6a bd8d
bedb be14 bf16 bd9e 3f01 bec4 3e0e be59
3d0e bf26 be14 bece be4e bea7 bdd4 bf08
3e84 bcb0 bdd0 3e8a be82 be8b be5a be80
be2d be18 3cb5 bebd bd86 bdd6 bec1 bb00
bd93 bd64 bde5 be42 3e69 bee5 bebb 3e8b
bdd9 be77 bf04 be8b 3efe be0b be80 beb4
bc78 be3c bc90 be0e bcc4 bf0e bf14 be5d
3ea2 be96 be4f be0e 3b50 3e6e be0e 3e00
bd1e bf41 bdd2 be78 bd0e 3e94 be78 bde7
be9a bec4 be32 be15 bf25 becf be14 be9a
3e51 bf02 bdd0 be43 bed9 bb00 bea0 be7e
bee2 bea9 beac be4c bf79 bf35 be74 bf11
be78 bcec bede be9e 3cde bdf0 be72 bde7
bdfe bda4 be84 beea bd20 be50 beae 3e05
bf21 bd34 be81 befc be5e be15 be88 beaf
3c80 bea2 be0a bdb6 be73 3e3a bf01 beba
be83 bed3 bd9f bcb8 bf22 bed0 bdd4 be22
3c70 bf56 bf1c be16 3e2d be5c be6b bdc1
bd02 bef2 bcb8 3da5 3d38 be62 bf0c bd46
be6b bd8a be43 bf03 be3b be34 be58 be91
3dbc bf21 bf13 bebd 3df4 bef8 3d17 be4e
bebe bd40 be4a be96 bed8 beac bd06 be2f
be9d be12 bf27 be49 be8e bde8 be6c bd9e
bd74 be16 3dbc be98 bc08 bce9 bdb1 bed2
bdac bdcd 3d83 bf05 beac 3d9b bdb1 bdba
be92 be6b 3d5d be0c be06 bda8 be80 be9c
bd24 be6a beab be1b be99 be85 be30 bede
be52 bf08 bef0 be81 bf0a 3d94 bd27 be4e
bf19 be50 bd9e be14 be7c be88 beca bdf6
3e5a bcb0 bd34 3e6e be41 be9c be2e 3e5e
3e5f be05 be32 3dfa beca 3e7b be06 be1d
3e1d be5f 3da8 bebe bd6f 3c30 be83 bedc
bdb8 be30 3e80 3cad be01 bd9e be47 be02
bde7 be29 be3b bea4 3e38 3de4 3e83 be7e
bd3f 3dbd be5b be3a be8d bea2 bd8e bca2
be7f be1a be48 bea3 be46 be83 3e30 bf09
bd91 bda1 bdba 3e4b be43 be8e be6a be04
3e93 be41 3e4b be9c bb40 bd42 3dd6 be8d
3d3c 3dbd 3d7a bda2 3e3f bdb6 be04 bde2
3dae be0c be5b be95 bf3b bde5 be02 3e23
be52 be9c bf02 3e9a be16 bc90 3df4 3e4d
beea 3e72 3d90 be89 bd9c 3e36 be4d bee7
3e1e bf31 beb9 bf25 bdad bf17 be92 bd22
beed bc80 be2e beb8 bd50 be9b bd98 be48
3e9c beb3 bcaa 3b60 3dbc be8b bd9a beb7
3e5d be2c bf18 bede 3e10 be80 beb8 be17
3e94 bd30 bdd1 be02 bc6c be6a bc9e befa
bee1 bdba bf10 be18 3cf0 bdc1 3e82 bca8
be26 be84 be2a be86 be88 bdd2 3e2b bd49
bf28 bda6 bef4 3e03 be18 3db2 3ba4 bca4
be88 be2c bea5 bea3 be92 be50 be21 bc68
bdb2 bd91 be06 befe be0e 3e0c 3e7a 3c18
be3d bda2 bd17 bef1 bd9f bd7a 3cc0 be85
beb9 3ee6 bdf2 be46 3d24 3e73 becc beeb
bd58 be90 befc bf30 be16 3e48 bd1c bedd
3d54 3d26 be50 bde7 bed2 be2e 3ca4 be0f
be10 becb 3d96 be58 be79 3cfc be24 3e4e
be3c bebe 3d98 3d84 bd9b be28 bec4 bee2
bd8a bee6 bbf0 3d6c bee7 bf06 be32 3e34
bf03 bad4 bf0e bdbc bea0 3cad be08 bd8b
be5c 3d3d beaa be01 bef2 bcd4 bd94 be8d
be1d be30 bee8 bd7e be16 be74 3e4f be42
be4e 3e11 bebd bd62 bf16 bf5e 3def be73
bed8 3e92 be9d bd90 bd04 be9a 3c40 3d8c
be48 be63 bee0 bc9c 3ebb bec2 3e93 be5d
3b84 bf0f be30 bed0 be08 bebb bdd3 be9e
3e93 3d8a be30 3e78 be88 bdf6 bdf0 be52
be56 bd07 bd6e be80 bd5b bc9b becc 3e13
be97 bd9d bc08 be00 3e0d bef5 bec7 3ea1
bcd1 be8b bf09 bea2 3eff bdbd be06 be7c
bc38 bdce 3a60 3db0 bcbc bee0 bee8 bdf8
3eaa be45 be3c bbe0 3dba 3e4c bd82 bdb1
3ce6 bf41 3db0 bdfc bd8e 3c74 beb0 3d34
be73 bedb be28 be65 bf3d be9b 3cf4 be85
3e8f be8f bded bd82 bedd 3d0c be40 be52
bf24 be80 bea8 be8a bf52 bf3e be87 bece
be68 bdea beaa be7f 3d16 be8a beb0 3c40
be2a 3d90 bdd7 be78 bd0f be63 be45 3be0
befe bd45 be22 bf0e bd82 be8b bcf0 beaa
bd8a be82 3cba bc63 be88 3e36 bea3 be94
be04 bedc bd18 3e68 bee6 be09 bd15 bd2d
bd79 bf5e bf23 be7c 3e50 be91 be47 bd91
3de3 bece bd8c 3b00 be00 becd bee7 beb6
be84 3bc8 bd20 bf18 be1a be28 be32 beba
bda7 bf2c bef7 be3f 3e4c bf1b 3e36 be9d
be85 be06 be14 be82 beb8 befe 3d84 be6e
bebe be17 bf0b bd9e be14 bdc0 be3d be2a
bdb6 be22 3e8c be9a 3d94 bd24 bd80 be8a
be15 3c00 3ddd bee2 be32 3c9c bdc8 bdc5
be9d be9e be0b be09 be89 3d94 be32 be88
bd92 bcf4 be61 bdf6 be93 be86 be32 bed7
bd6b bf03 be4e be8c bee1 3e3a bd94 bdce
bec6 be5e bde9 3e24 be90 bd84 bf10 bdd7
3e08 be5e bd13 3e8c be2c bede 3d51 3ecb
3e0b be2d bde9 3e54 bea2 3eab be2a be26
3e46 bcd4 3e8b befe be24 bd98 be90 be9e
be3c be36 3eb2 3db7 bcfc bd38 be9c be03
3daa be87 bdb0 be94 be57 3e4c 3e32 be81
be36 3da7 be06 be34 be3f becf 3c9c bdae
be9d be34 bea6 bde1 bdd4 be28 3e43 bf16
bc98 3d16 be3a 3e43 be85 beb0 be90 bdbc
3e42 bdf8 3e5c be53 bddd bdf0 3c84 be16
3d4c bdcc 3ce7 bd9a 3de6 be68 be72 bd78
3d82 be96 be60 beb8 bf43 bde4 3ca2 3e60
be58 becc bee6 3e67 bea3 3cf0 3cf0 3db8
bee9 3e82 3e5c bed4 bda1 3cbc 3d25 bea0
3c18 bf68 be58 bef3 be2b bee6 be29 bbb8
bea2 bdb4 bde7 bf08 be12 be9a 3d95 be1f
3e05 bee6 3ca6 bd81 3e34 be4c bd92 beae
3e4e be06 bf19 beb6 3e7d be86 bee3 be07
3dc0 bd91 be06 be1c 3d20 be3a be10 beab
beb2 bcd8 bee4 bdb1 3c56 3df6 3df8 3dc0
bdfa bece beb8 bd99 be88 be7a 3da4 bd9e
bf0c bbb8 bf24 3e09 3c9e 3e69 3e1f 3d0a
be68 be2b beb8 beb0 be0b be5a bda4 3d2c
be0e bda6 3d08 bf23 bdb8 3cac 3e7a 3d67
be85 3d7c be44 be90 bdd0 bc9c bd1e be42
bead 3ee8 bdd0 be45 3e50 3bc0 bed6 bee4
3e1e bf04 bef7 bf3f be5e bccf 3cd2 becd
3e04 3de8 bea9 be0a be34 be14 be1d 3b97
bdc3 bee2 3c68 be91 be67 3e2d 3c48 be59
bd30 be9e 3da2 bd59 3d34 bce8 beae bec2
be2f bf07 be2b 3d70 bea6 bf2f 3d16 3e87
be45 3eb7 bf10 3e16 bddd 3e1c be14 bd26
be42 3d4b be90 bbd8 bec0 be86 bd96 be94
bdbe be77 be88 3def be3b bea7 3e76 3d01
beb2 3e25 be5a be1a bf24 bf87 3de7 be54
bebb 3e53 3d03 be67 bdef bee3 bd80 3d4e
bea0 bed7 beaf 3c50 3e5f be96 3e02 be56
bd4e bec3 be5c bf16 be81 bede bde2 be4e
3d60 3d9c be24 3e56 be2c be54 bbc0 be31
bddb bbe0 3c36 be61 bdb0 bde6 beab 3e19
be52 be26 3e4c be30 3e29 bee5 be96 3dca
3e1c be8e bf28 be73 3e46 be3f be2e be81
3d4b bdb5 3e1f bd86 be8b bed2 bea3 bde4
3ea3 be66 bd27 3da7 3e5b 3eb4 3d86 3d61
bd42 bf4e bd38 3d33 3d99 3db2 be8c 3d8a
be2d bf0e be9c bee2 bf54 bec1 bd9a be45
3d90 be7a be0c bdf3 bf03 3d72 bf0e bea4
bf09 be8c be35 bec2 bf1f bf26 bef5 bf06
be30 be84 bec2 be0c bc89 beb7 bebe 3b80
be0b bc98 bba0 be89 bcd5 be93 be05 bc50
beca 3d5a be6b bf05 bce8 bd9a 3cb9 bea3
beb8 be6e bdb8 bd3b be8d 3c98 bee4 bea4
bcae be6a 3e2e 3e43 bf0e bd0e bdc5 be39
be56 bf38 bf15 bf15 3ea5 becb bd5e be9d
3e87 be9e 3d9c bba8 bda3 beae bf28 be46
be6a bc86 be0e bf35 bdf5 bec8 bea6 be75
3d55 bf18 bf25 bd20 3e42 bf4a 3d91 be88
be8e bd88 3da6 be66 be8e beca 3cee be43
bed3 be4a becd be90 3e2a bdbd bde0 3d46
be41 be93 3f05 bed4 3e14 be0a be47 be76
bdaf 3e24 bd3f be8f bea1 bde1 bd55 bc8a
bec1 be7a be89 be19 be9c 3e93 be09 beb1
bd14 bdab bebc bdff be08 bda9 be17 be55
be58 bf17 be56 bec0 be9d 3e1d be46 3d87
be7b bdbe bdd8 3e14 bded bdb6 bf11 bdee
be64 be96 bd00 3e96 be82 bee8 be24 3eb2
3e3e be91 bedc 3e48 be28 3b6d be2e bdf2
3e01 be34 3d22 bf0a be70 be84 be96 bef8
be96 be3c 3ebf bda0 3d18 bde6 bec0 bebf
bd91 be9a bddf bef2 be38 3ecb 3e41 be7b
be74 bd9e be87 be6e be5e bf1a be08 bb60
bea2 be88 bf0a be8c be99 3dc8 3e15 bf1c
3d7c 3c30 be72 3e0e be92 bec8 bea2 be73
3e2b be37 be06 bdc2 bd9b bdd0 3c78 bd9d
3e06 3c5e be13 3d3f 3e1b be1c beb8 bd78
be53 bed8 be48 be9c bf6a be88 bd19 3e50
bec9 bf13 bf32 3ee2 bef2 3dfa bcb4 3e5b
beba 3e00 3dbd bf09 bd90 3dbc bbb8 bed6
3e3e bf7e bea5 bee6 3cd9 bed7 be1c bc34
bec9 bd60 be0a bf18 be36 be56 3d34 bde2
3e28 bf08 bad0 be8c bd16 be87 be3a be40
3e29 bd66 bf10 beb0 3ebd beee bee5 be84
be26 be1e be14 bd9c be08 bc50 be60 beca
be80 be81 bf2e bdf8 bc08 3dc1 3e62 3d03
be14 be56 bec0 bdac beda be7b 3e1b 3c08
bf4a be03 bede 3db2 3da0 3d87 bd01 3cf0
be0d bec3 be59 be8a bbe0 be88 bdf0 bd54
bb60 bdb0 be27 beb5 bd84 3cec 3e58 be12
beb0 bb80 bdc9 be28 beb7 bd9d 3d5c bd98
bf09 3ed2 3e5c bea7 3da2 bdc6 bee2 bf15
be56 bf08 bec3 bf33 bd84 bbc0 3c08 befd
3e11 3e3d be9f be7b 3d7c be64 bd59 3db4
bcc2 bee3 be0d be0e beb9 bc30 be3f beb4
3cf8 bec4 3dbd 3cda bda7 be39 bf07 befd
be8b beea be83 3e72 be49 bf43 bc48 3eba
be55 3e54 bf14 3d9a bb80 bdac bea8 3b80
bea8 3e47 bee8 be5a bee8 be98 be52 be5a
be35 bda0 bee4 3da5 be33 be33 3ea3 be2a
be9b 3e20 be9d bea8 bf2c bf63 3da4 be6f
beb6 3db8 be87 be2c be44 beb3 bc30 bbf0
bf18 becc bef9 be2f 3e36 becc bbda be1a
bdb2 bed5 bed6 bf3b bed0 bf2a be38 bf20
3c68 3b60 bd48 3e4e be3f be95 bda8 be5c
bdcf bc90 bdec be9f 3d9e be8a bef0 be17
be98 bdc1 3e60 be16 3ce6 bf18 be97 3ebf
3ea6 bed4 bf3e bea7 3e52 beba beaf be54
be98 be7c 3e8c 3c8c beaa becc bea5 be50
3e6d be95 bd37 bd9e 3e53 3ee0 3d0e 3e8e
3dee bf46 bd92 bca0 3e28 be8e be92 3c30
be80 bf23 be8f be17 bf57 bede be00 be74
3ea7 be0a be6f bdf4 befc bc60 bef7 be73
bef4 be85 be04 be97 bf4c bf6d bf30 bec5
be78 be9e be98 be6a be82 beba bf0a 3db0
bea1 bdf4 bde3 be67 be07 be68 be42 3b80
bf38 3cf0 bdfa bf22 bd80 3d05 be6c be92
be51 beb4 be9b 3de5 bed3 be26 bf03 befe
3e0a bed6 bd97 3e0a beda bca0 bdc8 be28
be35 bf5c bf30 beaf 3e69 be8b be4c be94
3d50 be6c be10 3d04 be6a bd69 bf3d bea4
beb9 bddc bd28 bf14 be9e beb4 beae bf13
bee0 be8c bf34 be76 3e18 bf2e 3db7 be51
be99 be60 bdcc be1e beef be73 bc3a be6c
bf0c be6e bf30 beb0 bc10 be89 3bc3 bd20
be1e bed7 3e98 bee7 3de4 be2c bea3 bebb
3bc0 bd21 3d6d beb2 beab 3da7 bddc bec5
beda be2d bdf9 bd9a bec8 3d9f be91 be7c
3db4 bdc2 be78 bcf4 be4c beba bd48 bee3
be4d bf2c be9e bec6 bef7 bd24 bdb1 bd54
be40 be06 bd2c 3be0 3d87 beae bedc bd92
bd24 beab be97 3edd beae bec3 be00 3ef5
3dc0 be8b 3cb7 3e15 be84 3c9f be00 be50
3e69 3c60 3d4c beb2 bd56 be54 be0c bec9
bea7 be40 3e56 bc6c bdc8 bc10 bd39 beb4
3d64 be9f be3b bf0a be5a 3e31 3e80 beb7
bec4 3ac0 be4a 3d08 be06 be97 3d98 3e7a
bec6 be62 becb bed0 be7f bea1 3ec2 befc
3e54 bde5 bdb2 3e56 be86 bf26 bdee bdf3
3e98 be9e be18 bdc6 bdf2 3d84 bd88 bc89
3cd0 3e32 bc33 be01 be0a bea4 be68 be3f
3c73 be04 be11 3ec5 bf22 be30 3c60 3ec4
be48 bf1a bedd 3e7a bf0b 3ea0 3e18 3e1a
beb1 3d80 3e96 beb6 be65 3e46 bdb8 beb9
3e63 bf2e 3c8c bea9 3bc0 bf0a be30 be21
bed0 3d58 bebe bf10 be1c bec2 bd9e bdea
3e54 bea4 3e42 3bd0 be1d be4e bead be6e
3e6f be6e bed8 befa 3e7e be8c bed1 be07
3d3e bd90 be7a bea2 be01 bde0 bc30 bedd
be76 be50 bedb bd9b 3be0 3c10 3e54 3ea2
bcf8 beb6 beed bdc7 be9d be82 3cff be44
bedc bd8b bf13 3e2d 3e32 3e8a 3e2c 3df2
3dc1 bec3 be48 bd09 be13 be2f bde2 3e98
3c18 be32 bd50 bede be04 3e6c 3e5a bc96
be18 3d95 bde2 be54 3e22 be84 3d9e 3dac
bea4 3f69 3cd4 bea3 3e5b bd60 bece be5e
3e48 bf2e 3d90 bee2 bb20 bd40 bde4 beb4
3e6c 3e85 be9e be01 3dfd bdb2 3d41 bd81
bc9c beea be2b be92 bed9 3cda bb20 beb4
bdc4 bf04 3e18 bcca 3e5a bc78 bf05 be85
bc3a bed4 beb2 3e6e bdab bf52 3e6e 3f51
bdcb 3eb2 bf1d 3df8 be6c be59 bec4 ba80
be61 3e73 be55 be1e be86 be8f 3d99 3ba8
be64 be13 bebc 3d28 be72 bde6 3e84 be91
bee0 3e54 bea0 be8a bf21 bf30 3d20 3c96
beb2 3e68 bea6 be16 bc98 bea8 3ded 3dc5
beb6 be93 bf04 bc90 3e1a beaa 3b88 becd
3b60 be3f be73 bf2f be95 bf01 be8a bee1
3d8a 3e6f bd1a 3e4a 3dbe be89 be32 be9e
bca0 3d12 3ce2 3d70 bdea bd7c bdfd bd9a
be38 bb00 3deb bddf 3e5b befc be48 3eac
3e34 bea4 bef0 be88 3e35 bdc4 be4b be1a
be6e bda1 3e74 3c10 bea2 beeb be88 be8c
3ebc bea0 3e1d 3db5 3e68 3ed5 3b40 3f01
3d88 bf17 3dd2 3c00 3db2 3d48 be87 3d74
be34 bec6 bd86 bdad bf27 be9b bd9a bdf2
3dbe 3e68 3d4c bd8b beb1 3e7c be8d be78
bf1f be03 3db3 beae be0c bef0 beeb be9a
be8e be8a be9a bdf0 bdb8 bdf5 bee0 3dcb
bd18 bd08 be51 bece bde5 bcb8 be9c 3d5a
bf3d 3e5a be9f bedb 3dbc 3c8c be56 3da4
bd28 3daa be4c bdb7 be80 be2a bedc bf07
bcc3 becd bdce bd92 bf33 3d71 be91 be85
3e0e bf54 bec2 bf19 3e08 be34 bdda bd41
3e21 be71 3ebe bb0c beac bd2e bef1 bddf
bdf1 be1b 3c60 be02 bd66 beda be99 befb
bd30 bee1 bf14 be7b 3db7 bee1 3e33 be33
bd00 3e52 be04 bec2 be16 be87 3d08 bd6e
be5c be4f bf45 bed9 3ea7 bcbc bcc0 3c40
3c30 be95 3e58 bede 3e11 be3e be92 be87
bcfa bbe4 3b86 beea bea6 be2a beb2 beae
bed0 bd26 be7a bcf6 bd1c 3e30 bec4 bdf2
3d86 bdc0 bea3 be22 bdea be7c bd45 bf02
bed5 bef1 bf06 be1d be97 3ca2 bde8 be15
bf1c bd92 3c50 3dc4 bd94 be97 bec2 bdd4
be0f be75 be8d 3ebc bef9 be8e 3e2a 3e85
3d8a bd39 3e77 3e06 beae 3e75 be13 bcf4
3e76 3d84 3d68 bebb bdf1 3d48 be76 bee8
bea1 3e33 3de4 bc40 bd98 3bf0 bd82 bf07
be30 bda8 be6f bf41 be0a 3e12 3df7 bf17
be7e bde7 be37 bc60 bd5a be3b bd61 bc70
bf15 bec5 be78 bec0 be59 be17 3ea8 bf09
be8c be28 be0d 3e6f bea8 bf07 be56 bc28
3e57 becd bdb0 bed4 bead be01 bdee 3e22
3e68 3e2a 3b88 3e6e be90 beaa beaa be90
3dac bd39 be3a be91 bdd4 3e28 bdd0 3e8b
be7d be93 be9d 3e9a bf1a 3e9e 3ebc 3e85
be86 3d37 3e15 be8b be78 3cc0 3d4a be87
3e8e bea7 bde2 beb2 3e9e bf08 be6e bead
bed6 bd9c be5b bf1d be6c bec6 be97 bdf0
3e81 bcdc be20 bd8b be55 bedb bed9 bea0
3dac be7c bef6 bef5 3f26 be58 be92 bdd8
3d86 3e3b be32 be7a 3d30 be90 3db4 bea5
bec7 be28 bf2c be05 bd9f 3de8 3e26 be41
be28 bd98 bec2 be47 be96 bd48 3c2c bead
be89 be68 beb4 3e94 be18 bd4a 3dc4 3e0b
bc88 be43 be99 bd61 be47 be3d bd76 3e89
bea0 3da2 bc20 bed3 be8c 3e78 3ea2 bdba
be32 3d92 bdb0 bdfe be08 3e12 bc40 3e2c
bef2 3f62 bdfd be66 3ec3 bb80 bebc be6c
be55 bf2c be2e bf11 3bd8 be16 3bf8 beac
3e84 3c94 bea6 3c92 bc90 bdd5 3e6c bd9b
be09 bf14 be24 bd38 bf2c bd56 bed8 bf3a
bd0f beda be76 3d64 3ed0 bd30 bf28 be96
be32 bef4 bec6 3b00 be07 bf56 3dcb 3e3f
bdf8 3f32 bf3c 3dfa bee9 be45 be86 bdda
3e04 3e51 bee9 bdb1 bc88 bebe bd95 be14
be82 be81 beb4 be66 be6b be92 3dd1 bec0
bf22 3e81 bea6 3cb0 bf03 bf53 bdb9 be87
be81 3e30 bef1 bda6 bd1c be0f 3e3c bdc2
be7c bebd bf16 be6a 3d21 be8f 3c4c bed5
bc98 bebb bec5 beca bea6 be8e be3e bf07
bd74 bd60 bd98 3d44 3e1a be34 3dea bec4
bd80 bce0 3f12 be81 bd28 beaa be4a be74
be36 bca0 bdb2 be66 3e58 bed9 bea0 be5a
3e7f bd6e be8b be2a be1e be48 be51 3d7e
be9e 3df0 3e0e be33 bc78 bee1 be8a bdf6
3ecd be7e bce8 3e6a 3e50 3f13 bd44 3ecb
3e60 bef1 3c98 bd96 3da4 3f32 beb1 bd83
be74 bee9 bcf2 3dae bf04 be93 bea0 bebf
bde6 3e95 3d64 3d72 beb3 3f03 bede be68
be89 bed4 be79 bddd be79 bea7 bee3 be1a
be6e be44 be14 beae be1a bd97 be1b bdbc
bd92 be43 be9d bed4 bd82 bc70 bf2b 3d40
bf52 3daa bf05 bf1a 3da8 3c85 b980 bdf8
3ca0 3e36 be49 bea2 bec4 3d10 beb4 bf2e
bdcd be98 be32 be20 bf37 3e32 be0d be8c
3ce8 bf1a beff bf5a 3e3e be89 bea4 be3f
3e7c bea0 3e8f bcb2 3ea1 be0f beae be50
bc58 bdf6 bd60 beaf 3e20 beef 3c9c be20
3ecd beb2 beb8 be55 be26 beef 3d8e bdf8
be25 3e2c be47 bf06 bde0 be5f 3df2 bdd6
be85 3a50 bf58 bf3c bcb0 bde3 bd50 bd6a
3e48 be95 3efc be78 bd6b becf be5f be73
be1c 3e1d 3db0 bdfd be4a bdab be89 be93
be52 be44 be54 bdc5 bdaf bd7c bede be6b
be20 bdcd beb1 be80 3bc8 beb3 be16 bf19
bf21 bebd be94 bdfe be16 3e0d be68 be47
bf5e be11 bc50 bd3c 3e45 be8a be87 3c8a
bd3e be86 be74 3e17 beca beb2 be46 3d78
3e46 bcb2 3e0e bc8c bedf be70 bd18 bebc
bd38 be6a 3d20 bf0a be4c bd47 be6c bf13
be78 3e35 3e1b bc80 bca0 bd0e be0d beb9
be16 bea2 be4f bf25 3c82 3e3c 3d86 bf04
be0e 3cde beb1 be8a be3f bed6 bea2 bdea
bed4 bed4 be58 bea5 be9a 3c70 3e33 be88
bf07 be78 be99 3e67 bdd0 be92 bea2 be1b
bd96 becb be67 be93 bd8e be4f bd54 bda6
3e01 be45 bdb5 be2b bd91 be66 be99 beef
bdf7 bde2 be39 bea8 bf07 3d08 3d35 3daf
be92 beb0 bf09 3eb3 beea 3be0 3d7b bdae
beb8 3e49 3d96 be9a 3dfa bce8 bca4 be9a
3e86 bf05 beb6 bf22 bcb4 bf18 be0a bed1
be5b be25 be79 bf28 be3e bea1 be2a bd70
3dd1 bebe bef9 be9a be24 bf13 be93 be9c
3c2c be2a bf28 bf10 3e8a be33 beb8 bd90
3d8e 3c1a bdf0 be17 3d44 be26 bd3d beec
beeb be48 bf01 beaa bd48 bba0 3c34 bd9e
3d44 bd58 bee4 befc be6d be34 3ba8 3cc2
beb8 bd8c beb4 3de8 be99 bd5c be5f 3d88
3dce be90 befc be8c be1f be97 bf05 bd50
be91 3d50 bdf4 beed be9a 3e3c 3ec0 be34
be96 bc04 be2a be3a bec4 be68 be1d bda0
befc 3e91 be8b bf00 3e9b 3bc0 beb4 bf0a
beee bf25 bf08 bf0d bda5 be1c bd27 bea0
bccc 3dc7 beba be3a be51 be36 3d18 bdb3
be37 be8f be07 be0b beb4 3dba bf1f bf2a
bd8b bf0a be7b bcf5 3e44 bdb4 bf0d bf08
beaa bf0f be38 bd00 be0f bf30 be1f bdb1
be6f bda1 bf44 3de0 bee4 be82 be94 be38
bd54 3e8c beaa be2e beb0 bed0 bd5d be8c
be82 bebe befe bd1a be58 bf07 be7b bea1
bed5 3e86 bea8 be95 bf16 bf62 3dce beaa
becd bd6c be25 be57 be22 be1a 3e3a ba00
be97 beab bf32 bdd6 3e79 be95 3d05 be66
3cc4 be98 bedb bef0 bea4 be96 be00 bf1e
be04 be12 bd96 3e2c ba00 be7c bda4 beb3
be9f be59 3b04 bee8 3d68 be55 bf07 bd5a
be20 bd88 3da6 be94 bd82 befc bec5 be1d
3d3d bd5f bef0 be34 3de6 be30 be6d beaf
bea7 be02 3e06 bdf4 3b00 bf00 bf1b be5e
3e53 be53 be30 3d79 3dd6 3ec1 3dc0 3e4a
3e20 bf16 3e10 be54 bdb0 3ee0 be61 beae
bed3 bee2 be16 be15 bf09 bea8 be8c be3d
3c5e bea4 be0f be3c bee5 3e1b beb7 be8b
bea2 bf02 bebb be3a bf65 bedd bea4 beec
bebc bed2 be4b beb2 be8c be13 bdf6 be48
bcd0 be38 bed0 bee9 be1a bd93 bf19 3ca0
bf76 bce0 be80 bf3a be54 3c58 be6a be14
3e0f be6c bebc be02 beb2 3d22 bf08 bf0e
be28 be88 be03 be63 bf63 be72 beb2 bdfc
bce0 bf24 bf09 bf1f 3e68 be83 bed4 bea8
3d40 be51 bd9e bcae 3e1d 3dce bf3c 3dae
bdff bcef bdc6 bf2c be40 be8a 3cb4 beb4
3e48 bede bf20 bef2 bcb0 bed3 bdfa bda8
bf00 be34 bdee becf bed3 be64 be36 bd9c
becc be3c bf33 befe be9c bdd2 bc04 be99
be29 bee4 3d7a be0a bdff be83 bd90 bedd
be01 3d89 bd01 bed7 be8c 3dfc 3ba6 be43
be5d bea7 bc4e bcee bd88 be13 be9c bea2
bd3c bea0 bdae be28 bd85 be87 bea0 bf2d
bf14 bf30 be9e bece bea7 bcc0 be5a bdc9
bf25 bd86 3c94 be1c bce0 be74 bed6 be8d
3c90 bdde be02 3e60 be84 beaa be05 3e89
3ec2 be05 3d9f bd9d bf0c be68 be42 be89
bd4c be6b 3c8c beca be1a 3cf8 bebe bf30
be24 bd16 3dce 3cee bdf6 be36 be22 beb0
3bb0 bf03 3be0 bf0b 3e2e bd92 3e28 be82
bddb bc7c be87 be81 be64 beb8 be68 be08
be98 be93 be02 bede be3a bd7c 3e0b bed3
be30 beba be96 3e6c be2c be92 bea3 be3a
3dad be33 3dcc bec0 bd6c be29 bd2e bdb8
3d1d bbc0 bc88 bdc7 bc10 bdcf bdf4 bedd
be56 be20 be5e be98 bf24 bcdc be4a 3e18
be08 be37 bf04 3eaa beaa bd9a 3c54 3b60
bedf 3d81 3da7 bea4 bd50 3d36 be87 bede
3e3a bef1 beb4 bf02 be1f bf17 bdd2 be96
beab be8e be64 befb bd93 be86 be61 be14
3e7a bf00 be6a be19 be22 becd becf be94
3dfe bdc6 bf17 bee6 3dea be0e bedc be79
3e9b bb86 be3b bd9d bd86 bdf8 bbc2 bf09
beb9 be42 bf04 be95 bdd2 bc20 3df6 bd9f
bdc2 bdac bebc bea4 bea7 be35 3e55 bd9b
bec7 be50 bec8 3e04 beb5 bc3c bddd bda2
be48 beb8 bed9 be11 be8b be0d becd 3cc8
bdb0 3ded be43 bf0e be8b 3e1c 3ee1 be00
be6c bd94 bd90 bea5 be96 bcb1 be49 bd38
bef7 3f08 be3e bef9 3e66 3e39 bed1 beea
bdd4 bf40 bed1 bf22 be46 3d9b bcd0 bea8
be1a 3c68 be36 be6c bebc be2a 3db6 be45
be74 be92 bd9c bea0 be70 bbd0 bed0 beb7
be49 bed4 bd61 3d9d bc40 bde2 beb9 bee0
be1c be99 bd8a be57 be7a bef5 be54 3e86
bee3 bdeb bf18 bdc0 bebb be19 be46 be82
be8d 3e14 be5c be8a beec be95 bd4a be92
be23 be85 bed7 beb9 be62 be9c 3e4a be9f
bea3 3e28 becc be65 beed bf70 3d8c be9c
becd 3d9d be9a be8f be1a be7c 3d97 3d14
beb2 be30 bf39 be12 3eb5 bea6 3d06 be84
3d64 bef8 be88 bf14 bde8 be84 be6c bf02
3dda bb20 bcfa 3e66 be56 be72 be24 be78
beb2 bdae bd9a bec8 3d72 bd67 bec1 bcea
be32 bd98 be30 be51 3e5c bf03 beab 3e3d
3c5a be91 bf0f be30 3e92 bdcc be45 be85
bdd4 be9c bd16 be18 bdba bf16 bf15 be4a
3e8a be7f be5c bcaa 3dd0 3ee7 be44 3dfc
3ce4 bf38 bda1 be6a bd6f 3ea6 bea4 be77
be82 befc bdfa be58 bf27 beb6 bdfd be3e
3e13 bf00 bd99 be92 bf14 3d68 beeb be51
bed4 be67 be90 be26 bf68 bef7 be6a bf0a
beaa be6e be81 bdda bd54 bcf5 bea0 beac
bdde bbc0 bea6 bef5 3c38 be0a beba 3cb0
bf5d be3f be2c bf18 be27 bdec be3a be4e
bdbc bd8d be5a bdbb beb6 3e6f bf01 be91
be71 bedf bd7c bd1c bf4c beb2 be4e bd67
bb80 bf64 bf00 bef8 3e62 be7c beac be86
3d4d beac bd14 3d34 bdca be6e bf1c bd15
be27 be62 bd7c bee3 bd82 be90 bdb9 be84
3e58 bee7 bf32 bedc bd8f be67 3d13 be1e
be7d bdac be96 bed4 bebc bea0 bbbb bd95
bed6 bc97 bf0e bead be4b 3c72 bdf7 be3a
be1e be5c 3dc2 beae 3a80 bdf0 3d89 beaf
be70 3e04 bcb0 bed4 be3c 3e31 bdd6 bc2e
be82 be2e be25 bd9d be2f bd0d be4f bea8
bda6 be4a bec4 be13 be40 be70 be7a bf30
bec4 bf0c bef5 beab bed4 3d43 be62 be43
beef be0d bc18 be88 be15 be93 beaf 3b9a
3dc4 be00 3d76 3e9e be3d beca be81 3e5b
3e60 bccb 3d3e 3ba0 bf09 be12 bd58 be72
3d70 be1f 3e14 bea8 bd91 3e19 bebc bf00
be18 be2d 3e8b 3de4 bd70 bc9e bd8c be89
3d2d beca bd1c becd 3e83 3c40 3e6e be2f
bd41 3d5b be3a be11 bde6 bedc bd08 bc48
bec3 be38 be33 bec4 be45 be5a 3e18 befe
3db6 be20 be06 3e43 be06 be88 bebc be88
3e88 be36 3dce bebb bd6d be0b bca4 bdc2
3a60 3dae 3d55 bc76 3d1c be10 bdc4 be26
bcc5 be50 be19 be3b bf37 be06 be4d 3e32
be43 be64 bf16 3e9f bea0 3c80 3da2 3e02
bf1a bd6d 3e3b be1a bdbd 3ded be14 bec2
3e53 bf10 be71 bf00 3a90 bf0c be27 be21
becb bd50 be12 bf10 bdbd be70 bd1e bd84
3eb2 bef6 3d8b be34 be3b be6e be30 beae
3deb bdb9 bf08 beed 3d8e be5a bed8 be75
3ed4 bdbc be22 bd70 bdee be80 bd3a bf08
beb8 bd00 bee1 be30 3d00 bce8 3dda bd33
bdee bec1 be24 be32 bebc be94 3ea1 bd90
be93 be6d bebc 3e1e bd34 3dd4 3d62 be07
be48 beb0 beaf be96 be89 bddc be87 3d9c
bd14 bc18 be18 bee9 be1e 3e46 3ea9 bc44
be11 3cde 3d9c bea2 bde8 3d82 bdf4 bdec
bebe 3f32 be20 bebc 3e68 3e49 be9d beb8
3e2d bec4 becf bf0d be08 3d6c 3b20 be97
bdf1 3cc0 bdb4 be3e bea0 be5a 3e11 bde2
beb0 be9e 3e28 bd6a bebc bd43 bdd1 be90
be89 be51 3daa bce6 3c28 be3e beb4 beb9
3d93 be94 3ca1 bdf0 be3c bf1f bde6 3ec6
bee6 3deb bf1e bd30 be1c 3d81 be20 be06
be80 3dda be6b be18 beda bd8f bde5 be33
be07 be89 befa be1d bdd5 be5a 3ea5 be36
bedb 3dbd be94 beaf bf14 bf70 bce7 be9f
be98 3e30 bdc1 be55 3ccc be8e 3c60 3de0
be9a be14 bef0 3b20 3e7d beea 3e65 be58
3d5a bec0 be86 bf1f bdea bea1 be48 beb2
3dab 3d8c 3d57 3e2b be37 be50 be8e be40
be72 3cd8 bdfb be55 3d5c bd1a be80 3e20
be1c bda4 bd41 bc96 3e20 bf15 be8e 3ea4
3d84 be67 bf21 bed6 3e7b be34 be46 be42
bd51 be90 3ac0 bc30 bdda beb4 bf02 be0a
3e8e be6a be61 bb60 3e0f 3efb bd88 3d9f
3de0 bf22 be18 bdc7 3ba0 3dc9 be9a bd24
bd92 bed5 be42 be02 bf52 bed2 3c3c bce9
3dc1 bdd5 bb44 bd9c bf0b 3dd2 bebe bdb9
bf0b be4a bea0 be53 bf21 bf10 be94 bf01
bead be9b bedb bd04 bcd0 3c5c bed0 be40
3d98 3d94 bd8a bec4 3d50 be06 be93 bc60
bf5a bda0 be7a bedb 3d26 bd23 bd33 be3b
be46 bd58 bbd4 bd94 be8a 3e8c bea4 be8b
be42 beeb 3db0 bbf0 bf0d bdaa be58 bd87
bd48 bf66 bf24 bf0c 3d2e bea1 be85 be83
3e42 bec4 3e3c bc20 be32 becd befc be92
be8b bdcc bdcb beda bb5a be8a be10 be8a
bce8 bebe bf1e bdc0 bd72 bef0 3e0c be9d
bdee 3d00 be5f bea2 beb4 beda 3d81 bded
bedb 3cb2 bed3 be4d bd20 3d3e bdcf be8d
bd36 be1e 3e8f beb6 bb30 be2b 3ce2 be9e
be34 3de4 bdb6 beb4 be40 3d8d bda4 3cc9
be76 be42 be2c bdbf be46 3df5 bd7a be7c
bd32 bc40 beea 3b40 be56 be22 be22 bf13
be6a bee4 be61 beb2 bf06 3ea4 be58 bdc6
be8d bde9 3cde 3a80 be35 be17 bf0b 3c86
bd1a beca bd8e 3e9c be72 befc 3d40 3eb0
3d21 be1a 3dd7 3d78 beb4 3d0d bc50 be98
3e52 be4e 3e95 beaa be0b bd64 beb7 bee5
beb7 bdca 3e88 3e85 3cb8 3e63 be58 be02
3e2a bf16 bac0 bec5 bdd2 3dd4 3e15 be8a
be64 bd68 be45 3ca8 be40 befb bd16 bc40
beb0 be55 be78 bebe bce8 be5d 3e05 bec3
3e2f bda2 be52 3e83 be42 bdf8 bef7 bebd
3e8b 3d45 3daa be72 3d29 bda3 bd9a 3c49
3d10 3da2 3e10 bdfc 3dc1 bd54 bdda be8c
3e26 3d5f bdce be51 bf1c bd58 bd9a 3ea2
be27 bec1 bef1 3e10 beee bb00 bddc bda7
bed2 bd4c 3ea9 be86 be27 3d84 3d9f be8c
3e52 bf6a bdd5 be9c bdb2 befa 3cee bcfa
bea6 be84 3d58 befa bd99 be6b 3e0c 3c30
3e6f befe 3d71 be3c 3cd8 be98 bec2 bee0
3e06 bd1c bf0a bed5 3e4c be1d beae be20
3e5c bcfc bc23 bda2 bd98 be64 bb40 bede
befc 3d20 bec2 bdb9 3d49 3ca0 3ce2 3d9c
bd80 be83 be5e bd62 bec3 bea8 3e10 bda5
bed0 bd42 bed7 3e37 bdd2 3e94 3d68 bdfc
be72 be61 bea3 be4c bd90 bdde be39 3e55
bd44 3d7e be08 bf3e bde4 3e1a 3ebc 3bb0
be22 3c90 be12 be4d be52 bd98 be30 be2c
bea8 3f12 bdc8 be81 3e98 bdac bec6 be5f
3edf bf30 befa bf0f be53 bced bdfa be28
bc9e 3dc9 be44 bd7b be8a be52 3d96 bd13
bec9 be7a bd10 bd64 be95 3d30 3d9e bf0e
be08 be7f 3db4 bdd8 3e36 3d36 beac be87
3e08 bef6 be0a 3d9e bd8c bf3c 3d32 3f04
be67 3f09 bf49 3e4a 3d42 3da1 be66 bcf0
be20 3e5a bd94 3d86 befa be2a be02 be37
be0a beb4 bec9 3be0 bda1 becc 3e90 3b80
bee3 3e08 be7a bed1 bf1d bf8e bd98 bece
be9a 3dac bc84 be84 bd66 be9d 3d9b 3e3b
bec1 be9f beb3 bd08 3bfe beb0 3dc1 be8a
3d10 be92 be4d bf22 be96 be8d be66 be8d
bca4 3dc2 be3d 3e38 bd8c be71 be18 be8d
bdbd 3e1e bc7e be48 bdfe be69 be7b 3dd6
be18 bde0 3db2 bdd8 3dc1 bf05 be9e 3e38
3dd7 be67 bf1e becc 3e3e be74 be1e be26
bdc2 be62 3e1c 3bb0 be92 bf0b bec9 bdfe
3eac bea4 be0a 3d96 3e7f 3f0f 3d6a 3e05
3d92 bf38 be41 3dfe 3dba 3e00 bea8 3bc0
bd3d bee0 be86 be96 bf5a beeb bd47 3d03
3b88 bb90 3d0c bd27 bf14 3dbe bef5 be7a
beed be3b be2e beba beb9 bf15 beaf beea
be40 bea1 bea5 bdb7 bdb2 bd5a beec be3e
3d8a bd84 bcf0 be81 bd60 bde2 bebe bdac
bf52 3d1e be23 bef3 3da8 bd0a bdde be28
be1e 3c94 be7b bcc2 be98 3e1b bea8 be3e
bc0a bec7 3ddc 3d57 bf38 3cf3 becc be34
be74 bf2b bf33 bf38 3e23 bef1 be1b be68
3ea7 be8d 3e2e bdf2 bd86 be9e bf19 3940
be20 be30 bc98 bef5 3c3a bebc beb2 be8b
bd67 be5f bf2e be48 bc88 becf 3dcc beb2
be83 3d60 bdc8 be64 be48 bebe 3dd3 be40
be9e bdeb beef bea6 3d84 3e0b bd49 bcbc
bd0c be22 3ecb bee0 3b00 be9e bdd6 be85
be70 3e02 bc96 be8c be7b bc38 bd70 3d67
bec0 bd93 beb7 bdc9 be3a 3eb7 bddc be84
3dc4 bd61 beab bdbe bd9e bc9c be06 bef3
bedc bf1f be7a be6f be97 3eab be9d bdd0
be4e bd9d 3dd0 3e28 bdcb be61 bf08 3b78
be0c be9b bdb7 3e7f beac bed1 bc5c 3ed7
3d08 bddb be51 3db1 bea5 be50 be34 be2f
3e03 be04 3e1b bedb be77 bd88 bebd beee
be81 be13 3ec6 3b98 3d90 3ba8 be83 beab
3dc4 bec8 be04 bedf be3b 3e81 3db2 beb6
be58 be3c be96 be8a be9e bf1a be86 bdf1
bea9 bebd be68 be6b bdcd 3e10 3e5b bf06
3e4c bdd5 be8c 3e86 be64 bdfc bee5 beaf
3e25 bdc6 be19 be49 3de7 bd48 be54 bd2a
3df6 bd74 bcdc 3e4e bd46 bd1a be70 beb3
be8d bde7 bd87 be2f bf44 be32 be1e 3e54
be68 bf1a bef1 3de5 bf00 3c20 be02 bd67
bebd be07 3e14 bec9 3d52 3e3d 3dc8 bed6
3c90 bf72 be5e be7e bd8a bed4 bd95 3d31
be77 be4c bc90 bf0e be11 beb0 3d8a bda5
3e20 bf0c bd50 be96 bd1e be80 bef0 be7e
3dd1 bdaa bf15 bed0 3e8d becc bed0 be9a
bda3 bd89 bd66 bd38 3db1 3d14 be04 bea6
be8a bd8b bf23 bde5 bd17 3dac 3d4a 3c84
bd14 be6e be5d be39 bed2 bead 3e58 bbd0
bed1 bdde be89 3e02 bdcc 3de4 3dc4 3c18
bcf8 bee0 bec0 be90 bdb2 be14 be87 3d26
bd2c bda6 bdbe bef4 be0e bd8c 3e85 be5b
be70 bd97 be44 be27 bf03 be3e bd97 bdf0
befc 3eb8 bd84 bf09 3dd2 3b00 bef9 bebd
3e63 bf12 bef3 bf3c bd88 bd10 be27 beb2
3c08 3dfc be99 be42 be17 be29 bbac bd37
be85 be2c be52 bb40 bec9 3e1a be26 befa
3c74 beba 3da3 bcf4 bd4c bda2 bea8 bec0
bdc4 bf0b be6a 3d9e be45 bf2d bc4c 3f13
be4c 3ee6 bf1e 3cf8 3ce0 bd55 be83 bdde
bdea 3e8a be57 be0a bed3 bea4 be82 be8a
be74 be43 beae 3d0e be68 beba 3f01 bd8c
bece 3e40 be75 be96 bf1a bf67 3c3a beb2
be96 3d81 bec0 be14 be96 be97 3ac0 3d8c
bf09 beb6 bf0f be2c 3df9 bea7 be31 be78
3daf be9c be86 bf0d bea6 bec7 be35 bf13
bd86 3db8 be4c 3e7c be0e be02 bd91 bee9
be0c 3d1c bdff bea8 3c34 be95 bf0f bd3c
becf be0d 3d64 bd04 3dab bf14 be83 3f02
3e4e be70 bf1a bea0 3e9c bea9 bea9 beaa
be83 be52 3e24 3d6a be85 bf16 beb3 be20
3eb4 be97 be52 bb30 3e8a 3f09 3d2e 3eb7
3c88 bf21 be48 bbb0 3d9b bea0 be5a 3c58
be7f bf00 be5d bea8 bf37 be92 bd95 beb7
3e82 be62 bd9f be00 beea be01 bee8 be8c
beef be4f bd8e be59 bf4c bf5c bed6 beb2
bde6 bea3 bea5 be0b be10 be30 bead bdc2
bc80 bc88 bdaf be88 bd49 be3f be52 3d28
bf56 bcb0 bd87 beff 3e04 3bf8 be88 be82
be37 be49 beb8 bbdf be68 bd36 bf1e beaa
3d65 bee9 bd94 bd68 bf3b 3d91 bea3 be38
be2a bf5d bf58 bf06 3e49 bef0 be80 beda
3e19 bea1 bd78 3da1 bda0 bdda bf26 bdae
beae bd63 bd8c bef4 be31 be50 bebf be5a
be85 beb4 bf26 be67 bdbb bee6 3e0d bea1
bebd 3dac bd18 be36 be85 be3f 3d80 be85
bf06 be26 bef3 be9b 3d34 3cc8 bdb1 bd8f
be71 be89 3e94 bf02 3c80 bd9f bd88 be8d
be4b 3900 bca8 beb4 be5b 3b10 bdec be9a
bea5 be18 be86 bd5f be88 3e31 bdfc beb4
3d86 bd6c be99 be30 3cd7 be8e be44 bf05
bed9 bf2e be8c bee5 beb7 3e59 be91 bdb2
be5a be09 3cc6 3d9a 3be0 beb7 beb9 3d57
bd83 be9d beb6 3ea0 bea4 bec7 be4e 3e83
3e0a 3c48 3c9b 3e0b be6d bdcc bd02 be21
3e3b bd00 3d87 beb1 bdee be1a be6d bf15
be6c be8c 3e87 bd24 3c20 3e25 3d18 beb7
3df8 bef1 bdae bf09 bde7 3dd8 3e45 bee7
be54 bde9 be8b 3dc0 be90 be96 3d78 3de3
bead be92 bea2 befb be85 be62 3ea2 bec0
3e00 be2b be92 3ea6 be2c bed0 be76 bda1
3e81 be8e bd0c be43 bde2 3c58 be53 3e0e
bd44 bd82 3dc8 3d96 be15 be70 bdfa be8c
3cf9 bc78 be0e 3ec2 bf15 bd6e be0e 3eb4
bdfa bf15 be8c 3d8c bf10 3e85 3da9 3dba
bec4 3bd0 3e8e be70 be5f 3e0f bdbb befc
3e94 bf17 3da7 be56 3d9d bf03 bde2 be3e
bec1 be48 be2c bf21 be4b bedd bd74 be01
3e92 be86 3e85 bc00 bd24 be6e beae be81
3d4c be81 beb6 bf0a 3e8c be82 bebe be50
3e02 3d06 be81 be52 be2d be5f 3da3 bec2
beb6 be9c bee7 3cd8 bd2e 3e16 3dde 3e0f
3dde beba bef6 be2c beb0 beaf 3e24 3cb0
be36 bdd3 be8d 3dbf bd55 3e3e 3e28 3e04
3e80 bed8 be8b bd4f be42 be44 beb8 3eb6
bc80 be51 bde9 bece bd3f 3e72 3e7d be21
be27 3d86 be78 be03 3cc4 be78 bd40 3c60
beb2 3f20 bde7 beac 3d88 bdc4 be8e be66
3eb4 bf1c bd36 becb bd34 bde0 bde5 be8a
3e8e 3cd8 be83 3d38 3cec be12 bbf0 bbb8
bd27 be12 be74 be52 bec1 3d04 be10 bed6
bdb9 bf08 3e09 3d5f 3e4c 3ca0 bede be57
3cb8 bf13 be92 3e0b bd6e bf57 3e0f 3f75
be04 3f05 bf14 3d10 bdd8 be33 beb9 bcc8
bdab 3eb1 bd20 bc6c be90 be74 bd15 bd14
be6e be67 beec be4e be84 beac 3ed4 be70
bee0 3e8e beda be1d bf14 bf37 3d98 be14
beae 3e78 becf be4a be43 be4c 3e0a 3dd2
bed5 be46 bf0d bdbb 3b8a bea2 3d10 be90
3d6e bdec bd9d beeb be7f bea2 bdf2 beea
bc4c 3e03 bde5 3e6c 3c98 bd66 bda4 bec4
be0d 3c40 3cef be09 be1a be6c be84 bd10
bea4 3ca0 3e1e bdbc 3e15 bf02 bded 3ee0
3d9e bea0 bef9 bdfc 3edb be8a be63 beb3
bea2 bb00 3e48 bcc0 be14 beed be9c be8c
3ef0 be48 3d82 3da3 3e40 3ee9 3d8a 3f12
3d36 bef7 3d30 bcfc 3ca8 bdf8 be0a bdcb
be29 bed2 bddb 3d37 bf06 be8e 3c00 bdbf
3ce1 be7a 3d6f be0a beb4 3e96 beb7 be81
bf0c be17 3c50 bd80 bd5c becf be78 bea5
be2d be49 bd88 bcdb bdec bd00 be7f be35
bd38 3da4 be6e bebc bda4 bd70 bea9 3daf
bf34 3e27 bea2 bed4 3e0e 3d80 bea9 bde6
bc90 3dba be63 bdce be39 bdaa bf0c beae
bd81 be70 be8c be4f bf41 bc24 be9d be1e
3e64 bf50 bf01 bf0a 3e20 beb8 be6d bdfb
3e7f be56 3edc 3d0a be54 bdce bede bd12
be42 bd99 3e2e bd80 3d84 be29 becc beac
3d0e bebf bf04 be8d bd94 be59 3de9 be70
be48 3e41 be9a be4d bdf7 be67 3dae bdc5
beb3 be4c bf2b bec5 3c40 3da8 bdf4 3bb0
3d0c be98 3d4e bf06 3e01 bdde be34 bea6
be24 3c9c bc8a beca be5b bc42 be8a be9a
be4e 3cd4 be64 bd1a bd58 3e18 bec0 be13
bd38 bda8 be9b be88 bd08 be96 3cac bf0d
bec6 bf0d bef8 be9e bea8 3ea4 3c80 be99
bf18 bd7c bd14 3d94 bd90 bead bf08 3d86
be34 bdbf bdca 3e43 beb3 be50 3dca 3e64
bcd6 3bd4 3e6c 3dd6 beaa 3e8b be0e bcd9
3e23 bd54 3d1c bef4 bde2 bd96 be28 bee1
be83 3d21 3e6b bd8a bd86 bd0a bcf5 beb7
bdd0 bdf3 be99 bf38 bd59 3e21 3e77 bf19
be47 bdd4 be80 3d9c 3d44 bea6 bd9c bc00
bf05 bedd be60 bec8 bd93 be73 3e20 bf0a
be9e be91 be65 3ed2 bece bef7 be30 3cb6
3e8a bed9 bdf9 beb2 bec7 bc10 bdb1 3e0b
3e5f 3e0c bd1c 3eba bcf2 be92 be9b be9e
3cd2 bdf6 be2a be97 beab 3dbc bcf8 3eba
be33 bea0 bec4 3ec7 bf12 3e41 3f0a 3eb9
bec6 3e83 3e2c be8a be1d 3cf0 3d04 be9e
3e64 be88 bce0 bee8 3e8d bf05 be58 beb4
be90 3d84 be13 bf18 be09 be82 be94 bdae
3e8e bdd3 be64 be22 bdd3 bed1 beb4 be8f
bd12 be7b bee9 bed9 3ee4 be49 be84 be3e
3d98 3e24 bde2 beba bd30 be62 3e0e bea1
bee8 be3f bf2a be58 bd8f 3c60 3df8 be38
bd08 be36 bee3 be2e be9a bc84 ba30 be4a
bea3 be7d be6e 3ec7 be24 bd3a 3e06 3e4a
3e35 be48 bef6 bc9e be72 be7e bd9c 3e38
beb2 bc0c bc60 bed7 be54 3e94 3eb1 be18
bd08 3e00 3d01 bdc8 be00 bc78 bd88 3da0
bef4 3f2f be0e be94 3ebd 3dde beb6 be41
be8f bf2c be7b bf1f bce8 be12 3b20 be9f
3ec2 3c80 beba 3db2 3cbc be52 3df1 be0d
bdb2 bef5 bde8 be20 bed8 3e2c bef1 bf23
bc40 bf04 bde4 bd9a 3ec6 bdfa bf21 be93
beab bf16 be3a 3c60 3d8f bf50 bd93 3e17
be4b 3f17 bf3b 3ba0 bee2 be9b bedc be03
3df6 3e72 bedc bdf2 3ca0 bebb bc61 be5e
be1e beb5 beb8 be92 be40 be8f 3dd4 be81
bf1c 3e7a bea8 bd09 bf05 bf37 3d81 be54
be23 3dc8 bdb0 be1a 3cb8 be2b 3db2 bdc5
be51 bec9 beaf be85 3d94 be84 bd3c bec4
3d12 be40 bece bed8 be9c be26 bcc3 bed8
3d18 bdd1 bdd0 3e06 3e1e bd95 3d4a bf06
ba80 bdfd 3f0c bf00 bdac bebc beb8 be07
be8d 3e25 bdcb be88 3e97 becc be82 be80
3e84 be2c be54 bda8 3ce8 be9f be0a bddb
be59 3db3 3e54 be6e 3c00 bee6 be3c be08
3ee2 be26 bd38 3dea 3e8c 3eeb bd8e 3ecf
3e22 bea3 3cb4 be22 3ddd 3f3a beaa be35
beca bf08 bd7c 3e06 bf03 be63 beaa be8c
bdd6 be0f 3db8 bd01 be1e 3ec8 bef0 be9a
be8e be9f be64 3cf0 bdf4 beaf bf10 be6e
bee1 be6c bda2 bec4 bdbe bd7c 3db3 be74
be22 3cc0 bea9 be19 be0d 3da7 bf1a bd1c
bf5b 3e3e beda bf1e 3d7c bd81 be08 bdb8
3daa 3e14 be8d bede bea0 3cf0 beee bee2
bda0 be6c be2c be6b bf26 3e2e 3c10 be74
3d76 bef8 bf04 bf3f 3ddc beb3 bea3 be0f
3e8b be9f 3dcf bd83 3e90 bd34 be71 be19
bd88 be14 bdb8 beb0 3e71 beaa bd6e 3c9c
3e9a be9b be5a be23 bda8 beff 3e06 bdf0
be56 bd04 be76 bebb be14 be17 3c94 bdc8
bebd 3d3d bf31 bf1c 3d88 bd3a bde5 bd8b
3dac be98 3e46 be9b bd99 bee4 be54 be86
bdf8 3e19 3d83 be82 be1e 3b60 bd66 becc
bd64 be74 be90 be09 be30 bb65 bf02 be90
be1f be17 be84 be85 3db3 bd32 3d03 beb2
bf2c bf02 be91 bec6 be58 3e2b be52 be65
bf76 bdda bdce be07 3e0c be1d beaf 3dd0
be00 be3d bdc2 3e07 bea6 becc be44 3e82
3cc0 3cb3 3dfd 3bf0 beba bd8b be21 beac
bd86 be10 bd40 befb be3e be7a be6d bee3
be82 3e23 3e67 bd31 bd10 bdb5 be7f be8f
bd14 be49 bedc bf3a 3d6c 3e21 3e4c bf0c
be6a bd68 bec3 bebc bda4 bf0b bec2 bd6c
bea0 bede be5d be32 bec5 be37 3e19 bee2
bec0 bea7 be9d 3ec4 be20 bebc be96 bdbe
3d62 bec1 be43 be5a bc8a be56 3d04 3cbe
3e08 be0f be87 3d97 bdc8 bea8 be86 bec6
be62 bdcd bdf4 be9b bf37 be20 3e0d 3e89
be80 bee0 bf1f 3ecc bee3 3d80 3e3e 3da6
becb 3e68 3d26 bece 3e04 3cf4 bdf6 bec1
3e75 bf01 be8e bf42 3c3c bf1d be9c bec8
beb3 3cc8 be6c bf14 be5e be87 bde6 be0b
3dee bef5 bf01 beac be42 bf31 be37 beba
bcc0 bdcc bf39 beee 3e91 be8d bf03 be17
3dbe bcbb be1f be6f 3d44 bc00 bd9c bed8
bf08 be6c bf06 bea0 bdcc be24 bd99 3da6
3cf8 bdc5 bed4 be43 be6c be3e 3d45 3d20
bee9 bdcd be32 3e00 be18 3bc0 3dde 3d28
3d9f bec3 bf33 be6b be62 bed0 beb3 3cb0
beb1 0000 3dc7 beda beb6 3e90 3ea0 be68
be94 3ddb be3e be4f be8b be54 be84 be22
bef6 3e32 be8c bf10 3ea7 bd14 bed3 bed5
bef6 bf2d bf07 bf4f bd9f bddf 3d45 bf17
3d48 3da8 beb4 be20 be55 be7a 3d20 bd96
be7d be94 3d26 bea6 becf 3ea2 beee bf13
bdbd bf1b bdc4 be4d 3e7b bd30 bf19 bede
befe bf20 bd9c bdfc bca5 bf35 be85 bd59
beb2 3aa0 bf48 bc88 be90 be9b bea6 be38
bde6 3ea1 bed4 bddc be8c bf04 bc26 be58
be6a bef6 beea bd36 be1a bee0 be66 be34
bef3 3d80 bec5 be63 bf14 bf6b 3e53 beaa
bec2 bca7 bdd4 be44 bcc0 be1e 3d97 bd4a
be7a becc bf12 bdba 3e5c be86 bdc1 be95
3d34 bea1 bebc bf08 be72 be96 bd55 bf1d
bdac be1a bd78 3e53 bdba be55 be38 beba
be93 be14 bbd1 bf15 bcc4 beae bf0f bd0e
be20 3be0 3dcf becc bc32 bf18 bee2 bcad
3e1b beac bef9 be5d 3d18 be34 be42 be62
be58 be02 3e52 bc40 bd96 bf0f befc bdfe
3e87 be36 bd14 3cdf 3e29 3e37 bcf8 3e20
3e8a bf09 3d4c be54 0000 3eb9 be7d be85
bec9 bef0 be46 be62 bf16 be29 be8b bc31
bc36 be20 bd14 be6e bebd 3e0d becf beb8
bef6 beed be9d bd97 bf44 bf1d bef7 bf0b
bee1 bf04 be7f bedd bea6 be56 be09 be05
bdbb bd80 bece bee4 bd93 bd58 befe 3dd2
bf90 3db0 be91 bf30 bde2 bda0 be94 be26
3e0e be94 bedc bea7 be9a 3d2a be9a bf07
be3c be7f be1a bea5 bf6c be4f beaa be94
bdce bf0c bf16 bf4f 3d45 be97 bec8 bead
3e17 be6a 3d44 bdac 3e50 3d64 bf2f 3ce6
be84 bdc3 be1f bf26 bb58 beae bd14 be5d
3da0 bf03 bef9 bec7 3c38 bed0 3c20 be04
bf26 bdf5 be77 beba bee5 beb3 be82 bdea
befb be4a bf20 bedc bc80 bd47 bddf be9f
bea5 be88 3c00 be1d bde2 be82 bd50 bef8
3c10 bd4e bd9c bed5 beab 3d0e bca4 be97
bea2 bed6 be33 bde0 be20 bd16 bea8 be8e
3d2e beae be74 be7d be14 bd3a be26 bef7
bf34 bf3b bee5 bf08 bebe 3d5e be79 bd8c
bf3b bccb 3cee bded be34 be81 bf00 be02
bac0 bd86 bdd6 3e7c be92 bea0 bdde 3ea5
3e6e bdfa 3d2a 3c70 beec bc61 be1b be87
3c50 be56 3dc8 beb4 bde5 3ccc beba bf2d
be46 3d96 3e20 3d4c 3cf8 bd8a be18 be78
3df5 beb5 be93 bf29 3e01 3e11 3e0c be55
bd51 bd0e be5b bdff be32 beb1 bd9e be2c
be94 be92 be23 be90 be8e bc98 3dd6 bec8
bd84 be80 bea1 3e7a bd9a bea9 be59 bbac
3e3a be7b bdb0 be79 bdaf 3cb1 3dc7 bd3c
3d6a 3bd8 3b40 3c1d bce8 bde2 be3c beb8
bd8b be2b be46 be86 bf1f bd8d bde5 3e6e
bdde be9e bf07 3e98 be88 3db8 3cd3 3d61
beea 3d94 3e66 bee0 3d3c 3e0a be5c beb1
3e6e bf07 bec6 bed8 be1c bf1e be76 be89
beb6 bde7 be89 bf0a bd08 be95 be17 be28
3e98 beff be90 3a0c be43 bed1 be9d bea0
3e2c bd90 bf35 be9c 3e57 be0e bee6 be0a
3e2e bdd6 be4c 3cec bc4c beb2 3bbe bf01
be79 be08 bec5 be90 be23 bd28 3d99 3d69
be12 bbc0 be6a be36 be98 be12 3e43 bdd2
bf1d be6a beb7 3e0e be66 3c6c 3cf0 be10
bdc7 beec bee0 bdb1 be7e bdc0 beac 3d24
be17 bd99 bd54 bece be7f 3e08 3ed9 be4c
be94 bcbe bce4 beb6 be65 be85 be23 be6e
bebb 3f16 bdc6 befa 3e08 3d3c bef0 bed2
bc9c bf0c bf0b bf3d bdcc 3da2 3d90 be8c
be01 3d24 bdae be3b be99 bd9f bcaf bd19
beae be54 3dd0 beb2 be3e bc1c bed7 bf10
bd97 bf05 3d38 bbfc 3e08 bcce bea7 beb8
be4c bee3 bde7 be3e be5d bf1e be10 3e9e
bed7 3dfe bf0c 3b80 bea1 3de9 bea1 bdfa
be18 3e33 be1d be2c bec1 beb6 bcc6 be86
be2a be98 beb7 bddc be98 be9c 3e5c be8e
bee5 3d01 beca be0c bef1 bf7f 3e22 be37
bee6 3d7d be2e be42 3c70 be23 bc88 bc4c
be98 be48 beee bd72 3ea4 beb8 3d34 beb3
3c40 be92 beb3 bf13 bdf3 be77 be28 becb
3e14 bcf4 bd4a 3da6 be0d be14 be84 be40
beb4 bc48 bdfc be92 3dfd bdfd be7c 3d94
bd3e bb00 be51 be74 3e46 bed3 beab 3e7c
3e3e bea6 bef7 be1f 3e0c be41 be2c bebd
bd7f bea2 3e12 3b80 3d18 befc bf19 be6e
3e9b be6f be4c bdc4 3dde 3e56 bdcf 3e14
3c80 bf20 bd6c bdb8 3cbc 3e47 be7f be20
be8f bf15 bda0 be06 bf1a bee7 be38 be4c
3dd1 be95 bc36 bdc9 befe 3df4 bebb be9e
bf08 be9a be8a be15 bf2c beec be8d bed2
be4e be6c be88 be36 be09 bd22 beab bd76
bcf0 3dea be38 beb6 bc22 bde6 beb5 3b40
bf6f bcfe be8f bf11 be0f be12 be0c bd94
bda6 be26 be86 bdef beeb 3e14 bede bed6
be5b bef2 3d10 bdde bf3f be90 be86 be0a
bc68 bf47 bee3 bf20 3d82 be8a be8d be8e
3d9f beb7 3d3c bd26 bc20 bdce bee2 3d2e
bdaa be5c be04 bf1a bb8c beaa be06 bde1
3e9f becf bf1e be8d bcbe beb3 3e04 bd74
be4d 3de5 be8d bea9 bec7 beea bc8d bdda
bef2 be16 bed2 be3f bd48 3d91 bcd5 be76
bd50 be1d 3e87 be8c 3cec bd3d be11 beb4
be16 3e00 3c80 beda be76 3dcd bdab be00
be7e be91 bd6c be1d be9e 3d26 be15 be6a
3daa be26 be8d be2e be61 3d04 be1a bf03
becd bf0e bee3 be7c bec1 3ce0 be65 bd12
bf06 3d2d bcee bca0 be37 be12 bee3 3d9e
3d07 be14 bd52 3e86 be7e be9b 3d28 3ee5
3e66 3d17 bb94 3c94 bee3 3df4 bcd0 be4c
3c60 bea6 3dec bedd be10 3c60 becb bf07
be0f bd85 3eb8 3dec 3c60 3d66 3cf0 be0e
3dd2 bebe be41 bec4 3e5d 3e62 3e4a be95
be4e bd2c be63 bdb8 be0c bec2 bd9f be25
be92 be92 be40 beae be04 bd34 3e35 bef8
3b40 be12 bdde 3e4d be83 be88 be62 bb88
3eab be1e bdd5 beae bb60 3cc1 3d99 bd30
3df2 3e21 bc80 3dcd 3d64 be18 bdda be58
bdc4 be02 be63 be47 bef6 be30 be4e 3e88
bdad bea5 bf11 3e9e be84 be00 3df2 3dff
bef2 be08 3e6a be1b be02 3dc1 bd94 be7f
3e8a bf18 beaf bef8 bc82 bf10 beb6 be33
be60 bd9e be3e bec6 bd5c beb4 bd52 bd17
3e9d bf10 bdf1 bd5d bdd2 be11 bdec becf
3e29 3cf4 bf11 bec9 3db9 be85 bef6 be50
3e79 be35 be43 bdc4 bd3e bdee bd6b bf00
bec9 3d66 bf05 be67 bc61 bcd0 3e2e 3d13
bd54 beb3 be1a bddf beb0 be86 3ed7 3d85
bf00 be19 beaa 3dbf be58 3d93 3d92 bda1
be4e be49 be6a be0f be3c bd26 be73 3e0a
3d84 3cf6 be1e bef3 be8a 3e13 3eaf bcf8
be36 3cc0 3cae bebd be16 bdec bdcc be58
beec 3f2e bdaa be9f 3e2e 3d10 beab bea0
3e14 bed9 bf09 befb be2b 3e14 3e11 be9d
bdc6 bc64 bdf3 be31 be35 be5a 3dee bdec
becb be85 3ce0 bdf1 be80 bd58 ba40 be64
be80 bea0 3d83 bd76 bd92 bdce be93 beac
3bf8 bed5 bde0 3c88 be3f bf2d 3d2e 3ed7
bedc 3e68 befb bd28 be50 3da4 beb2 bd00
be80 3e22 be90 bea1 be92 be14 bd4e be67
bda6 be95 bf00 3e51 be86 be15 3e81 be89
be97 3d84 bed6 be68 bedc bf7b 3da4 bb00
bea2 3dd0 bd62 be0e bd5c be63 bd2d 3dd0
be85 be6d beef bd16 3e5a be9f 3d14 be89
3cf0 beb4 becd bf1a be3f be8c be7e bef0
3dc6 bd28 bd54 3e8c be68 ba00 be65 be95
be7c 3dab bde3 bea2 3cfe bde2 beb8 3dc6
be66 3cc8 bd52 bd7d 3e12 bec7 be50 3e9e
3e5f bea9 bed4 be94 3eab be19 be27 be5c
bdae bea9 3e2a 3d30 ba80 be60 bee3 be22
3ea1 be4c bdcf 3d5e 3dd2 3eb1 bc38 3e30
3e1b bef3 bc38 be0d 3cc0 3e58 be56 bcc0
be8a bf0b bdb4 be81 bf31 bef3 bc2a ba00
3e6a be1c bc6a bdd8 bf0d 3d54 be1a be3b
bf16 bdfa bea4 be6a bf18 bf03 be8a beba
beae be99 be66 bde2 bdaa bd7a bf05 be3e
3c30 3da4 be5c bedf bd2f bdce be9c 3ca8
bf54 3c20 bce4 beb0 3cc4 be07 bcd6 be1f
bdbb be10 be38 bd44 bee7 3dff bea6 bedc
be0e beee ba80 3e0b bf4b bcb2 be91 bd93
3d56 bf51 bf05 bf1f bac0 be53 bea0 be61
3e2b bea4 bd38 3df4 bd67 be16 be9f bdd2
beb8 be5c 3d7c bf14 bccd be18 be62 be91
3e60 bedd bee2 be0a bce1 be7e 3db2 be47
be6e bd3a be81 beb0 be82 bef6 3dbd bde0
bebe bd4d bf00 be44 3d78 bd3d 3c54 bea6
bdb4 bdea 3d4a bebb bd20 be06 be33 be6e
be6c ba00 baa0 beb7 be7a 3d8b bdd8 be1f
be9a be86 bdbc bdea be7e 3e35 be7e be51
bd14 bd7a be46 bda7 bdbe bdb1 bdb7 bef4
bea0 bf10 be8d bec4 becd 3e04 be62 be18
bf03 be1e bba6 3e3c bd24 be45 bf04 3db0
be28 be9f bdb2 3e7f be66 befe 3e0a 3edd
3e42 bc34 3d1f 3cd0 bef5 3e0e be14 bece
bcf8 be82 3e73 be9d be87 bd6c be58 bec6
be68 3d24 3eab 3e69 bd30 3c4c be6b be1e
3e46 bee6 be0d bea7 bd67 3c60 3e1b bed2
be85 3d04 beba bdfe be4e bf0a be16 be42
be30 bea6 be27 be5b bdb3 be16 3db8 bee1
bddc be4f be72 3e7e be7c be9c bec4 bdbe
3ea2 bde2 bc70 be1a bbc3 be2e 3c50 3dd0
3e39 3e94 bd22 3c06 be23 be4c be56 be12
be05 3ce8 be5e be59 bf07 be14 be03 3e6f
bd84 beec bf09 3eae bebe be6c bdd7 bd8d
bec1 be22 3e70 be6a be60 3cdc 3e25 be74
3e50 bf3e be48 becc bd14 bedc 3c2b bda6
be55 bddc 3be0 bebe be07 bee0 3e0a bc74
3e54 bf01 bd7c be3e 3c90 be69 be7f bef5
3d81 bd00 bf30 beee 3e42 be44 beb7 be2c
3ddf bcae be36 be18 bd4a bd2c bd40 bed0
bed8 3d85 bf1a be54 3c12 3c30 3e23 3e90
3c70 be83 bd40 bdfd be7c beb4 3eac bdd0
beb3 3a00 be95 3d93 be09 3e5b 3e70 be6e
bd5a be11 be35 be4e be62 bd92 be2a 3de8
3de0 bd61 bdbe bf32 be90 3ddd 3eb0 bd12
bdc6 3d12 bdc6 be56 be87 bd78 bdc8 be6e
bea8 3f06 be0a bec6 3eac bb00 be9e bcf2
3eae bf28 bf0c bf08 be75 3db5 3d63 be9f
bd86 3d16 be9e bdbb 3d1c be62 3e16 bd84
bea4 be92 be1b be08 be86 3e18 3dd9 bee1
be66 bea1 3e17 be16 3dca bd38 beb6 be07
bd90 befe bd9f 3d98 bd54 bf32 3e12 3ee8
be45 3f0e bf2a 3c88 3bc0 3e2e be14 bda8
bd05 3e35 be28 be3a bee4 be93 be0f be5f
3b60 bedc bee9 3e47 be74 be9c 3e4d 3c50
bf02 3e82 be96 be62 bf05 bf8d 3dd9 be28
bea8 3c60 bc30 be8c bc88 be58 3d04 3e68
bec6 be9b bec6 3cf8 3d1e be2e bdf5 be36
3c00 be4c be43 bf19 be8c be90 be84 bea5
bc90 3c10 be6c 3e94 be09 be20 bca0 bec5
bca4 3d96 bb08 bec9 bdb2 be88 bede 3d94
be05 bd8a 3e30 bde4 bc76 becf be50 3e45
3e9b be21 bf11 be96 3ef0 be3d be14 be72
be08 be8a 3e38 bd96 be05 beef beaf be3a
3eb5 bea3 bd9e 3d6d 3e2d 3ece 3e37 3e7a
3d95 bf1a bd96 3d3c 3e46 3e99 be2e bd82
be04 bf26 be8a bed4 bf1e bed2 3d3a bd23
3dca bdfe bd60 be16 beff bde2 becc be6e
beec bd16 be7c be6d beb9 bf2c be53 be83
be8c bebc be90 bd22 3bc0 bdf6 bf06 be70
3c40 bd2c bd8d be93 3be8 be32 be5a 3e54
bf1c 3db1 bbb4 bec9 3d50 bd62 bdc6 be55
bba8 be0c be84 3d7d beef 3e28 bf04 be61
3c94 bebb 3d24 3e38 bf56 3dd8 bea8 bdbf
bda8 bf2e bf1a bf5e 3d98 be9e bdae be77
3e9e be1f 3d8c bd08 bcc8 be14 bf08 3d6d
be87 be21 3e15 bf14 bb20 be70 bebc be9b
bd32 bdea bf0b be3d 3d16 be82 bcc3 be94
beb0 bc88 bd34 be9a bcec bec2 bda3 3c1e
be98 bdb0 bf12 bee7 3e08 3d96 bd59 be97
be52 be1a 3e2e bed4 3bb0 be9e be6e be16
be93 3c7c 3d22 bdf5 be8d 3dfa bd04 be38
beb2 be7c be6f bde8 be2c 3e8a bdca be94
3e1c bdd5 beb1 be17 3ce6 bda4 bc48 bf04
bf0d bf4c be51 bf00 be65 3e1e be89 be74
bea8 be24 3c11 3e62 bd34 be74 bf26 be00
bdfa bec6 bed0 3e33 beb5 bed1 3ae0 3e2f
3e46 be2e be47 bd58 bebc be2f be3c be6d
3e51 bdfd 3e1c be88 be87 3d16 be90 beef
be03 bc66 3e85 3e3e 3cb8 3da8 beb2 beb4
3d62 bea2 bdea bebc be74 3e20 3d24 beaa
be1c bd30 be70 bd63 beaf bf27 be80 bd62
be9a be9f be89 bd89 be2e 3e1b 3dcc bec2
bd98 bd3a bec2 3e8a bdd6 bdda bed4 be32
3dac bddf be2a be0f bdf8 bdd5 bd32 3de8
3e0f 3e35 3e1e 3eb8 bc30 3c80 be86 be84
bd65 be65 3b90 be04 bf27 bd6c bd53 3e2b
be3d bf09 bf38 3e94 beb6 be21 bd86 bc98
bed4 3c90 3e2c bea7 be1e 3dfe 3dc8 bed5
3e0d bf61 be66 bea0 bcc2 bf24 bda9 3d3b
bec8 3e1c 3dbc bf01 be70 be92 3de4 3dba
3e9d becc be18 bb00 bdb7 beb6 bea6 be38
3e23 bdb6 bf28 beec 3eb5 be97 be81 be66
bdb7 bc02 be8b be14 3d42 be11 bd77 bed0
bec8 bdb8 bf12 be0d 3cf2 3dfa 3e1a 3e0b
be54 bd66 ba80 be22 bebc be8c 3ebf 3c36
bf29 bdda bdc2 3e09 bde4 3de0 3d9e be29
bbb0 befa be42 be38 be66 bdda be84 3db1
be10 bd27 be5c bf09 be0a 3d28 3e74 bdfa
be9e bc00 be5c beb3 bf12 3c48 be40 be02
bee4 3f0c be1d beed 3e9d bb40 bee1 beb7
bcaa bed2 bee8 bf36 be46 bd7d bdd4 be36
3c2e bd14 beda bdaa 3e3a be3b 3dc8 3d96
beba be9b be76 3e64 beb2 be3a be5d bf17
bdc8 bed2 3db8 bd02 3e0d bd26 bebd bebd
bd3e bf08 bdc3 3e07 bac0 bf35 bcea 3ed6
be11 3efc bf04 bd82 be10 3cd4 be0c bd50
bd6c 3e76 bdae bdea bee8 be3e be45 bda9
be94 becc bed6 bce0 bec6 be54 3e9a be26
bf16 3da7 be8d bdef bf2a bf67 3d8a bea8
be92 bdbc becd be65 be36 be12 bc00 3e00
bf16 be38 bf10 be20 3e3a be0a bc48 bed0
3dd3 beb3 be8b bef0 bea9 bec9 be7b bf0e
be34 be54 bdda 3e88 be03 bdf2 bdc9 be8b
3cf4 3c9c bc6a bea3 3db9 beaf bebe bda2
be74 be05 3db3 be28 3dbb beff be89 3ebe
3e92 be56 bef6 be85 3eb0 be0a be6f bdc0
bec2 bd7a 3e75 3d24 be50 bf13 bf07 bd52
3eb9 bea3 be4f bce8 3cd6 3ec9 3c84 3edb
3b92 bf42 bd95 bd1b 3ddc be53 be19 3e22
bda2 bf32 be7f 3cc7 bf36 bf16 be0f be12
3e8a 3cd7 bdb6 bd48 bef1 bca8 bef9 be57
bf19 be66 bebe bdda bf1d bf5c beb4 be3c
bd40 beac be1e bd58 be28 bd4e bf0a bcd0
3c50 bdca bdd0 be18 3d5e bd98 be53 3e38
bf38 3dc6 be96 bf0f 3d24 bb50 be1e be13
be52 be43 be9d bd22 bed4 3e34 be8d be91
bd82 bed8 bb60 be0e bf50 3cb0 be1a bd75
bcc4 bf75 bf14 bf03 3dfd be9c be5b be09
3e21 be46 bd80 3d09 3aa0 bbd0 bf36 bd91
be28 bdbf 3e3c bf0e bd8a be85 befe be5d
bdfd bdf7 bf2e bea5 bd8a be7e baa0 bed1
bee0 3d80 bdc8 be79 be68 be52 3cc3 be3b
bebe be39 bf0c be00 be0c 3bc7 be05 bd74
3cdc be4c 3ecb becb bd02 bdcc beac bdcf
be8e be45 3e3c be86 be8f 3d59 be11 beec
be64 be53 be3a be01 be9b 3dc0 be26 bdd9
be0d bd10 bedf be2a 3cfc be10 bde6 bf25
be98 bf0e be91 be55 bea7 3e6f be3e bdd0
beec be90 bc8d 3e7c 3cd8 be9c bf08 3e2c
bcd8 be1e bedb 3eac beb2 be7f 3c38 3eae
3e3c bd7d 3bdc 3dde beb1 bd18 bdce bdb8
3e1a 3dac ba00 be6a be39 3daf be9d bf06
be86 be31 3e18 3dfc 3c50 3e90 bd72 bede
3e24 be88 bdfd beb7 be20 3e38 3e97 bedb
be42 be26 be9a 3d54 bed0 bef1 3b80 3dc6
be9d be80 be93 be8d beec becd 3e37 bea7
bd4c be42 be90 3e93 bdfd beeb be5b be4c
3e8a be53 bccc be14 be88 bc5a be52 3e3a
3d3a 3d29 3d9c 3cef 3db2 3ca4 be61 be44
3d2c bdec be61 3ec4 bef2 bd85 bd04 3ebc
bdf9 bec9 bf1a 3e25 bf10 3e1d 3e00 3d30
befb 3ddc 3e6c be71 be3a 3e3d bd74 bee4
3e8d bf15 3dbe be76 bd9e bf1a bdb8 bdb9
beb2 3e14 be2a bf0c be46 beb8 be08 3cc4
3ed4 be1a 3e27 3cc0 3d00 be99 be94 be80
bcbe be86 befc bee0 3e7c be26 be94 be3e
3df2 3d3e bebc be69 be3a be40 3d91 beeb
bef2 be76 bf1c be00 bc8a 3c98 3de4 3e5c
3e14 bdd1 bede bd8d beac be40 3e24 bb58
be78 bd89 be11 3e1c be6e 3e15 3e49 3e18
3e59 beaf bd61 3d3c bed8 bc28 be96 3e7b
be0c be2b be24 bebc be1a 3e93 3e97 bd79
be21 bd8c be90 be13 bb00 be2a bdb8 3d60
bed6 3f30 bd79 bf08 3e21 bd18 be78 beb0
3e88 bed8 3d7a bed6 3dc2 bd6e bdf8 be72
3e6e 3d90 bea3 3da1 3ea2 bda3 3e2e bd54
bdc5 be54 be2e 3b80 beee 3deb bdf1 bf0b
bdd6 beec 3e08 be23 3ea6 bda6 beb9 bea0
3be0 bf0a be6c 3e08 3d28 bf37 bcbb 3f5b
be23 3f01 bf1b 3d40 bdac bde6 be8c bdb4
3db0 3e8a 3d9e bda0 be90 be0f bdb9 3d2a
be42 be87 bf00 be5c bea6 be59 3e96 be7a
bee8 3e5d bede be3f bf35 bf34 3da4 be28
be82 3e5a beb2 be76 bdec bd90 3e03 3df2
bee0 be55 bf08 be3e 3d90 beb3 3d01 bece
3df2 be68 be4e bf10 be48 beaa bcd6 bf03
bcd0 3e0c 3c40 3e33 bd84 bac0 bce8 beba
bd48 bc10 bd00 be12 bdb5 be14 be88 3bd9
be75 3e0c 3dea be39 3e79 bec7 bd9f 3ed3
3e37 be82 bed9 be9a 3eba be4b bc50 be91
bec0 3dc6 3e55 3d92 be55 bf17 befc be60
3edc be6e be30 3bf0 3e2c 3ebd 3df6 3f03
3d56 bf2a 3e02 be2d 3cc0 be0b be14 3d40
be86 beed be4e 3e10 bf07 beae be0c be13
3c5b be40 3da5 be28 be9c 3e86 bec0 be54
bf0e bd58 be61 3ce0 3df2 bee6 be89 be27
be54 be54 be60 bd40 bd80 bbc0 be91 bdfb
3daa 3dd6 be65 bf10 bd00 3ba0 be8c 3e60
bf34 3e2f be60 bf03 3a80 3d2f be08 bdd6
bcf0 3d4c be4c be4d be92 3d20 bedd be81
be51 be8f be28 bcf8 bf45 bd50 be13 bc90
3e82 bf40 befe befa 3af0 bea5 bdfb 3d58
3ea6 bdb8 3f00 3d8e be1d 3e4a bed2 be64
be27 be29 3da6 be9a 3e06 bed6 bed6 bec2
3d7c be6c bf1b be88 bd8c be1f 3db0 be8b
be90 3e86 be33 be9d be34 be95 3cbe bd2e
bea4 be3a bf3d be8e bcd0 3d25 bdcc bc70
bd54 be84 3e2e bee6 bb80 3d93 be88 be3c
be2d bdae bd08 beda be98 3da3 be78 bea6
bd20 bdba be5b be08 bd8d 3df8 bed6 baa0
bd28 bda4 be9a be90 3da5 be33 3c84 bf21
be58 bf03 bed5 beb2 bec3 3ea9 bd3c be1b
bf29 be68 bda8 3e0b 3db2 bea2 bede 3e12
be63 bed5 beab 3e48 be99 be48 bd4e 3e16
bd98 bde6 3d18 bcc0 bef5 3e0c bdb2 bdf3
3e8c bd00 bd8e bf25 3e22 bc20 be5c bf3a
bee5 3e5d 3df3 3d8f bce8 3e92 bdbf bef0
be54 bdd0 be88 bf2d 3bac 3e9b 3e0e bf19
be94 be35 beae 3df0 3d8c be86 3bf0 bda3
bf1b beca be82 beee be03 bf28 3eae bf10
bf04 be38 be32 3ece be8c beb8 be86 3e16
3edf beb1 be74 bea9 bea7 be0e bdbe 3e06
3e7a 3ce6 3dec 3e6a 3cc0 be87 be93 bd68
3dff bea5 beb3 bef0 beb7 3de6 bdeb 3ea0
bea2 be9c be90 3eaa bf38 3ecf 3ebc 3ea9
beeb 3dbe 3e44 beae be6e bd64 3dbd be82
3ecb bec2 be75 beb4 3e2c bf13 be43 bec6
bee2 bdc8 be48 bf4a 3c30 be84 be82 bde6
3eec be7b be4e becd be2a bf18 beea be5c
3c98 be4c befe bf06 3f0f be08 be84 be72
3e7e 3d1c bd94 be2c be94 beab 3e42 bec8
bec1 be2b bf44 be22 bd39 3d8e 3dad bec6
3d9c bd00 bf05 bd3c bee0 3b80 3cfd bdfe
bef9 be5a be2c 3e8a be8b be58 3ec6 3e5f
3ddc be6e bef9 bdb2 be24 bea0 be35 3da4
beda bdbc be34 bf28 bdc1 3e71 3e52 bde2
be8c 3d50 bddc bd0a be60 bb80 bca0 3e04
be92 3f30 bdbe be49 3e82 bde8 bef9 beda
bed0 bee5 bc80 beee bc86 3cad 3db1 bec6
3eb7 3d06 bea8 3d90 bdd1 beae 3cb9 3c7c
be94 bf0f bea6 be69 bf1e be82 bec5 bf39
bda8 bf1a be8d 3d58 3f0a 3d6e bf3c be9f
beb2 befa be9e 3da8 bdec bf75 3de0 3e58
bdf8 3ee3 bf61 3e55 befd bea8 bf03 3ba0
3e5e 3e76 bf1e 3d11 bca8 bebf be31 be0f
beaa beaf bf27 be76 be3f bea3 be1a be9a
bed0 bcf2 be30 3db0 bf43 bf10 bd88 bec8
bed5 be78 bee8 beac 3d48 3c0c 3e39 3db4
be2e be97 bf10 be96 bd2e beac 3e6c bf0f
bda6 bed4 bef4 beed bed4 beee be74 bee7
bd9b be8c bdc7 3e4a 3e76 bba0 3d2c befc
bdaa be50 3f00 beb8 3d3f bf02 be94 bea6
bf00 3e0c be88 be6e 3ec2 bef3 bee3 bea8
3dd0 bdf8 be22 be96 be20 befe be4f 3d02
be33 be2a 3e7d bcd0 be5b bea8 bea0 bdbd
3eb7 be4f bdb2 3ea1 3eb4 3f04 bd20 3ed8
3e14 be95 3dad bdec 3d9f 3ede bf06 3cf8
bf1b bf2c be48 3eb3 bf0c bec8 bea0 bd88
bc60 3dd8 3de1 bd1c be90 3f23 bef4 be54
bf01 beca bebe bd8d bd18 bf0b bf0b be02
bedc be88 be2b be50 be8b bc40 bce4 bd5c
be50 3e04 be8e bd33 be3c bbc0 bf32 bd94
bf6e 3e67 bf17 bf15 3e36 3db2 be68 bda2
3e32 3d8d be8d becd bf02 3cb8 bf24 bee8
3d88 be18 be65 3d50 bf24 3e0d 3d76 be3a
3a80 bee2 bef3 bf1b bd22 bec4 be8d bd76
3e02 be48 3ea6 be4d 3e48 bd34 bed2 bd16
3d18 bda0 3de4 beae 3ea2 bef0 be83 bcb0
3eb3 beac beb6 be59 be5a bedd 3db5 bef2
bd18 bd04 be9e beac be90 beae 3ddd bebe
bef0 bce3 bf86 bf0e be6a bdac bed0 3dcb
3e3b be9f 3e98 be8a bdf2 bec3 bec4 bed1
3bc0 3e0c be16 bec2 be7b bdba be24 bf16
be0d beb0 bebc be9a bdb4 3cda bf10 be87
be12 bd56 bd04 be96 3e8a bd54 be7a bf25
bf30 be65 be9c be8d be42 3e05 be38 bed0
bf5b be5c be64 3c80 3da2 be8a bf00 bcfe
be76 bebe be72 3dd8 bea1 be80 be7e 3e46
3dd4 be13 bc96 be0a bf04 bde8 be1a bf27
3bc0 bdf2 be42 bf22 bd9c bdcb be5c bf82
bf0c 3e2c 3e28 3d3e 3dac 3d8a bea8 be9b
bdce bea5 bef5 bf3e 3c88 3db2 3e8a bf08
bde8 bc64 bebf be0e bcf0 bee6 becf bdea
be8f bf06 be6a bea2 becc be87 3e1e bea6
bef0 be3f bed8 3e9a be35 be36 bebd 3dda
3e46 be9a be7d be97 3d99 bea4 bc28 bd4a
3e31 be99 bdc9 3ccc 3cb8 be36 beac be86
3cb8 beb0 beb3 bf1a bf8e bc90 be24 3e38
bec1 bed2 beea 3f04 bf06 3e2a 3d0b 3cf5
bf1f 3df6 3e3a bee7 3e31 bd22 be2e bebc
3ea1 bf18 beee bf35 be10 bf10 bd8e bf05
bf13 bede be78 bf20 be1b be73 3d68 bda0
3e7c beea bf19 bf0d be82 bf30 bf16 be9f
3db8 bd8e bf51 bf15 3e50 be1c beba bdfb
3ed1 be05 be85 be12 be27 3d8c be42 bee8
beea be39 bf3a be9d bd04 be5a bd71 be61
3df9 bcc4 bf19 be18 beb0 be54 bccb 3e68
bf1b bdf2 be96 3dfa be12 3d06 3e81 3e2d
3e87 bee2 bf1f bea9 beb7 bee1 bef9 bdd2
beb2 be9a be8c bf20 be60 3e54 3e73 beaf
be87 3d1a be78 bdfa becd bdf0 be75 bca0
bec6 3e8c be91 bf3a 3dfd 3cd8 bf0d bf02
bf26 bf22 be8a bf41 be2e bcd0 3d8a beea
3e03 3df8 beb3 be12 be5a beb9 bd78 3c24
bea4 beae bde5 be91 bedd bd40 beb0 bf46
bdc6 bf56 be06 be38 3ed8 be40 bf3a bee2
bf0d bf49 be42 3dd8 be37 bf58 bd68 be58
be9c bddc bf7e 3ce0 bf1f bec7 bf03 bd78
be38 3ea6 bede bdc4 be93 bf26 be41 be95
be64 bf1f bf46 bdc0 bb80 bf18 bedf bdc3
be89 be4e be98 be82 bf26 bf5e 3de8 be97
bee0 be5e be83 bf02 bda0 bdac 3dc6 bbb4
be51 be76 bf68 bdc7 3cd6 bec2 3d13 bec4
be2c bec6 bf01 bee4 be8c befa be52 bf2c
3be0 be9f bd61 3ec6 bdcb bcf1 bc08 bec8
bea8 be3c bb84 bec4 3d3c bef0 bf02 be10
beae be32 bdae beca bdc0 bf27 bf16 3e09
be67 bec1 bf1e be93 bdd0 beca be96 bef4
be5e beb2 3e9f 3e42 be3e bef4 bedd be22
3e26 be36 be4f 3e2e 3e37 3e6b 3da7 3e55
3e1a bf34 3db0 bea9 bda7 3def be98 be92
bef7 bf2b bea7 3cf0 bf0e bec8 be3e bdc2
3e23 bebf bd41 beb0 bf07 3dcc be97 beba
bf06 bee6 bf11 bd82 bf51 bf4b beac becc
bec6 bf05 bebb be82 be9c be04 bddb bdf2
be69 3e58 bef4 be84 be06 bde8 bf17 bd74
bf85 3ebe beb0 bf3b be07 3d91 bed5 3d0c
3e22 be66 bf04 be67 bedc bd24 bf1e beed
be15 bd23 be8c bde5 bf44 be72 be4b beac
bdac bf37 bf06 bebc bd4f bebe be9d be63
3d97 be11 3e1a be96 bcb8 3d7e bf12 3dd3
be54 be51 be93 bf3c 3e1e be8e be20 bec0
3e60 bee8 bf32 bf0e bc20 bef1 bd96 bf05
bebe bde2 beba bee8 bf04 be91 be21 be6d
bf1b be4e bf5c beb9 be34 bd35 bec3 be6f
bc10 be83 3c7e be76 be75 3d6e be50 bf16
bd97 bc20 be38 befb be95 3d94 bd98 bf08
bec0 bf3e be8e be69 be2e bdf4 beb0 be9b
bda4 bf0d 3d32 be74 3d90 3c0e be7c bf3a
bf44 bf24 beea bf2c beeb bdab be70 bebe
bf08 bd2a be79 3cd8 be0e bec0 bec4 bcd9
be2c be96 be24 3e8d bea4 be8a be34 3e23
3e82 be38 3cd9 bda0 bead be02 be8d bf0f
3e32 bdec bd20 bf14 bde7 bda6 bec0 bf56
beab b940 3e68 3d62 bd16 bca8 beab beb4
bdb8 bec6 be94 bf23 3c9c 3db6 3e14 bebc
bcdf 3d6f be5a be1b bd18 bee0 be9b be3c
be64 bed0 bd4a be5c be80 be2e 3e2f be91
be15 be89 bec4 3e80 bdf0 be39 be92 3c62
3ea1 be50 be2c be8a bd5c be1e bcb4 bdb6
3dec 3cd4 3e09 bdd0 be58 bdb6 be48 be9a
bd36 bec6 beac bf0c bf6a be06 be05 3e62
bea8 beae beea 3f07 be9f 3e4a bd4a 3c94
becc bc28 3e68 bf1a 3ca8 3d2e bdfc bed1
3e9d bf0b bee7 bed0 be6f bef5 bd85 bea2
bef6 bef6 be60 bf0e be28 be5a 3db2 bd9a
3ea4 bee4 bec7 beb8 be67 bed1 bece be84
3e1d bda5 bf46 bed2 3e18 bea6 be9e 3c48
3f04 bd71 be8b 3cb8 bdb2 bd6c bdae bef3
beb4 be0a bf03 be14 bd93 bdcc 3d25 bdaa
bc28 be32 bee0 bd88 bec6 be44 3e2c 3d8e
beee bc0b bebd 3df8 be7b bcb8 3d8e bdfa
3b40 beff bf04 be41 beb6 bec4 bef7 be1d
be78 be7b be88 bf2f be60 3dda 3eb0 be9a
be8e 3d37 bdd3 be4f bebb be10 be93 bd08
be6a 3ec4 be95 bf0d 3dac 3ce0 bf0e bed0
be8b bf26 bea6 bf40 bdea be01 3e60 be9e
bcfb 3d27 bdf3 be4b be4b be0c be21 3d7e
be49 be4e be03 be8c be70 bba0 beae bf1b
bda7 bf1c 3d6e bdda 3e24 bda4 bf0e bee7
bee3 bee4 bc84 3cc0 bebc bf16 bdbc 3db9
bedf 3d8d bf1a bdb4 bec8 3e35 be86 be07
3c10 3e18 beb8 be56 bee8 bee3 be2f be81
be9d bead bf3f bdaa bdbe bee8 3d34 be00
bea0 bdc3 beae be2e bf0d bf7b 3d90 be5b
becc 3c88 beae be89 bd5c be0b 3d62 3cd4
be99 be06 bef6 be2c 3e03 be79 bcad beb7
bda8 bec5 be95 bf07 be20 beb6 be92 bf0d
3d93 bd7c bcfa 3e9c be61 bd82 be2a be72
be64 be0d bcba be94 3e1c bea2 bf05 bd8a
be8a bd3e be2d be90 bcb4 bf0a beb7 3e73
bdee beb5 bf19 3d2c 3e66 be72 bee1 bec5
bd01 beef 3da5 3ded be4a bf1a bf12 bea6
3eac be84 be52 bd85 3dfa 3e5c bcc0 3e34
be0c bf5d bda8 be74 3cd4 3cb4 be91 be32
be53 bf2e be64 3d40 bf23 bf21 bdbc bdfa
3deb bea4 be08 be30 bf18 3d68 bf06 bea1
bf1c be7c beb3 be52 bf42 bf1b be87 be76
be79 becc bec2 be00 be1a be10 be84 be2d
be80 3d48 be88 be43 bbc7 be06 beaa 3d90
bf83 3b40 be9c bf14 bc20 bd2c bea0 be2f
3c30 bd7e be3b be36 bf0e 3e6a bf39 bf0d
be0e be3e bd60 3ca0 bf3c be8f be31 bea4
bda6 bf62 bf19 bf02 3d92 bea6 be40 beaf
bdb5 bea4 bd90 be1d be13 3d99 bec7 3d86
bd45 be4a bd94 bf0b 3d39 be9e be1e becd
3e5e be78 bf19 bed2 3e04 bec2 bdea beae
be8a 3c78 bec2 be42 bed2 bf13 bd6a be6c
bee7 be0d bf2a bef1 bd10 3e11 be6d be81
3d56 be53 3e72 bed5 bd93 3db2 be2d beda
bdf3 bb00 3d0d bef2 bea4 3e6e bda0 beb1
beb4 bf04 be23 be78 be48 bc73 be5f be9c
bd58 beba bd56 be73 bd28 bc92 be9d bf30
bf05 beff bec1 bee2 bf04 bcde be89 beaf
bebe 3c5c be32 3dba be54 bec4 befc 3d50
be3a be8e be93 3e9d bea3 be4d bdd2 3ec2
3eb8 3d29 bd8e be5c beb8 3d0a be59 bec9
3e73 bd98 be3c bee0 be68 3df0 beb2 bf25
beaa bd7a 3e4f 3d9c 3d8e 3bc8 be34 be49
bd64 bec7 be6a bee6 bdaf 3e11 3e48 be92
bdc3 3d04 be93 bde2 be24 beac bcaf bded
be8a beab bc90 be8b be73 bd1e 3e48 be9d
bdcc bc08 be28 3e52 be0e be51 bea4 bd13
3ebf be53 bdde be8e 3cd8 be2c bd40 3db0
3e06 3e64 3d9a be30 be0a 3e58 be52 bc70
bd0f bed3 be4c beed bf30 bd9c be33 3e0a
be42 bec8 bf06 3eb0 be99 3e14 3a80 bd3b
bee2 be29 3e36 beb8 be08 3d6c 3be0 be99
3e6a bf26 becc be92 be81 bee6 be06 be29
befc be84 be3f beea be68 be88 3d30 bceb
3ebc becb bec9 be80 be2c beb6 bee6 becf
3e02 bdd2 bf19 bead 3daa be7b bea5 3c48
3ed9 bdde beaa 3ddd bd5b be8a bdb2 bf09
be81 bd5a beef be4a bc7d bd87 3e1d bda2
bd88 be7a be82 bd48 bec4 be64 3e82 3d0e
bf02 3d5b bed3 3dd5 beb4 3d16 3e39 bdae
be2d beb2 bebe be52 be95 be9e bec4 bde4
bb44 be9b bea6 bf2a be60 bd34 3e9a be3e
be7e 3d14 be0f be83 bec4 bdb6 be70 be70
be8b 3f28 beae bea0 3dad 3d68 bebb bedd
be6c bece bed1 bf34 bda8 3dc4 3e0a be86
be4b bc18 bdce bdc0 be37 bdf4 bdd9 3d5f
becb be89 bd8c bda1 be68 be1c bdda bed0
bdc6 bf0e 3d66 bda6 3dbe be02 be7c bebd
be2a bf11 be37 3cf8 be92 bf30 3def 3dfa
beb0 3dc8 bf21 be13 befa 3ea9 be0e 3d38
bd22 3e2c bea0 be91 bef6 be82 be4a be1e
be6b bec7 bf43 3e01 be03 be9c 3dbc bea0
be96 3cf2 bec6 be6f befb bf83 3e29 be82
be9a 3d14 be78 bdde bdc8 bd94 3cdc 3d37
beaf bd4c bf19 bd77 3e2b becc bd3c be83
bc68 befe be3b bedd be74 be95 be4a bf21
3d98 bd6c 3c80 3e9d be50 3d93 be8f bd30
be29 3d93 bddc be04 3da3 be57 be8e 3d81
be42 3de6 be82 bdbb bcbc bf02 be44 3e4e
3dd9 be4d bec9 3cfc 3e83 bd4c bed3 bec0
bdde bea5 3e27 3e4a be23 bf0c bec6 be74
3ea8 beae be15 3df4 3d87 3e73 3dd8 3e61
3c3c bf51 bd6b be82 3dd2 3e47 be08 3d7e
beb5 bf2f be07 bdf3 bf2a bf08 bc6c bccc
3e83 be16 bd98 be93 bf09 3df5 be92 be26
bf24 be42 bef8 beb4 bf52 bf17 be5e be91
bea0 bea8 be82 bda3 bd8e bd46 beb2 3dd6
bda1 bcf8 be50 be6e bd9b be25 be72 3d86
bf62 3d08 be7d bf15 bc40 bd95 be4a be01
bb00 bd14 bdef bd91 bf18 3e5a bf28 bf23
be2f becf bcb8 3e44 bf3f bd8c be0c be07
bdcc bf4a bf18 beb4 be20 be26 be67 beae
3c06 beca bdc6 be18 be4e bd46 beb7 be05
be42 beb9 bda2 bf16 3dca be20 bdda bf0a
3e2e be9e bef6 be77 3e2d beb1 be2c bebe
be6d 3daa be79 bd9e be8f bf08 3d0c be8b
bed4 bda4 bf0e be94 bc88 3d8e bdfe beb2
bc68 be34 3dac becb be06 3dfc be3e beb0
be1a bd65 3c63 bf0c becc bd0c bd96 be82
beca bee8 bda6 be75 be74 3da1 be3d be42
3d10 be46 bd74 be57 be13 be2f be99 bf28
beae bef4 be96 beae bef7 3cb4 be90 be49
bec3 be4a be69 3e63 be1b be98 bedd 3e3b
be9a bec2 becb 3e60 bed6 be92 3d9f 3f04
3e7c bd41 bd79 be81 bec7 be11 be8a bee4
3e46 3ce8 bd54 bf0f be98 3e72 be98 bf3a
befa 3e57 3e78 3cb6 3dda 3c84 bea5 be5e
