3f42 3df6 bf47 bf90 3f66 bf1e be1a 3aa0
bd06 bfb8 3e86 3ddc bf0f 3f0f bf4a 3f34
3e88 3eb1 3d4c bf5d bf92 bfa9 3dd0 bf2c
bf0e bf92 be88 3ec0 bf3c 3e01 bee6 bdf3
3f63 bd66 bf69 bf0f bf8b 3f3b bf1c 3e66
3f33 bf8a 3da2 3f5e bea9 3ede c104 be0f
4001 be96 3f87 3f36 bf0d 4022 3f5a be91
be7f bead 3f60 bfab 3cbf be29 bfd5 be4f
bef2 3e5f 3e95 beba bf0a 3cda 3dec be6e
bfc5 bfa2 3f1a bda7 befa 3fbc 3dc8 3f54
bf60 bee6 3f3a 3dd9 3fb4 3f3e 3f87 3f50
bdd7 3eed bf1b be7a 3f28 3ef2 3e9b 3e2e
4004 bf8a be9c bf94 3e9e beb1 3eaf bf2c
bf91 3f9f be14 3cd0 3f19 3c96 3f6c 3ec6
bf25 bf88 3ed7 3f38 bf32 3e91 3f17 bed3
bf67 402d beb0 bf4e 3e1a beab 3eed bd9a
be81 3e8e 3f59 3f42 3fb8 3f1f be00 3f28
3f65 3e2a bbd0 40ec be2a 3ee6 bfdb 3f92
3e0a c18d 3d16 bb10 3eb5 3ef6 be94 bdf9
be33 bea1 bd2b 3f04 3f46 3e40 be3c 3ecf
3e7d 3e3d 3cfc bf1c be70 3f5c 3f8f 3ef0
4061 bf53 3ec3 3e0c 3f88 beff 3cb3 be5b
3f17 be9e beb5 3e64 3e0c 3e4a becd 3d22
3f5e bf54 3fb1 be3b bec0 3dd4 becf be04
be8f 3e1b be96 bead 3ec6 3e9a bf02 be2e
bf80 3e03 3fe4 bef4 3f0b be33 3efd 3f0e
3eb8 3dc2 3ed0 bf3a 3ec5 be15 be82 bf6e
3eb9 3f18 3f73 bca0 3f45 3f0f bd46 bdbe
3e02 3fe4 3ece 3f4c be9c bfd2 3f38 bee1
3ee6 3e72 bd89 3f5e be26 3dbd bf4a bee3
bf00 bf2c 3f13 3ead 3c60 bf8d bebd bd4d
3f21 3fcf bebb bf38 3f1c 3de8 3cc7 3cdc
3ec2 3dbe 3eac be9a bf4b 3e84 3f46 bea3
3ed0 bf61 bf1c be1d 3f3d be10 bd7d 3f3b
3e48 3ef4 bf85 bf44 3e8e 3f0c 3d41 be63
3f32 be48 3f3a be84 3f35 3e17 be5b becc
3dc6 bd89 3e7b be72 bda9 3daa 3e78 3e9e
3f96 3f0b bf4b bf94 bf9c 3f4e 3f7d be9d
c02b 3d24 bf57 be15 c281 bf11 bf0a 3ee4
3f47 be64 3ebc bf11 bf5c bee7 3f61 3fb6
3f14 3ebf 3f60 be35 be2e bd06 3ea9 bec3
3ef0 3eab 3f11 bed8 3e75 3ec8 bfbb 3f39
3ed1 bf3d 3ec2 3d74 bde4 3f48 3eef 3dbf
3e8c 3ff2 3f15 3e1b be9e 3ba6 bf5c 3ede
3e7d 3ec4 be8c be1e bf85 3ecf 3e41 3ed2
3ee4 3ebe be72 be5d 3d4a bdd7 3ed9 3ee9
bf67 bec4 be6c bf3e 3f91 bdfc bf06 bf81
bf9c 3cb6 bf05 bdbf bc0c c104 3e8a bf52
3ea0 3e0e be0f 3f4a bf1f 3e73 bec9 bc95
be6c be7c bf8b bf4a bedb be30 3f06 bd36
3e30 3e21 bea2 be24 3ea0 bf8d be80 3e96
3e38 3c98 3e82 bf04 bea5 bf5a 3f48 3fa4
bf18 3d89 3dc6 3f4e 3f5f beb7 3f82 bf13
bec6 3ec6 3f2e bee0 bef2 bcc0 bb9c bf55
bf53 3d81 be83 bf0b 3f11 be8f 3f4a 3f8e
3ea1 3f40 be02 3fa2 bd3c bf31 bfe2 3fa6
3f1d 3de7 bead 3ed5 3dc2 3f0d be56 3e4b
bcba 3e79 bd98 bde2 3ede 3e86 3c24 3e46
bf45 bd5d 3f04 beb1 3f9c 3eec c023 be98
3e9f 3e32 bda6 be3d 3f4f 3e6a 3e87 bf5c
3f20 3fc2 bf94 3e77 beea 3f1e 3f44 3e76
3e5d 3ea1 beaf 3f35 3f63 3a20 3f5f bce0
bcb6 3f31 bd99 bf85 3e28 be32 3e93 bf61
bebd be55 3dad bde2 be8f bfa2 be02 be62
bf20 beee 3e63 be6c 3e42 3f34 bec6 3f5f
bf1e 3f94 3fc8 3f53 3e96 3ee7 be2a bf60
beb7 3f4a 3ed2 bfec bf1f bd0c 3e9a bf69
be0c bdc0 3f1b bf97 be0b c00d bea6 3f7c
3ec0 407f bf02 be99 bf5a bd7c bec5 bf5d
3e19 3f05 3df9 be22 bdf5 3e4c 3ec6 3e0c
bf70 3e97 3ebc 3cae 3e7f bf25 be90 be5a
3e90 bca8 bd03 3e99 3e1f 3ec4 3f6d 3f32
3f04 bec3 3eae bfa1 3df0 3e90 3d21 3f12
bcfb 3d4a bda5 be70 3e48 3eb2 bee4 beda
bd4b 3e02 3ee6 3e46 3f85 bd93 3e91 3f8c
bf4b bc8c 3e20 3fa6 3e0a 3f45 bf39 3f3f
bf92 3f6f bf92 bf81 be14 3ecb bf80 bf4a
3f31 3ed6 3edd 3f0c be3a 3ef1 be1a 3ead
be70 3eb8 3f00 bcc8 3f21 3e89 3e0e bf19
bf10 3f2e 3f89 3e03 3f69 3f13 3e77 3ec9
3e91 3f2c 3e10 bdfc 3de0 3f4e bf86 be02
ba80 3f41 3df3 be1c 3ecd 3f43 c088 3e82
bde2 bf13 3f2a bf69 3eb6 3eaf bf89 bf3b
3ea0 bd26 bf03 becc be8a 3eab bfb4 be97
bf38 3d60 bed2 3f38 3f22 bdb4 3f18 3f84
bedf 3e99 bf47 bbb8 bedd bed3 bd38 beca
bef4 3d6d bd91 be6f bcc0 3f62 bfa7 3f8e
bcd5 be50 be8e bfa4 bead 3eb8 bf5d be8e
3f18 be95 4013 3f39 3e3c bedd 3ede 3dba
3fa1 3f7f bf7e 3e4f bed8 3ed1 be93 bdcf
bc1c 3f22 be7a bea0 3e36 bf0d bdf6 be39
3dc3 3f3f bee6 3fb0 be6c c022 3d90 bd2d
3f57 3ec2 bf71 3eb3 bfa4 3e27 bf1a bf6a
beb2 3f07 3ecc 3f07 3f9e 3f15 bf1b bede
bf3a 3eb4 bed8 3f06 bf87 3f43 3e66 bea8
be8f bf6d 3f28 bf75 be35 3dc1 3db4 3e2d
3cbc c01f bd4a bf00 3fc5 bf3e 3ece bf84
3f4d bf48 3ee8 bda2 bf06 3ffe 3c90 bfe5
3f04 bdd8 beb6 3fbf bea9 bf62 bf0a 3e96
3c04 bfa9 bf6a 3f0e bfca 3f86 3f6b befa
3f2c be86 bfbb 3f08 3f22 bdb9 bd9c 3f94
bfb3 be4a bf29 3c88 bf54 3e34 bf87 3f83
3fb8 bf22 bf06 3fca bf52 bbc0 3f55 3e90
3fcf bf9e 3fbd bfaa 3ee4 3fa6 c02c bfc8
bfd6 bfa8 3fc1 bebc bf96 bf5e bf18 4006
bfd1 bfa1 3ee9 3f3b 3ece 3f7d 3f43 3f4c
3ee4 bf9c be34 beb1 be74 3f0e bfa1 3e77
3fd9 3f7c bf92 bf11 3f65 3f17 3ebe bc98
bf74 c000 bfe7 c00f 3fa6 3fa0 3f79 bd4b
bfc8 bf08 3f04 3fd2 bf68 bf3e 3fe0 3ffe
bf8f 3f63 3f7f 3f8b 3f99 be74 c01d 3dbe
bfaf bfe7 3f39 bf34 bf55 3fc5 c011 3fe8
4018 bf2d 400f bec8 3fce 3f2d bf5e bf40
3f40 bf79 3fe8 c003 c02b 3e86 3f48 3e89
3fae c0c8 c017 bd7c bffa 4003 3f1e bea1
3f86 bf12 c010 3f75 3f68 bf86 3fb0 3fad
3f9c be01 3fdf 3f88 c007 bf2a 3fe1 bff9
c052 3c90 3f8d 3f3e beb2 be07 bfba bd28
be0d bcc0 be97 becc bf50 beb0 4000 bf99
3f8b 3f1a 3f4f 3f56 3f44 bef7 c012 3f97
4013 3f2d 3f1b 3ef4 3f38 3ecc 3e95 3e84
c007 bfa1 3f98 3fd5 bf03 3f34 4005 3e48
bf21 3e03 3fb1 bfdc 3fde bed2 3f02 3fa0
bd78 bc84 402e 3f1c 3f4f bfba 3c00 3c20
bf7c bef5 3fa4 3ff3 be5c 3f87 3f8b bffa
beaa 3faf bc34 bf04 3ef2 bdb4 bf08 bf7c
3bc0 bd6c bf21 4009 bf8b bed0 bef8 bf74
3ff6 bf22 3f13 bf7e bf00 bfa5 bedc 3e52
bf54 4030 bea8 3f6a 3f29 3efc 3fce 3ff4
beb2 3f15 bf4e 3e14 402c 3f0a 3d88 3ed7
3eba 3e1e 3eb0 bfb4 3f8d bf39 3f61 bf7e
3f92 bf67 3f44 3f2b bf44 bfce bec0 bf02
3ee1 3f4c 3f98 3fb8 bf60 c002 bf89 bf68
3f9a 3f74 bd9c 3ba0 bf38 bfd2 bf7f bf30
3eee 3c18 bef2 bf04 c044 bf87 bf1e 3f05
3d59 c03c 3f83 bf9e 3ec0 bf8c c00d bfac
3eeb 3f17 bfd9 3fdd c043 3f54 bf86 3fbd
3eae 3f84 bfb3 bd2c 3f8d 3f6c 3f75 3f37
3e2a 3e80 bf10 becb bfb5 bee1 3fa4 3f32
bfa5 be28 3f9a beb2 3f32 bf29 c019 3fb2
bf84 3f07 3f11 bfcc 3e67 bcac bfa2 3fca
bf76 bed6 3eb4 3f32 c007 3ede bdba bf00
3f38 3f1a beb0 4017 bf80 bf8b bea9 bfc0
3fbf 4006 bfbd c010 bf95 bfbb 3f00 bfc9
bf91 bf23 bfaf 3f76 be03 bd50 3f78 bea3
c018 3f7d 3ff9 3fa2 be99 3ec4 bffb bf33
3f41 3ef2 3fc1 3f9b be2e beb2 3ee3 3ef3
3f81 c02d bdd8 be86 3e34 3f2e 3f4e bf35
3eea 3d9a bfdf 3e1a 3d0d 3ea8 bf94 bf83
3e26 3f02 be22 bf26 3f7c bed4 3e8e 3dfd
3f19 3ece 3ec2 bf98 be0e c01e 3e2e bf92
bf8a 3d8a befe bf85 3f66 3f99 c058 3e30
401b 3ec3 bee7 4029 be89 bf49 3c10 bf5a
3f11 bf8f bf9b bfa7 3f0a 3f44 bf96 bf2a
3f08 3c90 befc 3fed bf6f 3e85 3f29 3d80
bfdd 4022 3ec7 bf6d bf62 bfe2 bf92 bf82
bf66 bee8 3fbe bfe2 bef6 3fcc bf5d 3f31
3fe0 3f06 3e6a bffe 3f7d 3ee4 3fd2 be9b
c05c c005 3fd2 3f4d 3ffe beae bfee bf83
3dfa 3f55 3f81 3ea9 3f12 c034 3eb3 bf5d
3f9f bf45 bf24 3f6d 3f54 3f16 bf7e bf54
bfb6 bf69 4001 3f32 3fb8 bf1e bf93 3f06
3f46 beb8 3f0b bee0 bf8c bd1b be50 3efd
bfca bfd5 bfd3 bfb5 3ea9 c0b5 bec4 bfc5
3fa6 3fe2 3f6d bea1 be88 bf93 bf24 bf41
3f2e 3eb9 3e75 be8b 3eea 3e8c 3f6e 3fd2
3f5c c004 bfb8 be8d bfd5 3eb3 bf07 3f93
bfee 3ea4 3fda 3f4e bf6e bf17 3f66 bf73
bfa6 3f43 bffb bf54 3f3e 3f04 3fac bf02
3f45 3fc0 3d9a 3f7c 3e21 3f8c bdf4 bf53
3f83 3e0d 3f3e bf5b 3fc2 beab bf74 4020
bf62 bfe4 bf96 bec9 beaf 400a bed5 be5d
3fde bf14 3dcc 3f74 bf5c 3f9b bf8b 3f26
3f03 3d74 3eec 3fad bf9e 3fa8 3ef7 c023
3e21 bfe3 bf2c 3f50 c071 bf0f 3f0a be0e
3fbf bef3 bf8b be74 3f7f bf0d 3e1e 3fbc
3f53 3f2f 3f42 3f4e bfb1 3e3d 3ec2 bc99
3ddc 3e40 bfd3 bed2 3f4e 3da5 bfe1 3f04
3f2c 3e1c 3f0a bf97 3dcd 3e84 3f3b 3fb6
3efb be98 3fe4 bece bfbb be2f 3e72 beed
3fc6 bd44 bfbe 3f9d 3ebf 3f48 3fa6 c084
bf42 bebc 3fdb bf08 3fa0 bf2a bfd5 beca
3ec6 bf28 bf76 bf8d bf14 3fa7 bf56 3fa2
bf14 3ff2 3f45 bf52 3fc2 bf0a 3eed bf2c
3f97 3f3f bed4 3f56 3d42 3f71 3f21 bd88
3ea1 bde2 bf8d 3f55 bfee 3f34 3f93 3f12
3f06 3dd6 3f0e 3ba0 3f95 3f56 bf8c 3e84
3a80 be86 3e69 bf87 3fa7 bfa4 3f47 beff
bf1e 3fad c053 3f94 be0a 3f5e bf68 3e40
3f17 3fdc 3f3d 3b60 3fbc 3f98 bf64 bf4c
bf21 4006 bf65 bf05 3f8b 4048 be75 3f4c
be08 bf8a 3f89 bf06 4010 3fae bf20 3fb1
bdce bec4 3f29 bfb4 bea2 be59 4029 bfcf
beab 3fe9 3f31 c02c 3fe0 bf77 bf54 3f7c
3f26 3e79 bf0d 3e80 3fa6 bf99 bfa4 3f6e
3e52 c063 be32 3f9a 3db6 403a 3e7a bf30
bf58 c005 400f c009 bfc2 be26 3f66 beb4
bfc0 bebd 3fc9 4015 bfbb c005 bf70 3e51
be44 3efe be29 3fcb 3fc7 bfb2 3fd3 be88
401d 3e71 4008 3fe6 bea7 beec bf81 3fc1
befa 3f2f bf33 bf0a bfd0 3e73 c001 3e9d
bf8a 3e31 3f88 4006 beaa bdf2 400b c036
3f90 3f1d 3f42 3e34 3efe bfe9 3ff6 3f07
bfdb bef4 3f98 bfcd 3c80 4052 3f1c 3f6d
bf22 3f89 c03c 402b 4005 4012 3b40 3fcd
3f92 3fa6 3eb8 bf5f c017 3e85 3d95 bf78
bd82 bfac 400a 4008 3f96 3feb be04 3f81
3ff2 c007 3ea7 3fc6 bfa6 3f3f bf94 3d74
3e58 bdec bf16 3fae 3fb0 4001 3f56 bf96
3f4e bf1b be56 c097 3f67 3f6a 3d48 3fbc
bf2f c0de 3f2f 406b c041 3d30 3f62 3ff3
3f0b 4073 3e89 3ed6 bfd8 c090 3dc0 3f99
3fe2 3f8f bdf6 bf01 3f22 3eb3 c022 3f0a
bff4 bf82 3e8c beca 3f4d 3fd8 3fc5 bfab
bfbe 3e15 bfdb 3d20 3dfb 3e3a bf76 bfa5
befd 3f9e bddd 4029 3fca bf10 beaa bbf8
3fe7 3f35 3f80 3fa9 3c90 bf6f 3f92 3fe5
bf10 3f5f 3ed4 3fd7 3ffe 3fe2 3fcd c02f
bf0d bf37 bfbe 3e43 3fb5 bf20 3e8e bfc0
3ec5 bf0b 3dc0 bf5a bff8 4038 400a bf7a
bfda bf34 3f2c 3f85 beaa be56 bdb2 3f5a
4012 3f44 bf33 3e90 402e be30 bf10 c017
bd62 3d46 3fd5 3f9a bedb bfea be03 3e44
3e53 3f1a 3efc bf3b 3f82 be86 c045 c007
bf3b 3fc7 bfc0 bf59 3f65 401d be83 bbe0
3f88 bfa9 c01d 3ff9 be60 3ec0 4005 be2e
3ff6 bf50 bfe1 3e5e 3f87 c03b 3f4c bfdc
bf42 3fb8 bec2 be3f bff2 3f05 c01c bfd5
bebe bea8 3ffe 3e0c c03b be14 bf97 bf80
bfca 3f18 c009 3ef0 3fda 3e50 bfcd bf03
4041 3f77 3ea0 bdab c14d bf58 bfa1 bdc8
bf16 bf59 3f72 401a 3ef8 bf5c 3fa5 3f32
3fdb bf8f 3fe2 3f6e bfc2 3d08 3ed4 bfaa
3f89 3f82 bf1f 3de5 bf8d 3fa9 bee0 3f8a
becd bf80 c014 bf5d 3e40 4036 c006 3f8c
c096 bf3d bff8 bf98 c045 bfbe bf6c bf9a
3c70 c00d bfe8 3f08 c064 400a bf84 c01e
401c 3f96 bfa4 3fb6 bec0 405f 3f3b 3f42
3f26 be48 c01c 3f42 3eb8 3f85 c019 c032
be8b bd1c c008 3e97 3ffe bfd2 3e12 3f87
beca 3faa 3fbf 3d4a bf37 3ea6 bfa5 be8c
3e2d bf94 3f5a c01f bf85 3e5a bfca 3dc6
3fa2 3e48 c021 3e43 be75 3f22 3fe1 3fb6
3f88 3fe3 3e4c 4020 3e60 bf20 3e9e 3f47
4018 3fce 3e3f 3fce bfec bfc0 4020 bdb0
3fc1 3f3e 402a 3f95 3f1f 4004 3f0d 3d5a
bf8d c00f c013 bfef bf0d bfe7 bf40 3f3c
c015 bfdf bf40 c073 3f10 bfc0 c005 4027
3ba0 3ee9 3f7e 3fbe 3fd2 bf3a 3f25 c017
3f82 bfea bf98 3e84 400e bfbc bfbd 3f56
bec4 bf85 400b be9a bffc bed3 bea1 bfaa
c000 bef2 3f98 bed9 3f6b 3f11 3f65 bfe2
c05e 3f0c 3f92 bf92 3fc5 bf4d 4000 3fa3
bf5a 4002 3fe1 beb8 4002 3fce bd32 c00b
c04b bff8 3fdd be0e bf19 bf5e 3fac 3fa5
3f13 3f07 3f26 c002 4028 bfbb c007 3f25
3ea1 bfaa 3ff0 be84 bfcc 3fa6 3ed0 bfc2
3f43 bfcd 3ee9 bf34 bff6 402a 3e4d bfe4
3f08 3df2 3dc6 3dc6 3e4b c029 bfcc bd80
bf65 bd18 bc84 c038 3f8b c0d3 be21 3fc4
3f76 be8b 3ed0 bf61 3e76 3f90 3bec 3ba0
3f0b c03e bfe6 3d41 c021 bfbb bf41 3e5b
3fe8 bf6c 3f2c bf51 bf99 befa 3f8d 3f8b
bffa bd64 bd68 3fa8 bf33 bebb bfdc 405d
3d3e bf2d bf9a 3ebc c035 3f24 3f09 3f03
3f7e 0000 beff c024 3f17 4003 bfb5 3fb9
3edf bf9f 3f20 bf4c 3fa4 3c98 bd8a 4001
3fa6 be5e 3f3d bf71 4066 3f12 be39 3f98
bf04 3fa7 3eb8 3f3f 3fdc 3fa0 bf95 bf54
bf03 3f24 c01a bedf bfcb 3f56 4019 3f5c
bed6 3e29 3e5c 3f26 be94 3fd7 3f1a bee6
bfaf 3ff4 3e34 3f26 3e13 bee2 3f62 3eb9
beb0 3e4c c05c 3f6c bf83 c011 3dde c00e
3fca 3fab bf80 3f88 bee2 3ecb bfa6 bfcc
3f33 3b98 3ec2 3e56 be6e bfa2 bfce 3c81
3f25 bec2 3f0d c025 c040 bfd8 bdb0 3f38
3f0a 4001 beec 4002 3ce4 3fc5 3e80 bf3c
3eaa 3f26 beec bed7 bfba be43 3f98 bf04
3fc5 3f8a bf37 3f5f bf2e 3f05 bfd9 400f
3f63 bf56 3f87 bed2 bfa2 bf66 bff9 bfca
3f4b bfd4 3fcc 404e bf92 3f8d bf7b 3fbb
3f5e 3f9d be66 bef5 c018 c042 3f8b bee4
bf32 bfb9 be8d 3eb2 3f81 bffa 3f0c 3fb0
401c 3fe3 3f2d bf65 4018 bfe2 3e18 bef5
3f77 bf8a bee6 be9c 3f9c c00b 3db6 bf16
4004 3e00 bfb1 bfa7 3c90 3fd4 3ec1 3ff2
be60 4020 be18 4000 3f9d bf5b 3ed0 3fc2
3fb4 c013 3f28 be66 400c c03e 3fbc c038
3eaf bfd0 bec6 be80 3e8a bfa2 3ef6 bf42
be9e 3f34 3df0 beb9 bf68 3e62 3f84 c029
be7e 3f14 bf43 bf06 bf1b bf1a bf12 3cf8
be08 3d30 3e61 bde4 bfcc bf78 bf09 3f1f
3f6a c042 bf83 bf6b beac 3e43 bf88 be06
bfbf 3ed8 c005 3f7a bfe5 be2c bf15 3fc7
3fd8 3f42 bf86 3ffe bed1 be0e 3e9e 3e2e
3eee bfc7 3fd6 bfab bf4d 3efa bfd6 bf36
c02e 3ea2 3e71 bf75 bfb7 bf9f beb7 3e6a
c056 bf89 3fcc 3fee 3fb4 3e9b 3edb 3f84
3f8f bf7c 3fb5 bf86 bf92 3f7f bf8d bf13
bf7e 3fda 3ed0 be87 bf3e bf66 bfe5 3f14
3ec2 be8f 3f62 3ea0 3fb5 3fac bf8a bdc8
bf94 be30 bfea bf92 bf12 bf50 4025 3f99
bf93 bf55 3e8a 3fca 3dd8 3e9d 3f0a 3f3d
bfb0 c00b 3fc4 3d78 be96 bf17 3f56 3f13
3fc1 3f5e 3e18 3ffd 3c80 3fe2 3f7f bf9d
3f83 bdc2 bf05 bfdd 3ffe bedf 3fcb 4021
3ed0 c040 bfa4 3f54 bfae 4023 4015 bf77
bed9 3f6b 3f81 3dff 4023 bf71 3f07 3fb1
3ffa 3f1e 3eba 3f97 bfbe 3f42 3f90 bede
bfcb bf90 beec 4047 3f26 3f09 3f14 bf87
bfa2 3980 bf3b 4006 bef6 4005 beb8 bf48
bfcd 4002 bf8b bed5 be67 bf62 bf18 3f29
3f35 3eea be3a 400a 3eaa 3fb5 be29 3f5c
bf9a bf39 bf4a bf2e 3f5e 3f9f 3f92 bece
3f34 c06d bf79 bf43 3f24 bf38 bf61 bcba
bf5b bf94 3f0b 3fce 3d0d 3ede 3f3f bfaa
bede 3f50 bf43 3f3e bf27 3d98 be7c c072
406b bed4 bf54 3f95 4000 bf98 bfa2 3ea2
bf94 bfa5 3e9b 3fc8 3f0a bf23 3dfe 4005
3f8b 3eac 3ec9 3f24 3f9f bf3c c007 bfb2
3daa 3ed3 bf05 beb4 3f3a 3f1a 3ebb bd70
bf0f beb1 bf8e 3ff0 3fa2 be21 3fd7 bfb8
3f15 3f7a 3f06 bf77 3fcb 3f20 3e24 bf9c
3f08 bf89 bf1e be8c beb2 bfea 3e4b bfa1
bf70 3ef4 3f8a be80 c002 3f20 bf77 bf1f
bff3 3fcd bf23 be9f 3f34 3f93 bf7c 3fb1
400c bdbc 3f3c 3e6f c070 bf0e bfdb 3fa1
3f67 be64 3f4c be7b 3db4 bd9c 3f99 bf80
3fad 3f8e 3e34 bfd5 bf47 bf88 bf36 c004
3ef8 4011 bedd 3f4e be34 be4c be7f 3d82
bf8e 4001 bf25 c02e 3ef4 3fba be17 bf61
bf4a 3f62 3fb0 3f16 be98 c01b c079 3f64
bf4c bfc2 3f00 c031 3dee 3f30 bf08 bf57
bf5a bf4c 4013 3eb2 3ca0 3f1a 3f13 bfbe
bf96 bf17 3f8f 3f73 3ecf 3fc6 c039 bfd3
3f58 3efe bfee bfd2 be4d bfbf bf38 bd94
bf80 3ee8 3e12 3e99 bf59 4012 bec9 402c
3f26 bf89 3f94 bf18 3eb4 3f3c bf59 bf55
3da0 3f8e bdbc be7a bfe2 be32 3f4d 3fb4
4012 3f81 bfc2 3f5f bf0d bf05 3fab 3d68
bfde bf06 bf82 3f97 3d04 3fb7 3ec4 bfaf
4007 3f21 3f93 be5c c019 3fc3 4001 be14
bf2f 3d8e 3fb3 bf79 3fe1 c03c bf94 bf68
3f9a 3f54 beca c038 3f0e bf83 bfbd bf1e
3fcb 3f38 bf3d 4002 3e3d bf1c 3f81 bf38
3f86 bf86 be99 c020 3f1f 3e79 bfe0 3eff
4004 3f65 3f00 bfbd 3e9f 3f90 3f4c 3fab
be52 bec0 bf50 3e93 3e2c 3c90 3e13 bfdd
c00a bf74 3f67 bfb2 bfa8 bef6 3efe 3fd8
3fb9 3fcb c01d bf99 3fd1 3ff1 bfdb 3ef6
bc08 bf25 3f84 bf85 3fa0 3f9f 3dd9 bfc8
3f85 3f93 bf90 bf6c 3f90 3eda bf65 3f14
3f12 3faf bf69 3f1e 3f62 3d38 bda0 bff3
bea0 be0b 3f14 3f69 3f98 bdda bf52 bebd
3f12 bdd0 be8a bf72 bee9 c028 3f40 3e92
bf63 3f21 bfb2 bf04 3f8f c0c6 3e92 3fc3
3ffb 4010 3d30 bf7d 3efe bf12 bd58 3fe5
3f39 3e10 3dac 3f50 3dd3 bd24 3ef0 3f20
3e62 c033 4014 bf4a be48 3fba 3fb4 3fa1
c027 bf81 3f8d 4014 bf1d bff1 befa 3ffa
bf4e bd56 be80 c01a 3f9a befa 3eea 3e1a
3f8e bf98 be60 3f58 bd39 4007 3ead 3fc3
bf28 bf4d bf89 bedc 4039 3ea5 3f75 3e85
bf3c c005 bfd6 3fc7 bfd6 3eab be78 bee8
3f26 bf50 3f13 3f8a 3e8b 3f3c bf9a 3e0e
3ffa be58 bfa0 bd8f bf37 bf46 beae 3ecb
3f0c c05d 3f83 3f8b bfa8 4018 be38 bfc6
bf9b 3e0e be57 bfa6 3e85 bf1a 3f87 bda4
3ec2 bdb7 bdd6 bf1f c051 bfd6 3fe2 3f89
bfa9 bfda bf55 3f37 bede 3fd4 bf14 4008
400a 3f50 c062 3f26 3d97 3e42 3ebc c017
3fb6 bebe bf2e bc10 3e88 3e67 bfd7 bec1
3fb6 bede 3f95 3f58 4027 3e7e 3f20 bf31
3e90 bf85 bcd8 bfef 3f11 3ed5 3f98 c01c
bf67 4005 3e70 bd93 c012 4010 bfcd bd7d
bebe 4018 bde8 3f30 3f8b bfc5 bf84 3f8e
bfa9 bdb3 401d beb5 bfbd becb bec1 3f9c
bf1a 3f3e 3e99 3fef 3fa2 3f40 3fba 3f66
3ef4 be90 3f3a 3f96 3f7d be42 bf83 3ed2
3f20 3fea 3f5d 3e5e 3f91 bd9a 3e72 bebc
3fcc 3d2f bf96 bfe5 bf17 3edb c08d c019
3c70 3f48 3f2e bf3d 3f57 3f04 3f2a 3d05
bf39 3f98 bfc8 3fb8 bf99 3ee4 3f3f 3f8f
3eaa bf91 3f8a 3f1e 3f62 3d70 bfbd bfd7
bea2 3fbf bf3c bfa0 3fc2 bf59 bfac 4017
bf5e be89 bf7d 3f0e bf87 bfb5 3e72 bf9e
bfb5 bf8d bf5e 3d06 3f6f be3d bf39 3daa
bf38 bf6d 3f9c bf25 c037 bf9f bebc 3e73
3f3e bf11 bf1e bf93 be99 3e94 3fb0 bf91
3fc8 bf8d 3f31 3f18 bf55 be7e bfcf 3f7c
3fa4 3e40 be45 3eed bf31 3f97 400c 3f56
3fcd 3f28 3f28 bfc4 3e18 3fa2 bf8a be91
3e81 bf44 3ec6 3f1c bff6 3d89 3f6d 3f78
bee9 be49 3f5e be32 bf30 3f88 3ecf 3f07
bfcf be1e 3d0f 3ef7 bfc7 bed2 be50 3e6c
3df2 3f9f 3f1a bbf0 bf3a 3ec9 3e5a 3f03
bb90 be85 bf15 3f6c 3ea3 3e83 bfa7 bf42
3f9f 3f00 bfdb 3e01 3dec be61 bf08 bf95
3f02 3f5d bf43 3e68 3c68 3fea bdcc 3fea
3f92 c001 3ef2 4015 3dbc be9b be65 bf75
becd 3a00 c014 bee0 4028 bf19 bdd3 bed1
3f80 bf8d 3f84 bfdd be8a bf37 c010 3fd2
3fdf c08c bf8d 3fcb 3ec9 bf13 bb80 3f21
c00b 3f42 bfbc bf16 3f46 3f80 3f61 3fec
4005 4002 bf2c bf19 3faa be78 bd44 3fb0
bd3c be68 bd4c 402d 3fa8 3f9d bf22 bf58
3fb3 3fb2 bf1f 3d1a bf54 bf97 c054 3f85
3fe0 bfc6 bdd0 4032 befa 3fe9 bf7f bf37
3f9a 3eac 3e67 c021 beac bebc bf97 beb6
bffd bf57 3fe3 3f64 3f78 bf9b 4020 3f3f
4040 3fc2 3e76 3f7e 3f29 c05c bf23 3f11
3d68 c01f 4007 405e 3f8a 3f2c bf7d bf22
c011 bdf2 3f44 be78 bf30 3f50 3dca bed9
bfcd bf69 3f82 be1d bf93 3f9f 4007 3e1f
bfb5 3db0 3f13 bf60 3e4b bec2 bfde bd2e
3f58 be1a bfb2 3f5a 3f06 3ec7 3eb2 be5b
bffb be50 3fc4 be62 3f20 bf2c 4009 bead
3f39 3eeb bdac 3fd0 bece 3fd2 be9b 3ed1
3f08 bf8c be89 3ff9 bf3d 3fbe 3ebd c004
bf40 bfb0 bf60 3fb8 3eec bfcf bf72 3e74
3f23 3f27 3edf bf37 3f71 3f18 bedf bfe6
3e95 4038 beb5 bfa2 0000 befc bf3f 3fdb
bf44 3f47 3fb4 bfb0 c09e 3f1e bf3a 3f05
bf65 bf09 401b befa c03d 3e9e be90 3e53
3f94 bfe7 3ea4 bf55 bf71 bf1c bf01 bf96
bf37 4007 3edd 3f88 3f06 3f5c bf00 3fe3
3dea 3f45 c01c 3fc3 3f63 be34 401a 3f66
bf88 401e bd0c bfc8 3fb5 bf98 3e33 bede
bf1b bf4f 3ec4 bfd5 bdfa be80 3f97 3f4f
3e48 c002 bf7a c001 bfdb 3fb8 3fbf c024
bed3 3fdb bee0 3f93 bec9 3f5f 3f4d 3e06
bee8 3ec3 3e34 3e72 4005 bfb6 3e95 bfa8
bf54 bec2 3ed4 3ea4 bcfa 3fa5 3f86 bf05
c033 bf21 3f70 3d86 be77 bf8e bf16 be60
3f34 c019 beb7 bf02 3eac bf2f bece bf99
bf56 4031 3fee bf4c 3fe1 3f5d bf06 3e24
bf90 3f6e bfbb 3fb7 bf45 bf64 bf6f bf3a
bf30 bf24 3fae beb9 bfe9 be99 3f30 bf7a
bf89 3d92 3f0b befe be46 3f38 3f6c 3ebb
bfd4 bfb0 bf04 3d68 bf87 3f72 c030 c01b
3eb6 3f8c 3fba 3f78 3e0b 3f2c 4006 bf60
beb0 bfb2 bed1 bf44 3f93 3d6c bf28 3e91
bfba bfc7 3faf bf8b bfea bc50 bf69 3f14
bdc8 c01a bf39 3ef2 3ee8 3f9e 3fee 3f0a
c034 bfba 3ff2 be8a bfef c014 bf85 3f73
3f3f bf5e bfac 3ee3 3f36 3e82 3d5c bc64
bfa9 3ebf be03 bdf6 bf6e 3e90 bf10 bf09
bfa1 bf0e 3f74 bf84 3f1a c038 bf1f bf85
bf7e bec4 3e60 3fbc 3fd6 3f70 bf47 bfa4
3e40 bddc 4001 be9d beba 3fa6 3fad 3fe4
4001 3f8c bda2 bf2e 3f56 3efe 3f8f bf9d
beae 3e7f beec bcc0 3fc4 c092 3e62 bf27
3f5d bd40 bf9b 3e77 3ea7 4036 bf92 bfd7
be14 bf67 bf44 bddc 3fd5 3feb bd80 3f29
3fa7 bf78 c053 4009 3f2e 3f6e bf54 3fc6
bfa4 bf9c bec2 bf95 3f3b bfc2 be74 4004
3f1a 3f9f 3f89 bf11 3ed0 3f96 bf9b bf1b
3f80 bee3 3fcb 3f3a bf10 3f47 3f8a beda
bfe8 bf3d 3f04 bf7a bec6 3ffe 3fb4 3fc8
3f59 3e1a bf1e 3f8e 3fa3 3fa6 3e0f 3f18
3d20 3eaa 4013 3fd4 bf58 bfdd bfa4 3f36
3f6a bf5a 3d2c 3f91 3fa0 c026 3e2a bf8f
c01f bfa2 bf1d 3ef4 3ec3 3e21 3ff6 bfbd
3d97 3f6f 3f60 3bb8 3e42 bff2 bfc4 bf4a
bd8c bf8d bd6b 4018 3f3e 3dda bf83 bf84
bea4 3fad 3e7e bf07 bf4d 3ec7 bfec 3f77
bee7 3dbc 3f75 bf0f 3eed bef5 bfa0 3f4d
bf22 3f0e 3ea8 bf45 bf96 3f97 c01d 3f70
bf0c be8a 3e9f bf0b 3f47 3f39 bff7 bf24
be2c 3f93 3f27 3fbd 3fe2 3fd0 be45 3f3d
3f44 bf29 3fe0 bf53 3e90 3fc1 bf3c bf60
bf74 bf8b bf2b bdfa 3fb9 3f18 3eff bfd1
3f35 be87 bfa5 3e54 bf10 bf54 bea6 bf84
bfe4 be1c 3dfe 3fb6 bfb5 bfa2 3e1d 4012
3fae c016 3fac 3f4d 3f56 be26 3e90 bef6
bf9b 3fc5 bf2d 3fa6 bf94 bee6 3f53 3ea4
401e 3fac bfd4 bece bf2b 3f82 bfe2 c01a
3c8c 3f8d bf9b be82 3eb8 bff9 3f69 bff2
3f7d 3f50 bf86 bdb2 bf15 3ec0 be8b c009
3fd4 bfa7 3c30 c018 3ff2 bce8 3feb 3fc6
bf90 3f9e bfaf 3e31 3fdb 3fea 4052 3f3e
bf27 bfae 3e66 3f81 bf76 3fe9 bca0 bec6
4004 402d c01f 3e4d 3f7f bfa7 3f83 bfd4
3fc2 c089 be52 bf59 bf91 be0e 3ec5 4009
3f97 bfdc 3f1f 3bbc 3f5e bfa6 c021 be76
bff7 bf9f 3f0e 3f86 bdf6 bfbf 3dcc 3f5b
3f2d 3e3a bfc8 4006 3ec9 bf9d bc60 be4c
bfa2 3d24 bf3a bff6 bfa3 3ff0 bfee c015
bf36 bfa6 bf0d 3f7b bec7 bfac 4025 3e0d
be40 be7a 3fbc 3f93 3df9 be4f bdc2 3ee0
3ed8 3f16 bf6a bffb bf28 3fee 3f27 3f2c
3d8b 3fbb 3faf 3f84 3f78 3e84 3e10 3fca
3f68 be88 bf4c bfc2 bf97 bfb9 c006 3ede
3f18 bf27 3f12 3fca bf25 bffe 3fca 3ef6
c00b c043 bfc9 3fd8 3fdc 3f4b 3f1c 3fad
3f74 c007 c020 3fdd bf8e bf20 bfa9 bed0
3fda 3de5 bfac 3ed2 bd64 c062 3fa6 3f47
beb8 3e8e bff5 c018 3f66 3f91 c015 3f54
3e8b c12a c001 3f7b 3f58 3e3a bf40 3f81
c012 4006 3f57 bf28 be6e bee8 c03d 3fd2
3f9a bfbb 3f1d bfeb 3f0e bf84 bfd8 3d34
c01b 3fe7 3fc4 bf20 3f96 3dc6 3f18 c03a
bd97 bf9a bf52 bfed bffa 4033 bdd9 c02d
3ee2 beae c053 3fcc 3f86 c014 bfb5 c028
3fba 3fe6 bf08 3e6d bfa7 3e2e 3fd4 bec5
c018 c01a 4010 3f44 3f9e bc50 3ee7 3e61
3fb1 3fd2 3f5c 3fa6 bfc4 bf51 bf88 3f7a
bf2c bfd3 3fef 3f3f bf89 4055 3e85 bf70
bed9 3e6e c013 3fac 3e57 3f4d 401a bf90
3fc4 3f8e 3f18 c000 3f99 bffa c018 bf4b
3f93 3fe3 3fad 4019 3fba bf00 bf6a 3f88
3fbc 3e86 3fc1 beae bfbc be82 3f82 bfa1
bfad 3ecb bf71 becd bf9e 3f22 4012 bdc9
3eaa bd4c 3f98 3f28 4004 c04d 3f32 3fe4
3fac 3edc bf4c 3ff7 bf87 3ee3 3f9f bfbb
3d08 c02f 3f11 3f68 3fe1 be10 3fdf bfa1
3f7f 3fd8 3fad c018 bf24 c037 4026 3f52
bf90 3f9c 3eb9 3fed 3fa5 3f6b bf9b 3fa0
3eb4 bf17 3dc2 c00f c1da c01a 3b20 bd08
3e9c 3f22 3fc4 bfaf 3e56 beac bfa0 be32
400b bf84 bdc4 3f98 bf85 bd08 bf4e 3efe
bf72 3f76 c022 3f06 3dc5 bfb9 3f79 bfad
3fda 3e84 bec7 bf71 401a 4091 3f0c bf29
bfda 3fcb 3fbf c05a 3f7e c04a be47 3f5e
bea0 c06a bf13 3ea0 3f24 bf8b bb00 c003
bee1 bfb5 3fb4 beee bf56 bfac 3f41 3d52
3f65 3eaf be86 3fd8 3f14 c005 bf96 bfba
3f8f 3e62 3f52 bed1 401e c000 bf14 3f92
bfb4 c006 bf1f 401c bf47 bf3e 3f80 bf58
3f7d 3f95 4008 3fd4 3e50 bdfe bf7a be99
bf9f 3fee 4005 bf3e 3fa4 bf8d bfb0 3fc8
beb0 3f9f c02b 3f99 3f80 3fcd 3fde 3faa
3fb3 3ff2 3f92 3f65 bf43 c003 3fe5 be47
be80 bf67 3fd7 bf0e 3f93 4017 3f04 bec8
3fa0 c024 beb1 be14 3fd5 bf64 3e84 3f8d
402c bf59 3f88 bfb2 bfa4 401e bf87 3f98
3dbc be0f 3f39 3f99 4023 3fe3 3fed 3f05
3f24 bf89 bf99 c064 3ffb 3f07 c069 bfcf
bf5a bf86 3fc2 bbe0 bf75 3e72 3fe3 3f0e
3ee6 bfa1 3fd3 3f50 bf44 3f8c c003 3da0
beee bf5c 3fa8 3f93 bfa6 bfe7 3f4e 3fd7
bfab 3fc3 c056 c020 4024 3f9a bfea bfd7
c00d be94 bfc4 bf85 be63 bfae 3fc0 4006
c020 3fa0 bfcb 3f14 3f2a 3fb2 bf22 bed0
4011 3f64 c00b bf68 bf9b bf81 4002 3f60
401a bf8b bfa4 c019 c027 be89 bfe4 4003
3f24 3f0e bfa2 bee6 be8f bf20 3ff8 bf84
3f7a 3fb8 402a bf04 3f4d c0f3 bfcb c009
bfa3 3fe8 4002 bebe bfad bfb0 bf76 3f8f
3f9b 3fbc bf30 3f8d 3f4c 3f0a 3fb5 be23
bfd8 3ee3 c00a c01b bee0 3ebc bfec bf47
c022 3f0c 3fb5 3e0b bf4a beec bfae 3f1f
be99 bf4a 3f02 be55 bdb0 3fcd 4078 3e5b
bf7b bfd8 3f98 3fee bf74 3fa3 3fd7 bdb6
3f8b c029 be7a bfbe bf85 bfe0 3f9d 3e94
400e 3fd0 3fde 3f12 4033 4011 3ef2 3f9c
4016 bf8b c016 4000 3fb1 3f23 bf52 4017
bf36 3f95 3f20 3fa6 402b 3f5c bede bfdc
bfef 3f89 c066 bf89 3f17 be75 3f6c bf10
be94 3f71 bf12 bf5a 3ed8 c006 bdae be50
bf2f bea4 bed0 bf9e bf80 bfce bf80 3f46
3f16 3fc8 3ee2 bfff c005 bf75 c022 bfcf
3f08 3f6c 3f79 bf12 4001 bfe8 3dfa c02d
3f33 c013 bf8c bfca be18 bea0 c004 be83
3fbd bdbc 3f3c 3ebd 3f5e 3f54 3f78 c02f
bfec bde9 bf1c 3f2e 3f27 3fb4 c006 3fea
3e81 3efa 3f9e 4005 bfa2 bfdd 3e65 3f78
bf09 c011 3e43 bfae bfe0 bf89 402b 4000
3fde be06 bea9 3ece bfca 3f98 c00c 3f1e
bf6a 3f61 bed0 3f42 3f08 bf1d be6e be4c
3fae bf82 3fe4 bfbb bfc1 3fcd 3f53 bc50
3f9c 4035 3f50 bf80 3fbb 3f95 3ddc be05
bfbc 3f71 3ca8 3ee2 bf56 bf85 3fe6 3f3a
3fed 3fcd bf94 3e8c bf55 beba 3ee2 be29
3e7b 3fe6 bea3 3f26 c04a 3f1a 3fa6 3fb4
3df0 3fb3 4031 bd78 be66 3dce 3f88 3f37
bfbf 3e24 bf0e bde0 bf52 3faa 3ebc 3fb1
3fa4 3da5 bee8 4003 3fa6 bed8 bfc6 3ff8
3fe4 3f0c be27 3f65 3f2f 3f30 3feb 3e7a
3fc2 3f5d bece 3fd7 bff2 bf5e bcc2 c007
bed7 c010 3f07 3ebf beae bf0b 3dda bf66
3e60 3e82 3ee6 bf1a 3f88 c004 bf96 bf0b
3f0f bfc5 3fb9 bf50 bdd1 c087 bf8b 3f95
3f21 bf79 beea be5a 3e48 3f1c c050 c01c
3f79 bf44 c002 3fbe 3f5b 3f0e 3e99 bfcf
bf6a bf67 3f8f bf24 bfb5 3fd4 bf9f bef7
3f1e 3f80 3f18 3f83 3c20 bfaf bfcf 3ee3
bf08 401d 3f87 3fcf bea8 3e9a 3f46 3fcb
bfa6 4015 3fb3 3f8f bedf bf9d 3fcf 3f22
3f17 bf85 3f88 be61 bfe6 3e8a 3d8e bf4a
bfa4 be72 3c51 3f28 3d3e 3f10 bede bfca
3ee0 bfc8 3ed2 bdaa 3e9f 3e13 bf75 3ed9
3f08 becd 3f90 3f9d bfa9 bfce 3fa0 3f84
3f20 3f2f 3e08 c039 bea4 bf45 3e48 bffd
be9a c153 3f72 bddd 3f8a 3fa3 bf8a 3edf
3d7f bcd0 bfa0 3eee bfaa 3f96 3e27 3ec3
3f98 3f12 be94 3f85 c027 be50 bfd5 bf0c
c0a6 3f65 3f3c bf83 3eea bfbc bf1b c090
bf75 3e82 3d5a 3fa0 bf16 3ece 3f72 3f2e
befb 3d00 bf87 3fff 3f28 bde4 c010 3d0b
400b bf57 3f88 be83 bf80 3e66 3e31 3f47
3f26 bf81 3fc5 3ec5 3f2d bfda 3f2a bea8
bfbd bf1f 4005 3eaa beba bfae be77 bf34
bfc8 bf6d 3eb5 3ef5 3f9f 400c bf89 beee
3d3a 3f15 bebc 4006 3f95 401c c009 3f8c
3e3b c010 3e2f bf66 bef9 bf45 3fcb 3e3f
be6e 3fe4 3e12 3fa8 3eab bf56 bf14 bf63
3e32 3e75 bf26 bee0 3e9c bf9d be42 c00c
c003 bebc 3f99 3f44 beac 3f98 beff 3f58
3f22 bfa7 3fd5 bde0 3f23 3f19 3df1 beee
0000 be12 bf97 3f50 3f1a 3e8b 3fcb 3e9b
3f30 3fc8 bf94 3f95 bf56 3ddd 3f23 3f03
400f 3fbf 3f04 3e16 bf77 bf80 3f4c 3e86
bf2a 4010 3ea8 bfd4 3fa8 bfa6 3f46 bed8
4047 3fb4 bf9e bfbc c226 bf44 beda 3f82
bfab 3ed8 bce4 be12 3e88 c020 be9a bfa2
3f52 3ee4 bf33 bf0c 3ecd be33 be02 3ef8
3eac bd88 3f22 3f19 bcb7 3f1b bf72 bea0
3f96 3fa4 3ed4 bfe4 bf81 4020 3f1f 3f34
bf89 3fe1 3e51 bfbc 3ef0 be8e 3f99 bf04
4010 bfdc 3f4b 3f02 3f81 bf6a be87 c000
3f79 beff bf0a be8e 3f82 3eca be0a bfe4
bb30 be15 bfee 3f43 bf39 bf34 bed2 bf72
3e70 3fb5 c019 bfa3 bea2 c04a bf9e c037
3fa6 3f69 3fa0 bfdf bf0a 3fcf bea9 3f7e
3f89 3f0a be55 3f21 bfc7 bfad bf90 bfa8
3f89 3f28 3f8d bef6 beb4 3f5a c016 be00
3f44 3fb7 bf2b 3f89 3eb8 3ec5 3a80 bec4
3e82 3f65 3fde 3fe6 bf6f 3e98 bfaa 3dea
3f68 bf7d beac 3f38 3f00 3f80 3f82 3e62
c02c 3f1d 3f06 befd bfe2 3f0b bf6d beae
bf3c be88 bff6 c02f bdbd bf10 bf74 bfc0
bf27 3d6c 3f79 3e67 3fca bfa1 3f24 bf88
3fb6 bc8c 3fa4 3f48 3fc1 bd0b 3ef5 3fb9
3f9f 3fa7 bf6f 3f7e bfea 3ecf 4009 bfbf
c015 bf10 3ec6 bf36 bf98 bf43 be77 3f12
bf88 bfca be9c 3fe6 3ede 3fd1 bee1 3f96
c000 3f5c bfc6 3fa4 3fc6 3f7e 3fbb 3ec8
c06d bff2 3d8e bf1b bebe bf88 3f77 3f07
bd5f 3e4f 3f91 be1a be01 be23 3e6d be84
3f59 3f36 bf9b c020 3faf bf86 3fbc bfa2
3ec4 bebc bf87 bec8 3a80 bf95 3e67 3f68
bf4e be15 bf92 3d9c 3f9d bfc1 3f1f bf48
3f46 3f4c bf84 bfd5 3e87 c100 befa 4019
bf18 3f45 bfc0 3fcb 3fa5 be79 bf2d 3fe3
be60 bf30 3f98 3faf bfb6 bc60 3f92 3f12
3f74 beeb bec3 3f75 3f2e 3fd7 3fb0 3f90
c01c bf72 3f1f 3fff bf35 be84 bf64 3f90
3ef4 3eb5 3f9e 3fab bf75 3f68 3fd7 bf75
beec bf08 3f8a 3fde c036 3f98 4019 bf20
bfd6 bf23 400c 3e14 3f80 3f04 3ee5 bfa6
3f58 3dda 3f52 3f0d 3f83 bfa0 3f12 3f08
3f9c 3ee0 3f7e 3f43 3f07 be60 bf1e bf9e
3fd9 3f41 bf0d 400d 3f15 3f25 401f 3eb1
3f0e 3f60 3f4e bf2c bfdc 3fd2 bdda bedc
3f0c 3ed6 beb4 3ec6 bf92 3d28 bf89 3fa8
3f4b bec1 3f9e bf34 bf10 bf8e 3f54 3f0d
3dea be21 3e85 3f7d c029 3e7d c094 3dd8
be36 3eb0 bef1 be43 3f92 3f4a bcdc 4000
3e90 bdf4 3f82 bf76 3f9e 3f16 c015 3efb
3fb6 bf3e bf4e bf2b 3fdb 3f0a bfd5 bf72
3f44 be35 bf3b bf51 3f1d bf43 bfac bfdd
3ebb 3f6a bf2d 3fb2 3dc6 3f5b 3f10 3eca
3fa5 3f7a 3ed1 bfa9 3eb8 4001 3f9e 3f7d
bf14 3ee7 3f4e bf91 beaf 3f5c bf9c 3f1b
bfeb be8d be34 3f94 be8d bfec 3ede bf08
bfcb c016 bdb5 bca8 bf79 4013 bff3 bf72
be56 3eb0 bf47 be22 3e2f bea6 bf9e 3ce8
bfa6 bf88 bf85 bf41 3e08 3fa8 3ed7 3e3e
3ecd 3e63 3f1e 3fa6 4005 3f1f 3f4c 3f0a
3e82 4005 be23 bfd0 c002 bf99 3e88 bd76
3f91 3f1e 3fc5 3f57 3fcc bf32 3f81 bfba
bf7d bec2 c013 bfe7 bf17 3e05 3fc9 3f95
3f8d bc04 be09 bf0c bf86 3f93 bfef 3f78
bf98 beff beab 3f5c 3e7a bfad becf be82
bbd0 bf98 beff 3f80 3eb6 bf82 3f53 3f97
3f88 bfeb bffc bfcf bed0 3f84 3f3a bf53
bfbb bf92 beea 3f4b 3fd3 3f8a 3df2 3fcd
3ffa 3f89 bf92 3ef3 bfba bca2 bec1 3eae
3fe6 3f4c 4000 bee1 bf6e bf87 bf82 bede
bfb4 bf7f 3e6f beb4 bf15 bec6 c001 3f8c
bfdd bf7f bea5 3f8d bfd6 3fef bfe0 bf62
3de0 3ea5 be16 3b40 4008 3ec2 3de9 3f40
3e35 bfa8 be8e 3f7d bfba 400a 3eab bd22
bf21 3f9e 3f23 3f10 c010 401a be18 bf1a
bfc2 3de4 3ccc 3f26 bed4 3d12 be82 bd50
3e42 bfdd beec 3f5e 3e57 3eb9 bfd4 bf25
3e1c bfa8 3ef8 bf18 bfbc 3fa3 3f25 bf82
3f36 bea6 3f4e 3f89 3fe7 bf98 bf5d 3fa1
3faa 3f48 bf80 c04f bf2b bd9a 3dce 3ec9
3ee2 c10d c009 3e85 bf61 bd54 be66 bf1b
bf1c 3f6e 3f15 bee7 3ed3 bec5 c016 be13
3fd0 3f7f 3e6f bfef bf5c 3f61 3ed3 be53
c02c bfa2 3f4b 3f5e 3f8a 3ec6 bee8 bf85
bed6 3fcf bd0a 3ed6 3fdf beb9 3f8a 3e92
3f25 3eb0 bedf 3dca bf97 bf54 bf22 bf38
3f8a bf59 bed2 bf6a bd9d 3f4b 3f70 bf1b
bc30 be96 400a bf0c bf47 bdc9 3f36 be76
bfa8 bf8a 3fda beca bd9f 3ef6 3fdf 3f4f
bed0 3f98 3e82 3d50 3d76 3e06 3f6d bf2b
bf11 3fc8 3fcb 3f1b bf89 3ee5 bfbb bfbc
3edb 3fc2 3f59 bf94 3ec2 3fc4 3e8c 3ee8
bfba 3f31 bd43 3f76 3fc6 3e95 bfae 3f14
be42 3fa0 bf3e 3f54 3eea 3f83 3f15 c00d
bfdf c025 beee 3fb2 3e8e 3f9c 3f42 bf75
3e69 bd99 beef 3e8c 3f80 be99 3e4d bebc
c009 beec 3f9d bf55 3f5d c010 3f84 bf58
3ff9 bf36 3f82 3fe8 3f3c bea0 3f90 3fce
3f85 3f63 3e1e 3f95 bf82 be3c 4001 3f92
3e54 3fc5 3e4e 3d38 bfa6 bf7e befc bf82
4026 3fca bfb1 3f85 bffa bee9 3e90 3e1a
3e94 bf9d 400e 3f1a bf85 3f12 3f93 be68
bfbb 3e37 3f4d 3f23 3f0e bf9c be86 3e83
c00c 3f8e be1a 3ff4 3eb6 4005 3ebf 3f6a
bf40 bf99 bf0f be88 bd8e 3fb2 3ebf 3d94
bfe0 4031 3e82 bf7f 3f36 4011 3e8b bf71
bf5e 3d57 3d25 beac be27 bf21 bf90 bf03
3f84 3fa2 bf47 3fb4 becd 3f5b 3e48 3e1f
bfcc 3f69 be04 bf41 3f50 3e18 c047 bf2a
3f4b 3eef bfa2 bfdd bec5 bf9e bf0f bfb6
3ebf 3e3a 3e56 3f45 3d12 bb10 3e40 401b
be9c bf18 bf45 bfb3 3f1a bedb bf52 bfd8
3f15 bf69 3faa bf6e 3fe2 bf95 3e07 3fc0
3f54 4016 3ed9 3f82 3f5b 3f12 3eeb 3fbd
bf42 3eaa be14 3f37 3f46 be66 3f1a c03c
bfa5 3f4b bf49 3f45 be45 3e1e 3e76 bf75
bfdf bfa1 3e8c 3e92 3f8e bf3c be14 bd40
3f2c 3f59 bf22 bfba bda2 3cd5 bee8 bda1
bfe8 bfce 3ef9 bfb0 4048 bec2 bdf0 3f3a
bfc2 3f07 bfdd bf0b 3fba 4017 3fa3 3ffa
bea6 3ed4 3e82 bed7 beed 3f0a 3fba bce4
3f95 3df9 3f40 3ee2 bf0d be29 3ef2 bd80
3e06 3f8c 3f5d bee0 be08 bf42 3f96 bfe6
bfdd 3f16 3e70 bff5 3f4a 3fb7 be5a bf8c
bfdd 3f0a 3de0 bf9a be54 bf0f bfbd 3fb0
bdfe bf89 be58 bf57 bf89 be42 bea0 bf98
3f07 3f01 3efa 3fd0 c020 3f76 3f18 becf
bfca 3ef3 3fb8 bd1f 3fca 3dad 3e6c 3ed0
bea0 3e72 bfc6 3f01 bf14 bfdf 3f83 3f34
bf17 be6e 3f9b bf7e 3f69 c090 3ea1 3e3e
4004 3f98 bfbc 3fd5 3f10 bf00 3eef 3f3a
3f4c bf71 3f8b bc48 bf5b 3e8f c016 3fc1
bf23 bf14 3f48 c03c 3ec2 3f39 bef7 3fc3
c03e 3ed6 be0d be85 3f0a 3e0c bf92 c018
bf94 3f2f 3d74 bf0b be1e bfa8 3fb9 bf98
3d87 3f9f 3e12 3f49 bfc6 bec3 3f3c be60
beec bf86 bf9f 3ee5 3eb3 3fa4 bf41 bf25
c00f 3f1a bd9c 3eef 3ef9 be41 bd3f be9f
3eda 3e84 3e91 3fd8 3fa1 3f56 bf70 3f2e
3e30 3f86 be90 bf7b 4013 3f56 bee4 3fa1
3fa6 3fc0 3ebf 3e8a bcd8 3eca be15 becb
bf35 bf88 3e32 3f89 3efa bda7 bebc bf51
3e82 3f0a bb30 bdaa 3e55 bef4 bf96 beca
c024 bece be45 bf98 bfda c02a bff7 bfd8
bf68 bfb7 bcd8 bf8b bee1 3c10 bf01 beb0
3fef 3dc6 3e89 bf39 bf32 3f87 bf06 3f71
befa bf97 3e73 3eb2 3fc6 bf3a be90 bf00
3ea3 3f09 bf27 3fe8 beaa bea4 be68 bf87
c002 3f88 3edc 3f83 3fd6 bf08 bf1d 3e96
3cc4 bcbe bd83 3e21 3fa3 bf34 4020 be12
3fa6 3efd 3f39 3f78 3e02 3f54 bfe1 be24
3e91 bf0c 3e22 bee6 bf9e 3fc3 3bf0 3f26
bfaf 3f5e c010 3f9d 3e92 beef 400f bfdb
bf0e bfa1 bb80 4011 3fa4 bfa7 3ee7 3f00
3ff0 3e35 c048 3fe8 bf8a c00d 3f83 bfae
bf8d bf00 3fb3 3e77 3ee4 3f51 3fc7 3e5f
bf54 bf92 3f2b 3f8b bfd7 bf1b bece 3f8f
3ec1 4003 becc becb bf9e 3f31 3ea9 3f6c
3f53 bf64 bfd6 c03a 3fac be5e 3f51 bb20
3fc8 3ee8 c011 3f9b 3fa2 3e3c beef bfa6
bfbb 3ecf be36 3f39 3f86 3f3b 3f3d bfac
bfdd bec1 3f6e 3eb6 bfda bf5f 3ec0 3f84
3f09 3f22 3f5c bfbf 3dbe 3e0c 4024 bfaa
3f86 bff9 bf93 bf02 3fc4 bed2 c003 3f87
3f81 bf07 3d47 bf89 be02 bf8a 3f90 3f2d
be94 bf0c bf25 bf86 3ed4 bd59 bf2e be8d
3fb8 c00e becf 3f55 bfd5 bd86 3f5d bec4
3ec4 bf96 bec6 3fab 3e40 3f9b bf09 bf06
bec0 3ee8 bf54 3fa2 3f36 befd bfc5 3f47
bf2b bf3a be34 3e7a 3f7f 3e4e 3f9e 3eba
be56 3fb9 3f53 3f85 bf19 bfa0 bf19 3e6b
bf8d bf7d 3db7 3f60 3f8d bfe3 bfe3 3f64
3fed c029 bf69 bf1b bfd6 3f9f bf96 bf2e
bf5a bf63 3fc2 3fbc bfe5 bf82 3fbc bfb1
3e4d bc34 bfc8 bf71 3ee0 bfbd bf00 bf38
bf62 bf96 bec6 c02e 3f2b 3f73 beb7 be85
3f6e c0fa 3eed 3f3f 3efe 3f83 bf5c 3fd3
bf94 3f20 bf84 bf6a 3e7d 3da2 c006 407c
bff2 bf52 bee6 bf3a 3edc bddc bf10 3fa8
c04a bf8c 3f96 bed0 405b bf38 3fc4 bc00
bed6 3f86 3f35 be8a 3e9c bfba bf01 3f94
3e4c bf27 3e18 4006 4026 bdd5 bf4a 3e34
3fa2 bf86 bfbd bd48 3e5d 3f08 bf90 3f7c
3f19 3d86 3f4d 3c84 3f58 bfbc 4015 be6e
3dc6 bf40 3e56 bf5a be28 3dba 3d29 3f69
3fa0 be8d bf98 3f36 c00b bf8a 3f88 3f9b
3d8c bf42 3dc2 3f16 bf01 bf56 3f76 bf15
3e87 bf3d c01d 3e9c 3ee2 3d69 3eb0 3e93
be96 3ee1 3e8e 3e2c 3f3a 3dbd be0c bc08
3f1c 400e 3ef5 3f9f 3efa 3fda 3f48 c021
3f61 bfa3 bdfe 3ffa bf60 402b bf0a c02d
4003 3e2e bf0f 3fef 3e0f bf2e bf04 3c04
bf12 3dd6 3f4b bee2 bf47 bf3c 3eaf bf44
bf46 bf91 3e8a 3dfe be78 bf18 3f2a 3ee3
3f86 bce4 3d34 bf91 3f48 bc00 3fd9 3d20
bf86 3ec5 bea2 3ee7 c028 bca2 3e9c bf06
3f99 3f36 3f95 bca8 c10e bf90 bf04 bfdf
c000 bf58 bf12 bf8a bf7e 3ed4 3ed7 bf72
3fcf 3fa5 3f33 bfff bf0e 4030 bf09 3ffa
3eb6 3fb6 3f1c 3e97 3ea8 bd92 3f3e 3e22
3f40 c018 c01b 3fcb bf32 400d beeb bf33
c025 401e bf62 bb90 beee 3ea6 bfa6 3e8a
bfa4 c004 bfa4 3e9f 3f02 3f54 3f48 bf21
be1e c011 3e9c bf63 bfdc 3f94 3eb9 3f56
3faa 3f57 bf21 3cc1 3fbb 3fb2 beda 3f09
bef4 be93 3e8a bdb7 3fdb bfed 3f55 bf76
bf11 3f9c bf8d 3fdf bdfe 3ff0 3f99 bf59
3f35 bf29 3ede 3faf 3f5b be8a bf14 3fcb
bee6 3f8d be8e 3fc4 3fa6 be9c bf7f bf7b
3ed3 bf5b bf37 3eb8 bf96 3f80 bffc 3fac
3f4e be0a bf86 be94 bf3a 3fe4 bf28 bf06
4005 3f43 3ed6 3f86 3f4a bf07 3f69 bf46
bdbd 3f7b 3ee6 3f8e bee6 bec0 402d bf89
bf5c 3f4c bf25 3e90 bf5c be46 be6d bfa3
c013 bf02 3f3a be60 be8a 3f40 3f9e 3f0e
3f33 3fb2 bf0b bf87 3f1f 3ee4 bf81 3ee3
bf55 c008 3fb7 3d24 bf97 3fe8 3f3a 3f7b
3eb9 bddb bc90 3ef3 3f2e 3f55 bf0a 3ef9
3ba0 bde8 3fed 400e 3f30 3f84 bfa0 3eba
be36 3ff6 3fd9 3ec3 be48 3e8b bf4e 3f9b
bf90 bfbc 3fe3 c047 bf64 beb2 bfde 3f43
bfef 3ec6 3ed6 bff0 be34 c007 3f3c be9c
3f24 be6c bed4 3f2e 3f3f bf5c bfb0 bd2c
bf88 beec 3e80 3e14 3fd4 4005 bea8 3f2c
3f82 3f1c bffd bf8b bec4 bf63 3feb 3ec6
bfde bf85 3df4 bfa4 bef2 c0bf bf72 c001
bec6 3fa0 3f08 c01d 3e4d be82 bf90 beb9
3f25 bf63 bf87 bfa8 4015 4055 c014 3faf
3f87 bfb1 3e37 c005 bd1e bc10 3ec2 3f1b
c038 3ef5 bcae 4023 bf8e 3dfc be4d c009
bee6 3fb2 be2d bf04 beca 3f5e 3de2 bd3a
3fe0 be68 4010 bdbe 3e9b 3eaa 3fc4 3e06
3eb8 3ea7 3fb7 3e1f 3f67 3ef5 3ea3 3e47
bf6b bfb8 400c 402b 3fe5 3fe8 3fef 3ef3
bdc0 bff4 3c94 be00 bfb2 3ef6 3e9f 3df6
3f49 bfd4 be65 bfa7 bf9f bf9e be86 bea7
3d20 3db8 3f6a 3f2b be54 bf34 3f8f bf56
3f5f be0e 3e34 3fd9 bfc4 bfd6 3f52 be5f
3df9 bf87 bbe0 bdb6 bf7c c015 bfe8 3f5b
bf41 bf91 3fa8 3fa8 3fa3 3fd1 bffc bf0e
3fc5 3fe4 3f0d bf84 3e28 bdee bfc6 bead
bf37 bf92 3fbd 3f60 bf8c bdbe bf88 3e91
bf8c be8a 3f89 bfad bf93 bf52 3f9c bf96
3fa0 bf0e 3fd4 bf80 bfb3 be9b 3efa bfcf
bf49 3f0a bfb9 3fcb 3fce 3fd4 3f17 3efd
bf1c c00b 3f9c be74 bfb6 bfb4 bf88 3e3c
c02b 4003 be0c 3f22 c001 bfb1 bf8b beec
c012 3f44 bfbc be4a 3fe7 3f84 3f20 3ebb
bdbe 3f8a 3ecf 401e bf26 3ffc 3f50 bf2e
3f2a 3fd6 3fd9 3ebb 3e96 bfcf bf57 bf94
bf0b bf9b bf3d 3e88 3f21 3fdd 3ec4 bf11
3f65 3faf bf1c bf42 3e12 3f48 bec0 befc
3e98 3e14 3e40 3fb5 c007 3f7a bfb9 bf04
bcec be83 bf11 3d28 bfd8 3f8f 3fe6 3f90
be6c 3f38 bec1 bf7d c001 bd28 bfa6 3f2a
3c90 bfa5 bf23 bf98 bfe4 4049 3d60 becf
bf89 bd30 bf8e 3f87 bf15 bf64 3ff4 3f34
3fff bfbe 3dc8 bf10 bf8c 3ef5 bfc4 bf5d
3ec0 3f44 3f1e be8d 3fa2 3ecc 3f4c 4009
4007 3ef8 beb7 3e6b bf82 3f95 3fd4 3f9e
3f75 bf6f bf14 3e9c 3fb4 bfa3 bfca 4026
3f4e 3edc be6a 3e7e 3fea 3f95 c021 bfa9
bf23 bf4c bf64 3ee6 3ee4 c061 bf6e bf0c
bfde 3f7e be2a 3fb4 3faf 4008 3f79 bf48
3f10 bfc6 3fe2 bf50 bf20 bec6 3e84 3f5b
c013 beef 3f0c bf87 400c 3f8b 3f3d beb5
bef0 3fa4 bfe8 3f2a 3f9a 3f6a 401b 3fbd
3fb6 3f12 3f2a bf79 3e24 beb1 3ec6 4036
be17 3ea6 bf50 3e5d c007 3f96 3fc2 bfdb
3f36 bef6 bfdd bf4a 3e48 bfdc 3eb4 3f4a
c012 3f1b bf0e 3f1d bf6b 3f53 bf9b 3ef4
beae 3f2a 3f86 c01c 4005 bef4 3dc0 3fec
be9b c181 3f3e bfc3 bde4 bf3a 3fa7 3ed6
bf48 bf2f 3f21 3e81 bd58 3ed0 c02c 407f
bfad 3f62 bfc0 bed5 bfb5 3f52 c00d bfca
c066 3d20 bf7e be88 3f7a bf7e be74 c0ac
3fab 3eb3 3e74 bece bf3a bfab 3fe7 bf1a
402a 3efe bf21 3fa9 3fb6 3f3c bfbf 3f19
3f9d bfa2 3fb5 bf7c be9f bed2 bf74 3f17
3ffc 4055 3fa4 be96 bf86 3f41 3ef5 4053
bfab 3f5f bd39 beca bf44 bf82 3fff 3f19
bf81 be81 3ed5 4038 3f5a bf4f 3f44 bf1d
3e2e 3fa4 bf50 3f47 bda6 3f8b bf91 3ff1
c012 bfbb be20 3e7e 3f64 bdf2 be5a 3eec
c009 bf3f bfa7 bd8c 3f1e 3d28 3eea 3fb6
3d9c 3e85 bf1f bfcd bf04 bf82 3ef0 be2f
3ee3 bee3 bfbc 3f57 bfe8 be80 3eb6 bf84
401b 3fcf 3f86 4009 bf82 3fb1 3f86 beba
3f76 3f4e 3f97 3f91 3f72 beba bef4 bf1c
bef2 be18 bfdf 3f0a bfaa c010 bf16 bf6c
bf16 bf58 bf18 bfc7 3f38 3ec0 bfc2 bf9a
bd8a 3d24 4040 bdee bf2d bf79 bf6f bebd
3f91 3f38 bec7 bed3 c232 be8c 3e88 bf3f
bf13 3e8c 3f45 bf34 bf8c bf85 bf35 4009
3e99 3ea7 3f86 3f82 c00a 3fe8 3fb2 be91
be80 3f7d be90 3f5f 3fec bff0 3eb2 3db2
3ee6 be26 3f59 bfb0 bf2a 3f44 3f3a 3fba
bfd8 3fc2 bf50 bfde 3d78 3f20 3f23 3f62
bf5a bf5a bf96 3f24 be1c 3d1e 3fa2 3f9c
3fa4 3de4 3fe6 bfe9 bf85 3f2e be11 bff9
3f38 3f41 bfa4 bf23 405f 3ffb bfb8 bf24
bf6b bf12 bfc8 bfa6 3faa c1cd 3e1a bf46
3f2a bf24 3e98 bedb bfaf 3e92 3ef2 3d50
bf2d bdda bf10 beea 3f7c 3ff4 bee3 3df8
bf4c 404b bfa0 bf28 be83 3f03 3e71 3fcc
3fdc 3f0e bff3 bed4 c018 3f34 3f80 401a
3ef6 3f55 bf3a beac be8d bf69 3f2d 3eee
bfab be28 3e63 be8e be0c 3e3d bd60 bead
3de6 3e59 3eee 3ec9 4022 bf40 3e98 bf10
bee4 3ff7 bf6b bdbd c00e bf90 3f4f 3f3e
bf3c bdf8 bf89 3ec3 bf9d 3ff4 3fc8 bc00
bfc8 3e32 3e98 bd68 bea2 4019 3fdd 3fa1
bf8d bed8 c02d be9c 3fba 3e84 bd28 4028
3fb2 3bb0 be86 3f1e 3f4a bd00 bc60 3f92
3fd7 bf18 be6e 3ee5 3e7c 3fbe bf86 bf23
c007 bf1b 3dd8 3f00 3f47 bd8f 3e1b 402f
c01d 3eb8 bf88 be26 3f26 3f69 3ed2 c002
3ef4 bcc0 be80 be50 3e12 bf06 beac 3ede
bfef bfc7 beb8 be8a 3fb1 bf12 3dd8 3f6b
3fa2 bf5e 3efe be79 403a bdd4 bfca 3ec6
3f9e bf0b 401b bf3e bf74 bf22 bf7c bf2f
3ef5 3f44 3e26 3f3e be61 c09e bfe3 3e8a
3fde 40ce 3f20 3e4c bf60 3f71 3fb6 bf50
be1e 3d8c 3e99 3f34 3fc1 3e9e bf8d 3f3d
3ec7 bbe0 bf44 c023 3fa8 3f9f 3f66 3fc3
bdd0 3f42 bf9d bf38 bed4 3f4b 3fa4 3f18
beac 3fb8 bdb5 bf25 bec1 bf08 3e2c 3f18
3dc2 bf8b 3f41 bf99 c00d bc80 3f4c bdb4
bd94 be4c be34 bee1 bf26 3ec0 3f1b bd98
be32 3f83 bf92 3f4f bf48 3f0f 3f7a bf94
bf6b 3e97 3fc2 bed8 bd9e bed6 3f3a beac
4026 3edd c00d bf24 bf79 3f4b c014 bed0
3f99 3e81 400e bf28 bfbc 3ed6 3ef1 bf91
3fba befc 3f12 bf37 3fc1 bece 3f22 3fc6
bf98 bfec bf3c 3ed0 3f69 3f18 bf43 3d90
bfd6 3e32 3dfc c00d 3f0e 3f76 c11e bfa7
3e82 3f5e be04 be5e bf4d 3f89 bf2e 3f48
3e94 3e9c bfad bfaa 3fcc 3e50 bfe9 3f60
bfae bf15 3fa5 3de4 3f9d c003 bf4b bfaa
bf91 bfb4 bf26 3e5f 4018 bf06 bd30 bfa2
3fc9 3f0a bf85 4027 3f44 bdf0 c037 3dc6
bfa6 bf09 3e3a be18 3ff4 3ee7 3d26 3fdb
3f42 be44 400a 4025 3f92 bdd2 3fe8 bef6
bdd0 beaa 3fbb be7d bfab bfba bed9 3f74
bff2 3e8e 3c30 bf46 bf60 bf64 bdd4 bf82
3f8e bee8 4000 bee0 bc98 bfc0 bf1e bef2
3f45 bf20 3f5c 3e95 bf7b bf63 3ed8 3d40
be7e bf81 3f31 bf42 3fda 3db2 bf4e bf12
3e3c 3f57 4016 be30 bfc8 3f83 3e40 3fe4
3f9e 3fe4 bf67 3dd8 3dec bee0 3fcf be22
be07 c018 be50 bf22 3fc0 bdc8 bfa3 bec4
3f85 bf90 bf6a 3fde 3f53 3f3c 4008 bff4
3eec 3f80 3eb7 bf1c bf94 bffc 3f06 bed2
c029 bf45 bf48 3f88 be3d bfba bf76 3fe5
402d bf6c bf7e 3f76 be10 be76 bf4b 3f0f
bf29 bfe2 bef7 3fc7 3f58 3f42 3f1c 3d28
3f87 be62 c055 3f43 be43 3fa6 be04 3e6c
3ffe bf73 3fb5 4088 3fdb 4029 bec6 3c90
bf76 3f9a bf3a 3f13 bf96 be9b 3d30 bf12
bfb2 3e14 bebe 4023 bf87 4069 4029 bec6
3f83 3ec7 402d 3f8d 4061 3f6c 3fa9 3fb0
3f69 3e40 c046 bc94 410f 4003 3eb2 bf82
c002 4014 beb0 3cb0 bf47 bd8e 3f15 beab
c02e c0cc be68 3d30 3ead 3f9c c02a be70
c007 bf9e be9f 4034 3fd2 bf08 c01e 3fc6
3eab c08d bf10 3f85 c05a 3e2c 3f30 bff8
3dbd 3fd2 bf68 3e50 4070 3f35 c01c bf2d
bda8 3eb3 3f90 c01a c019 3ff6 bf1c 3ea2
3e98 c233 bff3 bed6 bf5a be68 bcc0 3fdc
c01a bf8d 3fb8 bf63 3fb4 c046 bf01 4066
3f9a 3f10 405f c031 bf7e bf95 3fd4 3f4c
bfea bf2e bf80 4054 3fc9 bfc8 bea4 4111
bef1 be32 be4e 3e01 3f19 bff5 bfb3 bfa0
3faf bfc9 3e38 be0e 3be0 3efe bf95 c025
3ec6 bfaa bebe c02b bef2 3f80 3f81 bedb
bf50 3fe8 40a7 bede 3f35 4000 be29 c01b
bf85 3ffe 4064 3dac bfc6 bdf8 400a 410e
4056 3fb0 4091 3c40 3d86 bf26 bef5 3dac
bf9d c044 3ff6 3f8e 3f93 3d72 bfeb bf30
bfcd bed2 bf2d 3fd2 4015 beaa bec1 bd50
3fce bed7 3e11 bec2 4000 bdf8 3f49 3fa4
be0a 402f bfc8 400c 3f50 3fbf 3f97 3f37
bf64 4014 3fa5 4007 beee 3f87 3ff3 c03f
beb6 3f45 bf5d bfa4 3f04 bfc4 c029 bfe7
be8e bf37 3ebf 3e88 402b c027 3cb0 3e88
403e bf8a bd10 406c 4009 bf86 bf88 bc58
3dce 3eaf bf2b 4047 3d70 3e58 bf48 3f89
3fb7 3ff4 bf81 beb6 3f40 be24 bf2e bf08
3f27 3f82 3fee bda0 c0d7 bff7 bff8 bff4
c034 bf12 bfaa bf59 bfc7 3dd6 c008 3fa6
3cc0 3ee2 bf6a bead 3f4c 3f3f c003 3daa
3f89 3fb4 3fc2 bfb2 bf9c 3f22 3eb4 3f76
3fff bf0b 3fb3 be75 3f56 3f4a 3ee3 c00a
be3e 4092 bd7c c030 3f58 3fc8 c053 bf92
bf96 4027 be48 3eba 3f6e bfb9 c052 402a
bf26 bfd6 bfaf 3f0e bef0 bf7d 3e46 bddc
bf4c bff1 3e78 3edd 3fd4 3fac be82 c06e
3e62 3f4c bf14 bf90 4039 3fd2 be89 bf85
3ee1 c03a 4004 bf61 3ea0 bf18 c062 3fc3
3dd0 3eba bf10 3f8a bfa8 bec3 bf92 bfba
3f7e c012 c05f bf22 c017 3f91 bfb2 3e25
3f24 bfc2 bf5e bfe4 bfa8 bf68 3f5c 3fa6
bfe0 bf92 bd06 c0b1 3fe1 3fc4 3ed4 3f46
bfad 3fca be70 bd54 3e00 3fe2 3f8e be58
c05c bea3 3f58 3dff 3e08 3ec2 bef4 4015
beda 3f02 3e75 3fdf bfa6 beda c002 3ede
bfc4 c001 bf65 3d8e 3f84 3fcf bd00 bf42
3f51 3eff bee1 3f46 3f73 40dd c009 3f3a
bf42 bfee 3ee8 3f56 bf2a 3f9e 3ff4 c03e
bc60 3f53 c002 4040 c03c 3e1c be08 3fd2
3f40 bdf0 4089 bb80 3f0f 3f6c 4026 bf98
bf7b bd64 bfa8 bf8a c01f 4023 bf9d bea3
bf32 bf10 bffc 3faf 3e38 bee6 3ee4 bfc5
bfb6 bfd6 bf7f 3f26 bf85 be1a 3f8d bdd4
3db0 3e10 3f68 c04a 3f66 40d5 bfa6 bd8a
bf7e 3f90 bf56 3e9d 3ff2 3eb6 400a bff0
bf74 c0b9 bf55 c04e 3eb2 bee4 3f66 bf89
3e3e bf62 407d bf47 bf96 c0ee 3f47 bcd0
3fcd 4017 3f36 bb80 4001 3e91 bfe3 405d
beb0 bf35 3e92 3f10 3e36 4030 c034 bfa3
bf2f bf06 3fdd bf8a 3e9a bf9e bfe4 bee3
c030 3ea8 3df6 bfc7 bfd2 be1a 3f79 3f1e
3ca0 3fa3 400b 3f15 bf9c c00f 3ff1 3fa4
be7a 3f60 3ee1 beda bfb2 c03f bf50 c01c
bf0a bee9 4054 3d66 3fba be9d bfde 3f16
bf98 3fee bd14 4034 3f7f 4015 be28 bfd2
bdf4 be54 3f8d be4f 3e02 3e6e c06d c00e
3e3a 3e1e bf87 4000 3ef4 3f50 3f93 3e4f
3ece 3f9f 3dde 3fd2 3f8c bfc8 3f4c bfdd
3fa9 3f11 3fb9 3f4b 3f59 bf1e bf23 bdc4
4027 bec2 3f43 3f40 3f85 3f88 c032 be9e
becc 4030 c03e bc20 bf42 3edb c12f bfe0
3fbf bff6 3f78 bf92 bf3c bf28 bf67 bbc0
bed3 bfb7 bf1c bca0 be84 bf95 3f64 be97
bf99 3e8c bfca 3e35 3f19 bf93 3e8a 3f64
bd80 bf98 bfc0 3eec bfe8 3fc7 3c00 bfcc
3e20 3f11 3e92 3f89 3de4 bf0c bf73 3f26
3fbd 3d76 3d54 c03d 3f85 3f8d bf04 3f9c
bf6a bfa7 4053 3f48 bf1f bf85 3f44 3fd4
bfd5 3f52 bf77 3e2c bede 3ed0 c011 beb0
bf92 3e99 c001 3e8f 3e3c bfb9 bd96 c03e
3e89 3f62 3f85 3fe0 bf3c bfa0 bfb5 bd20
3f08 4062 c032 3fcb 3f33 3f59 bf25 bf87
bf95 bf27 4064 3f6a 4011 3f56 be20 c036
3ff8 bf33 c028 402a be17 3ed6 be8d bf8d
3eb8 403b 3e95 be04 3fab 3fb1 be5e bde0
bead c005 bf20 3e06 3fe1 beaa bfcd beda
3f32 bf93 bf11 3fef 3fc0 3fb6 3fc1 bfd9
3f0f 3eaa 3f0b bf76 bf2d bfca 3f16 bef8
c029 bf22 bea0 3f8f bfb3 bfe0 bf89 3ffc
4027 bf83 bf46 3f8b beb1 bf24 bf8c 3f5e
be8d bfcc befc 3fc4 3f21 3e3f 3f04 bb40
3f67 be50 c032 3ee9 be50 bff2 be6c 3e4c
400a bfa4 3f9e 4081 3f78 4009 3e99 be58
bfa4 3fa2 bed9 3ed2 bed6 be22 3f03 bf1b
bfdb bf49 bea4 400b bf6f 4099 4038 3f4b
3fac 3ef3 4047 3f8a 4084 3f98 3fa1 3f58
3f9a 3eaa c02a 3f17 40eb 4004 3ea8 bf93
be74 3fff bf88 bcf8 bf84 be88 3f66 be99
c034 c0c5 3df7 beb1 3f5a 4020 c01f 3e76
bfbc bf26 be3a 402c 3fde bf7a c011 3fcc
3ec2 c06c bf45 3f14 c05a be0c 3de4 c04a
3ef9 3fb4 bf47 bc80 4043 3f52 c028 bf9e
3ddc beac 3f2d bfb7 c012 3fe6 bf52 3f72
3e6c c22e bfbd bf1c bf45 3f02 be92 4002
c021 bf2e 3f6e bf5a 3fc1 c07c bee8 407a
3fa4 3e88 405d c012 beab bf35 3fdf 3f6a
c006 bf17 bf0e 404b 3f91 bfb9 be34 410a
bf76 bdf5 be60 3f8e 3d90 c022 c007 bfb6
3fe5 bfac bebf 3eec be22 3eee bf9c c022
3ec1 c004 bf92 c018 bf15 3f42 bde4 beca
bf9a 4002 40b3 beca 3eb9 4030 bf75 bfe3
bfa8 3fbc 405a 3d9c bf8a 3ce0 3fd2 4112
4028 3fb3 4086 be14 bcf0 bf3e bf0b 3a80
bf88 c095 4003 3ff3 3f92 3e40 bf68 bf2a
bff9 bf16 bf6a 3ff0 402c bf82 bf1a 3f7a
4001 be7a 3ec3 3e36 4016 bf8f 3f61 3fac
bf04 406c bfe7 4012 bd70 3fa7 3fa2 3f74
bfa2 4005 3f9a 3ffe bec2 3f9d 3ff4 c027
3ebd 3e7e bf58 bfa1 3f10 bfcc bfca c003
be8e bf86 3f20 3ed2 400e c036 3f2e 3d5c
4033 bf8a bd34 4063 3fdf bf4d bf7d bf3f
3f16 3ecf bf08 4034 bf10 3c90 bf52 3e9e
3fb2 4016 bf9c bea6 3f09 3e72 bf41 be1c
3f08 3f85 4001 bd8a c0ca c008 bff6 bfa4
c029 bf1c bfdd bf4c bfcf 3eab bfd9 3ed7
3f0e be1f bf8c 3e0e 3f68 3ef2 bfb6 3d0e
3f4c 3fa8 4007 bfaf bfda 3e9f 3efc 3fce
3fe7 bef2 3f9e beaf bc40 3f44 3ea4 c01c
3e6b 4099 bf0b bfd4 3f46 3ff8 c03b bf98
bf2c 3f96 3d08 3eb8 3fca bf30 c041 3ffc
bf1c bfa7 bfe7 3fa3 be06 bf39 3f83 be76
bf94 bfd9 bc80 3f47 3fc9 3fa6 bf44 c05d
3f36 3f84 bef0 bf8e 4038 3fb6 3e07 bf8a
bd80 c02d 401b bf64 3f0b bede c081 3fbd
3f66 bee9 bf87 3f7a bf07 bf21 bf8d bfe6
3ff2 bfa7 c072 beaa c037 3f91 bfaa bd33
3f06 bfa4 bde2 bfba bfc6 bea7 3e12 3f5c
c004 bfe1 3c10 c086 3fbc 3f9c 3f16 3f2b
bf64 3fca 3da8 3ee7 3d90 3f9e 3f80 3ed8
c073 3d03 3f9a 3e84 3f36 3ecc bf17 3ff7
3d68 3e58 3e46 3f88 bf01 beca c005 3e48
bfd4 c018 bf90 be53 3f70 3fd6 bee2 bf1f
3f96 3ea4 bf2c 3e84 3ef8 40d8 bff5 3f9f
bf55 bf6e 3e74 bf20 bf9d 3f5b 3fe6 c058
bdf8 3f7c c01f 4056 c037 3e84 3ebb 3ffb
3f7c beee 4087 3dcc 3c20 3f51 402d bf38
bf8b befe bf86 bf5a bfc5 4023 bf5d be2e
3e0d bf58 c009 3f91 3fa7 bf39 bd60 bfc0
bfce bff0 bf45 3f30 bfbf 3da8 3fe6 3e2e
3e10 3efe 3f86 c054 3f4c 40c8 bf36 bec0
bf4e 3fa2 bf25 3e2c 400c 3f0b 4001 bfd6
bf60 c0a4 bf6f c041 3d08 bf01 3f49 bfc6
bb80 bec7 4062 bf7a bf62 c0ee 3f02 3c80
3fa4 401f 3f0e 3e46 3fed 3eef bfe1 4063
bf22 bf4b 3dd4 bf1e be5c 400c c054 bfad
bf68 bf93 3ffc bf5a 3f9a bfbf bfb9 becc
c00f 3ea6 3fa5 c00a bfa0 3da0 3f8a 3f2c
be84 3fa4 3ff6 3eb2 bf8a c022 3fda 3fae
3d88 3f02 3f3f be1d bf5d c04f bf54 c00a
bde3 be8d 4027 3ecf 3ff2 bc30 bfdf bd68
bfa4 4004 bdee 3fec 3fb4 3fc2 bdf0 bf39
be28 bc40 3f30 bf5e 3ef6 3f6b c022 c01a
3e69 bde0 bf94 4032 3f2d 3f7a 3f66 3ebd
3e2c 3fb4 be72 3f5e 3f17 bf9d 3d92 bf64
3fa7 3f1e 3f88 3f9a 3f78 3d20 3e1c 3d54
3ff6 3e18 3f09 3f80 3fac 3e8a c02e bf27
3e70 401b c041 3e50 bf80 be5a c12c bfa7
3fdf bff8 3ef6 bfb4 bf49 bf41 bf91 3cd8
bf38 bffa bf09 be84 bed4 bf94 3f9f beab
bfca 3ebf bfad 3f14 3ee2 be81 3f3d bcc0
3e1e bfa2 bfba 3eba bffe 3ff6 bee4 bfe9
bed3 3f10 3db4 3f8a bdb8 bf68 bf46 3f22
3fbe 3ed2 bf1d c03d 3f1e 3f80 bf38 3fc2
bf82 bfb4 4016 3f76 bf20 bf70 3fb9 3fed
bfbc 3db2 bf26 3ed8 bd88 3e1a bfdf be34
bf6e 3c48 c007 3ebe 3ed2 bfd5 beb5 c013
3eb6 3f0a 3f30 4009 bf76 bfb3 bfa6 bddc
3dfc 4052 c02e 3f83 bd84 3fbe bf1c bf6a
bf88 bf44 401e 3f97 3fbb 3f2e 3d60 c020
4033 be68 c045 402f bec2 3e04 bcb4 bf97
3e90 4030 3f03 beae 3fde 3f6e bdac be70
bed8 bffd 3bc0 3f6c 3feb be8e bfac bf17
3f13 bfa1 bf81 4002 3f6c 3fda 3f57 bfec
bd44 3cf8 3f55 bf84 bf60 bfaa 3eb4 be88
c046 bee2 bf42 3f92 bfcc bfe2 bf5c 3fe6
401e bf35 bf81 3fb8 bf1e bec7 bf6e 3f86
be98 bfb1 beda 3fb0 3db4 be3f 3f01 be5c
3f58 be8a c03b 3f16 bec2 bf10 3ea0 beb5
400c bfba 3fc1 4064 3f78 3f8d 3eca 3f34
bfae 3fb6 bee8 be22 be3e 3dd7 3e82 bf00
bff2 3f83 bedc 3fc5 bf51 40c0 4031 3f9e
3f9f 3f0b 4068 3fc8 4086 3e7c 3fcd 3ed1
3f93 3e10 c042 3f6b 40f3 400c 3f83 bf7a
bfc2 3ff9 bf8a beb8 bf92 be09 3f74 be1c
c00b c0c8 bdea bf42 3fb4 3ffa c018 3f06
bfc0 bf18 be14 4049 3ffc bf91 c002 3fb4
3ee4 c069 bf8c 3f3d c07c 3e78 3ea4 c038
3e96 3fca bf56 3eea 4095 3f8d c01c bfa9
3ea6 3e6f 3f02 c017 c00e 3fb7 bf50 3f50
bf60 c22e bfc1 bf56 bf60 3eb7 3f04 3fe4
c01a befc 3e99 bf2b 3fd2 c067 bed0 4083
3f7c 3f31 405c c00d bf41 bf6a 400b 4021
c006 be96 bf14 4042 3f33 bfb5 3d10 4107
bda0 be5c be12 3f80 be8d c006 c002 bfd8
4002 bf46 beaf 3f89 3d54 3f2f bf8e c017
3eca bfd8 bf52 bff9 bf30 3f76 3e96 bf54
bfe7 400f 40b2 bf28 3eea 402a bf82 bfa8
bfaf 3fdb 407d bee4 bf24 3f09 3ffd 40e2
4009 3fd4 4064 bea8 3d04 bdea be55 bd88
bf37 c065 4009 3fea 3f9e bef9 bf70 bf80
bff0 bf5b bf3d 400b 401c 3e3c bf17 3fc2
3fc1 3d2c be78 3e35 402b bfd7 3e78 3ff0
3c4a 4001 c012 4008 3f65 4019 3f9b 3f3a
bfb4 3fda 3f82 3feb be02 3fdc 4006 c02a
bee2 3f22 bf96 bfab 3eb2 bf58 bfde c017
bee8 bf7b 3f24 3efe 4037 c02e 3ce0 3f3f
4040 bf58 3e20 4077 3fc5 bf04 beb8 bf57
3e4d 3f09 bf4f 4036 bee7 be24 bfac 3e62
3fe3 4021 bfca be8e 3e2d 3e92 bed4 3e92
3ea7 3f87 3fc1 bc40 c0cc bfc9 bfb3 bff4
bfcb bfa6 bff0 bf70 bfda 3dc8 bfb6 bf34
3f19 bf00 bf9f 3e3e 3f56 3eb9 bf9c be64
3f32 3fc4 4004 bf36 c00f 3f55 3e8b 3fd4
3fef bf1a 3fae bed6 3da8 3f5a 3f75 bff7
3f18 40a4 bf6d bfd3 3f93 4013 c039 bf6a
bf04 400c bec2 3ca0 3fc0 bf8e c040 3fb1
bf25 bfae bff2 3f93 bf36 bf7f 3f4c be72
bfad bfe2 3e8c 3f16 3fc0 3fd2 bf50 c054
3f80 3fb8 3e07 bf88 4037 3f8d bea6 bf8a
bf0e c05c 4015 bf8b 3e90 be4f c03d 3fd2
3ec9 bf7e bf88 3f9c bf0a bf70 bf4c bfb6
3ff7 bfe7 c071 bec7 c04f 3f00 bf52 bf03
3ecd bf5d bee7 bf94 bfcf bef9 3f08 3ec1
c025 bfc0 be70 c086 3f95 3faa 3eb7 3f0e
bf74 3fdb beed 3f0c 3db0 3ef6 3f7a 3e83
c06d bf32 3f97 3df2 3f91 3f22 bf87 4009
bf0a 3d8c 3de8 3eee bf48 bef6 c009 3da2
bf90 c02b bf98 be27 3f5b 4007 bf3a bf2e
3fe4 3eee bf44 3f0f 3f38 40cb bfca 3f9b
bf4a bf06 3f56 bf86 bf81 3e2d 3ffb c038
be88 3f2b c046 4040 c042 3efa 3f13 4021
3f77 bda6 4055 be52 3e02 3f8a 3fd6 bf46
bf0a bf5a bf76 bf5a bf9a 4032 bf48 bf01
bf58 be8a bfea 3fdc 3fb1 bf0e 3ece bfac
bfbe c001 be6e 3f14 bfc0 bdec 3fb3 bff0
bd88 3f20 3f89 c031 3f50 40c7 bf33 bc40
bf27 3ff0 bed2 3f04 3ffd 3f51 3ffc bfc8
bf8e c0a2 bf5f c049 bd38 bf1d 3f25 bf7f
bde4 bf1b 4047 bf86 bff5 c0f8 3f07 be71
3fa8 400d 3ebf 3f1a 3fae 3e44 bfcc 4027
bef9 bf35 3df6 bf66 3e56 404b c03c bfa9
bf3a bfba 4002 bf7b 3fd2 bfbe bfb6 bf04
c00c 3edc 3f70 c014 bf91 bf02 3f36 3f8d
bed6 4011 3fda beba bfad c01d 3fba 3faa
3ea8 3f05 3f70 be68 bf9c c03a bf78 c012
be58 bf1d 4047 3f35 3f90 bf30 c00b be58
bfa6 3ffc bc50 3fcb 3fcc 3faa 3da0 beb6
beec bd30 3e99 be0c 3ebc 3f8e c032 c008
bd73 bde4 bfe5 4019 3f06 3f45 3f19 3ea1
3f02 3f9e bf17 3f93 3fb0 bfa4 bc40 bfb8
3f97 3f05 3f6e 3f8d 3fc6 be78 3de4 beea
3ffc bce0 3f16 3f93 3f9a 3ef9 c016 bf9a
bf60 4026 c059 3de0 bf60 3f60 c120 bfc2
3f69 bff2 3f9d bfbc bf44 bf6a bf94 be42
bf5a bf81 bf00 bf4a be2c becf 3f72 3d50
bfe0 3f11 bf7e 3f36 3e9a 3dcc 3f19 3e8e
3eb2 bfbd c023 be0a c036 4003 bea4 bfd8
becf 3ea6 3d10 3f97 be08 bf82 bf2c 3f38
3fec 3f19 bf06 c00a 3f18 3f58 bfb2 3fca
bf97 bfb1 3ffa 3f8e bf46 bf69 3f5f 4002
bfd8 3e6e befc 3f35 bea8 3f24 bfb2 3cf4
bf9a bd88 c01c 3f63 3ebd bfca 3e81 c05d
3da0 3eca 3f24 4034 bf69 bf89 bf83 3e94
3e71 4050 c02e 3fea be80 3fa7 bf29 bf8e
bf06 bf48 4058 3f24 3fa5 3f28 be22 c00c
402f bd8a c056 401c bf10 bd40 be1e 3e45
3e82 400e 3f49 beda 3fc4 3f60 bf42 bdd8
bee6 bffc 3e84 3ebc 3fe4 be81 bf28 bf13
3f13 bf8b bec1 3fe5 3e84 3f20 3fa8 bfe1
bf7b 3d9e 3f0b bf58 bf38 c021 bc80 bf20
c05a bf16 bf53 3f83 bf68 bfbd bf26 400c
401a bf16 bf94 3fa7 be1a 3c60 bf1e be39
bf10 bf75 bdee 3f9d bdc7 3ecf 3e8a bd18
3f82 be30 c040 3efa bf04 3fdd 3e32 3f07
3fd4 bfc9 4018 4079 3f4d 3fa1 4035 3f6a
bfa0 3f9a beeb be0c bee3 3e80 3d38 beca
bfe6 3efa bec4 4045 bf5b 4069 3ffb 3deb
3f8d 3f05 4058 3f96 405c 3e68 4007 3e97
3f86 bd68 c006 3e81 40f8 3fb2 3fc5 bfc1
bf9b 3fe6 bf53 bf03 bf94 bd00 3f35 3ea3
c027 c0b0 bf11 bf0c 3fb3 3fa6 c01e 3f2c
bfe6 bec1 3e44 4043 3ff3 bf96 bfe9 3f8c
3f24 c04c bfb5 3f9a c0ab bedc 3e37 c013
3daa 402b bf45 3dc0 407a 3ecc c00f bfaa
3e20 3f30 3f34 c038 bffe 3fb0 bf4e 3f8d
bf5b c223 bfd2 bece bf39 3f34 3f2e 3fe0
c006 bf12 3ee8 befc 3fbf c02d bd3c 407c
3fa5 3f7a 4045 c01c bf81 bf56 3fd4 4012
bf55 beb1 bf17 4033 3f85 bf53 bcf0 40f0
bf49 bd78 3cb0 3f08 3d27 c007 bfda bfcc
4001 bf80 bf0e 3f24 bec4 3eb3 bf8a c007
3f02 bf9b bf3c c002 bec0 3f98 3e65 bf41
bfeb 3fef 40d4 be40 3ece 4009 bf2c bfea
bfc3 3fd2 4063 bf2b bf5a 3eee 3fcd 40f9
3fe9 3fbf 4021 3eef 3edc 3f18 bdba 3f48
bf85 c08b 4004 3fae 3fa8 bf8e 3e04 bfc3
bfe9 bf7d bf6e 3fc2 3fcc 3f02 be12 3faf
3fd2 3cf0 be17 3e1a 4004 bfb8 bf1c 3fef
3f24 4070 bfd0 3fe2 3f6e 4039 3f91 3f30
3ea7 3f99 3f1f 400e 3ebe 3f92 400a c02c
3e95 3f5d bfa2 bfb7 3e84 bf75 bfa8 c00a
3e04 bfa8 3eaf 3f69 4026 c03b bec3 3f07
4012 bf27 3d1e 4074 3fbb bf9f bf00 bf25
be58 3f55 bf08 4017 beb2 3d80 bfa8 3f1c
3f56 4036 bfb7 bea4 3e30 be04 bf1d 3f55
3f02 3f2e 3fa0 bd70 c091 bfac bfc4 c023
c006 bfc1 bfd4 bf5b bff1 3e98 bf7f 3f83
3e78 bed4 bec3 be58 3f82 3e21 bfa2 be03
3f38 3f8a 400a bef0 c004 3f56 3e96 3f7e
3f9c bf1a 3f91 be8e 3f0e 3f0d 3f1b bffa
3ee0 40ae bf65 bf9a 3f0a 4006 c05a bf69
bf6f 3f2a bf4f bdac 3fde bf44 c028 3fbd
bf42 c016 bfd6 3fd9 bf60 bf4c 3f38 be98
bf7d bf88 3ec2 3ea4 3fbe 3fc0 bef8 c054
3f79 3fb4 3e8f bf66 4031 3f94 3e0a bf4e
bf12 c04e 3fff bf87 be23 be3c c02c 3fec
3df2 bfaa bf6a 3f99 be7a bf18 bfb2 bf84
3fed c021 c046 be14 bffe 3ebc bf16 bf3b
be7a bf88 bfa6 bf9c bfbc bf05 bd68 3f24
c00d bf88 bd6e c099 3eb9 3f9e 3e8b beb0
bf37 3f8f bf21 3f1c 3e04 3f43 3f7d 3e84
c05a beb6 3fb4 bea0 3f24 3f91 bfb7 4032
bf05 bf04 3f94 3f8b bf24 3e1d c004 3e59
bf8b bfcb bf94 bf14 3fa0 3fe3 bed4 bf2c
3f96 3ebc bf18 3e5a 3f36 40a6 bfe9 3f80
beac bf1a 3ca0 be43 bf29 3f44 3ffd bff4
3c60 3e9a c02c 4021 c037 3f3c bee0 4040
3f16 3ea3 402b bdf6 3f57 3f8c 3fe2 bf0e
beab bf51 bfca bf93 bfa2 4027 bf84 bf8f
3fc9 3e49 bff3 3f57 3d9a bf0c 3c70 bf5b
bfa9 c00e bd4c be1d bf96 be18 3fc2 bfd1
3ea0 3f73 3ec0 c01a 3f3b 40c6 bf05 3f1e
be96 3f9e be7a 3f6c 4014 3f9d 3fe1 bfe6
bf9c c090 bfa6 c04a be1c bee8 3f3a bf94
be8e be10 4069 bfa4 bff0 c0f0 3f02 3e8e
3f98 3fe8 3e08 bedc 3ef0 3d34 bfc9 4038
bf50 bf06 3dad bf01 3ea2 4048 c02e bfad
bf16 bfb1 3fe0 bf50 3f28 bfc6 bf9d bf81
bfee 3f4d 3f9a bffb bf2e bc60 3fc2 3f8b
bdea 3fa8 3fe9 bea8 bfc8 c019 3fc1 3f9b
3f22 3f51 3e9e be80 bfb3 c03a bfab bff7
bd74 bf32 4003 3f2b 3f57 bf1f c002 3e8c
bf73 400a bc50 3fa4 3fe8 3ff9 3f1b bec4
bec5 3e98 3f0e bf4a 3f02 3f7f c04d bfd6
3ef0 be52 bfcb 401f 3e52 bd70 3ef1 3ecc
be8f 3f2b bf92 3f98 3fdd bfae 3f21 bfc0
3f85 3f2b 3f94 3de5 3fbb bf24 bf03 bedf
3fd8 bf7c 3f15 3f02 3f8c 3ed9 c014 bfa9
bf84 4013 c057 3db8 bf1c 3fa6 c110 bfd0
4002 c000 3f9c c012 bf3a bf94 bee6 be8b
bf30 bfb8 bed6 be3d be7e bf8a 3f8c bda2
bf93 3f20 bfd8 3f03 3e60 3e60 3e92 3ee6
3e2f bfdb c00e bf12 c015 3fc1 3ead bfd0
be87 3f2a 3eae 3fb1 3d28 bf68 bf16 3f88
3f94 3f92 bf51 c012 3f56 3f76 bfc4 3fdd
bf71 bf97 4019 3e2a bf84 be2f 3f8b 4009
bfeb 3eac be93 3f54 3e30 3f56 bf90 3eb7
bf20 3db0 c007 3f7c 3f4a bfc5 3de6 c060
be08 3ea2 3f4c 400e beac bf71 bf80 bd48
3c20 4034 c043 3f09 3dec 3f76 bf10 bfb0
be03 bfa1 4054 3e81 3f8e 3efc bc20 bfce
4013 be9b c059 405a 3ca8 bd88 beaf 3e17
3d8c 4003 3e4b be9c 3f77 3f0c be69 bdb4
bdd1 bfd2 bea8 3f47 3fd9 befc bf64 bb60
3f48 bf92 bdc0 3fca be86 3fb6 3fa0 bf93
bf68 3f22 3f2c bf2d bf15 bfe4 3e8a bf18
c05f be47 bf9e 3e40 befe bf8c bed8 4018
4036 bf31 bfcf 3f92 bf64 3ee6 bed3 bce0
be26 bf96 bef9 3f9c bf43 be50 3efa bece
3f72 3b80 c03a 3db4 bf03 3f2c bb80 3eb4
402b bfb9 4024 4039 3f3c 3fea 3f87 3ed2
bf84 3fcc bee2 3dc2 bea4 bd28 beb3 bf2a
bfc5 3f84 be96 4012 bf28 406a 3ffc 3ee1
3f72 3f37 4058 3f42 4060 3f69 4005 3eab
3f35 3d78 c01e 3eba 40ef 3f51 3f52 c006
bfc2 4015 bf3a bf12 bf88 3e3b 3f67 bd0c
c00f c0bf bf93 bf66 3fb1 400a bff7 3f9b
bf61 bedd 3e30 403a 3fce bf9a bf95 3feb
3f53 c044 bf79 3fbc c06a bf5a 3f28 c03c
3ee5 3fc6 be95 bed6 4050 3f7c c025 bfd7
3ecd 3e9e 3f3e c00a bfe6 3f94 bf81 3fc1
3e70 c224 bfee bf07 be74 3e88 3eca 3fea
c04f bf02 3da6 bf8f 3f9b c040 beae 408a
3f65 3f8b 4052 c00c bf4b beb4 4004 3fe4
c02b bf26 bebe 4041 3fa5 bf8d be91 40e8
bf66 bed8 be44 3f95 3c04 c01a bf8e bf90
4008 bf01 bf35 3f06 be2d 3e02 bf8e bffe
3f20 bf5c bf8a bff2 bf12 3f9c bdb0 bf3e
bfbf 4005 40ae 3e9c 3f6e 4022 bf95 bfaa
bfe3 3f76 4071 bec7 0000 be89 3fe3 4117
3fe2 3fbe 408b 3ed6 3e92 3eb2 bcd4 be91
bf7d c088 3fb1 4018 3f6e bf5b bf22 bf96
bf9e bf7c bf23 3f8e 3fda 3e95 be78 3fa2
3ffe bea5 3e1c bef8 3ff3 bfc6 bf02 3fdb
3f2d 4017 bfed 3fce 3f31 401a 3fcb 3fbf
3d10 3f9e 3fa8 3fb8 3e6e 3fdd 4010 c007
3f4b 3e1e bf9c bf8f bd78 bfae bfd9 c010
3eac bf8e bdbc 3f6c 400a c034 be55 3ed2
3ff0 bef2 be3e 407f 3fce bf9e bedb bf48
3eab 3f0b 3dc3 3fb6 bef7 bed0 bfae 3fe5
4009 4049 bf82 bee4 be18 3e2b bf0a 3f2e
3e66 3ec9 3fbd be5e c0af bfd6 bffd c012
bfdf bf6e bfc3 bf9d bfcc 3ea5 bf8a bf7e
3f15 bf9c bfb2 3d80 3f6c 3dcc bf32 bdf0
3ee7 3f19 3fd0 bf36 c013 3e83 3f36 4010
3fb8 bf7d 3f8f bf1b bea0 3f64 3ea2 c008
3f78 40be bfbc bf46 3ea2 4018 c02f bf72
bf36 3f97 be86 beef 3f8c be32 c00c 4002
bf27 bffc bfc3 3fcb bf12 bfbd 3ee1 be84
bf5a bf9a 3e80 3f24 3fac 3fb0 bf0e c050
3f6d 3fc4 beb7 bf34 403c 3f5c bdd6 bef8
be4e c047 3fd6 bf91 bea5 be8a c02b 3fc1
3e50 bf66 bf6b 3faa bf25 be3f bf6d bfbe
4020 c004 c048 bf06 c004 3f1a bedb bf60
3f2e bf34 bfb6 bfd4 bfc9 be9e bcb0 3eb8
c03f bfe2 3e86 c0ab 3f84 3f8f 3f02 be9a
bef0 3f8d bf6f 3f36 3da8 bd3e 3efa be9a
c05c bd99 3fc8 bec1 3f94 3e4e bf81 3ff2
3e16 bed0 3f90 3fd5 bf0b bea4 bff1 3f38
bf97 bfcd bf0f bef0 3f89 4006 bf0b bebe
3ede 3e9e bf91 3f43 3f12 408a bfd7 3f90
be1c bf68 bf74 beae bf08 3e6e 3fdb c01e
be1b 3f07 c052 400c c002 3f22 3c60 4037
3ee3 3dab 402d 3cf8 3f5c 3eaa 4026 be0e
bc00 bf1f bfda bf98 bf97 4026 bf0a bf85
3fb0 3f52 c019 3f62 3f73 bf71 3f0e bfd5
bf65 c010 3d38 3e1c bfb3 3e6a 3faf bf9d
be9e 3f3a 3f38 c019 3f72 40bb becd 3eb6
be34 3fef beb8 3f80 4030 3f6e 4004 bfca
bf8c c092 bf92 c044 be8f bf20 3efa bfbd
be06 3eba 4063 bfa5 bfb0 c0fa 3e64 3de9
3fa6 3ff9 3ebf bec0 3f8c 3f0e bfb1 4019
bf4c bf23 3e7c bef8 3b80 4052 c034 bf9f
beac bfaa 3fdf bf8d 3f5c bfd5 bf5b bf88
c01a 3f1a 3faf c006 bf21 3ebc 3f74 3fce
bdf6 403e 3fc3 be3a bf81 c04a 3fa1 3fed
3f21 3ec0 3f25 beea bf4f c012 bf74 c005
bcf8 bf42 401d 3f87 3f7f be91 c00a beb8
bf78 3fda beca 3faa 400a 3fe8 3e8a bf9d
beb4 3eb9 3e9f beea 3f4a 3f8f bfe1 bf9a
3f69 bdc8 bf9f 400c be99 bd00 3ebc 3ed6
be0a 3f00 bf5c 3fd2 3fc8 bfae 3e66 c014
3fad be75 3ea4 3eda 3fa9 bf3a bee0 bef9
3f7a bf68 3f76 3f28 3f22 3f96 c000 bf92
bf4d 400e c061 3d90 bedd 3f89 c124 bfee
3fdf bfc8 3f98 bff8 beb1 bf86 bf1c bf03
bf4e bf82 beb4 be0e bed2 bf2b 3fd6 bf56
bf93 bd30 bfeb 3f67 3f2e 3e7d 3ed4 bd50
3e9d bfe2 c00f 3e0a c00a 3f99 be82 bfe2
be7a 3f4f bcf0 3fc0 be24 bf52 bf50 3f27
3fda 3ec8 bf50 c000 3f2a 3f74 bfd2 3fb8
bf57 bfaa 3fa6 3f40 beb0 be98 3f68 400c
c021 3ee5 be7b 3f2e be0c 3f44 bf9a be38
bf94 3e1d c01b 3f40 3ec8 bfd0 3ebe c042
be48 3e52 3f34 4014 bf0e bf3f bf7e 3f0e
3e84 4040 c033 3d78 3e86 3fa4 bed9 bf7b
3f02 bf9d 402c be97 3fb5 3e82 bdfc bff1
4009 3f12 c05c 4040 bf56 bebe bc92 be0a
bb80 4007 3f8a be3a 3f50 3f91 bf8e 3ba0
bebc bf9a 3e8f 3f0c 3fe2 bf6e bf2a 3ec5
3f16 bf89 3c80 4005 be8e 3f14 3fa6 bf4c
3e6f 3f81 3f0c bed2 bf76 bfee 3e88 bf60
c064 beb8 bfba 3e4a 3d18 bf74 bf13 4031
4010 bf3b bfef 3fbf bf8a 3f9c bf5e be1c
3d2a bfa2 bebe 3fd5 bf3a 3da8 3f03 be82
3f65 3e78 c054 3e7a bf08 401c bc40 befe
401a bfa7 4020 4044 3f26 4018 beb7 3e74
bf8f 3fc0 bf4c 3f06 beb4 3e64 be50 bed8
bfbe 3ff6 bf2f 3fe7 bf8c 4084 4026 3ece
3f81 3f5b 4045 3f6a 407e 3f86 3fa9 3f14
3df9 3e5a c02f 3d70 40ff 3f57 3f9e bfb2
bfba 4022 bf2c bfa4 bf82 bd5c 3f04 bf08
bfe1 c0cb bfab bf4a 3fa9 3fc6 c01b 3fa0
bf98 bec2 3d4a 4063 3fcb bf97 bfb5 3fad
3f68 c052 bf66 3f8a c081 3d98 3eae c037
3d8c 3fa2 bda8 3e34 4095 3faa c024 bfa9
bc80 3f87 3f1f c021 c005 3f7a bf76 3f9e
3da8 c227 bfec 3e1b bf2b 3e82 3ef5 3fde
c012 bf36 3eaf bfa0 3fb6 c03c bea7 4080
3f2e 3f9c 4066 c01f bf26 beea 3fdf 400a
c025 bed8 bee4 4038 3f98 bfaa bf02 40f5
beed bec6 bdb8 3e62 3eaf c004 bf26 bfd2
3ffd bf8c bf42 3dd2 be8f be3b bfc4 c004
3e0e bf49 bead c002 bf1d 3f9c 3f68 bf41
bfb4 3fdd 40b6 3ebe 3f64 400f bed0 bfce
bfd8 3f99 4070 bee7 bec0 beda 4022 410b
3ff5 3fb3 4092 be73 3e1b 3e39 bc04 bf51
bfad c00d 3fa0 4011 3f9b bed8 bfac bf99
bfc1 bf06 bed0 3fc2 3fee 3e2c bdaa 3f39
3fc4 bec6 be19 be4d 3fc1 bf12 beb5 3fcb
3fa3 3f77 bfb5 3fd4 3f60 401e 3fdf 3fc9
bf18 4000 3fbe 3f99 be40 3fe8 402b c00e
bea2 3ed0 bfce bf92 3f38 bfcc c040 bff1
3d80 bf4a bf09 3f87 4020 c037 beb7 3f15
4043 bf11 bd8c 408a 3fbe bf97 bf36 3d11
3d84 3f3e 3ea8 4036 be04 3e9c bf9f 3f9e
4032 4044 bf7a bf19 be96 bed3 bef9 3f41
3f38 3f28 3fdb 3bc0 c0c0 bfbb bfc4 c052
c012 bf96 bf88 beee bfe5 bdb8 bfaf be84
3dac bf10 bfb4 bf4c 3f49 3e0f bfa2 be09
3e06 3e2c 3fd9 bf52 c013 3f04 3ef2 3fe0
3fc0 bf97 3fb2 bf3f 3e2c 3f46 3f4b bff5
3f45 40a1 bf97 bfb3 3f0b 4006 c03f bf82
bf67 3ff6 bf1c bf22 3f4a bfa6 c01e 401f
beea bf98 bfba 3f10 bf4a bfaa bce0 3cd0
bf1a bfda 3f1e 3de0 3f59 3faf be8e c05a
3f81 3fde be1a bf1a 4030 3f62 bf12 be8d
be90 c04e 3ff4 bf9a bf11 bf1f c01e 3fbf
bf07 be90 bf5a 3f64 bf28 bdd6 bfaa bfb6
3ff0 c007 c042 bfa8 c00a 3f40 bf46 bf6e
bda8 bfc2 bf2c bff9 bfb7 bf2a 3e22 3f1e
c027 bfe7 bd11 c0ab 3fc1 3f78 3f34 3f23
bf12 3fdb bf14 3ec6 bb80 3e37 3e9e bcc0
c04a bdd4 3fb2 bf27 3f2f 3f16 bf92 4014
bf50 befe 3f7b 400b bf03 be10 bff3 3f88
bfba bfd4 bf57 bed1 3f72 4016 bf16 beec
3f30 3ebe bfe5 3f74 3f73 40a3 bff4 3f49
be3c bf3a 3d10 3d90 3df8 3f84 3fe0 c017
bf09 3db8 c018 4010 c01e 3e5c 3ea4 4020
3d60 3edf 4038 3e50 3f5e 3e6c 4026 beb8
3ee4 bec0 bff6 bf29 bfe4 402e bf6c bf27
bfd5 3f0d c010 3fd2 3f06 bf59 3f40 bfc3
bf4c c00a be98 3e68 bfac 3e01 bde2 bfd0
3e99 3f9d 3f89 c000 3f53 40c5 bece 3dc2
be10 3fec bf14 3f5f 4012 3f99 3fde bfc0
bf93 c08e bf06 c031 be96 bf52 3f2e bf28
3e14 3dfc 404b bfa2 bfae c0fe 3e9b be68
3fa3 3f19 3e92 3ea9 3f98 bd0a bfe6 402b
bf86 bed8 3ef2 be5d 3cd6 4041 c038 bfb9
bd84 bfd8 3fc9 bfa3 3f1a bfbb bf70 bfa9
c014 3e31 3f60 c000 bf4f bea5 3f78 3ff5
3f18 4024 3fee bd00 bf9b c050 3fc0 3f86
3eac 3f02 3f13 bf4c bfc2 c001 bf8c c032
be54 bf4e 405e 3e90 3f62 bdf2 bff7 3e20
bf6d 3ffd bd44 3fa4 4003 4001 3e50 bf91
bf18 3e4a 3f1a 3f48 3d0c 3f4f c015 bf91
3ee0 be54 bfbb 4018 3f0f beb2 3eec 3e87
3e1a 3f6a bf89 4001 3fd3 bf96 3e36 bfe7
3fa8 3daa 3e59 3e36 3fd9 bf86 be88 bf9c
3fb6 be04 3f2c 3d80 3f1a 3fde bff9 bfb5
bf24 3fcc c074 bdd8 bece 3f95 c117 bfd9
3fa5 bfb2 3fac bfdd bebe bf4d bec9 bf10
bf66 bf51 be68 be10 bf28 bf25 3fee bf87
bfa2 3e6c bfde 3f80 3da0 bdcc 3e86 3ef6
3e82 bfc8 bfe8 bdac bfee 3fe7 be96 bfe0
be28 3f31 3ea8 3fc9 3e58 bf8b bf37 3f14
4002 3ef9 bf72 c003 3f20 3f62 c00e 3fa4
bef8 bfa2 3fd7 3f69 bf4f bdf9 3f24 3fee
bfe4 3f52 bf5a 3f1c bf03 3f4a bf4e be6c
bf92 3e71 c026 3f44 3e8d bfe0 3e06 c047
beb6 3f63 3f88 400d be5f bee0 bffa 3ed2
3ea8 4044 c03c 3fb8 3ead 3fac bf2a bf8b
3f04 bfba 404c 3f05 3ff9 3e56 be4a c001
4019 bea3 c079 4028 bf4e 3e70 bf0a be92
3f48 3ffe 3f78 bf06 3f0e 3f9d bf9a be2a
bf07 bfc8 bdb8 be00 3fda bf98 bf3a 3ed9
3e71 bf77 3e1e 4012 3f3c 3f35 3fb6 bfab
3ea2 3f6a 3f0c be38 bc20 bffa 3ed2 bf7a
c046 be45 bf07 3f0d bf1e bf56 bf21 3ff5
4018 bf90 bff9 3fe1 bf48 3f74 bf74 bef3
bdfc bfc5 bee6 3ff0 be04 3e37 3f13 bea1
3f2e 3ece c037 3ede bf2d 3dfe be60 bef2
4008 bf9c 4020 405c 3e47 4012 3fd8 be48
bf91 3fa8 bf12 3f3a be0f 3e31 bddb be9a
bf9c bed2 bf1c 4030 bfbc 4086 4036 3e3c
3fb2 3f05 402f 3f9a 408e 3f88 3fba 3f40
3f0b be5a bfff bcda 40e7 3f70 3f98 bf88
bcb4 4012 bf38 bfb3 bf88 bd58 3f14 be10
c002 c0bc bf78 bf94 3fa1 400e c032 3f45
bf69 bdcc 3cf8 4058 3fc4 bf86 bf97 3f72
3f2a c052 bf41 3f7b c084 3e92 3f06 c061
3dfa 3fe0 3bc0 3da0 4064 3f14 c013 bfbc
3e52 3e34 3f35 bf8a c00c 3f9b bf91 3fc8
3e58 c226 bfcc 3ee5 bf3c 3f78 3ea5 4021
bff0 beeb 3eb4 bf7e 3ff4 c048 bebe 4077
3f64 3fa9 404e c017 be2a be4c 3fca 3fda
c002 bf0b befe 4044 3f93 bf70 bede 40f2
bfd6 bdfc 3ed6 3ee0 3e35 c00e bfa9 bff0
4000 bfc0 bf86 3d04 bf22 bf02 bfcf c014
3ec7 bfa0 bf53 c001 beee 3f82 3ee0 be7b
bf9c 3fc2 40b7 3eb8 3eb2 401a bf0a bfcd
bfbb 3f48 4040 bde0 bf09 be83 3ffb 410d
4000 3fc2 403f be70 3e56 be88 3d8a bda8
bf22 c059 3fbe 3ff2 3f97 beba bf1d bf6e
bfc2 bea1 bef6 3fde 4016 bf64 be78 3f7d
3fe2 bedc 3e8b 3f20 3fd9 bf0b be3c 3f8c
3f4e 405d bf9a 3fcb 3de8 3ffe 3fc4 3fe3
be9d 4013 3f96 3fac bd08 3fd7 402f c00a
3f5e 3d92 bfdb bf9c 3f9b bfe7 c016 bfe3
bc80 bf69 bece 3fb2 3fd5 c03a 3f24 bdec
404b bf51 be22 4082 3fb3 bf6d bf9d be8a
3ec6 3f8d bdc4 4027 be8a 3e9b bf24 3f1e
3ffe 4032 bfd0 bea5 bf01 beac bf44 3f1c
3f25 3f11 400a be9c c0c2 bfe2 bf62 c02b
c042 bf55 bfa1 be3e bfc4 3e8c bf97 3f1e
3dfc bec8 bfb3 be7a 3f50 3ebe bfb6 bdb0
be20 3eb0 4010 bf52 c005 3ebe 3f3f 3fc9
3fa2 bf5f 3f81 bf0c 3f0a 3f1c 3ed4 bff8
3f87 40a1 bf59 bfab 3f0c 400d c047 bfb5
bf28 3ef9 bf24 be8b 3fc4 bf30 c015 3fec
bdc3 bf77 c011 3f8e bee6 bfb5 3f5c 3ea8
bf23 bfda 3e40 3f38 3f90 3fec be81 c068
3fb4 3ff9 bd69 bf25 4038 3fa4 be36 be40
bf1d c030 3fef bf83 be5a be76 c051 3fc8
be69 bf63 bf80 3f68 bf58 beca bfe1 bfc0
3fdd bfd9 c04e bf2e c00c 3f1e bf5e bf23
bf19 bfe5 bcd8 bfc8 bfc4 bf38 bf06 3efd
bffe bfc5 bca3 c08c 3f82 3eb9 3f52 3e30
be66 3fcb 3efb 3ef4 be8c 3f87 3f31 3e95
c063 3eca 3fb9 bf36 3d00 3ef2 bf60 4008
beee bf6d 3fad 4002 bdd8 be68 bfe4 3ead
bfdc c000 bf75 bf10 3f10 3ffe bf16 bf12
3f1b 3dd6 bfa1 3eb2 3d8e 40bb bfda 3f6a
3e34 be96 3c80 bf39 bef0 3faf 3ffd c039
bf0e 3f14 bfe5 402e c02a 3f3d 3ee8 401a
be94 3ebf 4038 3ec4 3f1e 3ea2 403f bf0c
bcb0 bf0a bfc6 bf6e bfc6 4031 bf82 be4a
bdd2 3e48 c00c 3f18 3ea8 bfb8 bec2 bfb4
bfd4 c00c bf23 3e20 bfa8 3e37 3f42 bf83
3f28 3f9d 3f40 c014 3f28 40c3 3e95 bd44
3e14 3fab bf13 3f18 4013 3fa7 3fdb bfc4
bfb1 c087 bf54 c03a 3d00 bf90 3f85 bf84
3ebc be26 4052 bf8c bf42 c0f5 3e8e 3e32
3f5c be9d 3e1d 3eb2 3f44 3e38 bfe4 407a
bf56 bf2b 3f00 bf20 bf66 4004 c055 bfd7
bc60 bfea 3fdd bf97 3e1c bfb5 bf63 bfa6
c008 be1e 3f9d bfe9 bf62 be80 3f7e 3fad
3f46 3fa0 3fe6 3d80 bf8c c05e 3f87 3f8c
3f34 3eb9 3eaf be76 bfb9 c00d bf90 c030
be92 bf2e 4016 bd83 3f8a 3edb bfa6 bd38
bf6d 4006 bf18 3f7f 400b 4006 be08 be73
be2c 3e54 3e91 beac 3e36 3f74 c02a bfe6
bdf6 bf04 bfc4 402c 3f9b bee2 3eca 3ee2
bd60 3ef2 bf7a 3fd4 3f6e bf7a 3ee3 bf86
3f21 3f3f 3e96 3f00 3fc2 bf0c bdc2 bf9f
3fc8 3e56 3f53 be0c 3f2b 3f18 c00e bf86
3f45 3fc8 c076 3e54 bf14 3ef2 c119 bf9a
4008 bfcd 3f84 bff3 bee3 bf56 be9c bf21
bf3a c000 be68 3e0e bf37 bfaf 3ff8 bf97
bfc8 3f58 bfdd 3f86 be9e 3e33 3dd6 3d40
3dc2 bfb7 bf96 bf0d bfb0 3fe8 3d98 c00b
bebf 3f9a 3f20 3feb 3e6a bf4c bf1b 3f3b
3fca 3fbc bfad c032 3f42 3f93 bff8 3fa0
beec bf89 4006 3f20 bf83 be8c 3f91 3fbb
bf8e 3e47 bf06 3ece be8a 3f18 bf69 bdf8
bf88 3db7 c016 3e8e 3f07 c001 be6f c009
bee6 3f40 3f95 401d bf06 be86 bff1 3e0a
3e8a 401d c052 3fe2 3c30 3fc3 bf10 bf70
bd8e bfce 400f 3f95 3faa be52 bec4 bfed
4037 bef2 c06f 4046 bf04 3eee beba bfae
3f56 401e 3f30 bf3a 3f12 3f62 bf6e bf06
bdf4 bfda 3c60 3eeb 3fbb bf86 bf9e 3f5f
bdf8 bfc5 3dda 4020 3f0c 400a 3fbd bf81
3e5a 3eff 3f58 beee beba bfb4 3f8c bf25
c06e bd93 be8c 3f16 bfb8 be24 bebe 3fe9
4017 bfb3 bfd8 3fca bf76 3f75 bf4e 3e9a
be8c bfa4 bef1 3fe0 3dea 3e04 3f26 bed7
3f2c 3ebe c024 3ee8 bf2d c000 3ef1 bf68
4026 bf83 4012 4037 3f02 3fd1 3fb4 be4c
bf9d 3fc0 bf94 3e9c 3e97 bc88 be86 beb8
bf89 3f66 bf43 3fea bf90 40c6 4032 3f92
3fa7 3e0c 403e 3fb2 4095 3f18 3fc4 3f87
3f6f bece c02c 3ebd 40e2 3fa2 3f5c bf52
bf82 400e bf50 bf9e bf8d be5b 3f36 bc80
bfd2 c0bb bf44 bfbe 3fd3 401c c02b 3f84
bf8e 3cc0 be18 4045 3fbd bf67 bf8b 3fbc
3f45 c052 bf50 3faa c042 3e1c 3f56 c04a
bdd8 3fba 3e7b 3f24 409f 3f60 c001 bf8a
3f2d becb 3eba 3b00 bff3 3f56 bf20 3fce
beae c228 bfaf bed2 bf60 3e8e 3e34 4027
c00b bee1 bdca bf8e 3ff3 c044 bea2 4077
3f75 3f82 4058 c019 bd74 bf16 3fef 4013
c021 bebc bf3b 405d 3f82 bf6e bf00 40ee
bf06 bec8 3f76 3f53 3e2a c019 bfa0 bfdd
3fed bf8e bf7b 3f02 be86 bed3 bfce c005
3e97 bf9a bf87 bfca bf08 3f8b 3df8 be9e
bfde 3fe7 4088 3e7c 3f56 401e bf72 bf08
bfc0 3f44 4040 be06 becd bc38 4012 40e9
400b 3fae 4033 be51 bf30 bd94 be46 be8b
3cd4 c01d 3ff1 3fde 3f64 bf10 bf28 bf6c
bf80 beba bee2 4003 401c bf38 bf21 3fad
3fb0 3dde 3dde 3ec5 3fee bf93 3e86 3fd8
3ed6 401c c001 3fff 3f2c 400b 3f97 3ff7
bf65 4009 3fc8 3f9e 3ea7 3ff0 4012 bff1
3f8b 3eb4 bfca bf98 3f44 bff8 c01b c012
bf03 bf72 3d1c 3f9e 3fd8 c01f 3f7c be10
4025 bf50 bd14 405d 3fc4 be54 bf16 bf2a
3dda 3fa9 be3c 4002 be7c bd68 bf23 3f1e
3fff 401e bfdb be6e bf2d bf18 be94 3f06
3eb2 3ea2 3fff bd24 c0ca bfd2 bef8 c020
c001 bf28 bfa2 bf27 bf97 3d8a bf2b bf70
3e34 bf4e bff6 3efe 3f1e 3ea3 bfb2 3dae
be81 3f14 3fd6 be24 c010 3ed5 3f4f 4003
3ff8 bf3b 3f5c bf2a be2a 3f22 3fa2 bfc1
3fb4 4096 bf41 bfbc 3f47 4019 c030 bf9e
be7e 3ffc bf14 bee7 3fb6 bf60 c014 4003
be35 bdc8 c02c 3fa2 bf58 bfea 3f71 3e84
bf02 c009 3e68 3f46 3f88 4010 bf0e c04b
3fcb 4023 bea8 bf54 4040 3fa7 bf11 be96
bf64 c036 4010 bf8c bc84 3ec0 c01e 3fa2
bf33 bf96 bf84 3f8f bf7f bf72 bf8d bfc0
3fda c005 c07a bf98 c047 bce0 bf7b bf44
3dd8 bf98 be37 bfdf bfbf bf08 bf06 be90
c032 bfd7 3edc c074 3f8b 3f3c 3f96 3f08
be8c 3f9d 3da0 3f4f beba 3f36 3f87 be94
c065 bec5 3f70 bf68 3f3b 3eb2 bf85 3fa0
bf26 bf0f 3e9c 3f8a be87 bf23 bfec be58
bfb0 c03e bf65 bed2 3ebe 4011 bf26 bf52
3f43 3eaa bf36 3eea 3eb8 40be bff2 3f98
3cf0 be34 3ee0 bf9e be75 3f05 3fd8 c062
bee8 3ed8 c00e 403d c005 3fac 3ef6 4005
3da4 bebd 4061 3e0f 3f81 3f00 4015 bf1a
3b00 bf52 bf8e bf80 bf9f 4023 bf0a bd84
bf20 3e86 c014 3f94 3fb9 bfa3 be62 bfd8
bfbc c00b befc 3f80 bfb6 3e46 3f46 c019
be1c 3f26 3f5a c00c 3f78 40bf 3e8b be80
3f0b 3fe5 bf56 3eb6 4013 3fa4 3fb9 bfd1
bfab c095 bfbd c041 3d00 bfb6 3f57 bf82
3f1d 3e0a 4032 bf54 bf9e c0fe 3f0f be69
3f70 3f28 bebc 3e81 3efa 3ef7 bff2 4050
bef7 bf1f 3f40 bf6b bf97 402a c052 bfd5
bdf4 bfe0 400a bf8d 3f70 bfc1 bf47 bfc2
bff7 be7e 3f29 bfa2 bf23 bf30 3f27 3fa4
3f95 4026 3fa0 bed2 bf31 c064 3f9a 3fb1
3f29 bebb 3f62 beaa bfaf bff1 bfa6 c02c
beb4 befe 4049 3f35 3f98 bd54 bfc1 bf1a
bfc9 3ffb bf88 3fbf 400c 3ff6 be64 3e33
beb9 3da8 be6c 3e22 3e9e 3faf c017 bfed
be32 be0a bfe0 4006 3ea8 3da0 bd72 3ebc
3e5d 3e12 bf6c 3fe1 3f82 bf1e 3d7c c000
3efc 3f2c bc20 3f95 3fbd beed 3b00 bfbb
3fc8 3f46 3ef2 3f14 3e41 3f87 bff0 bf87
3eb6 4006 c062 3e68 bea7 3f30 c118 bfa5
3f58 bfc9 3f98 bfea bf26 bfa6 bf83 be72
bf8f bfd7 beaa be03 bf6e bf90 4001 bf7f
bfee 3ecc bfb3 3fbe bf1a 3eb2 be98 bd34
be69 bfba bfac bd50 bfec 3ff2 3d60 c01a
be76 3f71 3ecb 400a 3dc8 bf17 bf72 3efc
400f 3f36 bf61 bfd9 3eba 3f56 c004 3f5d
bf09 bf9c 3fec 3f38 bf86 bf69 3f90 3f5d
bfc4 3ed8 bde4 3f06 bf3e 3f93 bf68 3e1a
c003 3ec8 c01a 3f44 3e30 bfe9 3e82 c032
bf50 3f2b 3f83 4021 bf8f bda2 bfc3 3f2e
3e0c 401a c047 4005 3ed8 3fc1 3c70 bf9c
bed0 bf8e 401d 3f01 3f9a be82 be40 bfe8
4027 3e52 c07a 4042 bfb4 3de8 3dac be78
3f38 3ffc 3f88 bf8c 3f7c 3fa9 bfc8 bf58
bc84 c004 3db4 be22 3f9a bf4c bf7a 3f38
bce0 bfa3 3bb0 402e be00 3fbb 3fe0 bf94
be9f 3f0c 3f80 be8b be68 c024 3f6e bfae
c077 3e06 beb4 3f20 bf6b be41 bea0 4014
4002 bfa4 bfc7 3fcb bf04 3f78 bf82 bea7
bf28 bf62 bec0 3fe7 3e77 3f52 3f02 bf23
3f37 3eef c013 3f5a bf26 3dd2 3f0a bd50
4002 bf87 4013 4054 3f46 3fa4 4030 3f00
bf9a 3fd0 bf92 3e93 be07 3c10 bf05 be86
bf90 3fc5 bf8d 404f bfc8 409e 3ff8 3eb6
3ee3 3dc0 4043 3fb6 4067 3dd0 3fe6 3f93
3f5c bf2c c035 beb5 40e6 3f70 3fa6 bf78
bfd9 4002 beee bf72 bf93 be22 3eea 3f22
bfe0 c0ad bf0e bf9c 3fae 3fb4 c033 3f16
c018 be08 3e06 4043 3fff bf81 bfdf 3f99
3f86 c05a bf8a 3fd1 c08d 3e9c 3f7a bff9
bf30 400d 3e2f 3f4c 40af 3eab bfce bf48
3ec4 be32 3f52 bed2 bfec 3f6f bef8 3f72
bf1c c226 bfd7 bf09 bf55 bcc0 3e94 401b
bfda bf04 3e96 bf22 400f c01b bd2a 406b
3fc4 3f82 404a c01d bf16 bf9d 3fc4 402c
bf16 bec6 bf5f 4078 3f91 bf05 bf14 40de
bee0 beb2 3fb4 beb6 3f0e c008 bf81 bfeb
3fee bf95 bf35 3f1c bf18 be23 bfce bfed
3eba bf5f bef4 bfc2 be6c 3f61 3f3f bf26
c018 3fc9 4093 3ce0 3ee2 3fb8 be9e bf8e
bfc6 3f74 404e bef9 bf91 3c40 4016 40be
401b 3f9b 3ff9 3e38 bf10 3e8c be93 3f10
3e6d c013 3fdf 3f2e 3f87 bf8e be0a bfa2
bf78 beac be6a 4009 3ff0 be82 be44 3f84
3f8b 3be0 be13 be66 3f93 bf57 bf30 4010
3f7a 4023 bfd5 4005 3f65 402a 3f9b 3f84
3e9e 3fd6 3fb0 400a 3f2b 3fcd 401e c00b
3efe 3f8c bfdb bfb0 3e6e bfe8 c00f c004
beaf bf71 3e8c 3fbf 3fcc c015 3e98 bd68
4019 bf9a 3e5c 4062 3ff9 bf9f bebc bdce
be96 3fc7 be2e 400f bc90 3e44 beeb 3f7a
3f35 4018 bfe6 bebd bf3a bfb6 bf18 3f74
3ec6 3f71 3fc6 bbc0 c0b0 bfaf befe c050
c01f bf85 bf9c bef6 bfa0 bbc0 bf37 3f5f
be9a bef3 bfb8 3e8a 3f18 bd86 bfb0 3ebd
3d88 3f25 3fef 3dc8 c016 3ee9 3eac 3fce
3fe0 bebf 3f2b befe 3ef3 3f0a 3f86 bf94
3f36 408c bf26 bfeb 3f62 400c c060 bf93
bf44 3fd6 bf8c bee8 3fd0 bf95 c02a 3ffe
beee bf56 c006 3f76 bfae bff8 3f50 3f1a
beda bfd4 3eea 3f0d 3f86 3ff1 bed5 c04e
3fa0 4027 be13 bf2c 4046 3fb1 bef5 bece
bf34 c040 4016 bfb4 3d9c 3eb8 bfe4 3ff0
bf81 bfc5 bf22 3fc1 bf3a bf26 bfcc bfa6
3f8e c020 c064 bf73 c042 be22 bf37 bf4e
bcb0 bfb9 bf90 bfe4 bfa3 bef7 be9d bed6
c018 bf8c 3e8e c083 3ea4 3f78 3f7e 3dc8
bf49 3f82 be24 3f4e 3d98 3f9c 3fa0 bf27
c055 bf31 3f1f bf35 3f44 3f57 bfd6 3fe3
bf82 bf3a 3f31 3f2d bef2 3d78 c002 bea8
bfac c00f bf5a be2c 3f13 4004 beb1 bf96
3f48 3ebb be03 3ea0 3f03 40b3 c00e 3f9d
3e62 bf43 3e88 bd48 3e28 3f44 3fc8 c02a
bec4 3d00 bfee 402a c00e 3fd2 bed6 401d
bcd0 bcd8 4076 3e98 3fc1 3f98 3ffa bf8a
3b00 bf26 bf96 bf8f bfe2 400c bf8a bf85
3f04 3f14 c01b 3f46 3f0a bf52 bea3 bf76
bf9a c006 bec1 3f3c bf9e be9d 3f08 c00e
3d80 3f08 3e9a bfda 3f6a 40b7 3e58 3e18
3f52 3fcf bf69 3ea4 4007 3f87 3f9a bfe3
bfbe c092 bfa8 c043 3e22 bf9a 3f73 bf93
3e98 3e80 4064 bf80 bfe1 c104 3f75 bc20
3f43 3f0f bf08 3ec9 be20 3f2e bffa 4051
bf61 bf47 3f18 bf2b be7c 4043 c04d bfed
be98 bf9c 3ff7 bf9a 3f24 bfbe bf90 bfd5
bfb3 3e3c 3ce4 bf8c bf2c bf38 3f57 3f60
3f96 3f79 3fc5 bf19 bf98 c054 3f8e 3fab
3f34 3d98 3f08 bebe bff2 c000 bfb5 c028
be40 beff 4042 3f79 3f54 bea4 bfdc beab
bfcb 400d bf7a 3fe7 4012 4003 3e08 3c80
be8b 3eb8 3e22 3f07 3efc 3f76 c04f bfcf
3e7a 3d80 bfbe 3ff5 3e04 bdd8 3dd1 3e8b
be44 be0b bf85 402f 3ff3 bf4c 3f8f bfe6
3e8f 3f7e bdd8 3f2a 3fc6 bf6b bf5b bfdd
3fe6 3e5b 3f02 3ebe 3e60 3f8a bff6 bf1c
bee1 4038 c060 3e70 beda 3fa6 c112 bfdd
3faf bfc0 3fc2 c00e beb6 bf83 bf33 be92
bf85 bfdd bf09 3eae be6e bfb4 3fcd bf18
bfb8 3f16 bff2 3fa0 bf83 3e9f bf63 3eb4
bdee c001 bf82 bec4 bfe2 3fc6 3f16 c010
3d20 3fa5 3f71 3fff 3ef2 bf06 bf76 3ef0
3fd6 3f94 bf0e bf78 3f32 3f71 c002 3f9b
be64 bf5f 4031 be39 bfb1 bf4e 3fac 3f64
bfe1 3f74 3e8e 3f1c bf11 3fa6 bf12 3f89
bfdb 3eac c013 3f8e 3d90 bfe1 3ed2 c064
bfb5 3f85 3fa2 3ff8 bf6e be8f bf94 3f21
3e27 3ffd c053 3fb8 3f1c 3f70 bd84 bfdf
bf14 bf88 405e 3d88 3f98 be98 3d20 bfc4
4018 bf1e c080 407c bfc4 bd70 3e1b 3e98
3f6a 3fff 3f0b bf46 3f28 3f8d bf82 bf41
3ed7 bffa bf36 be81 3fa8 bf37 bfba 3f80
3e9a bf97 3d58 401c beff 4006 3fd6 bf62
be1d 3f73 3f2e 3b00 3e73 c003 3fbd bf96
c03a be37 bea3 3ea8 be25 be26 be86 4013
4014 bfd1 bfaa 3f6b bf0d 3ee4 bf0e be8f
bf67 bf25 bf56 3fb2 3eac 3f63 3ea6 bec2
3f45 3e18 bff3 3f3d be82 bfe2 3f01 3e88
401d bf5c 4004 4039 3f02 3fed 4058 3d68
bf5e 3fee bee7 3ec3 bdb8 beec bede be80
bf8f 3f05 bf7c 4054 bfc4 4048 3f90 3e66
3cd8 3ea6 4034 3fac 4054 3f72 3ffd 3f8a
3f4e bf08 c023 bdf9 40d4 3e7d 3f6d bfcc
bf89 3fc4 bf05 bf24 bfa0 bedf 3ece 3f0b
bff8 c0a6 bed2 bfae 3fa6 4007 c01c 3eee
c005 bf26 3e23 4030 3fa4 bf33 bfd5 3ff3
3fa0 c037 bf95 3fe8 c05f bf1c 3f88 bfea
bf1f 3ff0 3e54 3ec6 406e 3e7c bffe bf82
3f3f bf48 3f76 be4f bfe2 3f5a bf05 3f8d
3e74 c21e c003 bf44 beac 3b80 bf22 4018
c016 bf37 3ede bf80 4010 c01c baf0 4060
3fe0 3ebd 4038 c00e bebe bf99 3fd5 3fd1
bf15 bf1e bf5c 4065 3fc6 bf26 bef8 40d2
bf52 be90 3fcc 3e7e 3f4b c017 bf73 bfb2
3ff5 bfa2 bf01 3cc4 bf2c be08 bfd4 bffd
3f04 bf12 bfb7 bfb1 be7a 3f06 3e3b bf16
c007 3fc8 4097 3e50 3f32 3fde bf8a bf98
bfd2 3f2e 4059 be18 bfbc be12 3ff0 40fd
401c 3f83 406c 3f09 bee6 3e44 bf19 3e4e
3ea6 c044 3fa2 3fa2 3f59 bf14 3dda bf62
bf2f be94 be73 3fe9 3fd2 bf90 bd89 3ec4
3fca bd30 3f39 bf24 3f44 bfa8 bf16 3fec
3f68 404c bfd4 3fe2 3e93 4003 3fca 3f76
3f54 3fe1 3fe8 4011 3f3a 3fd8 3ffc bfee
3f4a 3ec1 bfa9 bf88 bdc8 c007 bfff c000
3e96 bf70 3eac 3fc7 3f4a c00e 3ea2 bf04
3fd3 bf46 3e73 4066 3fe8 bfc0 bf40 bd3a
3e59 3fab 3c00 3ffe be0e bece be9a 3fd3
3f3d 401c bfb5 bf33 bf21 bf59 bf47 3f59
bbc0 3f4c 3fa6 be6b c0ac bfd5 bfa2 c030
c028 be3b bfaa bf6d bf69 3eaf bf44 bd8e
3da8 bf2a bfc8 3e60 3f1d 3eae bf90 3f3d
3db8 3f0a 3fde be8c bfef bc60 3f08 3ff8
4005 bef8 3ecc bf38 bdd6 3f81 3f21 bfc0
3f0b 40a4 bf32 bfea 3f1d 4014 c051 bfb2
bf1c 3f7a bf21 bee6 3fbc bf07 c014 4022
be8a bf98 bff3 3f8b bf94 c004 3f86 3eed
befc bfd8 3e24 3f24 3fa0 3fb4 be4c c059
3f8e 4014 be28 bf7a 405c 3f8a be9a be42
be34 c011 3fec bfa6 3e94 3f0c c000 3fc2
be9c bf9f bf1e 3fd0 bf90 beae bfb4 bfab
3fb4 bfde c04f bf3a c00c 3e19 bf3e bede
3f2a bf8d bfcb c022 bfb8 bdd8 bf14 3dc2
c00a bf82 3f49 c083 3eca 3f8a 3f9c be86
befc 3f31 bd28 3efc 3db4 3f78 3fb1 bf98
c062 be8a 3f92 bf30 3f82 3e90 bfbe 3f75
be3b bf91 3f76 3fc7 be20 3ee0 c008 3e92
bfb9 c009 bf01 be99 3f33 3ff3 bdf0 bf77
3cb0 3ea2 3f10 3df2 3f13 408c c002 3faf
3dbc bf85 bf8e 3c60 3ef9 3e93 3fbd c040
bef5 3e9b c01a 4018 bfbf 3f98 be0c 400c
3d30 be55 406e 3f2e 3f9d 3f9e 4024 bf8a
bf02 be54 bf8a bfcb bfdc 3fee bf7c bf8a
401d 3f93 c026 bdb8 3f22 bf58 bf31 bf9a
bf3f bff0 be14 3f74 bfb2 be5e 3fc1 bf64
be60 be5a bef6 bff9 3f88 40a9 3e3c 3daa
3ed0 3fe6 bf31 3e62 4022 3f2c 3fab bfde
bfc3 c08f bfc9 c051 3de4 bf7b 3f6a bfec
3e8e 3f26 4081 bf8a bf81 c0fc 3f35 3e94
3f2c 3faf befa 3e42 3e24 3f88 c001 404e
bf84 bf5c 3f63 bf06 be30 402d c04b bfd0
bf0e bf34 3fba bf44 3f35 bfd3 bf78 bfcd
bfd0 3e93 3f06 bf86 befc 3e08 3f9e 3f52
3f99 3fc8 3fbc bf0b bfa8 c058 3f90 3feb
3eef bf09 3f3f be80 bf68 c005 bf7f c016
be8a bebf 4023 3f83 3fc3 bdcc bfe5 bf29
bfd3 4002 bfa9 4004 3fd4 4000 3e2c bf1a
bea3 3eba 3e8b bcf8 3f88 3f78 c020 bfb8
3f71 3e50 bf84 4009 befe 3db0 bd9d 3f0a
bf71 be48 bf40 4010 3fb2 bf64 3f58 bfca
3f40 3e37 0000 3f11 3fc6 bf86 bf5a bfae
3f8b bd78 3f1a 3f27 bd98 3f8a bff1 be53
bca0 4029 c043 3dd0 bf0e 3ec5 c117 bfd1
3fcc bfa0 3f84 bffe befd bf95 bf36 bef6
bf5b c00e bf0b 3f6f be84 bfcd 3fa1 becb
bfae 3ed4 bff8 3f81 bf66 3ec9 bf9f bdd4
3db0 c005 bf24 3e53 bfc5 3f88 3ca0 c008
be94 3fca 3ef0 3ff8 3e50 bf0e bfa4 3f0a
3fb3 3f56 bf78 bf5d 3f46 3f8e bfd4 3f90
0000 bf43 4012 be6b bf28 bf7c 3fb0 3f82
c009 3ef6 3ee0 3f0b bf11 3fad bf17 3f4a
bf96 3ef3 c007 3f24 3dc0 c005 3f02 c038
bfaa 3f22 3f98 3fbc bfa8 be4e bed8 3f52
3dbc 4003 c042 be93 3f74 3f58 3e2d bfa8
bf30 beca 4013 3d58 3f66 bed6 3e80 bfdb
400d be72 c07e 408a c008 bf17 3d32 bf06
3f3c 3fec 3f4f bea4 3f73 3f4e bf2b bf14
3f3a bfd6 bf52 be20 3fa4 bf2c bfd4 3f8a
3d92 bfb5 bef4 4020 bef2 4012 3f9d bf36
3f18 3f35 3f51 3dec 3c00 bf88 3fc6 bf63
c036 3dd2 bf0a bcf8 3ef8 beea bed3 401a
400b bfb7 bfa1 3f5a bf52 3eda bf81 3eb1
bf3e bf4e bf4f 3fce 3f19 3f44 3efa be90
3fa7 3bc0 c000 3ef1 bea6 bf18 3f1f bf98
4016 bf4e 3fe5 4020 3f28 3ff4 3f66 3dac
bf3f 3fec beef 3e7f 3db8 bee3 bd82 bef0
bf76 3ff2 bf74 4003 bfa2 407f 3fc5 3f7f
be34 3e84 4048 3fb9 4079 3fac 3fb0 3f72
3ee4 bec1 c04e 3daa 40de 3f24 3f66 bf51
bfd1 3ff7 be96 bf02 bfac bee2 3f4e 3c88
bfda c0b3 3ca1 bf94 3f81 3fee c00b 3eea
bfe1 bf36 3d94 4046 3fab bf10 bfd4 4005
3f4a c03c bf46 3f9a c058 3e1c 3f35 c003
bf60 3f8e 3ce0 3ef7 4094 3f9d c000 bf4a
3f78 bcf0 3fa8 bfce bfec 3f53 bf08 3f5e
3e68 c222 bfd5 bf6d bf4d 3d90 bf6c 3fe2
c00a bf62 3ed1 bf8e 400a c02e bd8e 405d
3fd7 3e82 405e c008 be12 bf8d 3fe2 4004
bfa0 bf5d bf74 406d 3fb2 bf8d bf19 40e8
be24 be70 3fd0 3eb6 3f3f c008 bf96 bfa4
3fd7 bfbb bee2 3f12 be56 bea4 bfce c004
3ea9 bf90 bf98 bfd5 bf0c 3d18 3f7f bf63
c014 3fae 409c 3de0 3f4c 3fe0 bf32 bfa4
bfc4 3f1b 4075 bda4 bfbf be7c 400d 40f4
4018 3f82 409e 3ea6 bf07 bc90 bf04 bf56
bde2 bfb5 3f68 3fe6 3f86 bebc bf8f bf1c
bf5e be2b bdf0 4011 3fd3 bf89 bebc 3e28
3f8c 3d38 3f1a bf51 3f2e bfdb bf24 3fda
3ea9 3f70 c00e 3ffe 3ed6 4015 3fca 3f5c
be16 401d 3ffe 400b 3e09 3fe3 3fe2 bfe9
beb4 3ecf bfa1 bfcb 3e8a bfe8 c02a bfd6
3e4c bea8 3f1a 3f97 3faa bfde bcc0 beda
4036 bf72 3e3e 4079 3fe7 bf82 bf4e bc16
3e36 3fb4 be70 4056 bd58 be96 bece 3f72
401b 3ffd bfdd bf81 bf14 bf85 bf10 3e4e
3d70 3f6a 3f97 be9c c0bb bfec bfa6 c048
c00f be9c bfc0 bf2a bf86 3e11 bf9d bfc6
bce0 bde4 bfcc be46 3e8c 3ec2 bf84 3e5e
3eb9 3f26 3fec bf6e bfda 3da0 3eb6 4006
401c bf43 3f54 bf93 bd28 3f84 3f61 bf8d
bdd0 408d bf0a c00b 3f8a 400b c045 bf8d
be98 4009 bede be40 3f79 bfa0 c02e 4039
be85 bec6 bfc2 3efe bfb4 bfe9 3e04 3f24
bf30 bfd4 3f0d 3f05 3fa8 3fbc bf18 c055
3f94 400b bf19 bf4b 4047 3f8e bee6 beec
be93 c01d 3fd7 bfa4 3e44 3e08 bff6 3f53
bead bed4 beea 3fa4 bf8b bebf bf88 bfbe
3f9f bf97 c054 bf8b c020 3e64 bf88 bf1c
3f7c bfae bf64 c01e bfdc beb0 bdea 3e9e
c00e bf9f 3f6e c09a 3f88 3fd0 3fcd 3f32
bf73 3f83 be08 be8c 3df4 3ecb 3fd6 bf36
c05a bf10 3f6f bf31 3f4f 3df9 bfa7 3f70
be80 bf63 3e6e 400e bde6 3f36 c004 3ed1
bf8c c02c bf05 bda0 3f77 3fff be92 bf84
3e94 3f5c be56 3ebb 3f5b 4096 c020 3f87
be86 bf22 be36 3e8e 3f1a 3db6 3fc1 c065
bf48 3ea1 c017 400e bff0 3f6c 3ef7 3fed
3e8e bea2 405c 3eeb 3f85 3fb8 3fff bf98
be66 bdda bf72 bf8e bfe2 4009 bf79 beaf
bdd0 3f3f c017 3f22 3f23 bf38 3daa bfa4
bf2b bfe1 be55 3fbc bfe3 be16 3e30 bf88
be90 bf19 bc58 c003 3f51 40b3 3ca0 bdb6
3e18 4019 bf54 3ea9 3ffc 3ebc 3f90 bfdc
bfee c096 bfb2 c06a 3d94 bf69 3f48 bfc5
3d00 3f1a 4068 bf74 bfc7 c100 3f2b be07
3f2a 3f56 be77 3f64 3f1a 3f71 bff4 4030
bf97 bf4d 3f35 3ed6 bdbc 402e c043 bfc8
bece bf04 3fa8 bf85 3fb2 bfba bfa6 bfaa
bfd4 3d3c 3e58 bf86 bf40 3b00 3f7c 3f96
3fa8 4054 3fc9 bf22 bfb4 c05d 3fb1 3fd0
bb80 bf25 3f88 bece be54 c004 bf46 c02a
bed8 be20 406a 3f25 3ff2 3e1c bfe8 beee
bff5 3fe8 bf7a 401e 3f8e 3fd4 be7a bf20
bf82 3eff 3eba 3f9b 3f46 3f5c c02b bfe2
3f08 3e6c bf4c 4007 be0c 3ee6 bd4e 3e3e
bf31 3d26 be68 401a 3fbd bf42 3e0f bf9c
3f83 bbb0 bed9 3f84 3fca bf91 bf59 bfad
3f92 3f34 3eed 3ea0 3e8c 3f8b bffe bc50
bec0 4025 c046 bd70 bf7c bc30 c116 bfcf
3f7c bf5f 3fa0 bf92 bf07 bf62 bf1d be51
bf66 bff2 bef4 3f13 be90 bfb4 3f5c bd08
bfb4 3df4 bfc6 3f76 bf7f 3e74 bfa4 3d68
3d88 bfe6 bf26 3f1a bfc1 3fbc beb6 bfee
beed 3fad 3eac 3fc5 3de4 beaa bfba 3e24
3ff2 3f1a bf9d bea4 3f01 3f3d bffa 3fba
3e40 befc 3ffa 3ee4 bed0 bf93 3f89 3f03
bfef 3f30 3d58 3ed2 bf8a 3f88 befa 3f45
bf78 3f1c c008 3eeb be5c c010 3f35 c02f
bf98 3f79 3fa2 3fce bfb4 be35 bf54 3f97
3ecb 4009 c049 3e98 3f8e 3ee4 3e2e bfb7
be38 be28 4016 3e2a 3f9c bebd 3e2a c01d
4012 be62 c074 4069 c005 beb4 3e32 be82
3f92 3fc4 3fa6 be9c 3f9a 3f22 bf38 bf18
3eeb bfde bf0a bf90 3f98 bf82 bf64 3f1a
3d10 bf84 bd52 4016 3ede 3f97 3fc0 bfa4
bd84 3ea8 3f30 3f0c 3e40 bfb6 3fb8 bf5c
c021 be48 3d92 3eb4 3eee bf44 bf56 3feb
4006 bfc5 bf4a 3f98 be12 3ec6 bfb6 3be0
bfa9 bf94 bf40 4002 3fb1 3f99 3f3d 3e65
3fa0 be42 c003 3f30 be9b 3ee0 3e40 bfcb
3fae bf86 3fc3 4065 3eb8 3fe1 4026 3e00
bf46 4000 beb7 bcf8 3e12 bef2 3d6c be8c
bf72 be90 bf9e 4045 bfc0 4058 4000 be82
3ebb 3e8e 4042 3fcb 407c 3f4a 3f94 3f55
3f57 bec4 c01d beff 40ce 3fc1 3fa1 beac
bf4f 3fec bee4 bebe bfac beb2 3f56 3dd0
bff0 c099 3e9c bfb2 3f76 3fea c015 3e91
bfe1 bf28 be48 4052 3fc8 bed0 bfeb 3fbc
3f32 c056 bee6 3f44 c099 3f7d 3ee3 c017
bf4a 3ffe be3d 3eb6 4086 3f65 bff1 bf60
3e89 3f4e 3fb8 c024 c01e 3fa7 bf04 3f26
3da8 c226 bfcd bf2b bf93 3f3e bf20 3fe8
bfd5 bf51 3f68 beab 4011 c014 3c95 404f
3fc6 3f04 403f c011 3d00 bf91 3fbe 3fd2
bf34 bf84 bf64 405a 3fdb bf9e bebe 40fd
bee7 3d6e 3fb2 3e43 3f11 c016 bfd9 bfd4
3fa0 bfe4 bf3f 3f11 bf31 bea8 bfc2 c007
3e40 bfce bfcb c00d beba bcb0 3f6c beee
c009 3fba 40c8 bf0c 3f0a 3fdb bd30 c007
bfaa 3f20 407c be19 bff1 3ee6 4001 40fb
401c 3f70 4051 bbe0 beeb bf17 be1e 3d26
bef1 c013 3fb2 3f9a 3fc2 be61 bec9 bf19
bf7e beae be94 4013 3ffc bf6e bf05 beb0
3f71 3d68 3f2f 3d38 3f4a bf5a bf22 3f7d
3e40 404e bfd2 3ffe be6e 3fec 3fb1 3f15
bf0b 401e 3fa3 402d be14 3f99 3fef c004
be1f 3f86 bf9a bfc6 3f3b bfcb c030 bf9a
3eaa bcd0 3f49 3fc9 3fd9 bfe1 bd18 bf41
4060 bfa5 3e54 4050 3fed bf48 bfb1 3ea7
3eae 3fb7 bf29 406a ba80 3ed8 be9e 3ef4
4012 3fd3 c014 bf30 bf43 bf91 bf38 be38
3e0c 3fa1 3fb4 bebe c0aa bff5 bf66 c069
c04b bf62 bfdd bd04 bf8b 3e6e bf8c bf9c
beda 3f07 beec be54 3e96 3f88 bfd0 bdb2
3e21 3ed2 401d bf94 bf8b 3ec8 3ea7 3fb2
3ff6 bf4d 3f73 bf6e 3f5d 3f26 3f09 bf79
bd60 4081 be8e c028 3f88 3fea c062 bfa0
bec6 3f85 bf4c 3efe 3fbd bfa1 c04a 402e
3e8d bef4 bfb2 3f13 bf86 bf8c 3f0d 3f6f
beea bfee 3eec 3f22 3f91 3fd7 be4c c06c
3f97 3fe6 be0d bf66 4035 3fb2 3e0a bf2d
bf1c c017 3fc4 bf93 3d5c 3e25 c03a 3f86
be9a bf23 bef7 3f84 bf5f 3d38 bfb4 bfa4
3f28 bfa1 c055 bf4e bfe8 3f2f bfd4 bef6
3cb0 bffe bd1c c00e c000 bf47 bde2 3f2e
bfa2 bf72 3f05 c097 3f3b 3fba 3fc2 3e2c
bf26 3fb2 3f24 beab 3e7e 3f7e 4001 bd30
c076 be93 3f68 beeb 3e94 3f1e bf72 3fc0
bf10 bf8a 3f32 4041 bd54 3f84 bffa 3e36
bfc1 c01a bf90 bece 3f78 3fc8 be46 bf77
3e85 3f75 bf16 3d14 3e14 40c2 c013 3f86
beb7 3e89 3e8a 3dbc 3e12 3fa2 3fb8 c05b
bf38 3f06 bf9d 4020 c03b 3f66 3ec4 4006
bd38 3d62 403b 3f55 3f30 3ff0 4003 bfbb
be52 be14 bf84 bfa3 bfc6 4029 bf9a be68
bdf2 3e86 bfe1 3e2c be93 bfa5 bf60 bf1e
bfa6 bfbe bf2a 3fad bffd be97 3e94 bf40
3e98 bf30 be80 c004 be54 40c9 bc20 beb6
3e82 3ff5 bf25 3f3e 3fb4 3eae 3f74 bfd4
bfc9 c08c bfcc c051 bb80 bf78 3f8a bfbc
bdec 3c38 4078 bf6e bf9c c100 3f0e 3ddc
3ef0 bf98 be3a 3f84 3f3a 3edb c008 4060
bf84 bf6d 3edf 3f47 bf1f 4015 c05c bfd8
bf11 bf5c 3fb7 bf24 3f04 bfe0 bf9e bf91
bfc6 be69 3eae bf4c bf95 3dc4 3fc7 3f5a
3fa0 4015 3ff6 3c00 bfac c052 3fa6 3fab
3e78 be22 3f18 3d38 bf2a c026 bf42 c023
be86 bb08 4027 bde5 3ffc 3ef0 bfa6 bdd4
bfd0 3fea bf91 3fd6 3fa0 401c bf28 3d14
bf90 3f1c 3f10 3eaf 3f51 3f70 c062 c015
3e0e bd28 bf4d 4026 3f25 3eb0 3e9b 3ee5
bf08 bd40 be20 4006 3f4c bf30 3f12 beca
3f02 3f32 3d40 3fac 3fd2 bf45 beda bf73
3fa8 3f78 3eb6 bca0 3f0f 3e43 c033 bd74
3eba 3ffe c04b bd28 bfc6 be69 c113 bf5b
3fb6 bf8a 3f36 bfa2 bf95 be80 be98 3e00
bf1b c029 be8a 3e19 beb7 bfd0 3f62 3a80
bfd2 3f3f bf9d 3f0e bf85 3e41 bfb4 3c80
3e98 bfee bf14 3e2e bfa0 4002 3f21 bfdc
be24 3fa8 3ed6 3fa2 3ea4 bf01 bf96 3eba
3fac 4011 bfa0 bec6 3f24 3f3a bfe8 3fc2
bce0 be8a 4049 3ed1 bf5e bf92 3f3b 3efb
bf64 3eb2 be3a bc60 bfae 3f54 bf14 3f13
bed7 3f3d bfc7 be98 be3a c004 3d88 c012
bf8d 3f82 3fc3 3fe1 bfbd be6f bf82 3f19
3eae 3ffc c034 3f63 3f6b 3f1c be58 bfbd
bf1b beef 3fde 3f9c 3f82 be4a 3e44 c025
4042 bfc1 c06d 4081 bf54 3d30 be02 bf0e
3f98 3fe7 3ec4 be84 3f83 3e8c 3b00 bf71
3f32 c005 bf52 be64 3f8d bf66 bfbb 3f04
3b00 bf4b 3f43 3fe7 3f8d 4020 3fac bf79
bf68 3ca8 3f42 3df0 3e69 bf53 4002 bf1c
c03f bd8c 3f3c bd38 becc bec1 bf56 3fa0
4025 bfc2 bf77 3edc bf30 3ecb bf9d 3f12
bf75 bf90 bf72 4003 3fa0 3f28 3f52 3eaf
3f99 bdec bffb 3e9e 3e8d bfe9 3e83 bf82
3ffc bf64 3f99 404b 3e1d 3f8f 4019 beb6
bf48 3fff beba bed8 3efd be8d 3d20 beed
bf5c bebf bf8d 402f bfaa 4099 4021 3ebc
3ed6 3f16 4052 3f88 4080 bc40 3f68 3f9e
3fad bf0c c026 bd15 40cd 400c 3e84 bf81
bf5c 3fb6 bf44 be94 bfd3 be71 3f8d 3d98
bff3 c085 3f1a bf8e 3f8e 403b bfd1 3f8c
bf68 bf20 bdf1 401f 3fd4 be8a bfc3 4003
3ee3 c04d bc40 3f70 c056 3eae 3f11 c023
bdf3 3fda bdaa 3d58 4098 3f2d bffc bf92
3ea1 be04 3f96 bfbc c00a 3f90 beac 3f33
be5c c226 bfa3 bf9e bfac 3ee5 bf17 4007
c02b bf30 3ee6 bd8c 4008 c016 be92 405e
3fb6 3d84 4041 c00e 3e65 bfb0 3ff4 3f94
bff8 bf81 bf2f 4054 4012 bf54 be9a 4100
3e3f beea 3fb0 3f6a 3ec1 c023 bff4 bfae
3fca bfab bf08 3f84 beb8 3e6f bf88 bffc
3eeb bfd1 bffe bfda be38 bd70 3c10 3e0c
c000 3fe4 40a4 bf0a 3f9d 400c bf48 bfae
bfb0 bd70 406a be32 bf98 3e90 3ff3 4103
4021 3f5b 4012 3dfc bf83 bf4b bcb0 be0b
be50 c03d 3fe6 3fe6 3faa bd2c bf0b bea7
bf86 be58 beee 400b 401a bf10 bf5c be92
3f80 3e4b 3f7d be82 3f9a bf9b bed7 3f78
bec6 408c bfe7 4002 bf03 3fb8 3fc0 3f75
bfa4 4010 3fb9 400b bcda 3ff1 3fd1 bff0
3f64 3f7f bfa7 bfa8 3f46 bfd1 c010 bfe6
3e5c becb 3f5c 3f96 3fa3 bfb9 3f1b bf89
402a bfa1 bd3d 4022 3fed bed4 bf61 be87
3f6f 3f99 bf8f 400c 3e6d bdd4 bee2 3f16
4007 4021 c02c bef4 bf28 bf38 bf5b bed2
3c80 3fdb 3fba be0d c0c4 c00a bf56 c027
c00b bf56 bfd9 bf10 bf8e bd70 bf50 c052
be78 be91 bf6a 3ec6 3e6c 3f99 bfac be40
3ecc 3f23 3f92 bf87 bf9a 3f09 3ed2 4004
4011 bf22 3f88 bf76 3f1a 3f5a 3ed3 bf83
3f21 4085 bf2a c013 3f32 3ff3 c02c bf91
bb80 3fb5 bf2e 3ef0 3fa8 bf3c c033 4038
bd30 bef6 bfbe 3fe8 bf17 bf86 3f4a 3f1e
be81 bfca 3ea8 3f78 3fb0 3fc5 be7c c062
3f95 3f99 be88 bf89 403c 3fd5 3e99 bf1c
bf98 c020 3fda bfb0 bd7e 3f24 c062 3f86
bedf bf92 bf91 3f94 bf2d bed8 bf44 bf9e
3f94 bff4 c08b be70 c01b 3f2c bfc5 bf6c
3edf bfd8 3e4b c00a bfe6 bf24 3e46 ba80
c010 bfbd 3eaf c088 3f33 3fc2 3fd0 3dc8
bf05 3f58 3d9c 3e97 3e76 3efa 3ff2 be10
c082 bda1 3f8d bdc0 3f9f 3b20 bf3c 3ef0
3ea4 bf6e 3f07 402b bca8 3eba bfde be6d
bfb2 c02d bf90 bedd 3f4a 3fb6 bea3 bf78
3d9c 3f67 bf6b bc00 bea2 40c4 c018 3fbb
beee 3ef6 3e4c bf5e 0000 3e94 3fa1 c06b
beb0 3f96 c009 403a c02e 3f52 3f82 4006
bd18 bdb2 405b 3f00 3f44 3faf 400d bfa8
beda bf3e bf70 bfda bf8a 401a bf10 3dc8
3ebb 3eca c00e 3f23 3f40 bf9c be49 bf9e
bfba bfae bf19 3fe0 bffd 3c90 3f65 bf9a
bea6 bf4c bd58 c011 3d40 40b8 bdb8 bf34
3e9a 3ff3 befe 3e96 4005 3d3e 3f9d bff5
bf93 c08a c00b c042 bdec bfc8 3f0d bfa7
bd84 be26 406e bf6c bf5e c102 3e8a 3e0a
3f19 bf18 bf28 3ebc 3f01 3f9b bff5 405a
bf36 bfa9 3e0b 3e97 bed0 4049 c05b bf85
bf54 bf95 3fd0 bf13 3f7a bffd bf66 bf36
bfdb bebf 3e9a bf60 bf97 3e3e 3f5a 3f59
3f25 4053 3fc4 bebd bdac c054 3fb6 3fec
3ebd beea 3f60 be72 be3e c037 befc c00b
bd7e 3d82 4020 3f03 4007 3ea0 bf89 bf4f
bfe2 3fdf bfae 3fcc 3fe6 4016 bf4b 3e08
bf97 3ecc 3d9c bdb8 3f8a 3fad c036 c030
3f02 3e05 bf52 4008 3dc8 3f0c 3e5a 3f58
bf18 3e7b 3e3f 4001 3eb1 bf3a 3f24 bfe2
3f10 3f04 be58 4008 3f99 bea6 bd7c bf08
3f81 3f8b 3f16 3f69 bdb8 bb00 c014 bc60
bd90 4009 c053 be54 bff2 bbb0 c11d bf6d
3fac bf82 3eee bfa3 bf83 bf16 bf60 3e5c
bef9 c02c be65 3d58 bf18 bfaa 3fdd bec4
c008 3e64 bf78 3f5a bebf 3f06 bf88 bf18
3de0 c007 bf87 3f30 bfb6 3ff0 3f5b bfe5
3d94 3f75 bd00 3f82 3eb4 bf07 bfbd 3d60
3fc1 3fd6 bf7f 3e28 3f2e 3ef6 bfc0 3f92
bebc becf 4024 3f28 bf57 bfd3 3f75 3e36
bfc5 3dc4 3f0e bde0 bfc8 3f34 bf0f 3ee0
bed8 3f57 bfb3 bda3 bf08 bffd bd78 c007
bf78 3f22 3f98 3fbb bfcf bc46 bf2d 3f44
bd28 4004 c023 3f44 3f76 3f6b 3d68 bf9e
bf66 be22 3f6f 3f55 3f92 bdd6 3ce0 c023
403e bf66 c064 4073 bf85 be40 3f5a bec0
3f8a 3fe1 3ec2 bf13 3fc9 3f1f bf23 bf8b
3e85 bfdf bee2 bd5c 3f5c bf47 bf9f be06
3dfe bf12 3f15 3ffa 3f00 4009 3fc5 bf9a
bf94 3e84 3f5e be58 bec3 bfa1 3fe4 bf7a
c050 be29 3f2a 3cb0 3e60 bebc bf1f 3fd2
4005 bf7d bfad 3f22 bf16 3edf bfb4 3f30
bf9a bf90 bf31 4027 3f8a 3f27 3f3a 3dec
3f9a 3cb0 c02b 3f04 3ee6 3e89 3f1a be9d
3ff0 bf66 3fb3 4050 3f01 3f59 3f87 3eb1
bf70 3ffb bf10 bf36 3e2a be24 beae bf21
bfa8 3fd2 bf94 4044 bf9d 4093 4018 3ea8
3e94 3f62 4063 3f89 404b bf0f 3f8c 3f98
3f83 beb6 c06b bf04 40ed 4010 3e7a bf79
bfe8 3fd2 bf03 bed5 bfb7 3d9a 3f54 3ed5
bfcc c085 3ea2 bf33 3f94 3fb6 bfdb 3f76
bfd3 beea 3cec 4016 4016 bf0c c000 3fe6
3f11 c063 3da0 3fb7 c066 3ede 3f3a bff5
bf03 3fcd bf03 3edc 40c9 3f57 c010 bf6a
3e06 be89 3faa bfae c009 3fb4 bf36 3e1c
beca c22b bfa5 bfce bf9e be2c be84 4008
c017 bed4 3f13 bc70 4005 bfe9 be62 4068
3fc2 3e8c 4040 c019 be8a bfda 4001 3fe6
bfdd bf3c bf10 4055 400d bf32 bd6c 40f8
3f62 bf38 3f98 3c60 3f1e c024 bfd4 bfb2
3fd3 bfa0 beaa 3f8b beba 3f4d bf4e bff1
3ee3 bf83 bf8b bfce 3e58 3e6f 3f41 3dde
c016 4000 4096 bf11 3f82 3fec bedc bfc5
bfb6 3f34 4066 bedc bf56 3ecb 400f 40c2
4027 3f8a 3fd9 3e63 bf90 bf1e be76 bd14
bef8 bfea 3fc4 3fb1 3f84 beff bf84 bf42
bf9b be65 be68 400a 403a 3ea2 bf68 bef1
3f34 3e25 3ef1 bf46 3f8e bf0f bf52 3ff4
bcaa 403c bfb6 4014 3efe 4007 3fb3 3f79
bf98 3ff8 3fbe 4021 3e85 3fa8 3fdb c017
3d34 3fb9 bfcb bfb2 3f48 bf8b c03a c003
be62 bec5 3f88 3f8f 3fd0 bf8f bd70 bf03
4040 bfb3 be27 401f 4013 bf9f bf0c 3d10
3e9e 3f20 bf20 4007 3f02 bde0 bf44 3f3a
3fc6 402a c021 be90 bf1e bf87 bf41 be40
3eb9 3fd2 3fa2 be2e c0c2 bff4 bf73 c067
bfce bfa5 bf9f bf2a bfc2 be9b bf42 bfe4
bf06 be68 bf5e 3dd0 3e18 3f56 bfa9 bd8c
3f54 3f4b 3efa bf64 bfc2 3f38 3e8c 4005
4011 bf1a 3f8e bf47 3f22 3f66 3f5f bf83
3f04 4066 bf8c c02e 3f3f 3fcd c045 bf72
bedc 403b bf64 3ecb 3fd3 bfeb c040 4035
bf0e bf83 bf8c 3fa2 bf87 bf92 3e84 3ed6
be0a bfd4 3f17 3ec6 3f92 3fb5 bc60 c056
3f46 3f81 3c1c bf85 403a 3fb0 bead bf48
bf52 c049 400e bfbe bef0 3e9c c041 3fd9
bf86 bfa8 bf80 3f9a bf2f bf1c bf64 bfb9
3f15 c01e c089 befc c042 3edb bf98 bfa4
3eba bff4 bebc c018 bfcf bf64 3f4f 3e76
c019 bfc2 3e18 c08f 3f88 400b 3fae 3ec0
bf64 3f6a bf01 3e14 3f44 3f4c 3ff1 beae
c064 bf4c 3f84 3de7 3fad 3e8c bf95 3f88
bed8 bed1 3ede 3fef bec5 3e15 bfd3 be13
bf9b c01d bf9e bf3b 3fab 3fe5 bf02 bf7e
3e88 3f73 bfae 3e94 3e48 40c1 c028 3fb7
bf2d be80 3f08 3e54 3f36 3e2b 3f55 c047
bec5 3f65 bfe1 402c c026 3f40 3f38 400c
be8d 3c38 4083 3e9d 3f9e 3fb1 3fea bfd3
bbe0 bf0a bfad bfb6 bfee 4015 bf73 bf22
bf5d 3eb5 c021 3fb2 3f17 bf28 3eb4 bf80
bf8c bf8c bf24 3ffe bfbf bea8 bcbc c010
bef0 bf16 3e7a c001 3e7c 40b6 bf4c bf2e
3dac 3fdd bf0a 3ec5 3ff0 3d52 3fc6 bfd8
bf81 c096 bfd7 c034 3d30 bfce 3f2c bf22
3f03 bf06 406b bf86 bf9d c10a 3f1b bd10
3f89 3d20 bf0e 3e3c 3e2b 3fa2 c00e 4030
bf22 bfaf 3d6c 3ea7 3f07 406a c047 bf68
bf71 bf8d 3fb4 bef8 3f1b bffa bfbd bf23
bfe0 3e2d bf00 bf54 bf83 bf00 3f44 3f58
3f3c 4034 3fc4 bf1b bdec c04c 3fc8 3fe4
3e56 be80 3f78 bf14 bf2f c029 bf5a c017
bd40 bcb1 404c 3f2c 3fd4 bec2 bfb9 beb4
bffe 3fd4 bf90 3fe4 3ff3 400a be28 bef8
bfac 3e83 3e8f 3f8e 3f2f 3f28 c065 c02e
3f53 3e72 bf46 3f69 3da0 3f11 3e10 3f14
bee2 3e9a 3e2f 403b 3f97 bf27 3f76 c00a
3f34 3f3a 3e36 3fe8 3fc1 bf6e bec2 bf1a
3fc4 3ef1 3f76 3f87 3be0 3f1c c006 befe
bf99 403a c04b beb3 bfc4 3fb6 c10e bfc7
3fa7 bf75 3fb6 bf9b bf77 bf32 bf7d 3d9c
bf25 bfe8 bdd5 be91 be40 bf41 3fd6 be62
bff6 3de0 bfa4 3f5a bee7 3e8a bf84 bca0
bda0 c002 bf9e 3f7a bfcb 3ff3 3f66 bfe6
3e9d 3f6a 3e5e 3f42 3f81 bf3d bfa3 be00
3fde 3f65 be0b 3f3f 3f30 3e8d bff4 3f77
bf04 bf72 4040 3f52 bfa0 bfbc 3f89 3f3a
bfef 3f84 3ee2 3d20 bfb7 3f66 bec5 3f30
bf43 3f52 bfe1 3e40 bf06 c000 3f1c c04c
bf04 3f4e 3f94 3f9e bfac be5e bf2f 3f51
3df8 4032 c01c 3f94 3fc7 3eee bdce bfd0
bf8f be87 401c 3e88 3fe6 3d75 be3a c00b
4026 bf4f c055 407b bf6a be86 3f56 3f02
3f90 3fe9 3dbb bea8 3f94 3f96 bf58 bf89
bdf8 bfdf bf40 be9c 3f80 bf47 bf96 bd63
3f26 be72 3f8b 3fd2 3eea 3fd8 3fdc bfcb
bf43 3ea6 3f31 be9c be52 bffd 3fb1 bf62
c02e bf3b 3f6f 3e6b 3eda bf44 bea8 3ffc
4005 bf75 bf97 3f1c be92 bddc bf9a 3e70
bfa6 bf81 bf53 401d 3efd 3f19 3f08 3e52
3f8a 3e2c c026 3f42 3df4 3c60 3e7d 3f66
4001 bf8e 3fe0 406c 3db6 3feb 3ff0 3ea5
bf74 4016 3dec be48 bf11 bc98 be22 bf20
bfae 3eae bf6d 4080 bfab 4013 3ffc bed6
3e5a 3f76 405c 3f22 4024 3cc0 3faf 3f3a
3f96 bedc c02d bf98 40ee 3fa8 3e8a bf8e
bf09 3f8a bf41 be8e bfa3 3e3b 3f26 3ed6
bfe6 c067 3e3c bee2 3f91 3fd0 bfea 3f2d
bfee bf44 3eb8 4001 4010 bf2a c007 3ff4
3f7d c053 3c00 3fb6 c080 beec 3f17 bfde
3db8 3ff6 be6e be7e 4091 3ed6 c026 bfaa
3e52 bf7e 3f9c bed1 bfff 3fb8 bf30 3e18
3e44 c223 bfda bfac bf62 bdb4 bf48 4010
c026 be28 3f6a bf16 3ff9 bfe1 be23 4057
3fd0 3d08 4036 c01c be84 bfdb 3ff6 3f42
bf1e bf3e bf23 4060 3ff7 be9e 3e1f 40e9
bebb bf19 3f9f 3ec3 3f48 c034 bfd3 bf3c
3fcc bfa9 be35 3f27 bf64 3f68 bf80 c001
3f15 bf8b bf8c bfd4 3ec2 bdd8 3e89 3e23
bffc 3fe1 40ab be28 3f1e 4006 bf04 bffd
bfb1 3f69 404e beb6 bf69 3e15 3fbb 40e6
4013 3f7b 400f 3ea3 bf24 bf5e be87 bd2c
bf58 c051 3f7f 3fb5 3f8a be06 bef2 bf04
bf82 bf20 be89 3fe2 402c bec3 bf54 bf4a
3fc6 bee6 3f20 bf95 3f73 be4d bf68 3fdb
3e79 4085 bf1d 4001 3ef8 3ff0 3fd5 3f23
bdd0 3fdf 3fa8 4034 3e60 3f4a 3fd4 c01e
3e7a 3f32 bfb6 bfa0 3f0e bfbb c026 bfb7
3df0 bf46 3f63 3f89 3f8a bfae bec6 bf2a
4023 bfb1 bef6 4028 401e c001 bfb3 3ca7
3eef 3f05 bd86 3ffa be53 be00 bf34 3faa
3f28 402c bfea bf12 be7a bf58 bf9a 3e12
3f19 3f99 3fce bb40 c0a9 c008 bfa2 c06a
c02e bf62 bf8a bf21 bffc be2e bf89 3eb4
bda0 bd48 bf28 3de8 3edb 3ee0 bfa8 3e88
3f65 3f19 3f5e bf92 bfc7 3f4a bd51 400a
3fd4 bf4e 3f95 bf10 3ef7 3f6a 3ee9 bf9f
3ec9 407f bf91 c025 3f25 3fba c047 bf83
bf45 3fe8 be9f 3e86 3ff7 bfa2 c02b 4019
bf3e bfe6 bf53 3f70 bf2c bf8f 3f10 3edc
be8c bfae 3f1d 3f43 3f9c 3ec8 3f07 c068
3f48 3f3a 3dd7 bf8b 4048 3fc3 3df7 bf1a
beb4 c02d 400d bfa2 bd49 3e2c c066 3fd4
beb7 bfaf bf9c 3fab bebb bdce bfae bfa2
3f37 c001 c066 be28 c025 3f32 bf72 bf26
3ea6 c014 bf5b c006 bfcd bf3a 3efb 3f38
bfed bfc8 3e1b c08b 3f82 3fd4 3f92 bdc8
bf5d 3efb bee2 3e55 3f06 3fb6 3ff0 beee
c057 be93 3faa 3cec 3f60 3f57 bf9b 3fa9
bd74 bf32 3fa0 3ffc bebc 3eac bff4 3ef6
bfed bfbf bf85 bf24 3fbf 3fc2 bef8 bf90
3dbc 3f77 bf80 bcd0 3ec6 40aa c02d 3fe4
bf22 bf84 beea 3f09 3eee 3f26 3faa c043
befc 3f38 bfab 400d c012 3eda 3ca0 401e
bebe 3e53 4095 3e92 3f48 3f86 401f bfc2
beb3 3e63 bfd9 bfcf c00e 4017 bfc1 bf94
3fb3 3d94 c03e 3f22 bc23 bf30 bc00 bf32
bf86 bf84 bec8 3fb7 bfa6 be84 3f5f bf1b
be24 bdf4 be18 c008 3ee2 40ad bf64 bf54
be86 3f8c be7c 3f08 400a bd70 3fd7 bfb1
bf66 c08f bfb6 c02c bce0 bf86 3f68 bfa6
3efa be1c 408b bfb5 bf50 c103 3e91 3f14
3f75 3f1f be60 be14 3ebc 3fbc c011 404d
bf58 bf8a bda6 3e96 3f8a 4034 c056 bf8b
bfa0 bf6a 3f80 bf0d 3bac bfe3 bfd1 beee
bfd7 3f12 3e90 bf98 bf2e bd28 3f80 3f0e
3f1a 3fa4 3fd2 bdc0 bf0e c034 3fce 3fd9
3d88 3eba 3f6e be96 bed0 c036 bf26 bfcb
3ea3 3e62 3ff2 3eac 4009 bdd8 bfd1 be8e
bfa5 3fb8 bf66 3fb8 400a 4005 3d98 bfa4
bf97 3f1e 3f5c 3f38 3f81 3f02 c06e c036
3f9e 3d50 beb8 3fe7 3efc 3f02 3ee6 3f1c
bf5c 3c50 be93 4017 3f84 bf89 3f80 bfe0
3f81 3ecd 3edc 3f84 3f96 bf1e bf12 be03
3fb0 3d10 3f8a 3f46 3dd4 3f72 c011 bd96
bf4f 4026 c052 be38 bfb6 3f82 c10c bfc8
400f bf9a 3f8a bfc1 bf53 bf1a bf0e bec7
bee6 c016 3a80 3e15 bda0 bfa2 3f92 beb0
bf94 3eda bfd7 3f15 bf65 3eb3 bf6e bdfa
bcb0 bfda beaa 3f68 bfb8 3fcf 3ef2 bfc3
3e18 3f70 3ec7 3ead 3fb1 bf6b bfae 3eac
3f96 3f34 bea4 bdb8 3f32 3f30 bfa4 3f84
befa bf62 404c 3e1d bfa0 bf77 3fe6 3fb4
c003 3f9e 3eb2 3e3c bf67 3e9d bf04 3eb8
be60 3ee4 bfd7 beb3 be7a bfee 3e90 c021
beba 3f31 3f89 3f7d bf8b bef4 bef4 3e4a
bca0 401a c00b 3bc0 3fa7 3ec6 bd8a bf9d
bf92 be92 3fda 3e8d 3fbe 3e50 bda0 c008
401a bf66 c037 408b bf94 bf0a 3e5e bea7
3fa7 400e bded 3e78 3f64 3f51 bee8 bf33
b980 bfc0 bf47 3e46 3f9c bf57 bfc0 be01
3f10 bed2 3e42 3ffd 3f42 4028 3fa2 bfa5
3d20 3ef6 3f86 bf2d bf07 bf0e 3fc3 beaf
c023 bf17 3ec9 3ed0 3e16 bf9d be76 4009
4013 bf84 bf96 3f46 bf18 bf06 bfac 3f9b
bf5c bfa7 bfa4 4012 3e87 bec4 3f2c 3e81
3f54 bdb4 c024 3eca bdb8 bff6 3ea1 3f00
4029 bf7b 3fd9 403b 3e06 3fd4 be88 3e85
bf6a 4015 3e9c be16 bee8 bdda bddf bf14
bfdd 3f7d bf46 4008 bf70 406d 4021 3f1e
be49 3f74 4059 3f80 4051 3f5e 3f6a 3f1b
3f66 be3c c048 beeb 40cf 3fa9 3e2e befd
bf0f 3f5d bf54 bd20 bf94 3de0 3f61 bdea
bfe3 c082 3e07 bed7 3f98 4000 bfab 3f7b
bfa7 bf5e 3ec6 4013 400e bf40 bfea 4010
3f9a c039 beb9 3f88 c040 be74 bd12 c011
3ed3 3f8c beba bde0 408a 3f75 c041 bfb5
3f30 bfcb 3f81 3cc0 c003 3f95 bee4 3e99
3e90 c222 bfb9 bfaa bf65 3dc0 bf88 4003
c025 be54 3f0b bf92 3ffe c02d be62 405b
3fc9 beab 4047 bffa 3dec bfb9 4003 3f7f
bfda bf05 be9a 4054 3f8e bf54 3d24 40ef
3e60 bf2f 3f78 3f82 3ec0 c040 bfc8 bf22
4002 bf9e bee8 3f38 bf21 3f42 bf54 c00b
3f82 bf9a bf8f bfd7 3e5e bec4 3e8e bea6
bfdb 4001 40a7 3e10 3f90 4030 bf69 bfaf
bfc3 3f78 4051 be21 bf0a bdad 3fce 40dc
4003 3f3a 408b 3dd0 bf32 bf40 bee8 bfb1
bf8b c023 3f26 4022 3f7b 3e19 bf74 beec
bf7c bf44 bdb2 4011 402c bf75 bf96 bd68
3fd4 bf17 3f71 bfa7 3f7c bf4c be60 3fa3
bd39 3fe7 bfac 3feb 3eb7 3ff2 3fff 3f6c
bf6e 3fd9 3fd5 4005 bc2c 3f8b 4004 c004
bf3b 3e46 bf7c bfc4 3eb9 bfb2 c00f bfd6
3e3c bf2c 3f7e 3f7b 3fa8 bfb7 3b80 beea
4030 bf8b bee0 403b 401b bfd7 bf9c bf33
3f4e 3ec3 3d94 4026 bf0e befa bf87 3fa4
400d 403a bfdd bf40 bdba bf09 bf73 bdc8
3f32 3f7d 3fa2 bec0 c096 c00c bff0 c061
c00c bf16 bf92 bf1c c005 bdb0 bfc8 bfc3
3f0a be92 bfba bd10 3ee8 3eeb bf86 3b30
3f22 3f56 3f65 bfc8 c005 3f06 3d00 4040
3fab bf6b 3fad bf5d bd88 3f84 3f69 bf90
3f1c 4076 bfaf c009 3f8b 3fc1 c02c bf82
beef 4036 be4b 3c00 3fc7 bfa2 c034 400a
bf55 bfbc bee0 3e9c bed8 bfa5 3f28 3ea3
bf35 bfb4 3f45 3f05 3f79 3e60 3e1a c06b
3f5f 3f89 be46 bf8e 404d 3f90 3e14 bf7c
be64 c024 4010 bf90 3c40 bd48 c054 3fbd
3e6b bf26 bfaf 3fa6 bebf bf08 bf63 bfb6
3fbc bfa5 c048 bde4 c033 3f2a bf54 bf11
3f6b bfd8 be90 bfe2 bfd1 bf6e 3ec9 3f12
c012 bff5 3ecf c08c 3fda 3fff 3fbf 3ece
bf7a 3f43 bf0e be68 3ed7 3e3e 3fda bd10
c061 bf1d 3fc2 3e96 3f6e 3f0b bf70 3f85
3e08 be40 3f87 3ffb be01 bca0 bfec 3f84
bffc c006 bf6a be01 3fb8 4005 bf34 bf6a
3f0d 3f43 bf76 3eb7 3f38 40a4 c01b 4002
bf91 bf3d be48 beb2 3e87 bdfe 3f9c c069
be84 3f1c bfec 3ffd bfec bd74 3f09 4018
be02 be5d 40a6 3eb4 be52 3f72 401c bf7c
becc 3e08 bfa6 bf7c c00a 4011 bfbc bf15
bd8a 3d95 c03a 3f71 3f65 bf1a 3f21 bf5c
bf88 bf8c beba 3fed bfc5 be02 3f7f bf12
bf15 3e22 be2e c00b 3f36 40a3 bf87 bfbc
bf47 4005 3da2 3eee 3ff3 bea9 3fc1 bf6f
bf98 c09d bfbc c039 bde4 bf6b 3f2a bfbc
3eca 3d62 407a bfd1 bf8f c100 3e56 bdd6
3f8d 3f7a 3e85 3ef6 3fa4 3fdb c008 401a
bf86 bf84 bdea bde4 3f2b 4024 c051 bf47
bf6c bfa9 3f7d bf24 3f54 bfcb bfae beb4
c011 3ec4 3f3c bfba bf16 be44 3f58 3f91
3efd 4040 3fd6 be84 bf1e c046 3fcc 3fd8
bef0 3eb1 3fc9 be94 3d68 c024 bf0d c000
3e35 bc9e 4047 3edc 4014 3ded bffd bec7
bfcc 3f6a bf61 3fab 3fe4 3f90 3e48 bfae
bfa7 3f32 3f54 3fc8 3f91 3f39 c033 c029
3f7c be08 befa 400e 3ed0 3f0a 3e94 3ec7
bf47 3d72 bdee 3fd7 3f77 bf6f beb2 bf9c
3f82 bec3 3ecc 3f9c 3fac bf8b becf be29
3f8c 3ebe 3f9a 3f6e 3e5a 3fb2 bffc be5c
bec4 4020 c05d bed3 bfb4 3ed0 c112 bfca
3f90 bfa8 3f8c bf7c bf52 bf09 bf64 bee6
beea bff4 3ec2 be86 be6c bf26 3f36 bedd
bfd2 3db7 bfbe 3f71 bf6c 3f34 beb7 bf20
3e59 bfb2 bedd 3f8a bfac 3fe0 bed2 bfe3
be9e 3ef0 3cc0 3e78 3f8f bf48 bf92 3e04
3ffe bdea beaa be10 3f04 3f42 bf96 3fbe
beca bf60 3ff4 3f24 bf55 bf98 3ff9 3fd5
c017 3f72 3d80 3e82 bf96 3ea0 be89 be55
bec2 3e59 bfe6 be00 3d28 bfe5 3f1a c01e
3c00 3e63 3f32 3f99 bf7c bf0a bf1b 3f0b
3e84 4036 c01b bdd8 3f9b 3f04 be32 bf96
bf18 beda 3fcc 3e80 3fb3 3ebc bd48 c009
4013 be6b c038 4052 bfd7 bee0 3e9c be58
3f88 3fe8 3f64 3ed7 3fa1 3f1e bf2b bef0
bee1 bfe0 be93 bd8c 3fcc bf80 bf40 bf0e
3edf be9f beac 3ffe 3f48 3fd6 3f90 bfe0
be1c 3e08 3f7e bef6 bf3e bf2b 3f87 bf13
c028 bf1d 3ed0 3f93 3e12 bfc5 bf2e 4006
