c036 bfca c035 bf91 bff4 c028 bf67 c07f
c014 bfd1 be99 c003 bf40 c019 c018 c03a
c022 c058 bfee bfc7 bffb bf54 c016 c022
bfd3 c089 c049 c048 bfd9 bfb5 c01c 3f24
c02b c00f bfe1 c023 bfac c030 bfb2 bfde
bf99 c06c bfdd c036 c040 c027 c01d bfb5
c025 bf48 c06e c002 c010 c00b bf7a c012
c002 c01b c00d 3e0c c044 c02a c02b bfd4
bfca bfc7 c017 bfbc c001 c00e bfea c015
c00c bf1e bf04 c017 bfce c035 c050 c009
bfc5 bfe8 beaa bfa7 c01e c001 c01c c089
bffa bfff 3ef2 c04c c05d c038 c02e c00a
bbc0 bff5 c004 bfe8 bf1f bfd3 bfe4 bfe4
c035 bfe0 bf82 bf93 bfe3 c061 bf90 c01b
bf81 c023 c07e c057 c08a bfbe c005 c002
c034 3efe c042 c01a bfa9 bf6e bfe5 c036
c035 c02d bfc6 c010 c00d bfc4 c00a bfa0
c056 c02a c024 bfd6 c01d c06a c014 c04e
bfea c024 c012 be40 c00a c084 bf8c c037
c022 bd28 3eaf c038 c00a c016 3e1e c053
c00e c030 c030 c057 bfec c062 c020 c014
c03f bfc8 bfcb bfae bf94 bfe0 c00e c044
c013 c059 bfa5 bfc0 c03d c043 bfea c05b
c01b bfe9 bffc bff2 c036 bfe4 bfe2 c04e
c004 bfe0 c018 bff2 bf06 c029 bf94 c02b
c050 c00b c079 bf5f c01d c0ce c046 c032
c079 c085 bf9d bff1 c033 bfa8 bfda bfca
c01a c00e bf60 c00a c00b bfff c02d c024
c0e4 bfc5 c028 bfb7 bfba c010 c088 c009
3e92 c029 bfaa bffa bfb8 bfab c020 bfc3
c01c c019 c001 c05f bf8a c04d c009 c010
c029 bfa7 c038 c01b bfee bfc7 c04f c006
c05b 3e9a c003 c030 c034 c012 c03e bf3d
c052 bf9f 3eb8 bfc3 c081 bfb7 c027 bfac
3f39 c029 bfdb bfa0 c080 bfe4 bf9a c008
c070 c065 c045 bfc0 bfb6 c028 be51 bfcf
c035 c016 bf6c c004 bf93 c021 bff3 c015
c000 bf2b bffa c028 c026 bfb8 c02f bfb0
c021 c081 c06a bfa6 bf1b c016 c00e c03f
bff8 c01f c002 bfce c030 c02f c02f c00c
c06e c035 bfa3 bfde bf15 bfea bfe5 c044
bfaf bfbf bfc1 bff6 c02d c016 c032 bffe
c042 c044 c02f c044 c067 c046 3efc c028
bfce c00d bf18 bfe1 c00d c014 bfdb c007
c03b c05b c02d c0cb bfb0 c051 bfbd c01c
c03d bfe0 bf78 c040 c03c bfd1 bfd6 bfcf
c018 c027 bfce bf8e c01a c020 c049 bfe2
bffa bf6e bfeb bfdd c000 c02e bf8c bfcc
bff6 be04 bfc8 c014 bf76 c001 bfe0 c0c8
c01b c05a bfbe c010 3db8 bfee c03e c00d
c019 bfa0 bf37 c070 be52 bff5 c009 c033
bff6 c029 3dae c007 c026 bf69 bfea bff8
bfc2 bf94 bf9e c01a c03b c005 bf62 c037
c01c bf04 c07d bff8 c004 be84 bfd4 bf83
c022 bf3e c000 bfdb bfc2 c02c c02d c002
bf86 bf32 c01e c026 bfe4 c035 c051 c037
c02a c006 c012 c015 bff6 c03c c050 c008
c05d bf9a c029 bf91 bf98 bff0 c03c c033
c05f bfda bff2 bffe bfc1 c02b c020 bf8a
c011 c076 c004 c072 bfbe bfab c02e bfc7
c02f c003 c02a bffc bfcb c004 c063 bfd7
c02c c013 c032 bffa bfa7 c018 c04a c010
bf75 bff6 bfce c085 bfda c00b bfa4 bf74
bfec c001 c036 c05a c01e bfc0 c064 c018
c023 c00a bfd3 c04a c017 bfbf c03a c014
bfb3 c018 c032 c004 bf84 c03c bfb2 c051
c083 c00f c005 c01b bfbc c024 c028 bfcf
3f80 bf9c c036 c05b bffd bf88 bf9a bf74
c07a bfa2 bffc bf9a bfc8 bffb bf41 bfed
c08b c012 c05d c020 c06d c005 bfdd c019
c035 c046 bffd c007 bfca bf8c 3f16 c007
c00f c05a c028 c097 bf84 bf83 c028 c015
c00c c034 bfd1 be74 c061 bfe8 c008 c00a
c03d bfdf c024 bfb3 c017 bff1 c012 c03c
c086 c01a bfb1 bfe5 c008 bfa2 c02b bf14
bfcd c01c bfd8 c025 c028 c056 bf9a bf82
bf6f c000 c056 c041 c03d c041 bf1c c009
c062 c046 c010 c02e bfd4 c06f be52 c030
c03f bffa bfe0 c032 bffe c076 3f02 beda
c010 c065 c027 c016 bff4 c024 c00b be92
bfc0 bfdf c05b c058 c01f c009 c03e 3ef6
c034 c03d c016 bfc4 c032 c02c c025 c024
c094 c014 c08f c005 c008 c009 bf56 bfa6
c00a bfb5 c039 c085 bf09 c046 bffb bfe1
c021 c012 c012 c014 bfd7 bfcc bfb9 c03b
bff0 c009 c039 bfb2 3f0a 3ef4 c00f bfaa
c002 bfe3 c00b c04c c05f c034 c07c bfa9
c051 c00e bf35 c010 c018 c052 bfaa bfb2
c047 c002 c028 c096 bfef bfd1 bfc4 c086
c038 c02b c046 bfe8 bfc7 c038 bf7b bfde
c085 c019 c008 bfec bffd c050 c00b c05e
c07f be70 c00b be10 c05d c013 c00c c05d
c058 c04c c028 bd8e bf70 bfe5 c093 bf61
c015 c03c c001 bff4 bfdf bf7d c01d c002
c031 c05b c030 bfdd c03f bfbc c00e c00d
c026 bff0 c021 c05a c0cd c05e c006 3f36
c023 bfdf bfdb c05e bff8 bfbc c016 c07e
bff5 c012 c003 bfd7 bf3e c03d bfd7 c034
c00f c01a bfa7 c01a bfa3 bfda bfc6 c019
bf6e bff1 c021 bf96 c006 c039 c00a c03f
c040 c022 c04a c00c c015 c018 c01b bffc
c04b bfee c02e c022 c01f c01a bffc c019
bf3a bfe2 c046 3f3e c04d c01e c020 c013
bfa4 c047 bfaa bffa c00e bfa1 c023 bf4e
c04e c078 c024 c037 c069 bfd1 be50 bf87
c004 c038 bffc c044 c017 c02a bff6 c033
c022 bf2a c014 bfd6 c00e c01a c036 bf5c
c001 c0b8 bf18 c090 c02f c06b bfca bf36
c01f c013 c028 c008 bff5 c00b c021 c004
c00a c02f c010 c003 c05f c01b bffe bf47
c014 c01a c03e be94 c020 c039 c062 c007
bfd4 c02c c071 bf1d c05b bfc8 c04c c004
3db1 bf9e bf62 c02a bf70 bfd6 c055 bf9f
bfe6 c00f c044 c057 c023 bfbe bfd5 c035
bfd0 bf87 bdc4 c04a bfe3 c02a bf86 bfd6
c046 3ea0 c060 c029 bfab c012 c067 bfd8
c019 c089 bf4b bf95 c038 bfa8 c078 c051
c067 bfb7 c01e c01c c064 c04c 3e44 c01b
bfe2 bf83 c029 c049 bf93 bf7f 3e2e c01c
bff2 bff1 c042 c036 c009 bfc2 c043 bf73
c008 c004 c093 bfde c025 c064 bf78 c036
bff3 bfc4 c01b bf5c c097 bfec c05f be84
c007 bfca c02a c046 c046 c001 bf02 beca
bfbc c040 c040 c00d bfe4 bfcf c068 c04d
c00a bfc1 c058 bff1 bfa7 c057 bf90 c029
bfc7 bf80 c01b c02e c04e bfff bf8e c042
bfb0 c042 bf85 c00d c026 bf76 c006 c05c
c05c c01b c02f c022 c048 c030 c017 c005
c02c c00c c044 c00f c076 bfd6 bfc4 c041
bfdc c00f c046 bff0 3eec bfeb c070 c02d
bfb2 c060 bfd8 c016 c016 c004 c03b bf64
c00f c026 c05d bfb7 bedc c024 c036 c01a
c011 3da0 bf54 bf44 bf2e c000 c004 c01d
bf89 bffe bffc bfdc c020 bff2 c02e c042
c024 c01c c085 bf78 bfea c03e c006 bfe4
c02a c038 bfd8 c073 c003 bfe2 be2e c024
c01c c026 c06c bf9c bed8 c01d c01e bfb1
c01d c027 c018 3f06 bef8 c001 c03b bfd7
bfe8 bfd2 bf0e bfc0 c030 c00e bfe3 c003
c02d c141 bfbb bfa9 bfb2 bfe0 c00b c095
bfe4 bf10 c05f c0aa bfeb c04b c013 bfba
bfe7 bf89 c083 bff6 c051 c045 bf88 c02f
bfaa 3da5 bff8 bee5 bfc3 3f79 bf0c c070
c01c be6c bf61 c03b bff1 c008 c01c c016
c01d c010 c03f bf79 c00b bf9f c016 c033
c050 c02a c007 bf87 bfe4 c020 c025 c021
c080 c01c c003 bff2 bf0a bfa3 c057 be63
c019 c060 bfdc c01b be36 bf91 c038 c01b
bf50 c024 c006 c07f c03c bfea c05f bfde
c03e c028 c088 c065 c07e bfdf bfcc c027
bff2 bff0 c027 c003 c087 c01f c040 c039
c039 c039 c006 c02d c12c c020 3ee5 bf97
bf4f c00b c076 3e2c bfd8 c00e bfbf c03b
c00a bfc9 c018 c00c c000 c088 c05a c084
c056 c020 c034 befb c046 c050 c020 c013
c028 bfcb c019 bfde bfb9 c013 c020 c03d
bf9e bf3e bfca bfa2 c012 3e2c bffd c05c
bfc4 c038 c036 c004 c009 c003 bff6 c084
bfa5 c00c c004 c042 bfdf c04a c07d bfda
c037 be48 bfb9 c008 c04f c027 c04a bfea
c050 bf9b bffb c033 c00e c081 bfdc c010
c006 bfce c021 bf9a bfd4 bfd0 c079 c007
bff6 c026 c027 c06e bff2 bf86 c022 bfc9
c00d bfea c010 bfef bfaf c013 c036 c03d
c00d bfee c00f c001 c00e bef9 c04f c05b
c08b c03d c012 c03b c05a bfc5 c046 bf9f
c01c c000 bfdc c06e c046 c009 c01c bff2
bfe4 c055 c043 c003 c069 c002 be40 c02c
bf4a bfa2 c00e bf7c c009 c04e c008 c030
c011 c003 c026 c022 c022 c02d c054 bf9b
bfdd c038 bfaa bf93 c03e c01c c088 c015
c003 c02a bfa9 3e15 c010 c03b c023 c00f
c02d bf8b c04d bffb bf84 bfaa c129 c019
c076 bfd8 c022 bfee c022 bfbc c088 c01a
bf8c bfd0 c01f c071 c03b bffe bfda bf0f
bfd4 c00b c020 bf25 c006 c007 c011 c024
c014 bf90 3f0d bf08 c032 bfa1 c05c c02d
c062 c05a c01e c023 c000 bffa c053 3f0a
c001 bea6 c011 bfb2 bf66 c038 c002 c18c
c023 bfc6 c06e c016 c076 c022 c047 c00f
c01a c021 be5f c00e c02c bf9a bfa2 bfd2
bf87 c016 bfaa bfe5 bff6 c06d bf84 c017
c020 c072 bf2e c001 c028 bff2 c087 bfb4
bfa8 bfd9 c00e c01d bffc c042 bfb2 c023
c028 c01b bfe0 bff8 c077 c011 c02d bfc7
bff1 bffd c00a c0d9 bf9d bf58 bfe4 c01c
c003 c000 c059 c04a bf4c c02f bfab bfe0
3e38 bfe8 bfe2 c026 c007 bfae c082 c046
c01a c044 bfee c02e bf59 bf74 c03d bfbb
bffb c025 bfa2 c060 c010 c03b c000 bff3
c06a bf78 bfe0 c03c bf1e c058 c022 c02f
bfa2 beee c01a bfca bfb4 c039 bfcd bf3b
bf5e bff9 c041 3eb7 bf49 c07e bfc2 c024
bfa4 c001 bfe9 bfe4 c09b c048 3edb bfff
c00e bf58 c02a bf90 bfc6 bf48 bfbb c017
bffc c04f c038 bf67 bfd1 be6c bf96 bf41
c030 c021 bfdc c054 bfcf c06d c01a 3e00
bfea bfac bfaa bff2 c03e c038 3f53 c003
bf83 bf6d c04c bfaf c028 c004 bfa0 c010
bfc8 bfbe bf6a 3e48 c01e bf7e c016 be83
c05a 3f45 c00d bf15 bf46 c013 bf41 c001
bfc6 3e08 c036 bf59 3ecc c004 bfb6 bf26
c006 bf7e bf34 bf7a c053 bf12 bfc3 c010
bf98 c060 bfa8 c03b c044 bde0 bf4e bfa6
bea4 bf95 bf59 bfe2 c026 bf23 c02e bf8a
c042 bf5b c034 bf61 c011 c05b bfc0 c062
c006 bfc4 bf96 3ebb bf46 c02c c040 bfa2
bfab beb1 c0ae bff4 bfd6 bf81 bf8f c029
bfc7 c000 c073 be87 c032 bed1 bfd8 3b80
bfcc c002 3d38 bf86 bfbd bff8 c016 c02a
bfbe be24 c046 3d5c bfa6 bfd3 bebf bf58
bfaa be16 beb0 bee0 bfac bf8e c003 c059
bf95 bfd9 bf89 c07c bfc7 c02a bf4d bf59
c072 bfcb c014 beb7 bf92 bf47 bf5a bfaa
c055 bf86 c066 bfb8 3e40 c01d c056 c052
c014 bf7e c036 bf72 c01d c004 bfe8 c03c
bfa9 bf7c c046 be78 bece bfd3 3f68 bfe6
3e4c 3fde bf9a 3ef0 3ce0 bfc3 c03f c017
bff2 c069 3f87 c02f c004 bf7f bf8d bf98
bfb8 be84 3f1a c038 3de4 bf6e c00f bf3d
c019 bf9a bf36 bf94 c00a bfb2 c004 c026
bfe2 bfc7 c044 bf98 bf05 bf4e c018 bf98
bf35 beab c02f c052 bf99 bf8a bfd2 c00d
bf86 beab bf99 c00c bf2c c003 bfde c034
c001 bfc9 bf90 bf10 c017 bf89 3f02 bf4e
c054 bff1 c04e c041 c029 bf0c c004 bfa4
3ebe bf9d c041 bfe5 c036 bfee bf3c bfd0
3e1a c000 c019 bfa2 c021 c015 c024 3dc6
bf81 bfcf bfab c034 bfb4 c05a c00c bf1a
c042 bf8c 3e2c bf98 c082 bfc8 bfff bf0e
bf90 bfea bfc6 c05f be0c c00a bf95 c074
bf89 bf9a c037 c041 bff4 bf21 bea0 c00d
bff7 c06e c012 bfbc be76 c047 bfa7 c037
bf74 bfd5 bfa2 c038 bfae c007 c04c bfea
bff8 c004 c020 c016 bfb9 c02c 3f8e c055
c033 c008 bf95 beaf 3eb8 bfac bfe2 3da0
be96 bfd8 c024 bfed c01e bf17 bec1 bf48
bfe4 c008 bfb0 bfe9 bf4c c035 c006 bf4f
c01b bfba bf6c bfd0 c026 bff5 bfb8 be58
be84 4008 c031 bf5a be85 bf87 bf96 bf2e
c025 c010 c004 bfd0 c009 bfb6 bf00 c00b
bf91 c005 c058 bec3 bc28 be12 c024 bf8c
bf29 bf85 bfa4 c02f 3dac bfc1 be9a c07c
be89 c031 3d68 be58 c03b be7d c085 c007
3ec4 bef2 bf31 bf5a bfc6 bebd be8d bfb5
c056 c05a bfeb bfe8 bfa6 bf9d c023 c002
bf82 bff6 be99 3e8c bf43 c083 bfc3 be9c
c065 bfde bfe0 bf7a c002 c016 bf50 c038
c012 bfdc bfa5 bf2f bee7 c000 bf9b c022
bfd4 bfb6 bf40 c02d c00c bfd7 3fa4 c012
c02c bfaa bf50 bf21 bf40 bfdc c025 bfc0
c04a bfa2 c024 c004 bf2e c041 bfce bffe
bfd5 bf9c be28 c008 c010 c019 c059 be8c
c068 c050 bec3 bfda 3dc4 bffe bf93 c062
bf47 c034 c035 c082 3e1a c00a c005 3da0
bfa7 bfc6 c083 c082 c07a c066 bff8 bf9c
3f48 bf90 c02b c036 bf18 c018 3ecb c006
3f42 c025 bfde bfb7 bfcd 3f4c bfec bf80
c026 bf35 3e93 c04f bff0 bfd8 c031 bf81
bf4e c05a bfa2 bff2 be4a be4a bfdd c04b
c001 bfb3 bf1c 3f6e bfba bfb1 c01a bff5
c05e c011 bfc9 c031 bfc0 c060 c051 c002
bfca c040 be7c bfcb bfdb 3e1c c01a c052
c01b c027 c086 c016 3eb4 c020 c056 c021
c04c bf8b bf25 bfea c014 bf7c c006 bf8e
c034 bfe2 c01f c023 bf8e bf42 3e5d c01e
c012 c036 bfec bffd bff8 bfaa c00b be5c
3ea1 c049 be50 c009 bfe2 bf2e 3f0d bffa
bf68 bfa7 bfa0 bfd4 bfe0 c04e bfb0 c021
bff4 bff6 bf3e c01b bfde bfde c042 bf53
bfc1 c040 c088 c019 bff8 c020 c00c be13
c01c c044 c06a bfe5 bfde bfe6 bf78 be69
c04c bf88 c017 bff5 bfb1 bf87 bfdd bf32
bfc4 bfac bf60 bfad bf85 c049 bfd7 c008
c0af bfb4 c002 bf97 c006 bfdd be9f bf1b
3fba bf06 c03c c069 3f5a c074 bf4c c04d
bfb4 be00 3f0c bfa5 bfd9 c018 c012 c030
c032 bfd2 c056 c02e bfca bf9b bfa2 bf8e
3d48 bfe2 bec8 bff4 c044 bf83 c030 c040
c04f befc c010 c019 be98 c07e c05a bf82
c02a c042 c02c c060 3f20 bfa1 c04e c000
bfde bff7 bf54 c000 bf69 bf91 bfa0 bff2
bed2 bede bfde bf98 bfa2 bf52 3e93 c01d
c030 bff6 be00 c00e 3ed0 bfea c020 bfea
c02c bfb6 c013 c021 be9e bfe5 bfa8 be44
bfec c012 c00e c026 bf90 3ed6 c060 bfb3
c018 c028 c049 bf3e bfe4 bfb8 bf0a be95
c040 bfbd bf8c c04c 3f3f bddc bdf6 3d80
bfd4 be6b 3f31 c032 bff8 c038 bfb5 bffa
bf41 c017 c019 c076 3d8e c047 bfc5 bfbe
be68 c036 bfd4 bf1c bfbb beb6 bfe4 bf91
c020 bfc2 bfec c01f bfd3 bf80 bf42 c044
bfb1 c07a c01e c04b bfac c087 bead c057
bfdc bf56 bf9e c050 c00a bfae c052 bfd5
bda8 beee c025 bef0 c034 c00c bfdd c02a
c01c c00f bfa8 bf8f bc80 3ea3 c006 bf85
bfb6 bf71 bf45 c068 bf6e beb8 c007 3fc2
c006 bfef bf5d c044 bfc2 bf8f bf4c bf77
bf9b bff7 bea0 c01b c00b bfd8 bfdc bfb7
bf9d bf58 bf6f bfbd bf2c c02d bfe3 c041
c058 bf30 bf8c bf91 bfa4 beb9 c016 c014
c003 bf29 bfd5 bfd2 bfac c027 c02c bf8e
bffc c064 be1a be7c bfb2 c06c c04c bfc8
befa c041 bfa1 bfd0 bf9a bf73 c025 bf32
3ef8 3f1c c00c 3f32 c003 bffe bec5 bfec
bfac bfe4 c03e bff6 bf38 bf67 bed9 bed1
c00a be0a be96 c025 be84 bfd8 bf3c bf89
c08e 3f2b bfd2 bf76 bfc3 3eb9 c00c bfa4
3cc0 bff0 bfa1 c00a bfb2 3e16 bfe4 c03e
bf81 bf44 c06c bfcc c03b bf88 3e5c bf58
bfcb bf9d c04e c057 bf44 bec4 3ea2 c040
bebb bfff bf98 c050 bfdd c017 c05a be48
bfee c02e bff2 bf1d bfeb c040 bff9 c011
bf76 be4b bfcb bf93 c026 c088 c07d bef8
c035 c03c bfac bfb0 bfbe bf3c bf87 3fa5
bfd0 bfda c051 bfb5 beb4 bfd2 beb4 c025
c01a c030 bfc4 bf1d c00f bfbe c023 c05a
bf3a bf98 c034 bf91 bfac bf86 bff0 c03e
3dbc bfbc c01a c03c bf80 bff4 c00a bf8e
bf1e bd30 bf97 bfe6 c03a 3f6a 3d58 c004
bf4a bfa1 c021 c015 c074 bf06 bf8f bdfe
bf66 c007 bfd3 c01a 3e52 bfb3 bf66 c051
bfbf bfd6 bfac bf34 bfb0 bfbc bffa bfc1
c061 be95 bf1c c004 3ece c00c bfab c028
bf9c bfa1 bee2 c006 bef4 bfda c017 c019
bfc4 c024 bfa2 c026 c017 bfdc c02a c0a0
bfb2 c046 bfb7 beb8 c037 c02b bf8c c004
bf79 bf12 3f0d c048 bfeb bfc0 bf62 c005
c012 c003 bf51 c017 bf11 bfd0 bfa4 bf2c
bf42 c007 c03a bec8 bf3d c038 c05a bf82
c019 bfde bd16 c05c bfe7 bfb6 bf73 c03a
c02c 3ed0 bf31 c031 c078 bf77 c034 bfd6
bf96 c013 bf83 c04e bf03 bf78 bfd4 c042
c042 bfb4 bff4 c020 bf77 bfeb bfda 3ef4
bf5e bef9 bfd8 c00f bf6a 3e00 bfd2 bfb9
bf55 bf84 bf6a bfdb c00a bffd 3f88 be78
c017 c043 c009 c072 c064 c038 bf95 3eb7
c010 bfdd bf95 bfad bf88 c041 c045 bf84
c04c bfa6 bfb9 bf3a beb0 c002 bfcd bf18
c00b c044 3f7b be5e bfb0 3f07 c026 bfba
beba bf6d bf6a c031 bfd6 bf70 bfd8 bfb2
bffa c03d c03a c033 3f0c c011 c007 c08a
bffa c05e bec8 c030 c034 c02b bf59 bfd1
bf38 bff5 bf1e bff0 3e6a be8f bfe8 c03b
c072 c027 c025 c08e bfd8 c038 bdac c00a
bf64 bfef bf3d c008 bf97 bfd7 c01a c05c
c096 c06f c073 bebd bffc bfd2 c02b bfff
bfc2 bf56 bf8c c07d c009 bfaf bfb7 c065
bfa8 c056 be58 bf84 bfd7 3e87 c002 c08b
be8c bff3 c01a 3d49 be9c bfcf bf97 bf62
c018 c048 c035 c020 c082 bf06 bfa8 bf9d
c07a bcc0 c002 bff6 c044 bfe0 bfd8 bf05
bff5 befa bedf bf7c c05e c026 3f0f c05a
c064 bfd6 c02a bf86 bfd9 bfda c03b bf48
bfc2 bfc3 c028 c024 bf21 bfd6 be3c c080
c000 c019 bfc0 bfe0 bf2e c0a2 bfd2 bff7
bfae bf9a bfc2 bfaa bf6c bf12 bfc1 bfee
3ffb bfdb c034 bfa9 bfea c00c bff4 becf
bfbf bf72 becc c028 bf9b bfd0 c02a bfc7
bee1 c02c c00c bf08 bff4 bef0 c05e c039
bf11 c00c bf8f be08 c00a c00f 400c c053
bfe3 bfab c044 bfad c01e c04a bfe7 c039
bf75 bf17 3e9a bfba be6b c05e c034 c02b
bfad c028 bf2b 3e74 c010 c017 c010 3ece
bf16 be06 c069 bf1b bf00 bfa3 3f2a c04d
bfeb bfb7 c030 c004 bfb4 c014 c06c bf0f
bfc1 bfb0 bf38 bfd7 bf8d bf59 bf71 bfb8
bf9e c016 c012 3ee6 c032 bfde bfbb bf7a
bff7 bf9d 3e96 be16 bfac bfd0 c04c c012
bf9a c021 bf2b bfea c04c bfa8 c044 bfd2
c084 bf9a bfd5 c03d be60 c029 bf68 c00e
bf16 bfd4 bfb0 bef4 bfa5 bfd1 bff1 bf90
c02f bf7d bed2 bfdd c037 c06a bf84 bf91
bfa8 c036 bfd6 bfbd bf92 c006 c025 bf20
c027 bf92 bf5a c017 bfa2 bfb4 c01b bff4
bf6b c014 bf80 bfd2 bfc1 c025 3f09 be5e
bf67 3d98 c04c be30 bfde bfee be52 beae
bf84 c039 bff7 bfca 3e44 bfe3 bf94 bf82
c014 bf66 bfc6 c042 bfcc bf84 c03f bf2d
bd6b bfa5 bf88 c009 bfda bf62 c034 c024
bfaf 3e20 c022 bfd6 bed0 c054 c037 bf0e
bf80 c00e 3e30 c012 c027 c02f bfd3 c034
bfd7 bfd9 bf5c c02f bf81 bf85 bfa6 c003
c064 c014 bfe0 beb4 3eda bfce bf4c c02a
bf66 bfbc bff4 bfb4 bf89 3de0 bf53 c070
bf80 c01c bfc2 bfb3 c09a bfdb bec2 be82
c023 c037 bff6 bf08 c016 bf81 c02f c018
bf8b bfa1 c010 bf7b 3d38 bfb2 bfa7 3f98
c049 beea c018 c017 bfca bfae bfc6 bf9a
bfdf bfe8 bf29 bf80 c00a c020 bd92 bd30
bfd9 3bc0 bfbc bfec bf84 bfe5 bf7a bfc9
bfbd 3f98 bf72 beba c023 bfe4 bfa2 bfb6
c000 bfd4 c035 c026 bfe0 bfb9 bf81 c02e
bf8a 3f26 bfc7 bfe0 bed4 c011 3c20 bf9f
bf88 bfa8 bfc8 c013 bf71 bfb3 c02c c023
bfcd bffa bfac c034 c004 bf0e bfba bd80
3eb8 bfab bfc0 bff7 c01c bf88 bf66 bf53
c025 c00c bfbe bfdd 3f14 bfb4 bfae bff2
bff2 bfc0 bf29 3eb2 bfd1 bf03 c022 befc
bf9e c00a c08e be8f bf62 bffd bf82 3f51
bfa4 3f2a bf86 bfb2 c050 bf73 bf2b bf9e
c00f bf94 4004 bf86 3e48 c00c bf7f c028
bfd1 bfb1 c02a 3fe6 c050 bf1a bfc6 bf4f
bfb5 bea6 bd96 bfb6 bfe3 bfd8 bf44 c018
bf4a bfe0 c008 c02b bf36 bf7d bea3 bfee
c062 bf96 bf45 3ece c018 bf2b c007 bfa4
beff c001 bf70 bfcb bf85 bfe6 bfb8 c030
bf7d bfd6 bf63 bfc2 c01c bfb7 bf24 bfe0
be54 bf70 c004 bdb6 bfb3 bfec 3e7d bf98
bf8e bfa0 3e94 bfb7 bf44 c004 bf76 bfe4
bf3e c046 bfe4 bf7e c05e bfd7 bfc4 c005
c018 bf8e 3ffa c032 bebe bff0 bfbc bf4b
c05a bf54 c012 c00e c04e bfa5 c004 bf15
c034 3e67 bf7b bf7c bf65 c001 bf87 c00e
bfba bfcb bfe2 bcb0 bf72 bfc3 bf88 bf44
bff8 bfaa bfe5 bfa4 bfeb c03d bff1 c037
c003 bfcb bdb0 bf9f bfa9 c004 bf36 bf24
bf96 bfe4 c054 c046 c009 bfa5 c038 bf82
3f68 bfaf c019 bfdc c036 bf93 bed8 bf36
c039 bf1e bfec bfdf c013 c008 bff8 bf86
c00b c02f bfa8 bfa8 c024 c060 c024 bfca
c0c0 bf36 bfca bfe9 bfd3 c00c bfc9 bfe8
3f65 bfdc bfa8 bf85 bf2a c042 bfa5 c03c
bfd8 c008 bf85 c056 bfba 3f55 bf80 bd48
bfcc bf36 bf94 bfb2 be72 c03e bf85 c010
bfbe c04a bf30 c017 bfa9 bf0f bf9a bfd8
bf75 c000 bfd7 bf3e c005 c00d bf7d bffe
beee bf9b bfe7 bee2 bf14 bfb8 c081 3f12
c048 3f94 beb7 c012 c06a c021 bf36 bfa7
bf9b bfe4 c003 bfd1 c031 bfec bf12 4005
bfd0 bfdd bfb4 bf3b bdc0 bfec bfec bf32
bfbe bf2a bf9f bd58 bfb5 c00e c009 bf36
bff2 c046 bfd4 3faf bee8 bfa5 bf92 bfc8
bfe1 c03b bfc3 c008 bec4 bf8e c03e bf2a
c025 beda c00d c009 bfec bf78 bff4 c01c
befa bf83 3f3e bf8e c002 3ca0 c03b c014
bf7a bf0e bfb6 bf1a bee7 be80 bfa1 c010
bfce c090 bfb2 3fda c017 c00e c040 bf0c
bfe8 bfd2 bfa6 bf26 bf34 bff1 bfd2 bf05
c055 c061 bf22 bfaa bfc3 bf87 bec6 c001
c028 bfc0 c004 bee4 bed5 bfdc bfa0 c04e
be5a bf04 bfd9 bf86 bc50 bff8 3fd9 bfae
c056 bf8a bec9 be62 3efa bf97 bfac bfb0
c01c bffe c051 bffe becf c009 bfa4 be68
bed5 bf9a beff bf7d bf5c c019 c006 bfd7
bfda c02e 3f1c bf8e bf41 bf9e bfa7 bf90
bfd2 bf54 bfc1 bfe7 bee0 be9e bfa4 3f1a
bf43 bfd2 c06a c051 c00d c039 bf94 bfc2
bfee bff5 c055 c046 3f5c bf66 bf66 bfee
be7e bfb8 c02f 3c80 c01d bead bf8a c02e
c05c bfae bff5 c024 c02c c00e c02b 3f20
bf1d bf6d bffe bfa8 bfb0 bfcb bfe5 bfb9
bfc5 bf9a c00c bf0a c00d c000 c0a6 c05b
c00b bf38 bf84 bfee bf24 beae bf62 bfe0
bf41 bfa8 bda0 c033 c06f bf47 c057 c028
c054 bffa c02b bfa7 3f40 c01e bfdc bfd3
be89 bf02 bd04 c02b bfdf c013 c025 c00c
bff1 bf20 bf13 bfca 3e40 c009 bfef c012
c02c c02a bf8e c067 bfa4 be6b c058 bfca
3e56 c004 c03a bed3 bfdc bf56 bf52 bf9a
bf76 bfcf bfad c027 bfd3 bfb4 bfd0 bfd0
bfac c010 bfd7 bf9c bfda bfb7 c061 bfe1
bfec bda8 c021 c000 3e9b c026 3e42 3fb0
bdb4 bfe0 c002 bfcd bfc8 bf74 bfa7 bdb0
c031 c020 bfde bfdf c020 c007 bfa1 bf84
bffc c023 c049 c062 bff3 c002 bf74 c043
c04a bfd6 c09c bef4 bfec bfa8 be2c bf52
3e94 bfe0 c078 c005 be74 bfcd bca8 c04e
c013 bfbc bd8c c045 bec1 bef2 bffc bfb1
bf94 bfaf c020 c063 3ec0 bf9b c00c c006
bffb c036 bdd4 c005 c003 3fe9 bd50 c01e
c009 bed7 c005 be38 bd2c c01a bf8e bf86
c041 c030 bf58 c032 3f1b bef6 bfcb c007
bfbd bfbe bf12 bf20 402c bfa5 bf8c bff2
bef2 bf9e bfd5 bfb2 bfc2 bed2 be5c bfc2
bfbc bff2 bf16 3e97 bfa8 bfe3 c01d c026
c001 c01b bf79 3e48 bf71 c006 c00a 3f1c
c04d c015 bfa1 c064 c01a c00f bfdc bece
c02c c008 c006 bfbd c05f c02c c001 bfb6
c014 c010 bf7a c020 3f13 bf4f bf20 4007
bfc6 bfe6 bf5b c06f bf7a c017 bfec c02f
bffd 3d18 bff7 c018 bf42 c036 bf04 bf40
bf01 c02c 3e23 beec bef2 beeb bf7d c002
be97 bea5 bfca bfc4 bf6e c028 bf88 c08a
c01d c04d c06e c048 bfd8 c082 bf3f bff0
bf65 bed4 bf7a c021 bf6e bfaa c002 c004
bfbd bf71 bf27 3dd8 c040 bfca 3fba bf8d
bff3 c01e c01a bf4c bf3c bee8 bfa6 bfe0
bfa3 c018 bfae c01e bfc1 bfac bfe4 bcf8
bfc1 bfb2 c042 bff5 c01e bf76 befe be56
c02a bfbd bfdf bf41 c032 c01e c00d bf41
bfc4 bf5d bfae bfea bfb2 bfab 3da8 bfe7
bff0 bf02 bfb0 bfb8 bf97 c006 bfb1 c036
c002 bfea bfe4 3e79 bf6d c00f bf2a be7e
bf08 c040 bfa0 bf94 becf c07e be72 bfce
bf9e c01e c02c bf87 c053 bf52 c050 bf02
bec0 bfa0 4008 bfa2 bf98 bfa4 bf05 bfee
3e88 bfbf bfdc be0c bfba bf37 bf61 bfee
be74 bf3f bfe2 bc80 c01d becf bf0e becc
c0e0 be4b bfb3 bfa8 bf8c bf54 bf80 bf5e
4018 bfc2 bf61 bfbe c016 3f9a bfd0 c045
c014 3ec0 c018 bff6 c05e bfa4 3e8f bff2
c010 bf16 bf23 bedd bf13 bfda 3eb2 c024
3ed9 bff4 bfcb c016 be8e bf74 c026 bf5c
3ce0 bfd6 c042 bf0e bff8 c056 bfc4 bfc4
bfec bf11 c004 bf92 c070 bfba c03c bff3
c019 bfe1 c03b bf06 bfdb bf24 beb2 be36
bfca c031 c05a bf92 bf04 bf81 bf84 bf16
c054 c024 c020 bd78 c003 c017 bf63 bf7b
3e93 bfca bfe7 bee4 bee2 c01f bfae c043
bf19 c002 bf8f bd58 bfaf bf9c bfe6 c046
bf98 bf3c bfb9 c018 bf6a c015 c023 c00f
bd93 bfb1 c013 c007 c02e bf04 bec7 3f16
c008 c015 c06e bfe9 bf92 4052 bf85 bf60
3f8f bfc2 bfaa c00d bfad bfbc bfe7 c00e
c04e bf86 c02d c025 4006 c02d 3e4e bfae
3e93 bf4a bdd4 c005 bfa9 c018 bffc bff6
bf82 bfc0 bfa6 3ee6 bf5e bfed c034 bfc8
bfa6 bf54 bf2f bfc8 bf6d c00c 3ef3 c009
bfc3 bf38 bec7 c048 c042 3e92 bf26 c003
bf79 bfee bff7 c046 3ea6 3edf bfea bf54
bf7b bf7a bfc9 bf6c bf2e bf8c bff0 bf46
bf82 bf85 403b c03c c00a 3ef8 bdc0 bf1a
bd50 3f36 bf54 bf75 c019 bf92 c03b bec8
c030 bfda bfd7 bfe3 c02e bfdb 3f08 c005
c039 bf26 c019 bf8b bf42 bfca c056 bfad
bfd2 bf1b 3f32 bfbd beaa c018 c064 c07e
bf82 bf79 bfbe bfd6 bffa bfd7 bff4 bf4e
bf8a be1d bfd4 c00c bf96 c082 bf47 c036
c03c bfb2 c020 be85 bfee bfaa c00a bfdc
c054 3d90 c005 bf4f bf4f bfd8 3fe0 bf2f
bfb8 c002 c000 bf7f c01c 3ee2 bf1c bf2f
bf53 3f12 bfb7 c00a c026 c00c bfe4 c03e
3f8c bf9f bf64 c01e bf54 c015 bfde c039
bf8c c065 bf56 bf90 c014 bfc4 bfd0 bff9
bfa6 c01e c005 bf50 3f86 bfac c022 bf25
bfda c022 bf98 c023 bf88 c048 bfac bfba
bfb1 bfc4 bf14 bf75 bff8 bfc6 bfc8 c017
c047 bfed bfbf 3dd0 bf28 c06c bf8c bfe0
bf9b bec6 3e0a bfca bfb1 c00e c002 c096
bfb4 c01a bf1c be90 bfb4 bfc7 befb c05c
c003 bfdb c024 3d38 bfca bfd2 c011 bf54
bfd9 c02c bfb5 c048 c055 bf62 c011 c00f
bfd2 bfd7 c021 c027 c03e c01a c02f bf8c
c024 bfdc c048 c018 c036 c08c bea8 bfaf
407e bf59 c031 3ed7 bf9a bdbc bfde be7c
bfb5 bfe8 bfaa bfa8 bf40 bf96 c039 c019
bf9e bfef bfb2 c006 bfae c054 bf91 bf82
bf12 bf5f 3ee8 bf95 bfe1 bd9a c020 c056
c04b bf1d bca4 bf95 c009 c016 bfa6 bef8
c014 3fa3 bfdc bfeb bff1 c026 c03a bfaa
bf70 c00e c03c be52 bfea c007 c042 c02e
bf9a bfda bfd6 bf50 c03a bffb bfd9 bfd3
c013 bfa0 bfb9 c011 3ec8 c054 bd9c c006
bea2 bfb1 bf58 bf05 bfa6 bf5e bfd0 c047
3e4c c01a bf48 be5c c010 bfd6 c01c bfcd
bf5d bef0 bfd1 bf60 be86 bef0 3d70 c062
bfab bffc bf89 bf97 bfe4 bff7 bf99 bfa9
bfa3 c048 c01a 3df4 c00e be40 be9c bfdd
bf88 c05e c03f bf32 c020 c008 bfd1 bfe5
bfec bfaf c010 bedd bfb0 bf80 c005 bfe9
c024 bf36 bf9d bfea bfe8 bfcf bf9e bfd9
bff0 bfd3 c049 c001 bfd4 c045 bfe5 c00f
bfa8 3f95 c01c 3fac c043 bee4 bfeb be9a
bfae bfd8 bec3 c003 c070 bfef c019 bf88
bf78 bf63 3d80 3df6 bc00 bffe bec6 c017
bf98 bf8a 3f13 bf8c bfe0 bfa8 c07a c00c
bf56 bf9d bfca bfde c040 bfe0 bf36 bf6d
c009 bf54 c026 c004 bf78 bf90 bf95 bfbb
bf9e c006 bfad bfc3 bf14 bffa c009 c02f
bfe7 bfe9 c01a c036 bfd2 bfb0 bfd9 bf8c
3e2e bf9f bfdd c02a bf8b bfb5 bfd8 bf3e
c00d bf8a be62 bf9e bfab c018 c016 bfb8
bfd7 c000 bfc0 c014 c007 c023 bfde c045
bf81 bfa9 bf96 bf26 bed2 c048 bf31 c030
bfec bfba bf9c be70 bf86 bfc0 bf56 bf55
0000 3ca4 c01a bec4 beec bffe bf5d c025
bfc3 c01e bfaf bfd4 c08c c022 be7d bf7d
bfc3 c012 c002 beec c002 bd48 bf99 bfaa
c02a c06f bf91 bf95 bf0a 3cb0 bfc6 be38
c03e c001 c084 c05e bf45 c02e bf54 bf84
c034 bfc5 bf9a bf8f c02a bfbc 3cf0 bfe5
bf7c bf11 c049 bf84 bf92 c046 befe c015
bfc8 bf38 bcf0 be66 c000 bf9e c030 3f40
c007 bfee c00c c033 bfdc bee0 be88 c02d
bf98 beb3 c00e bfb2 bfb8 bf9f c02d bf1f
bfdc 3f2e bfc9 bf34 c007 bff3 c014 c02e
bf96 c00e bfd7 bfb2 c02d c00b bfe0 c001
bde4 c01b c000 bf7a c032 bf59 bfdc befa
c06a c012 bfa4 bf28 4001 bfa7 bfb6 c029
bf22 bf8c bfb9 be12 bff0 bfe2 bfe6 bf73
c01f bfa2 c093 bf2c c043 bf8f bf80 bf72
bfb4 bff9 bfae bf93 c023 bf1b bf3f 3c98
bf51 bf5f 3f44 bf22 bffa bfc6 bf7b c036
bf6a 3fbe c028 3f30 c05e bdbc bf81 bf2c
bf9c bfa3 3fc4 bfec bfca bfaf bff6 c030
c00e bfbd c004 c04e bfb4 bfb7 bf41 bfc9
c03c bf2b be71 bf09 bf3f bedc bfac bfad
bf85 bf02 bfd1 c029 bfb8 bfc0 c006 c017
bdd2 bfa3 c001 becc c027 c018 c01e c00a
bfcc bf56 bf7e bf7d c011 c06c 3f8c bfc2
bf9b bf8f bf1b be5e be54 bfe6 bfd3 c01f
c015 c071 3f52 bf22 c01f c014 bf52 bf0a
c02a bfa1 3f8c c04a 3e24 bf82 c04a befb
c016 bfb0 bfe1 bffe c034 c00a bfe4 c01a
c008 bedb bff4 bf8d 3d60 bf7a bf21 bfaa
c02b bfa9 c01e bfce bf2d c007 c029 c01e
c022 bf5e bff1 bfc0 bfb1 c02e c00c c00e
c039 bfc2 bfb3 bfde bfc9 bfbe 3fee bfd0
bffd c025 bf4c c059 bfc0 bf9c bfd8 bf3c
3ec2 beaa c039 bfa5 c059 bfd6 3e0c c006
bfda c019 c00a c024 c02a c00c bfd5 beab
bf28 c033 bee8 bfdc bfbc c06f c01a bf13
c07c bf9e bfc4 bfaa c055 bfc4 bfdb bf82
bf0a c03a c013 bff8 bf2d c020 bf92 c00e
bf64 bfe1 bf2f bffc bfc9 bed4 3f48 bf54
c01f c00f be7f bf98 3f16 c03d c019 c052
c006 c008 bfe2 c021 bfed c006 bfeb bfcf
bd20 bff7 c05c bec6 bf86 bfc1 3cd4 c016
bff4 bfff bf5a bf01 be02 bf84 c025 3f3e
c005 c030 bfb5 c02f c03e c030 bfb1 bf43
bed8 bffe bfbb c041 be02 c023 bfc0 402c
c008 bff9 be16 bf90 c00e bfda bfa0 be44
3c80 3ffe c008 bd8d bf7f c014 bf36 bf6c
bfcc bfe0 bf9b 3fb2 bff2 c015 bfed c003
c001 c01e bf87 bfcb bf2e bef8 c041 bfc8
c01b bf52 bf8c c032 bfbb bf16 c02e c03c
bf6f c02a bf12 bf88 c028 bf05 c068 3e82
bd90 be51 bc00 bfb0 bf9a bf8c bf5a bf86
c03c c09e bfe0 be9e bfd8 bfc4 c031 c026
bfa4 c009 bff8 3df8 bfc3 c072 bf1c bfa6
c069 bfd6 c030 bfa5 c00b beba bf54 c02e
c076 bff0 c01d be6e befe c050 bf51 c087
bf42 bfb7 bfec c036 bfb0 bfb0 3d60 bfbd
c013 c008 bf40 bfc2 bf36 bf98 bfc1 c048
c048 bfc0 c03d bfb5 bf0e c021 bfd0 bf9a
bf32 bfe7 be08 bf43 bfb2 bfef c00c bf0a
c05a bfff 3f22 bff9 be72 c00c bf9c c00f
bf2b bfb7 c024 c00e 3f82 bf36 bfc6 3f50
bf42 bf86 c033 c078 bfec c009 c012 bf9e
3e8e bfbb c064 c016 3f27 bfdb bf1a bfb0
bfd3 c056 c012 bfc4 c03f bd94 c010 bf90
c032 bfcb bfd5 c01d bf7c bfc6 c01a 3ea4
bf63 c02c bff0 bfdc bffa bf5c bfeb c042
bf18 bfc6 bf82 bf82 bf1a bfa3 c07e c019
c016 c024 bf31 bfc4 bea6 bf8d bfb8 bf83
c004 bf0c bf20 bfd4 c033 bfba c030 c001
c01a c01b c031 c003 0000 c020 bf8c bf9e
c027 bf88 3d90 c034 c014 bf91 c00f c01b
bff6 bff4 bfdc bff0 bf7f c01a be95 c00d
c006 c01d bfc1 c044 c02f bfae c015 bfc1
bf87 bffd c05d bf4a bf39 bf6e 3f24 c016
bf7d bff6 bf8b c017 3f04 bfc8 bfb7 bfbf
c018 beed bf9c bfba bfb2 bfe9 c03e bfbd
c030 bfe4 c039 c022 3e4c c022 bf12 bf6d
bf88 bfa8 c01e c00c bfca bf7a bfa0 bf52
bf88 bfe1 bfe6 bf86 bf3e c009 be0a 3f36
c07a bfa0 c018 bfcd bfa3 c035 bf8e c034
c070 c020 c040 bf8f bf99 bfa8 3e0c bf48
402a be70 c023 c01c be00 c03a bf40 c02e
bfb7 bf32 3e9b bf61 beb2 bfbe bf7b c01c
bfae bf88 bffa c026 bf65 bf70 bf96 bfee
bf90 bf9d bfd8 bfde bff8 bf6d 3df0 c03c
c010 bfb1 bfc3 bfb8 bf60 c036 bfe1 3f26
c046 c035 bfce c064 be0b bf88 c013 bf8f
bfe6 c00c 401a c006 3fa3 bfb8 bfe6 bfd5
bfcc bf4f bfd4 bf60 bbe0 bfd4 3eec bfec
c024 bfd9 bfb2 beae bfda bf88 0000 bfe0
c04a bf72 bf92 c01a bf83 bfbb bfa4 bd88
bff4 bfd9 3d00 bf9d c01e c012 c028 3df6
c073 3b80 c033 bf04 bfff bf9e bfd1 3b80
bfaa c013 bfa8 c02b 3e8b bf5b be3d 3f6c
bfd8 be87 3db8 c028 c01d bfb2 bdf8 c024
3c00 bf6d bfdc c052 bf47 c030 bf66 bf90
c008 c00c 3f00 bf9b bfca be9f bfd8 bfbe
c012 bfad bff5 c001 be96 bf80 bf23 c072
c04a c08e c020 bfc4 bf44 c044 bf02 c019
bf9d bf28 bf04 c00c bfa3 bf0c c00a c02d
bf48 bbc0 bf09 3f45 c014 c07e bf66 c048
c01a bffb c020 bede 3f0a bed9 bfe7 bff7
bf86 c017 bf26 c01a bfb6 3f50 bfca 3dd9
c01c c049 bfb8 c06e c018 bfdb be02 bf88
bf88 c01a bfca bf9e bf8c c039 c01c bfb0
bcc4 bf93 bf96 c025 bf53 c008 bee4 bf95
c05d bfb4 c007 be30 bfc4 3f0a bf77 bfaa
c08b c024 bfa4 c00c bf4e c01b bffc bfba
bf82 c05a bfe9 3da0 bf72 c07c bf9e be5c
bfca c013 3e84 bf91 c032 bea3 c08c bf8a
3de8 bf6e bf60 bfbe c001 bff8 bf3b bfe1
bed4 bfe9 c031 c01d be97 bd98 bf26 bf60
bef0 3d20 bff4 bf94 bfe4 bf50 be9d bff4
c0cf 3e95 c012 bf2f bf02 3de0 c009 bf9f
be70 bf8c bfbd bfbb bfca 3fdd bf79 c04c
bfda bf38 c05e bfb2 c04a bfd1 3f39 bfa0
bf6a bf83 bfba bff8 bf38 3de9 3b80 c04c
beb4 bf46 3ebc c024 beb8 bfae bfbf bebf
bf1c c00c c056 bf97 c05b c04e bf99 bfc2
bbc0 bf53 bfa2 c006 c08d c007 c070 bfc6
c018 c00c c041 bfb1 bebf 3e96 bf37 3f3c
c00b bfca c07a bf86 be78 bfae c005 bf81
c033 c010 c024 bdd8 bfd3 3ecc befb c062
3efc c007 bfe9 bfb8 bea9 bf9c bf62 c031
3d08 c032 bfa0 bfc4 bf11 c020 c009 c013
bf70 bdb0 bf9e c01d c027 bf00 bfc7 c04a
bf01 bff9 bff1 bfda c05c 0000 bfa6 bebe
c036 c032 c045 c042 bee7 bee1 c027 bf72
bfd9 c003 c01c bf83 c00e bf54 bfe6 bf87
c08f 3e1c c00c c00c 3ea4 bfd2 be11 c012
bfca bf92 bf95 c006 bf9a c028 c05d bfef
bfec bf95 bfe8 bfc4 c01a bf8b c01a c04b
bf41 bfd6 3e9b bf52 c010 c024 3f9d c017
bfc6 bfcd beeb c082 bf92 bf5a bfe4 bf0d
c00f c018 bfa8 bff7 3ea3 bf8f bfda c01b
bf2a 3ed6 bfcd bf0a c011 bfea c02d bf77
bfad bf30 bf73 c042 c038 bf8e bf38 c007
c029 3ea4 3e21 bf65 c03e bfb2 bfd0 bfa2
bfeb bfc4 bf92 c004 bffa bf9b c020 c019
c00e bfd2 bfd9 bf9a c008 bf70 c001 bfb7
bf71 bf83 bf93 c004 bf59 bfb2 c046 c039
bf78 bfb1 bfe9 bfb4 bfda c000 bf9f bfda
c032 c002 c02e c045 c004 c044 bf98 bf93
c034 bfc1 c098 bf8e c014 bfaa c04e bfbd
c07f 3e76 bfc6 bf96 bf28 bfe8 bfef 3d10
bfb2 bfde 3e3e bf22 bf4b be8e bfee c035
3f61 3f54 c001 bfc4 bf92 bffe bff0 c003
bf30 c013 bffa c02c bc40 bee2 befe c076
bfba c077 bf7b bfb2 bfb1 c022 bf87 c01a
bf2c c010 bee6 bf50 3f73 bea9 bf98 bfb6
bfe9 c006 c020 bffa c01c bfd0 bed0 c010
bfae bfee bfcf bfcc bfd0 c036 c026 c01e
c03c c024 c034 bdf0 c001 c076 c05f bfa7
beb0 bfa4 3ec0 c069 bf98 bea7 bfce c05d
bf20 c04c bfa0 bf50 bf0e bf76 bfc0 c099
bf26 bfc8 bfd4 bf80 3ebe bf9e bff2 c005
c015 c012 bfa6 c010 c012 bf3a c056 bff6
bfb7 bf7a bfd3 c024 c036 bffa c00f c00d
c022 c00f bfa4 c02f c054 bf9c bf1e bfd5
c002 c02c c021 3f1a bf90 bc80 c016 bfff
c02b c007 bf9f bfc0 bff2 bfe7 bf28 c029
bf58 c045 bf98 bfc6 be2d c054 be82 bf86
bea7 bf70 c008 bf91 beeb c000 bfec c01b
bf98 bef2 bf90 3ead bf92 bfa0 bffc be62
c011 c00a bf9a bff0 c02a bffb bfe8 bfcd
bf19 c013 bfc4 bef6 bfbe c004 c016 c049
bf97 c048 c02c bf61 c011 bfe2 be99 c02e
bf45 be84 bfce c00a bfbb c04d bfd3 c03b
bea8 beac bf62 bf9c bf27 c018 bffb c058
bf9c c02f c002 3f64 bff4 bfe7 c047 be25
bfa9 3ed2 c053 3df0 bfc8 c004 3eaf c040
c033 bfdc c06d bfb4 c014 c072 bfe3 bf4d
bf97 c01f bf98 bfc2 bfed c007 bf30 bfcc
c00f c020 c024 bddc c070 c053 c004 bf58
c013 bff1 bed6 bef3 c001 bf42 bf0f bf6f
c045 c022 3eaa c06c bfcf bf8e c00d bf04
c02b bf71 c042 bfea bfbc c014 bd50 c050
bfea bf36 bfbc bf99 bf60 bf79 c021 bfaa
c028 bf88 c019 beb9 c03a c08a bfcb bfcc
bf8d c004 bf8b bfc2 bfa8 c03b bfa4 bf8e
c054 c010 bf38 c055 c019 c00f c000 c033
bfc8 c02e bfaf c012 c059 c048 3e7c bf24
c00b bf7a c010 3d20 bfb9 bfb6 bf14 c00d
c027 bff5 c038 bfff be3c c020 bfd7 bf36
bfce bfa4 bec0 c059 c003 be9d bf63 c045
becf bfd0 3f30 c05c bf93 bf84 bf95 c024
bff9 bfca bf10 bfca bf93 c01e bfe4 3dea
bf93 c03a 3dbc bf8b bfc8 c028 bf55 c00b
bf2e bf3a bf0a bf62 bf97 c037 beb9 c014
c051 bf69 bfbd beed bf41 bf90 be7a bf9e
bf36 bf64 c023 bf48 bf94 bfd7 bf70 c038
bf34 be9a bfa8 c015 bfd3 bfb8 be32 bf20
bf7b c00a 3e98 bf32 c016 bf85 bfb7 c071
bfdd c03d c048 bf89 bfad bfe7 c006 bff3
c03c 3e64 bfda c033 bf84 c00a bffa be48
bf42 be30 bf84 bfae c040 c03e bf36 be39
c01b 3fbf c028 3ed2 bf55 bf7c bf75 bfb1
bf9a bfe4 c032 bfb6 3f11 c023 c002 bfbd
3d60 bfe8 bfde bfb6 bfc8 bfaf bfb4 bfc3
3ea0 bdf2 bfa1 c016 bf56 c024 c00d bef2
bf3a bde6 bf26 bfa5 c00b bfd4 c05e bfcf
bf60 c004 bffb c003 bfd1 bfb9 bfb3 bf0d
3eac c07f bf78 bf66 c00d bf34 bf97 c008
c00c c04c bec8 bfee bf5a bed4 c03d c055
bff5 c024 bfe4 bf27 c018 bf90 c052 bf2e
bf9e bf7d c068 bffc bf29 bfb9 bfd9 c004
bf86 bf8a c002 bf9a bff6 bed4 c000 bf3e
bf00 c00c bea0 c032 bf86 bfbb c031 bff6
c019 3f10 be38 3e55 bf5b bec4 bf0e bfc3
bfe9 bfd3 3eaa c010 bfb2 bf9f bf03 c03e
bfc6 bf8b c028 c02d bfe7 bf9c bfa7 bf98
c042 c00a c065 3c30 c013 3ea2 bf22 bfa8
bfa8 bfba beaa bfb8 3b40 c055 bfb0 c034
bee2 bfc6 c052 bfa8 c017 bf4c bfda bebe
bea4 c003 bfcc bf65 bfff c03c bec2 c02b
bee8 bfac bfe9 bf4b bfc8 bfd3 c029 c02e
c010 c01c bf85 c028 c004 bfca bfdb bfc0
c025 3f26 3f0e c006 be8e bf8d c01c bf28
c067 bf8f bf83 beee bfef bfec bfe2 bf9b
c001 bfb0 c012 bee0 bf16 beac c004 bf04
bfce bfa9 c047 bfff bf95 3f9e 3e93 bf10
bf5c c016 bf9c becd bff2 c004 bfad c008
bf48 bf7c bf83 bfac c02e bf06 bfce bfa7
c021 c018 c032 c016 bfe8 bee9 bf24 bfe3
3f03 c059 c04f bf8b bfb7 bf8e bf85 bfcd
c017 c02e c00f c056 bee5 c041 c00d bd96
bfa9 bfa8 c006 c050 bfcd c00e c03f bfb0
c03f c01a bfd6 bf90 c06a c03f bfa2 bf96
bfd2 bf38 bfdf c020 bf0b bfd4 bf3a c03c
3ed6 bf9d bfe4 c012 bf8c bf28 c012 bfb8
be03 c03c bf92 bf2e bf5d c030 bfd7 c04b
c012 c016 c02e c012 bfc8 bfa4 bfe8 c04b
bfb4 bf3f c014 bf58 c008 c023 3e7c c00b
c028 bfdc c00a be5f be92 bfa0 bf30 bfd3
bf82 bffe c006 bffa bfd6 c028 bf8b bf54
bfcd beb4 c019 c010 bfe6 bfbd bf80 c00f
c068 bff0 c013 bf73 bf16 c02b c031 3e14
bf80 bd98 bf17 c01b be57 c00f c025 bfd0
bfcd bff0 bfb2 c002 c04c bfda 3e90 c016
bf9c bfbe bf9c c018 beb9 bfd6 c088 bf71
c03b 3f4f bf8c bfcf c01e bedf c03a c02a
c002 c047 bfdd bcb0 bf8a bf09 bfed c029
bfd9 be56 bfb3 bf83 bf44 be77 bf03 c036
c058 c0a6 c014 3f2c c014 bf5d c048 bfe0
bfdb c01c bfe4 bddc bff2 bf50 bfd4 bf68
c08e c006 3efc bfe6 bfa8 3eba c01f c00c
bfb2 c01a bf74 bf35 c01d c00e c038 c008
bfc6 bfcc bf53 c016 bfcb bfa1 3f9a c032
bfd8 bff6 bfbb c002 3f34 bff8 bf85 be60
bff0 c02e c06a bf5a bfaa bfda bf4c bf74
bffc c00c bf2c 3e1e bfcb bf24 c094 beb9
c050 bf7a bff6 c03c be61 c004 bfa5 c02e
bff4 c022 bff4 bfaa 3ee1 3eb7 bfd9 3e8b
3e9b bfe2 c010 bf82 c006 bfb3 be38 c050
bed2 bfee 3ea6 bff6 bde8 bf96 bf13 bfa1
bf16 bf46 c003 c010 c01c be67 bf85 c03f
c038 bfe3 bf70 c00a bdc0 bfb8 bf8a becf
bf45 c06f bd84 bfcf c014 bf67 bfa2 c00c
bff0 bfa8 bfac bfb7 bf3c bfa0 3ea6 bf43
bff3 c04a bfdd c03a bff7 bfab bfe1 c011
bf42 3ebe 3e2a bfe4 be68 bffd c01a bf36
c02a c05c c06c c001 3ef2 c040 bfba bf95
c05e be9a beea bfa1 c020 bed4 bfc2 c048
bff6 c016 c009 bff7 c042 bf8e bf88 c05a
c067 c098 bfd7 bfdd c008 bdd0 3ff2 c009
bf2b c018 c02f bfe4 be7b bfe3 c00a c01b
bf87 3d90 bfb3 bf9c bfb2 c013 bf9c be90
c034 3d88 bf5c 3e10 be8f 3f41 c02e bf6f
beb8 c011 c028 c07a bf5e c034 bfce bfba
bf32 bf5b bfd2 c044 bf76 c053 c01b bf85
c004 bf6c bfed c02c c01f bf4d bfc7 bf86
c01c bfa6 bec0 c02a bfec c055 3f19 bfb2
c049 c021 c08c bfb9 bfc2 3ff6 bf92 bf89
3e01 bfe1 c027 c004 3fb8 bf6e bfb3 c009
bd9e bf04 3d88 bfc6 bf9f bfd5 bf29 c01b
be98 bfd6 c030 c01a bd80 bde8 c035 c046
bf92 bfcf c018 c050 bf88 c076 bf40 c077
c04c bfc5 bed8 c029 3f8c c076 c033 bee8
bfdf c050 bfe3 c068 bf8a c015 bfd6 bfa4
3e9c c048 bef6 bfca c00b 3f58 c05a bf4c
bec0 bff3 bfa0 bf42 bfa0 bfd8 beee bfc9
c008 bff5 bd74 3ea8 c028 bf00 c029 c029
c01e bfce bfcd c014 3ff9 bff4 c00f be34
bfa5 bf92 c039 bfc4 bfcf bfcc bfd2 bf4e
c018 bfca c044 bfeb c044 bf48 bfcc bf00
c028 be30 bf5c c029 be30 be6c c011 bd14
bfff beda bf26 bfc0 bf5d c020 bf96 bfba
bfd8 bf62 3ee7 c02f bf17 bec8 3ec0 bfb1
c004 c00a 3ef8 bf60 bfd8 bfb9 c012 bf1e
bfe7 bf0e c000 c007 c036 c021 bfa8 c01c
bfa0 c08c bf4e c057 bfb6 c03e bf57 c01f
bfbe bfe2 bf61 bfee c06a c03f bfa1 bf7e
bf31 c016 bf69 be88 bfd0 c01d bfce c054
c05e c06a bfb4 bec4 3f0e 3db8 bf5e bf06
3e57 c016 c058 bfc1 c02f bf7f bf84 3f77
c003 bfff c00c c005 bf9b bfbc 3fd1 c004
bfb2 bfbe bfbe bfac c056 c03f bf27 bf64
c001 bf02 3fdb c016 0000 c035 bffe c002
c007 c018 becc bfda bfb2 c003 bfa2 bfd8
c026 c010 bf97 3f66 3d78 bffb bf83 bf69
bfa4 c053 bffa 3e2c c000 c06f bea2 bf88
bed7 c06a c058 3ea2 bf98 be8e c03a bfb3
be8e bed6 bfe8 bfa2 bfde bf76 bf57 c047
bf9e c012 bfb9 c057 bf97 bf7f bf87 bfd4
c03e bfc3 bfab bf96 bffd bfda bfc6 3e32
c08c 3f14 bf0d bfbd bf17 3ed8 c006 bf88
bf7a c029 bff8 3f30 c002 bfdf bfa8 c02f
bfcc bf24 bfd4 bff8 c081 bfed 3f84 bebe
bf5b bf4d bfef c01a be54 bf34 bef9 c027
bfd4 bfef c00a c037 bfef bf99 c08d 4058
becb bfed bf6d be11 c068 bfdf bfcc bf77
bfe8 bca0 bfba c00a c072 bfe0 bf5c bf85
bfb8 c002 bf82 bf50 c00e bf8a 3e0c 3e86
bf71 bfb2 c07f be2c bf5a bf8a c05f bf93
c056 bf3e bfd0 3f07 c002 bf9d bf68 bf8e
3fbe bf22 bf94 bf86 bfe6 c042 bea2 c01d
3e5a c001 c002 bf90 c072 bf3a bf98 bf46
bf8f c02a bfa5 c026 c00d bfbc bff3 3ebe
bef5 bfd2 bfa0 bfcd c02b bfb6 bf07 bf94
bfe5 c050 bfb4 bf64 bd28 befb bf9f c007
bf72 bf88 bfac bff6 c00b bf55 c02c bf2e
c032 c027 bf37 bea6 be86 c003 bf32 c006
c02a bf20 bdf8 c000 bf30 bfa0 c06b bfdd
bffc bfba bf8d bf70 bf96 c017 c030 bf8c
bfd6 c09a bf3d 3f14 c041 c02d bf6c bfab
c006 bf20 bf4b bffc bf8e bfa2 c043 c004
bf08 c036 bfaa c013 3f43 bf7d bfba bf7d
c00e bea7 bdff 3ec7 bfde c04a c04c 3ef2
bff8 c072 3ede c01f bf36 bfce bfac bff6
bf1e bd8e bf78 3f23 bfd9 bf62 c03b bfa7
c04a c056 c019 c018 bfd1 bfad bfac c068
bffc c029 c014 bfd4 c00a bf78 c008 bfd4
c062 bf30 c082 bfce bfe9 bfba c010 c00c
bfd9 bd40 bf50 c01e c007 bfcc c010 bf0a
c020 c04c bf28 bfbb c00c c014 c00e c034
c009 c02a c01e bf76 bf48 bfd2 c006 c029
bfc6 bf71 c021 bf7a bf52 bfe4 bfea be9d
bf8b bfc0 bf1b bf1a bfe0 bf0a bf88 bfc9
bf31 bfac bfa2 c00d bf06 bf4c bffc bf88
bf55 c01c c024 c025 c004 c022 bf91 bfad
c072 bffa bfe5 c066 c042 3f06 bfd8 c00c
3d83 bb40 be48 c000 be83 bfdb bfbb c019
c034 bf85 c01e c037 bf71 c01f bfee bf36
bec3 bf84 bf73 bf9e c034 c03a bdce bfb3
c05d bff1 bfe7 bee2 bf48 3ec2 c056 c036
bfba bec4 bf52 bf6e bf92 c036 3ed4 c008
3eda 3ed5 bf0f bf16 c018 c018 bf8e c045
bde4 c024 bfc4 bf7c 3f81 bf9e c016 c048
3f56 bf18 c040 c072 3f30 c01e bfc2 bfc0
bfeb bffe bf3c bf84 c040 c003 bfb5 bf2d
c043 bfaf bf46 c022 c030 c016 3f36 bf33
c026 bfa0 c000 bf8b c016 bffb c010 c024
c00f bfb8 3e3b c00b c015 bf0e bfe6 c006
bf9c bfd6 c010 bff6 bff0 c060 be10 bf82
be85 3db7 c042 bf08 bf2a c000 c042 bfd2
bf2a bfb3 c019 bec2 c08e bf92 3e0e 3cd8
bf1a c03a c01c bfb4 c02a bfd3 be38 bf1e
bf52 c001 c006 bf09 c011 bf72 c046 c027
3e16 bfba c02a bf3e bf48 c002 c041 bfb4
beb8 bf93 bfc0 c012 c023 c045 bff4 c021
bf15 bf52 bf21 bfac bfde c028 bffa c045
bf94 bf6e bf9f bed4 bfe8 bf22 c016 bf09
3ef2 3f30 c053 bf0a c020 c042 bf2f c004
3d18 bfc4 c081 bff6 bfe1 c054 c054 c013
bc10 c03e bfc8 be97 bf96 bf9a bfce bd1c
bf2a c036 c04e bfb8 c004 bff7 bf84 c002
bfb2 bf93 3da4 3ea5 c046 bf94 bff9 c002
c01b bfc3 c000 bffa c021 bf9a bede bdec
bfe6 beee c04b bfcc c010 bfba bfc3 c07c
bffa 3d88 c010 c004 bfa2 c00c c054 bf5e
bf73 c031 bfab be8d c03c c057 bfb9 bfd1
3f56 c00e bf79 bfa8 bf7e bf7c c051 bfcd
c074 bfbe bf9a c00c bfeb c022 bf8c c002
bf9a c036 bfad bf36 c011 c034 c00d bf9d
3dd8 bfbd c01e 3eac c04d 3f0a bfdb c014
c00b bfad bfb2 bfc4 bf50 c00e c038 c00b
c00a c021 bf84 bfe8 c081 bffb bef4 bffb
bfe4 3e18 bf66 bf08 be78 c028 c01c c091
bfcc c017 c009 c02e 3f8a bfea c00e be1e
c00a c020 bf82 c029 c037 c006 bf86 bfd4
bfb4 bf8b be99 bfe0 bfb5 bfb4 bfa4 c054
bfe1 bf44 be00 be10 bf78 bf82 3e2b bfee
c056 bfad c07f c01a c04a c05e bf55 c06b
bf65 bfe9 bfcb bf26 c09b c04a bf8f bf5b
bfde c03e bfc8 beca c00a c02b c06b c025
bff5 c068 bff4 bff4 bf9a befe c007 bf5f
bff2 bda8 bf64 c027 bfc0 c00f c006 bf49
c026 c015 bfe3 c06e c06a bfe4 bffd bfbe
c028 bf84 c01c bf68 bf19 bfbe bedb be78
bf55 c017 c003 bf99 bfbf c050 bfef be90
c006 bfdb c013 c074 c006 bec2 bf83 c026
3d18 becc beec c010 bff1 bf4f c033 bffa
bfc4 c000 bfde bf1f bfb3 bfa4 c04f c039
bf8e c00c bf45 c02b bfce bff1 c004 bfb2
3c90 c012 c036 c021 3e86 bf11 bff7 bff4
c03d c054 bfa7 bfac bf0b c04a c008 c04c
c014 c014 bfeb 3eb3 bff2 bfbf c014 bfa1
c096 bfb6 c084 3efe bf6f 3f90 bfdf bf43
3fce bf0a c050 bfea c02b bf9c bfe2 bf36
c006 bfea 3f0e bfc2 c011 c000 bfca c076
bfb5 bf57 c023 3f17 c014 bf49 beb5 c020
c013 beee c0b0 c084 bfc9 c02c beb4 c03b
bf4a c009 bf9d c02d bf88 c040 c009 bf9d
c092 bed2 bfe3 bf7d be24 bfa5 bf6d bf82
bfa8 bfe6 c01c c039 be2e c05a c043 c01c
c008 bf8e bfd5 bfea c023 bfd1 bf95 bffd
bfa8 bffa c00d bfbe c011 bfea 3f1a bff4
bfcd c056 c034 bfa0 3f9f c06d c032 bffc
bf96 c07b bea4 bfe7 bfc4 bfb6 c01b bfd6
bff8 3f15 4004 c03d bf61 bfaa c065 bdf8
c0b8 bf34 bf00 bf9a c04e bfb1 bfe6 befa
c036 bffc 3db7 bfd3 bfad c015 3f60 bfa6
bf8c c024 c067 c01e bfbc c006 c006 c006
c008 c022 3d68 c031 bf44 bf8d c001 c028
c064 bf86 bfd7 c020 c01c bfc4 bf9e c00b
c006 c012 bfde c009 c092 bf3f c026 bfd0
4001 c026 bfd0 c005 c06d bfac bf2e c027
bff4 bf74 bf9a c016 bf66 bfd4 c04a bf2c
c050 c009 bfea bff3 bfef c035 c01f bf27
c053 bfae c00e c00c c089 bff8 c05e bf36
bf82 c039 bf40 c018 bfe0 c037 c03f c053
bf0f bfcf bf88 bfda 3e6e bed8 c070 c02a
bfbe bfb2 bfbe bf82 3f19 c053 bfbc bff4
bfda bfc4 bfe1 c00f bfc0 c003 c085 c05a
c045 c058 c031 c002 bfa6 c036 bfb0 c06c
bfca c02e c001 bdd0 be74 bfde c039 c01c
c045 bfd2 bfe9 bfe0 c0ac c004 bf20 bf96
bfbb bf8a bf82 c072 c023 bfd3 bf52 bf8b
bfc2 c007 bfac c000 c003 c01c c04e bfa8
3c88 befe bfa5 bf47 bfa1 c007 bfce beca
bfcc c094 bf6e c01c bf88 c013 bf67 bfd5
bffb bf2e bff1 bf95 3df9 bf84 c070 bff2
c00e beb2 bfd2 3c80 c012 c025 3e93 c046
bf07 c086 c003 bf98 c02a bd08 c03b bfec
c00f bfa0 bb80 c005 bfce bfc8 c000 c078
c04c c0aa bfc8 bf4a bfef bf42 bf83 bfbe
c002 bfc0 bf66 bfab 3e42 bffc c011 bfb8
c082 bfec bf94 c036 bf0c c023 bf82 c045
bfbf bfca c038 bf8d bf93 c06e c05e bf8f
bfaa bfa9 c058 bfa7 bfb9 c006 3ef2 bffc
bfe2 c00d bf1e c000 3f5e c064 bfd0 bfc8
bfe4 c036 c055 c058 bf68 bf21 c03a bfce
bffe bf75 3f38 bf6a bfa7 c04e bf24 bfba
c054 c018 3e6c c01d bf40 bffa bffc bfeb
bf36 bf3b bfe6 c039 3e9e bfbc bf3c bf4c
c02f c01d c078 c049 c003 c069 c007 bfd4
bffe c01f c012 c082 be0e bfa0 bebf c06c
3e8c bf6f c01c bfb4 c03c bfa3 bfc7 c07f
c034 bff5 c020 c036 bfd0 c009 bfb7 bf70
befa bfe0 c020 c030 bf94 be4d bf8a c008
c027 3e88 c00e bfd7 bf82 bf28 c091 c034
c03c c020 bfcc bfea bfb0 bf70 bf88 bfc4
c02e c077 bf69 c04e bfdc 3e0a c088 bfba
c006 bffc c01e c016 bf29 c000 c041 c01a
c01f c003 bf1c c018 c050 bff4 c01d c000
bfde c013 c034 bfe0 bfa8 c044 c012 c02c
c0a2 c02d c020 c015 c00f bfe9 c007 bfc4
3f89 bfc1 bf61 c034 c00e bfda bf2c c037
bf68 bfc9 c04e bf24 bfda c04a bfc6 c008
bf98 bf93 bf01 bfee bf06 c004 c072 bfe9
bfed bfdf bfcb c040 bf94 c08a 3e20 3f2a
bf4e c011 bffc bffa bfaf bfdd c006 bf5a
c059 bfa1 bfe3 c010 c007 c036 bfeb bf11
c066 bff6 c06d c026 bf18 bfc2 c01b c085
c076 c02e c088 bfbd bf7c bfbf beff 3e96
bea2 bffa bfd7 bfc1 bdd0 c027 bf9c bfaa
bfba c014 3df4 bfe0 bf41 c008 c000 c009
bfce 3e04 c04e bfc6 bc9e 3f26 bf6c c016
bfde bf22 bf4c c047 c062 401e c038 c00e
c000 bffa 3e45 bffe c03a c07a bfe0 bf58
c00a c036 bf30 c0a9 c018 bf83 bfcc c01a
c000 c048 bff3 bfe2 bf26 bf74 bf98 bf40
c051 c026 bfa5 bfd9 c012 c022 3efa c01a
c027 c009 bea3 be30 c021 c043 bfa2 c03d
c05f c00f c003 c01b 3f91 bfe0 c041 bf1d
c052 c01f bea0 c002 c002 bfc5 c018 bf0a
c020 c033 c036 bfcf c024 bfcc bfbc c01f
c00e bfe4 bfe9 c037 3f2c 3eb4 bfc3 3f57
bffb bfc0 3e35 c050 bf83 bf66 bf30 c038
bf70 bf96 bf8a bf91 bf8f c025 bc70 bf8c
c00c bfd9 3fc9 bfc6 c012 bfc1 c01b c023
bfce bf82 bfd4 bfb6 bfac c052 c013 c088
c03a c069 c07b c00c bf6f c03b bf38 bff9
bfb9 bffd bfd4 bfd5 bffc bfce bff2 c022
bfda bfc6 bfe1 bf41 c05c bf4d bf78 c035
bf86 c010 c00f bfb2 bd30 bf98 c053 bfa5
bff4 c08e bfe3 c025 c07b beb2 bfd7 bf74
c029 c014 bff6 c016 bfc1 bfae bf57 bec2
bfea bf89 c04d bff2 c063 bfdf c020 bf2c
c037 bf8e bf3e c026 bf88 c044 3f8c c001
c062 bfe2 bf95 bfbe c010 c01d bfbe c001
c01d c066 bfde c02e bfec c040 bfae bfbf
bf9e c01f c024 bf16 bff4 c014 c020 bfa0
c018 c038 c039 3f56 c044 be00 bfe6 bf9c
bd10 3f2c bfb6 bfd6 c042 bf96 bfe0 bf8c
c002 bfb1 c014 c010 c021 c020 c013 bffc
bfec bf6b bf85 3f7c bfa2 bf2e bf20 bfd2
c0ce bfbf bf6b c028 c01b be83 c006 bf7a
bef1 bffb bfc1 bf42 c010 3ddc c062 c07d
c014 bf89 c01e c016 c050 c021 3f10 c00d
c043 bfbc c08a bf71 bfcc 3eea 3f56 c044
c02c c03a c026 c00e c023 c007 c05f bf9c
bf88 c022 c098 bfb4 c040 c08c bfda c00d
c026 bf50 c055 bf9e c074 c020 c04e c02d
c00c bfec c02d c06e bf8a bff4 bf26 bfa1
bfd7 c00e c08b c018 bff2 3e89 c085 bff2
c08a c01e bfd2 be28 bf88 bfaa bff4 bfd3
3e7a bfe3 c019 bfba c028 bf95 3d58 bfd5
bfc7 bf36 bff2 c010 c02c bffc bf6c c02d
bfe5 bf32 c016 c015 c01c c02c bf7e bffd
bf87 bfae c041 bf9f c084 bfdd 3d10 3d10
bf24 bfeb c029 c04e 3e98 bf7a c069 c00c
bfcc c02a c02e bff9 c00f c06f bfd9 bf86
c051 bf79 c06f bfc6 bfc4 c011 bfe6 c076
c04c bf38 bf88 bfb0 bf91 bfb9 c01f c020
bef7 bfd8 bfe2 c00e bfde bff4 c014 c002
bfd9 c022 bfcb bfec c022 c028 bf4e c021
c00b bf89 bfbd c06b c018 bf44 bfb4 bffa
3dc8 c046 bffd bfe6 3e32 beea bfdb bf84
bfe6 bfce c02c 3f18 bfc7 bfad c040 bed6
bfd5 bff4 bf7c bf86 c07d 3da8 bf48 bfdc
c01b 3f6d c002 bfa1 c006 bf83 bf8f c003
bfb1 c015 bff4 c054 bfba c024 c010 bfe9
c086 bfae c090 beca c012 c047 c04b bfbe
bf84 bffb c02a c03c bfec bfd8 bfe6 c03a
bf8b bfca bffa c008 c02e bf98 c010 c00a
c03f c051 c01c bf90 c00c c014 bfc7 c015
c026 c011 3e8e 3e20 bfa6 c005 c01b c033
c08f c00b bf7d bffb 3ecd bffe bfdc bfbb
3e16 c018 bffc c002 c012 3fca c018 bf3b
bf1f bfa4 bf50 bfdc bfe2 bf9a c02b bf8e
bdc4 c04f c02d c064 be87 bfcc bfa4 c073
c01b c041 bfaa bfec c001 c04a 3f30 bf85
bf78 bfae bf9f c045 3f04 bf36 c058 bfde
c031 bfbc c041 bff6 bff3 c013 bf8c bfc6
bfd6 bf3b bf68 bfa6 c006 c02a bf7f c065
c028 bfd9 bff5 bf9a bfc3 c0bd c03e c021
bfd0 bfda c017 c01f c00d c036 bf38 c040
bf53 c002 bf88 c022 bf9b bf34 bfc5 bfe3
bf69 c043 c07d bff6 bfd2 c002 c01b c052
c001 c02e bfa4 c08f bfc9 bf86 bfc5 3f30
c06e bf13 bfea bfa2 c044 c03b c013 bf86
c042 c00a bfc5 bfc7 c085 c08f bf85 c004
c00d bfc8 c040 be31 bfa0 bfec c092 c001
c032 bf4d bfa2 c033 bf2a 3f92 bff1 c01a
bfde bfe2 c045 c01a c044 c010 c004 bf06
c008 c00e bf6e bfb6 c00c 3e88 c020 c034
c01a bfaa c021 bfda c033 bf82 bfee 3e04
c035 c060 bfd6 c042 c08a bf0e bf18 c049
c005 c030 c014 3d64 c064 bf28 c052 c083
bf87 bfc8 3ea4 bf5a bfa3 bfe6 bff3 c042
c019 bf34 bf9d c011 c011 c066 bf8a bf9c
bff0 bffc bf55 c01e c016 c012 c00f bff6
be99 bfd6 3eb4 bf81 c083 bfbf 3eb0 bfb8
bfa4 bf4a c061 bfb8 bf8d bed4 c059 c01e
c014 beb4 bf93 bfee c016 c049 c060 bfdd
bfd3 bea3 c051 c03c bf1d bfbf bf87 bfbe
3fa8 c041 c019 bf52 c00c bfc1 c017 bfe0
bfcf bfec bfab 3dc0 bf46 bfec c014 c030
c054 c01b bfb7 bfb6 c03c bfa1 c019 bf6e
c02a c027 c02d c040 c007 c058 bfd9 c0c1
bf71 4004 c039 c01e c01c bfa5 bfe0 bfc8
bfcb bfe3 bfa6 bfd8 c02f c00c bfea bf35
bec0 c003 bff0 be20 bf96 c00b bfa8 bfd8
c00c c047 bfc7 c01e c08f 3f18 c046 bf51
bf1f c055 c01b c016 c053 c011 bf16 c024
bfc3 bed9 bffe bfcb c029 becc bf65 bf5b
c001 bfe1 bfbe bf8e bf88 bf6c c01a bf14
bf90 bfd8 c01a c084 bfec c024 bf3e c005
bf46 bfb4 bff6 c004 c002 bfa0 c05a c098
c040 bffa bfcd bfec 3f03 c02e c038 3faa
bfa6 c039 bf44 c005 bfdb bf97 c018 c016
c00b bf89 bf80 bf26 bf1e c03b bffa c007
c05e bd87 bfe4 be86 bf12 c022 bf9f bfda
bff6 bdb0 c055 c019 bfb9 bfd4 3ddc c080
bf7d bf8c bfb5 c006 c043 c04c bfed bfea
c016 c019 c02c bfd8 be82 bfb4 c031 c010
bf87 c058 c023 c030 bfae bf77 c000 3ec4
c01c 3f6a bfc6 c00a bfc6 bfd2 bfb6 bf48
c02a c025 bfbb c05d bfdd bfa8 bfd5 bca0
c053 bf76 c036 c00f c028 bffd bfd1 c00b
c014 bf86 bfca bf93 c044 c02f c00e beda
bf8c bffd c01d c001 c003 bed2 bfc4 bfac
bfb7 bfa7 bf86 c02b c044 bfbb c02b bfa0
bfa2 bf5c c027 bfe5 bfea c01b c00e c070
bfe8 c058 be2e bfb5 bff0 c014 bf7a bf9e
bed4 bf9a bf9f bf4f bf69 bf12 bf95 bf9f
c056 c015 bf72 bf59 bfda c0a1 bf71 c00e
c020 c01f c013 bfde c055 bf81 c02c bf99
c01c c045 c0b8 bf1e bfa0 bfb2 bf8e bf7f
bf3a c033 c00c bff4 c02e bf8c c016 3e38
c002 c054 3ebd bff8 c02c bfc7 bf9f c080
bf19 bfe3 c079 bd60 c020 bf98 bf9c c05c
c043 3e48 c091 c034 c003 bfee 3f0f c052
bed8 c048 bfa6 c04a bf79 c058 bfb6 bfc7
c02a bfb2 bfc3 3f4c bf03 bf28 bfe0 c026
c006 c052 bfd9 c017 c032 bffb c012 bfa0
c027 bf4d 3cf0 bffc c06f bffc c004 c04a
bf4d bf23 c013 bf72 bfaa c01e bda0 c006
c014 c06a c089 bfb4 3f10 c08d 3de0 c054
c008 c01c bf3d c02e c036 bf54 c010 bfaf
bf31 bfb2 4009 bfc9 3f66 bfa8 bff7 bf83
c101 bf20 bf30 bfee c028 bf6f bfb6 bf03
c039 bf8e bf9b c024 bfb3 bff3 bf97 bf1e
bee2 c026 bfec bfcc bf20 bfdc bfe8 bfb4
bff0 bfea c023 c058 bffa c020 bfe4 c041
c060 3f6b bf63 c000 c015 c03d c07c bfad
c05a bff2 bfc4 bfe5 c046 bfa2 c003 bf26
4002 bfe2 bf98 c00f c08e bea7 bfc1 bf4b
c05a c03a c052 c024 bee6 bff4 c05a bf12
bf80 c04c bff0 c002 bf66 c001 c018 bfcc
c06b 4001 bf79 bf6e bfd0 bf71 c022 bfc6
bfa5 c052 c064 bfbe bfb2 c039 bfb0 c083
bfd1 c011 bf0f bf15 bf18 bfee bffc bfa2
c033 c00a bf6d bee6 3d40 bfb5 c006 bfd8
bf8a c011 bed6 bf13 bf8e c002 c00c bfe3
c00b c07a c018 bfa8 bffe c074 c054 3e13
bfa6 c03f bfea bf48 bfae c03b c086 bd18
c01d bf85 bfc9 bfc2 c0a2 c042 bf2a c022
bfa7 c00d bf19 c081 c059 bf26 bfb5 bf06
c033 c010 bf8f bfc2 bf92 bf1f c012 c003
bfa4 bfca c07c bf25 bf5d c04c 3ba0 c006
c001 c02a bfa9 3e2e bf38 bfb8 c015 c026
c012 c066 bfd2 bff4 bf32 bf88 c082 bf87
bfa6 c008 bfc7 bf21 c01e bfa0 c005 c019
3ec6 c07f beca bffc c00b bf94 c028 c001
c044 bfd6 bf19 bfc4 c012 bfde bf8c c018
c013 c0bb c03c bf34 bfda bf46 bf87 bfac
bf8b be08 be63 bf98 bf94 c010 bfce bf26
bfcf bfb5 bf31 c015 bee5 bfe6 bfe9 c024
c00c c006 bfd4 bfe0 bf5a c084 c044 bfc5
bfd5 bf1c c024 bea7 bf0a bf1d bc00 bfe5
bfe2 bfe4 bfcc bf26 3f94 c055 bfb6 bfea
bebe c032 c021 c083 3f50 befe c013 bfce
c026 bfc4 bffb bfb6 be9b bfaf c01c c025
c041 bfbc bf11 bff3 bf9d c005 bff6 bfee
bf75 bfc2 bfc9 c010 bfca bfb0 bed9 bee4
3c20 c055 c094 c04d bfbf bfde c030 bfa3
bffc c024 c035 c097 bfcc bf87 bf6d c013
bee9 bfef c06b c001 bfce c024 bffd c05d
c06e bfeb c031 bfee bf42 c079 c076 bfe4
3fc6 c012 c062 c038 c00c bf9c bfb4 bfac
c08b 3f66 bfdc bf8f bf92 bf76 c0cc c051
c06c c01c bff5 c02e bfc5 bfea 3f09 bfc9
c00d c05a bf98 c02e c024 bfa3 c09d c069
c020 c031 c008 bfaa be6a c016 bf8e c016
bfca bfe0 bf41 c04d c04c bef2 c03a bf7a
c00b c05c c021 bfaa bfb4 c016 bfdc bfe0
c08e bfcd c000 c028 bfac bf95 bfed bf6b
3fd8 bf2e 3f8c c054 bf9c bfab bf80 bfc8
bf42 c018 c01f c005 c00a c077 bed3 c011
c02a c005 bf3f bff6 bfab c000 c070 bf96
bf85 bf01 c049 c029 bfb8 c05a 3ef7 400a
c001 c038 c01a c008 c083 bfdf bfdc bf64
bffd c007 bfb2 c045 c015 bfde bf6d bd5a
bfa6 c05a c047 bf85 bfc5 bf36 c013 c03e
c0ba bf60 c078 bf60 be3e c022 bf94 3f06
bf9e bfd9 c050 c085 bff6 bff0 bed6 c02b
bf62 bfc8 befc bff0 bef4 c02c bfa2 bfc9
bf0f c017 c009 bfbf 3f34 3f78 bf9d c06c
bff7 bfbd bfdc bfcb c06c 4054 c08a c004
c01a bfc2 bf76 c00c bfe4 c02e c020 bfca
c00e c032 c009 c09e bf87 bef3 bfeb c043
bfed bfe4 bffc c01e bffd bff0 bf09 bfce
c06e c037 c028 bffa bf9f bfe4 3d94 bfe4
c040 bff6 bdf0 3fb8 c005 c012 bfc8 c029
c026 c03b bf77 bfaa 3f32 bff3 c097 3ed6
bff1 c06a be56 c034 bf23 bf8e bfee c01f
c050 c03e c02f c00f c028 bf98 bf6c bfe6
c051 bfb9 bf9c c04d be34 bfdc bf90 3f6e
bfc4 bfee bf90 c030 c024 c010 bffc c076
be94 bf73 bfe5 bf17 bf87 c05c c005 bfdc
bf49 bfb8 400f bfc4 bf45 bf5c bfef c067
beb6 bf8b c00d bf38 bf88 bfc8 c015 c085
bf48 c024 c09e bfdf bfd6 c065 c035 c06c
bff0 bf85 c02d bfa6 bff7 bf3d c009 c01b
bf20 bfaa c01f bf51 c039 bf40 c01c bfc4
bfcc c069 bfd2 bf5d bff8 c012 bfca bf02
bfaa c009 bf0b bff7 c04b bfeb c01c bd80
bffd c020 bff4 bfea c014 bfa4 bf56 bf29
c044 3fbe bf1c c005 bff0 c005 c086 bedc
bfae bfc4 c016 c080 c007 c004 bf08 bf01
c04e bf9a bf6e bf8a bfa8 c007 c02c c05e
bf98 c01e c010 bfe6 c00c c017 bf81 bf92
3d50 c002 bf9e bfe0 bfae c053 c026 bff5
c03e c024 c086 bf1c c027 bfb8 bff9 bf6a
3f82 bf71 3fc3 c009 c022 bfcd bfdc bfd6
bfda bf90 bfb0 c01c c01a bfc0 bf87 bfe6
c000 bdea bf9b c01d bfb6 bfd6 bff7 bf89
c0ba 3eec c006 befa c002 bf59 bfee bfb8
bead c05d bf98 bf66 c036 3ea2 c022 c03e
c034 bf88 c012 c022 c028 bfcd bf2e c050
c01a 3f80 c052 c010 bfcf bf82 3ea6 c047
c009 c02a bfbb c049 bfb6 bf0e c026 c000
bfc5 bfce c09b c001 c03c c076 bef5 c010
c022 bfbc c047 bf59 c055 c018 c02b c034
bfa7 bfb0 c034 bfde bfc9 c05f 3f06 bf92
be5e c030 c07d c034 bfe6 bfe0 bfde c00e
c05e bf91 bffa bf97 bf28 c035 c040 c00a
bf16 bec5 bfc4 bfbc c036 bf8d bf20 bfc6
bf92 c044 c00a c01e c02c bfba bf8b c01d
c026 bfe6 bfaa c03c c00b c038 c075 c034
3e1e c001 c080 c011 c078 bfeb bc40 beef
bf6f bfae bfa7 c00d 3e02 bfde c080 bfe4
be58 c061 c028 bf4b bdf8 c05c c02e bf5d
c035 bf6c c03c c012 bf6e c025 bfa6 c04e
bfe9 bfb5 bffe bfa1 3df2 bf43 bff5 c006
bf8a c01f c04a c003 c01e bfbd c040 c01a
c014 c00e c013 3ddc bfaa c03d bfdd c030
bee9 c02b bfcc c09f c02c bf3b bf59 bf88
bfca bf9e bfe1 c05a be54 bd30 bfef bf66
bf37 c036 c012 beda 3f76 bfca c036 bfaf
bfc9 be08 bea8 c020 c07b bf3f bf78 bfe2
bfad 3f26 bf94 c00a c006 bfd2 c003 bdac
bf52 bf56 c08b c02e bf08 c021 c058 bffa
c025 bf2a c08a bec0 c087 c03c c01a bff0
bf16 bfb5 bfd2 c043 bf6e 3dea bfbe c082
c00f bfba bf5a bff4 bfeb bfba bfa5 c007
c00f bf82 bf95 c022 c00a bff0 c00a bff1
c08d bf98 bfba bf6e bfd3 bfad bfca c04f
c095 bf7d bf59 bf44 bf1c 3ea0 c003 bf70
bf7a c03b bff8 bfc2 bf8e 3f9c c011 c00e
bf96 bfdc bfe2 c08c c065 bfbb c051 bf9e
bf3e bfbb c028 c078 bf3e bee9 bffe c02f
bf86 c03c bfd4 3dec c024 c063 c023 bf86
bf39 c073 c003 c02a 3f86 bf6e c028 bf34
beda be78 bf9e c010 bfa0 c010 bf42 c02c
c036 bfe6 bfc7 bfab bf9a c002 bf99 c066
c065 bf86 bff9 bf31 c047 c0cb c044 bf9b
bf8e bfb6 bed0 c020 bf96 c03f bfa8 c015
bfa4 bfec bffe bf31 bfb6 bf12 c059 bfa8
bff2 bff0 c02d bf6a bf2a bfb9 c003 c082
bec6 bfe2 bfec c034 c040 bfbe c02b bf51
c01d bf97 bfde c01c c007 c012 c03f bf5c
c013 3e05 bf8b c02e c038 c038 be81 bf22
bf82 bfc3 c06c bfab bf9c bf7a c083 bff5
bfcc bfc5 bff0 bf7a bf32 3fd4 c048 c032
bfde c004 bfa2 c074 bfc2 c02e bfdd bfd5
bfaa bfef bfba bf86 bfd9 bfb7 c007 c046
c02b bfc4 bff2 bfc9 c018 be2c c003 be84
bfe0 be88 c00c c077 c07b bfde c06b c015
bfc5 c089 c066 be5c c02d c043 c011 c03c
3e58 bfd0 bf27 bfce bfd1 c08f bfe7 c02b
c00f bfa6 c041 bfe2 bfde c01f bfe4 bfde
bf36 bfe6 bf4a bfd8 3e5d c058 c047 c034
bec5 c03a bd50 bf5c c000 c02e bfe3 bf56
c046 bfec c068 bf68 bf5a 3fc6 c0c7 c00a
c031 c01c bee0 bfb3 c066 bf8c c056 c036
bf9b bfee c029 c018 bfc6 bd6c 3c00 bfac
c03a c060 bf86 bf96 c002 bff8 c027 bfc0
c003 c058 3f5a 3ed0 bf99 bfbb bfab bfd6
c024 bffd bffc bfc6 c035 bffe c040 bfb5
c08d bfa7 c02e bfec c062 c057 bfdd c107
c03b 3f2e c039 bfe1 c077 bed1 bff2 bf93
bfde bfd8 3f68 bfa9 c015 c016 c005 bfdc
bf92 bfcf bfd6 bf6a c049 c06c bfb7 bfda
bf78 c032 bf6f c01b c013 c029 c09a bfd6
bffc c017 c058 bfc6 bff4 c025 bf79 bfac
bfc0 beb9 c033 c030 c05a bf23 bfb4 bfac
c021 c008 bff2 bfee bf78 be64 bff8 bfea
bfe6 bfe3 c02e c038 3e60 c00c bfad c006
c000 c00a c01c bfff bfed bfd2 c081 c02c
bff3 bffc beae c002 bf3e bfeb bfb6 be40
c01f c064 bf6a c009 bfdc c03f bff0 bfcc
bf74 bf84 c001 3f26 bf15 c054 c03c bfdb
c035 3f31 c05d bf08 bf92 c07c bfe5 3e97
c01f bfe4 c065 bfce bfc2 c05f bf37 c01f
c00c c01d bfcf c025 c01a bf6e bf8a bf87
bf98 bfce bf3a c01a bf74 bf93 c007 c02a
c044 c051 c002 bffa bf6f 3e8a bf13 bfeb
bfcb bfe2 c02e c023 bf78 c010 bf51 bf4e
bfff c00a c01a bf81 c053 c073 bde4 beb6
c00e bed8 c040 bd70 bfec c052 bff8 bff0
bfa5 bfc2 3d70 3cc4 c058 c01f bd2c bca0
c016 c038 c00a bfa4 c021 bfc7 bfeb bf2a
bfe8 bf94 bfe0 bf1d bfac c007 c02c bf4d
c034 bf76 c01a beab c00d bf95 bf21 bfd6
c029 c050 bfc9 bff6 bffc c000 c039 bf31
bef7 c001 bfca beb0 c027 bfa2 bfe3 bfcb
c03a c047 bfb5 bf0e bf58 c060 c040 c031
3e3c bf28 bf2b 3f26 c00f c00c be36 bf86
c002 bfbc c04f be9a bf9e bfb5 bf14 c02f
bfa7 c009 c029 bf68 c03e bfe8 c008 be44
c004 c034 3f04 c027 c00e bf0c bf1c c045
bf06 bf30 c005 3ec2 c018 bfa3 3f23 c022
bf6b be80 3f06 bfc6 c028 c019 bf90 c080
bf31 bf93 3eab c02b bfec bfba bfb9 bff7
c032 c004 bf73 3e92 c00d bfb0 bff8 bf2d
c02a c037 c069 c045 bec9 bff7 c021 bfca
c00a bf9b c094 bdd8 c027 bfb0 c033 c09f
bf0d be5c c005 bf0c bf66 bf9e bf58 c020
bef4 c00e c022 bee0 bf20 bfbd bf8a bfdc
c03e c039 bebd bf7a c019 bf84 bf67 c07a
c046 bf38 3f68 c029 bf62 3eba c01d c009
c02b befe c01f c071 c031 bf1b c006 bf95
c01f 3e1b c027 c019 befe bf38 c038 bff5
bfe2 bed8 c053 bffc bf1c c089 c043 bff6
bfea c02d bfa3 bfea c042 c00a c034 3ca0
c024 bfd9 c006 c045 c069 bfb6 c00a bf46
c002 c025 bfe7 bf88 bf7c bf8f c06e bf78
be97 c00b bfd3 bf9e c04b bfcf bf4f c049
c08a c026 bf2e bfee c070 c00f c049 bf14
bf41 c034 c034 bffb bf29 c080 c012 bfa2
bfe6 c010 bf96 bf78 c02f bfe9 be6e bf08
becb c053 c026 c058 bf5a bfb4 bf16 c00a
bf80 bf78 bfc8 bfee 3e26 bfcc bf1f bfbe
c001 bf94 bf63 3dbc 3f11 bf33 bfe3 bfca
bfb4 bfca bfb3 bef4 bfca c075 c085 bfdf
bffb bfde bfa7 bf9b c02e c013 3f78 c022
c06a c026 bfc8 bd08 3f56 c05f c03f bf9c
c023 c01f be82 c027 bff1 be96 3ea6 bfc4
bfb1 c046 bf0d c000 bf5c bf96 bfab bed6
bfe4 c016 bef4 bfbb bf30 beec 3e7a bf58
be86 3e91 c049 3ecf be1e c016 bffa c02e
c03c bf8b bfe6 be8c bfbf c032 c053 c01d
c06e bef0 c03c bf90 3ec9 bfd9 c083 bf57
bf06 bf87 c028 c041 c04c bf7b bf61 c03a
bfc6 c045 bf84 3f5e bf2b be9c c0a5 3f93
bea8 bf80 beb8 bf5f bf7e bf66 3fba c02c
c027 c086 bfe5 bf94 c001 c012 c074 c081
bd86 bf5b bfe0 3f1c bff1 c030 bfb0 bf2a
c090 c025 bf89 c012 bf82 bf12 bffa bfc6
bff7 c002 bfc9 bfb2 bfd6 c034 bfa5 c058
3ecb bf04 bfc3 bff5 bf66 bff7 bfb4 c040
c061 c009 bf0d bfcc 3f4a c014 bf80 bf2e
bfc1 bfab c032 bfbc bfa3 c02a bfc7 bdf0
3ec8 bea6 bf0e bd64 bf96 bfd6 c016 c01b
c00a c056 bfd1 bf62 bee5 c036 bf92 c081
c006 bffc 3f9c c017 bec1 bfa2 c02c bf9e
3f33 bf76 c04d c09c c074 c086 bf88 bf62
c02b c018 c018 c000 bf88 bd00 bf62 c032
c02a bf70 c036 bfb2 bfa0 bdd2 c026 c009
bfb7 bfc8 bfef bf51 c03c 3f9a c06f bfe0
bf30 c016 bfce bfb6 bffb bea3 bf91 c006
bfcb bfd4 be0c bf99 bf92 c007 c029 c036
c045 c010 bf08 c01a bf5a c08c bf50 c022
bfa9 bfb4 bf9d c02e bf34 bfd9 c074 c010
bfa5 c013 bffa bfde 3e86 c006 c01a bf92
c07f 3e52 3e94 c014 c084 bfb2 c06e bf5e
bf85 c036 c067 bf04 c071 bf9d bf98 c08b
bff2 3f90 bf74 c01c c006 bec1 bfa2 bfd7
bf8e c02a c025 c00c bfbc bee2 bfc4 c079
bf54 bd90 c023 c022 c002 c002 c019 bfa6
c017 bf71 bcc0 3f9c bff1 c00b c030 be74
bf1a bfe8 bf99 c021 bfc9 c02b bfbf bef0
bf82 bf81 c003 bf8c bf8a bfe0 c033 bf95
c05a bff1 bf0b c07a c044 bf09 3e9a be96
bf68 c001 bf1a c00a beed c04c bffa c03b
c012 c000 bff8 bf9c bf43 bfe6 3f59 bf8e
3e92 bf34 c066 c02e 3e5c c00e bfdf bfcc
3f59 bf62 c008 c041 bfd2 c00c c054 bf98
bf3e bedc c03b c006 3c28 be86 bf83 c007
bf5e bef4 bfa5 c041 c03b c003 c016 bfc9
bfba bfc9 c01c c007 bec9 c061 c05e bfd9
c022 c02b bfff c06b 3f9f bf73 c041 c016
bf72 be38 be18 bf5c bffb bfd8 c02d c002
bffe bff0 c02b c017 bf3c bf7b bf30 bf87
c01f c08c bfca befb bf3c c016 bf98 c004
bf61 c087 c01c c002 bfdc bfd9 c067 3e90
c018 bfca bfee c044 bf91 c04d bfbb bf7e
bfd8 c01c c040 bf8d c069 bf53 bf77 c03c
c031 bfe6 bee0 c06b 3ea9 3c20 bfad 3f68
bfd4 3ef6 bfe3 bfc0 3eac bf6d c02f c020
bed6 bf97 befd c04f 3e9e c029 bfe0 c00a
bf88 bf93 3f90 beba c00b bf04 c07c c044
bf59 bff8 c008 c00a bfb1 bfa7 bfbe 3d28
bf6e c016 bfda c085 bfd3 c03e bf87 c017
bffb bf25 bf48 c03c bfe3 c014 bf95 bfdc
be7d bedb c015 3e6a c029 bfbd bf70 c028
c014 c043 c03f bf22 3c40 c028 bf74 c070
3da8 3e9c c00f c02c c048 befd bfe4 3ef2
bff5 bf82 bffc c07f c07a bef5 bfbe 3e26
bfa2 c032 bfa2 bf9f c080 c024 c05d 3ee8
3e48 bfc4 3c88 c042 bfd5 c00b bfa7 bf16
c03b bf9c be30 3f3b c017 bf95 bff4 c036
c015 c003 bfa4 bff2 be8a c03f bfae bf4a
c002 c029 c010 bb40 bf7b c076 c014 bfe8
bf86 c078 bfe1 be10 c002 bf08 c02f bf34
3eb8 bf34 c00a be86 c002 bff0 bf1f bffa
c004 beae c044 bf2b 3f0d bfe8 bf99 c027
bf01 4034 c00a c044 bff4 bfba bf37 bfa7
c0d6 bf81 bfc4 c002 c013 bf92 c055 bf45
3e7f c040 bf96 bfd4 bfe7 3f30 bff4 bf4f
bff8 bf8e c056 bf83 c05e bfe4 be83 bf24
bfee bf1e c086 c08a bf90 bf48 bed2 c028
bf89 c018 c017 bfde bfac bfb4 bfcf 3ef6
bf7e c00c c03f 3f36 c01e c089 c02b c02b
c001 3f0c bebb c006 c010 bfdf c00a c030
c00c bfaf c01a c003 bf54 c01f c014 3f15
bfc7 c00a c045 be40 bf4c bf1d bfcf bf4b
c07e c030 bff6 3e38 c008 c01d bffc c02f
bf42 bb00 3e30 bfe0 bf7e bf56 c035 c034
be44 c00b c011 c081 c049 bfc7 bf8c c014
bf00 bee3 bfc8 c004 c060 bfc8 c063 c030
bfca bfb4 c080 c03d c085 3eae c02a 3d28
3f42 bf80 c066 c00f bf18 c013 c033 c038
bf72 bfce bfcf bfb9 bfd4 c017 c025 bfe5
c06d bf45 bfd2 bf92 3fa1 bfaa 3de4 c06f
bf33 bf95 bfe2 bfd8 3f6c bfae c016 3ef9
bf95 bf47 bf9a c048 c039 c074 c02d c022
bfc8 bfc6 c016 c017 be4c c051 3fac bfcb
c010 bf1f 3f26 c052 bf3a bfb2 bf9e be12
bfe5 c020 c03c c010 bfa1 3ea0 bd9c bfe2
bf65 bf6c c058 beb4 bfe0 bedc c031 bed4
c031 bfaa 3c80 c02f bee1 beba bf3c c024
c002 3ec4 bd48 bff7 c02a c05d bfdb bff0
bf27 c00e c00d c002 be14 c02f bf3a c031
c029 bf76 bf96 bec0 c049 bfc3 c079 bec2
bfa7 3e7d bfdb bfed c006 bfa8 c039 c066
bfea befe bffc bf64 bf2e bfb0 bfa2 bfdc
3e19 c017 c011 c00b c029 bf04 be89 bfdf
c016 3f0e bfc5 bff5 c05f c01e c054 bfc2
c01e 3ea9 bf65 bf88 bf7c c067 c023 bf91
bf30 c057 bf82 bf76 bffc 3eeb bee0 c017
bfcc bfba bfeb c028 bfec bf61 bf78 bfef
c029 c00e c021 bfd6 c05b bfc7 bfd2 c05f
bf1b c068 bfbe bfec 3f78 c03e c002 bff2
bf0b bfe0 bff2 bea9 3f55 bff1 c004 c02b
c006 c00e c013 3d10 c02a c002 bf85 bfef
bd10 bff8 bfb7 bf41 bfe2 c024 bf8b c029
c088 c036 c02d bef8 c036 bf60 bfd0 3ee4
bf56 bd30 bf94 c015 bfa8 bfa8 c045 c076
bf03 c072 be87 bef9 bfec bfd4 bfc6 c04b
3ee1 bfbb bf91 bf5e 3e31 bfdb c026 c020
c004 bf42 c071 c004 bff0 c01d c00f bfa0
c045 bfda bff5 c00c c02d bf90 bfa0 c030
c06e bf36 bf12 c04c c04e bf94 bec0 bce0
bf3e c000 c066 bf05 c006 be9c c01f c034
c00c bf6d bfbe c00b bfe0 bff0 c008 c02f
bfc2 c00a 3eda c02d bfab bfd7 3d8c bf92
bf87 bfdd c02a bf4a 3f34 c00b bfe9 bfea
bfb6 bfc9 bfb7 beaf c022 bfcc bd8e bf1e
bfd0 c00d bff7 c01a bfb0 bf45 c032 bfb1
bd86 c026 c08d c02a c015 bf87 c00f bfd8
bf2b c008 c03b bfa7 c020 c04f c064 c006
c046 bf4d c013 c007 bfec bfed c03f c03c
bcd0 3f7e bf0c bfd0 bfd7 c032 bfe7 c06b
bfb0 bff5 bfd5 3eac c052 bf41 c076 3dd4
c030 3e6f c07b bf0e bfec bfae 3f54 c03e
c02a bf8d bfaa bf46 c08a c033 c07c c00f
3eaa c019 c04d bf29 c002 bfff bf72 bcc0
bfb0 bfca bf03 bfae bf7b c034 bfea bf40
bfc0 bfa0 bf9c be97 bfa5 be14 bfa0 c007
c00c c01d c048 3df0 c03b bf97 c05a c029
c017 bea2 bfe2 bfdb beaa bf9b c001 c030
bf90 bb00 c00a bfb3 bfb0 bf42 bfdd bfc8
bf82 3f34 c042 bfc8 bfa2 c069 bff1 c01a
3f4a bfe0 c02f bfb2 c040 bfc1 c032 c010
c025 bfe2 bfbe c00e bfe3 c046 c064 bfc0
c03e c037 bff6 be88 c087 c014 bfd8 c00a
3f0c bd78 c020 bff4 c020 bfda bf30 bf64
c011 c016 bf9e bff4 bf1c c02c c069 bf33
bfbd bfd4 c00f c022 bfbd c084 bfe2 bf84
bf86 bc94 bf90 bfde bf36 bffe c01d bfae
bfb9 bfb7 be04 bffa bf26 bfc1 bff8 bf48
bfcf c053 bf85 c01f c051 c011 bf78 c049
beea bf21 3e8e c04a bf8a c037 bcc0 beab
c01a bf4f c02d bf69 c015 bfd6 3f7f bf8e
bffe bfbd c086 bfd3 bff3 bf9c be00 bfba
bfac c02f bf82 c03c c07f bfdd bf81 3f7a
c009 bfee bf20 bec5 c000 3e88 c01e c002
bfeb c08d bff2 bfe2 c027 bf0e c010 bfbb
bff1 bfdb bf7e bffa bf13 bfda bf9d be0f
c074 bf84 3f63 bf95 c00f bf84 bfa2 3e3a
c01f bfc0 c01b bfbc bf32 3ea4 bfd0 bf9e
bfaa bf7f bfbb 3e8e bf2b bf1b bf04 bf82
c01a bf80 bfee bf85 c01b bfd8 bfb8 c01a
bff3 bf8e bf64 c033 bfe3 bfbc c052 be99
bfd3 c05a c01b bfcc bef6 bfa8 bfde bfd7
bf74 bfd8 bf15 bff6 c00e bfa1 bf2f bfc2
bfd4 bfd4 bf02 c003 be18 bfe6 bf9c bfae
c05c c00e bf8b bf5e c000 c01a bf6e c043
bfc7 bff3 bf50 3e47 c038 bff6 bfdf bf89
c088 bed7 c049 bf37 3da2 bfb3 bfc0 bfc6
c004 bfcd c04a bfc5 bff7 bfa6 bfef bfc6
bf05 3e84 3f8a bfd3 bfbb c005 bff6 c025
bf5a c01c bf94 be72 bfd9 3db4 bf5f c01d
c01c 3f15 3f1b bfc0 bff0 c044 bf8a bfb8
3f08 c014 bf22 bf9a bf8f bf27 bfca bd93
c049 bfac bf3e bf7a bee7 bf62 bf79 be91
bf60 bfbc bfca bf19 bef4 bff3 c070 c01d
be8c bff2 c010 c00c c04b c019 bf9b bff1
bfb8 bfde c014 bfc1 c013 bfda 3f81 bfb0
bee0 beac c010 bfa1 3f6b bfcc c047 bfe0
c048 c05d c01c c01c c01a bfbc c022 c064
bfbc bf87 3f98 beb2 bf06 bf5a c020 bfec
c042 c009 c017 bfbc c037 bfb1 bfff c00a
c03d c008 bfaa bf6e bf9a 3eb0 3e80 bf6e
bfe4 bf13 c022 bf0f c001 bfc7 bedc bfeb
bfc0 be97 c02d bf54 bfb0 bfce c027 bfb3
c005 bf94 c01b c049 bfe1 bca8 bf7c bfa4
c015 c024 bf8b c074 c02a bfe1 3dd8 bfc6
3f68 c009 c026 bfa8 c002 bfb4 bf7c bf13
bfd0 bfd0 bf2c bf54 c020 c045 c08b 3f31
3ef1 bfe6 bf3a c031 3eaa bff5 c01e bfdc
c058 bfa2 bf81 3d58 c022 c000 bf2f be92
bff6 bfa7 bfd9 bfa7 bfb4 c00e bf94 c073
bf6c bff9 bece bf86 bfaa bf12 bfb4 bf1c
c01c bf8f 3f09 bef6 3edb bfa9 beb7 c040
c02b c01f c0a0 c002 c02d bfd2 c01a bfa2
c04c bfac bfb1 bf46 bfca bfd5 3f1a c00a
bff5 bf9a c02f beff bebe bfac c04c bf2f
bf32 bf12 bef5 bf8f c043 bf8e c00c bf45
bfc0 bfd9 bf85 bfd2 bff7 bf40 bf82 be8e
bf3e c032 bf1c bfbe 3d50 bf85 c020 bf93
be0c bf8c bf90 be48 bf83 bfa1 be96 bf6a
c013 c030 bf3f bf9d c01d bfb4 bfda c022
bf88 c02b bdc2 c00a bf40 bf8e c006 bfd4
c042 bee1 3d98 c010 bfec bf80 c01c c019
bee7 bfbe bff2 bffc c01a bf06 bfc0 bfa3
bf5b c00a bf4c bed7 bed6 bf0c 3e6c bf84
bffc c056 c004 bd5c bfa1 c00e c04c bfea
c00a c002 bff5 be28 bf9c bfed bfb6 bf94
c083 bfa0 bf42 bf29 bfc1 bf3f beac bff1
bf7a c017 c036 bf76 bfa0 c030 bfc1 c030
bde0 3fa5 bfd9 c01f bed8 c034 be3c c036
bfa8 bf13 bf22 bf3b bedd bf7b bff6 bf79
bf86 bff8 c011 bf28 bd9a bfcb bf39 c031
bf78 3bc0 bf58 bfc0 c01b bf83 c0a2 bfe8
c032 c007 bf62 c010 3f10 bf69 bfd0 c084
bfc6 bf37 bf8e bff6 bd68 be84 bfb4 be1c
bfa0 bf1c c009 c036 c039 bfc6 bfb0 be09
c017 bf84 c05a bfb6 c014 bd80 3ffd bfbe
bf2e bf88 bfdf bfdc bfae bdfe bce0 bfd9
bf9c bfa9 bfac bff6 c001 bf97 c043 bf0c
3e06 c022 bf88 c00b bfbd 3eb6 bfdc c041
bef0 bf2a bfa9 bf4a 3f24 c007 bf95 c024
c004 c016 bf9b bf3c c009 bf82 c01e bfed
bf60 be45 be9e bfbf bf6c bfc0 c083 bfb4
c055 bfbe bff0 bea2 bfa6 c02c bfa1 bf05
c056 bf21 3f6f c03c c006 bee4 c03a bfe6
bf90 bfcc c02a c036 c005 c030 c00f c008
c000 c036 bfcc c02a bfe6 bfcc c046 bf89
3ebb bf0c c01d bf95 bfa7 c018 bfa3 c045
3fac 3e5e befa bfa0 bf98 c01c c02a bff4
c021 bfc0 3fa8 c025 c01c 3f81 c05e bfe7
bf4e c019 c01a c03d bf8f bff0 bfa0 bed1
bf7a bff3 bfb4 bfe3 c00e c05c bfbd bf21
c013 c01d c00f c00e bfc9 bfb9 bffd bfb4
bf08 c008 3e7b bf9d bf8d bfbc c010 bfe1
c056 c01a bed4 bf2f bf7e c00a bf78 bfd8
becb bfeb c06e c022 be91 c010 bf8b bf91
bfb6 bf1e bf3d c081 bfeb bed0 c02e bea4
bf81 bebc bfaf bfd2 3f36 bd6c c025 c048
bf2d bff9 c000 c007 c020 bfe2 bf1b c000
c00d 3ed2 bfaa bfd9 bfdf bfd6 c024 bf2b
c01b c007 bf18 c028 be20 3e66 c07e c008
bf8e 3e60 c000 c00f bf7e be99 c060 bf9c
c014 3e98 c008 bff0 bf23 be41 3f4a bfc5
c037 bfc5 bfa7 be8a bf11 bfc1 bfec bfa4
c017 bfdc c014 bff9 3e91 bfc4 c050 3ebc
bfed 3ca0 bf39 3c68 c002 bfcc bfea bf38
c046 bfc7 bfb8 bf66 c050 bf5f bfcc bffc
bf90 3c40 bfde c04b 3da8 bff4 befc 3ea2
bf22 bf9e be66 bfc6 bfff c013 bfb6 c032
bfe5 bf0c bf8b c027 bfea c013 bdc5 bd8a
bfdf c011 3f42 c003 bfbd 3fa8 c01c c02c
bee4 bfb8 c00e c00a bf52 bfe0 beaf c00c
c018 c04b bffe c032 bfc9 bfe7 be0a c001
bfb0 bfb3 bf9d bf9c bfec bf90 c002 bfcc
c033 c007 c01b 3f20 c00b bf8c beac c03b
bfb6 bc60 c016 bf84 3f0f beee bf8b bfb2
bf0e c01b bf88 c01b bfea bf5d bef5 3ed6
bf12 bfde beee c019 c00d bfce 3dbc bfdd
bf6f c02a bfd1 3ed6 c036 bfb7 c012 bf8d
c033 bf48 bf91 bf83 bf45 bfe0 3e8a bf5f
bfbc bf6d bef0 be70 bfac c002 bfd9 bff4
bfa9 c01f c004 c003 3e75 bff0 bff4 bfa4
bf18 c041 bfc8 bf52 c029 c097 c03b 3f20
bf53 c006 c07c bdf0 bfed bfc8 c002 bf2c
3d10 bea0 bfc9 bf84 c01e bfd2 3de8 c008
bfbd bf6d c01a bfb1 bf7c c011 bfc2 beb0
bf8b c013 bff2 c012 bf9c c00d bfba bf22
c0ad bf0c bf2c bfab bfc4 bf4d c000 bf4c
bfd1 c052 bf61 bf20 bfce bfb0 c045 c006
c050 bce4 c04c bfba c00b bfda bf14 bfc7
bf8e bfd0 bffd bfd4 3e10 3f84 be20 c063
bfea bf59 bf8f c02a c035 bf9f bff3 4052
3e5c c029 c05c bfcf c03f c052 bf6e c016
bf88 bf92 bf9e c02a bffc c021 c01b bfa4
c00e bff5 c040 bfc0 bf9e 3c80 bf74 3f12
3e1e c030 c097 bf9f bf18 bfe2 c048 bf24
bfb0 c014 bfe8 3e9d bfc4 bf20 bf40 bf46
3f5a bf99 c044 bf40 c002 bff2 bff8 bf57
beb2 bfdb bfe0 c03b c046 3fb8 bfa6 c039
bf6c bfdb c00d c048 bff8 c019 c00d bfa4
3d40 bf83 c051 3e06 c02c bfc1 bfb2 beff
bef2 bf34 c02f bfe0 bfc5 bff8 bf67 c01e
bed0 c015 c050 bfa0 bfe6 bf16 c013 bff0
c038 c056 c001 bf5a bfcd c041 bd28 c010
bfbc bf66 3e82 bff2 bea6 bf18 c009 bfa8
3f42 c009 bf83 bfe4 bfa4 c045 bff3 bff0
bfe6 c064 bfd2 3d58 c009 c010 bdb4 bec6
c034 c01a bfd2 bf89 c011 c006 beba c02f
bfd6 c011 c01e c01c bf54 bfc2 bf7a bf6d
be50 bfd5 bf88 3efe c016 bed8 c044 bd90
bfe0 bfee 3f11 c076 bfe1 bf2a bf92 bfc4
bf9c 3f47 bf3f bf9f c05d bfb4 c02e bfec
c03a c02e c07f bfc1 bfad bf20 bf92 c016
bfe9 be3c bfe6 bfa1 3c80 bf4e bfa0 bfb8
bf8c 3ebd c07b c010 3ef9 bf8d c06e befd
3e96 bf90 bfe0 c071 bff0 bfbb c01a 3eab
c029 bf4e bfea becc bff0 c007 3e28 bfa2
c017 bfaa bec4 bff8 bfa0 c031 c00f bfba
c036 bfae c009 bf9f bf24 be97 c036 be4f
c007 bff7 bfbb bfa1 bffb 3f40 c020 c012
bf8f bfa6 bfa0 bfb2 bfd2 bfb2 c032 c008
bf40 bf93 bf92 bf92 c009 bf05 bfaf c03c
3e6e c00f be6e bfc5 c00e c00b bf84 3f8a
bf0d c01e bee0 bfd6 3e3c bf9c c020 c02d
c00a c04a c088 befe c004 c003 3fe6 3de0
3e66 c014 3e8b bfa4 bfdf c080 bf45 c024
c044 c01c c026 be75 c000 bdde c05d bf5a
bf4c bf88 bf32 bfbe c020 bf41 bfee c015
3f36 c03b bf8f bf9c bfbc bf7e c070 c085
beca c054 c004 be8a bf87 bfee bf94 c017
c004 bfa6 c00e c031 bfbc c00b c005 c029
bfd3 bfc8 bf84 bffd c068 bfe3 c008 c040
bfb3 bf91 bfbc c028 c024 c00a bf4e becc
c03a 3e74 bfa5 beff bff4 bfc6 bf9d bf82
bfb5 bf07 3e17 bfe0 bfcb bfa2 bf26 bffc
bfb9 3ff3 bfd4 bfd4 bf1c bf6c 3f3e bfdf
bfda bf60 c01f bdc8 bf60 c018 bfa3 bf9e
bdc0 bf18 bfef bfb2 c066 bfb5 bf2e bfe3
bf8c c020 c023 bf2c c025 bf8f bece c02e
be64 c00e bffa bfa9 bf65 bfbc c020 c011
bf58 bf90 c029 bf4b bfd5 bf35 c017 c030
c006 bf67 c017 bf71 c012 bff2 c048 c03e
bf8e c003 bdf8 bff7 c04a c076 c025 c012
bfff bf4c bff6 3dba bfee c002 c028 c004
bfa5 be5c c095 3f55 bfe3 bf9c 3f6c bfcb
bfb0 bfac bff6 c012 bfb8 c031 bffc bf9f
be8c bfe3 be74 c002 c00e 3e95 bfa6 be46
bf21 be26 c03c bea9 c017 bfec c00e be45
bfdb bec5 bfcc 3ecd bff0 3faa bfe6 c03c
bf0d c013 bfc4 c00e c038 3c90 bf66 bf62
bff6 bf2a bf7d bf4b bfad bfa9 bf9a c05c
bfb8 bdec c01a bfa5 bfb2 bf5a bfec c036
3e0e bf95 bfe5 bf31 c012 c058 c018 bff4
bfc9 bfc4 c00e c01d bf17 bfda c01f bf12
bf3a c016 c00b c002 c03e bfdc c026 c03f
bf9e bfb4 bfa5 bf81 c014 bff4 bf95 bf78
bf10 bf5c c017 bff4 c01e bfa6 be95 bf54
c002 bfbc bff8 bf54 bf49 c014 bfd4 beba
3e9a c00a 3f17 bf8e bfc6 bf9c bfbc bf8b
3ca0 bf85 bfa0 bf3e bff4 bfa6 bf60 bffc
bf9f c010 3e9c c018 bf99 bf90 bf84 3eac
bf4b c00e bff9 c013 be85 bf9b beac c02e
bfd2 bf75 be71 c008 bfa3 bf78 bfb5 3f88
c01a 3ed2 bfad bed6 bfe2 bfe2 bfb2 bfd8
c032 bfda c03b bfa3 c003 c060 bf51 c03d
bfb2 bec5 bf89 bff4 c077 c07b bfcd c00c
bfa4 c064 bfff bfbc bf7e bfb6 c043 bfe9
bfda c050 bfee bfcb bfa5 bffd c013 c01e
c046 bf4c bfa7 c00a bfb4 c020 bfca bf99
bf8c c05b c00d c015 c007 c05d bfae bfb3
c00a bf20 bfde c023 c004 c049 bf5c bf84
bf52 bf98 c008 bedc c044 c048 bff8 bfad
c004 bfc4 c02d c029 c020 bfc9 bfd8 bf8b
bf72 bfc4 bde8 c011 c04e bff2 c053 bfcd
c00a bf87 c00b bf75 c01a bf5a c046 c03c
c00a c019 be3e c069 bffe c06a bfba bff2
3f90 c02c c00f bfca c000 bf19 c016 bf72
c042 c053 bf12 bfa4 c026 c07e bf0a c073
c014 c01d c02e c04a c097 bfb1 c01f bfb8
c00d c001 c086 c010 bf80 bfa7 bf9a bf66
c048 c06a befe bfc2 bf2e bf60 c00d 3ef8
c045 c00e bf94 3f1f c00e c008 bfae c07d
bfa8 bfbb c034 3e87 c010 c009 bca0 c072
c068 3eec c030 c05b bff0 c022 bfbd c03c
bfe1 c019 bfb9 c04a bf10 c08f c03a bffe
c060 c01a bf68 bef1 bf90 bfd6 bfcc bff1
c001 c054 bfb0 c02e c01b c021 bfc2 c096
bf92 bf36 bf30 bfe6 c081 bfaf bfe2 c015
c01f bfee c009 bf99 bfd5 bfb1 3e4e c00c
c040 c052 c06a bfcf bfdc c09b c052 c041
c02b c07c be36 c00f bfa6 be05 bfa4 bf83
bf1a bf5c 3fdf c007 bf36 bf5e c04a c00c
c0b6 bf7a bfce c014 c009 c02c c04e bfae
c08a c008 bf21 c00e bf0a beee c021 bf36
bf73 bf2a c028 c00f bfa2 c038 c031 c030
c00a bfe6 c064 bffe c01d c003 bf9c c03d
c01c bd90 c001 c042 c074 c03b bfd7 bf11
c04d bffe bebf bfaf c021 bfbe bfc4 bf9c
3fba c00b bfea bf64 c074 bf96 bf4e c02c
c042 c028 c01e c007 bfd6 c026 c074 bf37
c015 bff0 bffc c049 c010 c03c c002 c02a
bff5 be76 bfe6 bfed c006 c025 c011 bf96
bfe2 c051 c02a c009 bf9d c00b bfdc c072
bfea bfad bede bfa4 c000 bfd4 bfbd c030
c08a c01d c004 3e1f 3f17 c02c c024 c005
bf78 bf96 be7e bfd6 c03d c02b c041 c021
c038 c04a c01c c020 c058 c066 bfaf c02c
bfc1 c005 bff2 bf5e bf28 bfe6 c079 c01d
c008 c003 bfb8 bfa8 bef8 bfee bfd3 bfca
bf79 c020 be54 c01f c031 bfde bf24 beca
bfb2 c042 bfb5 c01c bfcc c035 c03b c038
bf13 bf1a c020 bfe3 bf92 c050 3ca0 bfd0
bfcc bee2 bfc0 bf43 bfb7 bfa6 bfc0 c029
c00e c07a bfea bff3 bf26 bfed 3ec9 beac
c03d bf67 bf70 c02c 3fb1 bfa6 bfbe c008
bf4c c088 3f01 bf7d bf64 bfb9 bfd8 bf50
bf85 bf76 bf20 bfc8 c040 bfc2 bfc4 c034
c066 c092 c045 bfb4 c00c 3ec5 c007 bf40
c01f be9c bfe4 bf3c bf24 c083 c046 bf8b
bf84 bfed bfaf c010 c00c c015 c014 c030
c035 bfa8 c008 bfdf bf44 c053 c080 c014
c021 bf99 bfb5 c010 bf50 bf78 bee0 bfca
c01d c00d bfb3 bf3a bf5c c046 c013 bfb6
bf6b c054 c02f c080 3e40 3d9c bf91 bec5
c012 bfe6 bfde bf13 bf98 c024 c04c c015
bff6 bfcc c023 bff6 3e76 c03a c039 c06b
bfc2 c01a bf8c c09c bf9b c018 bf8f bf1a
bf88 bfd2 c086 c07b c036 c034 c01d c007
bfee bf99 c03f c042 3e0e bfc4 bfcd bfd4
bfbc bfa4 bfbc c005 c021 bfd5 c003 c05e
c035 bfa0 bfff c02e 4074 bfeb c089 bfc4
3ff6 bf66 c01c c02f c003 bede bf72 c02e
c031 3f2c c014 bfdb bf9b bff1 bfc3 bfca
c03e c004 c04d c01f c035 c020 c007 c017
c008 c050 bf82 c032 bf5b bfe5 c0ae c020
bfb2 c047 c020 c040 3ea0 c019 c01f c002
c036 bf12 bd80 bfd6 c02c bf85 c067 bfb2
c016 c04b c029 bfbc bffb c010 bfad c01b
c06e c05a bfcb c060 bfa8 bf56 c02c bea5
b980 c068 c04d c036 bfbf bfe3 bfc0 bf90
bf2b bf4d c071 bfaf c077 c058 bee3 bfee
c018 bf6e c014 c036 bfb6 c04e c001 c01c
bfd4 bfa0 bfd5 c034 c011 c081 3f99 bfa8
bf98 c001 c05b c00f bf40 c009 bff9 bf33
c02e bfb6 bfce c000 c031 c018 c019 beb8
bfea c023 bf83 bfc1 c010 bff9 c03a c018
c087 c007 c06e bf8d c01c bfd5 bf98 bf97
bf21 bfe1 c049 c05a 3f2d c000 bf64 c02a
bf13 bf9c bf4c c04a bfda bff2 bfda 3e34
bf4e bf94 c01a c00f 3ec8 3f22 bfd0 c018
bf2e c004 c00b c01a c05a 3fa4 c06d bff4
c021 bfc8 bf2b c002 bffe c05f bfdc bf0c
c037 c03d c002 c098 3f63 bf49 bfa8 c02e
bfc4 bfef bffe c034 bfec c01a bf83 bf56
c075 bfb2 c033 bfcf bf92 c041 bf6c c054
c087 bf1e bf45 bf9f c003 c003 bf39 c043
c024 c03e c041 bf93 bf0b bffa c05a 3f24
c029 c073 c011 bfe4 bff5 bfbe c01d c01f
c020 c06a c05a bfac c05a bf9b c038 bffd
bfe5 c013 bfb2 c050 c0a5 c00d bfc4 3f48
bff2 bf02 bf9c c086 bf7e bef7 c028 c048
bfb6 c002 bfec c0a6 bf8e c072 c00c c02c
c009 bfe5 bec2 bfc7 bf96 beff bf98 bfbf
bf83 bff9 c019 bf49 c00c c02e bff1 c03f
c02b c006 c06a c03f bfa4 bfae c00a c032
bfec bf86 c052 bffa c046 bfe9 c01c c03f
bf87 bfc0 bff9 bba0 c075 bff3 c01c c010
bfe7 c08d bf9c bddc bf5d c022 c001 bf65
c01d c023 bf6e c009 c03e bfc6 be7a bec0
c004 c030 c012 c05e c005 bffe bff7 bfda
c00c 3f8f bf88 be5c bfc2 bff0 c05d be58
bfe4 bfa0 c000 c08e c049 c00b bf0e c006
c02f bf9c c010 bf33 c02a c010 c009 c069
bfdd c02a bfa7 c010 bff8 bfd4 c00e bfb3
bfe5 c00a bfe3 3e18 c009 c033 c06a bf9d
bffa c030 c058 bec3 c06b c002 c01b bfa6
400d bf81 bf1a bfa2 3fa8 bf8a c036 bfd6
bf87 bfdd c04b c052 bfdf c001 be9c c050
bfb0 bec2 3ee4 c051 c014 c00c bed8 bf92
c0f6 3f47 c03a bfec bfa0 bfd2 c030 beb6
bfb9 c095 bfb3 bfc9 c041 bf04 c044 c057
c030 bf70 c04a bff0 c045 c057 c00a c064
c005 bfa8 c02c c01e bf98 beb0 bfd6 c01a
bfba c002 c030 c031 bf81 bff1 c062 beee
bfb6 c01b c053 bfa6 c058 c07c bf4a bfc6
bff2 bfa8 c030 bf8c c07e bfa7 c02e bf68
bf6a bfbc c044 c05a bfb6 bfe7 bf38 3e47
befe bfc6 c070 bfe1 bfd9 bfeb c03c c046
c05f bf7c c050 bfaa bf44 c015 bf86 c071
3ec0 bfbc bee6 c006 c031 c001 bf18 bfeb
bf9a c03f beec c023 c08a bfd4 bfe2 c04a
c001 c006 bf9d c03e c02d bf91 c01e c04c
bf89 bf90 c0a4 c023 c06b bfb4 be12 bfe0
bfdc bffe c03f c00a 3f4e bfa8 c048 c087
bf52 c02e bf92 bfd4 bff8 bfa5 c00e bf52
c004 bfbc c01e c00a 3edd bfbf c023 c03e
bf9f c018 c01b bf4e 3eeb bff3 bfce c036
bf46 c02a c030 bfff c072 c021 c027 bf66
c03a c042 c01a bf8f bffd c037 bf9e c02c
bfdb bfae c01e c08e bffb bfe4 bf21 bf41
c029 c030 c05c bfe5 bfb4 bf91 bf9c c026
bfe9 bfea c018 3f01 bf1f bf03 c070 bffc
c005 bf74 bf88 c02a c07e bfaf bf8b c01a
bfda 3fab 3ea7 c00c c035 bf52 c03e c034
bf60 bf6c c040 c0a4 bf72 bfdb c06c bfd2
c031 bcc0 c04a bf26 c036 c051 c007 bfd2
bf29 bf2e bfa0 bfb6 bf4e 3f90 bfda c056
bfda bee8 bfdd bfd1 c001 c005 bfff c02e
c043 c01a bfdf bf7f c019 bf41 bfc1 bf9c
c005 c00b bf74 bf68 bf44 c002 bfc0 c041
c09a bf1f bec4 bfc5 bf08 bfa6 c03a 3df0
bfde c00a 3c80 bfd4 bfcb 3f71 c01b c00c
bfb4 bfa5 c02d c085 c05c bf4d c002 bf92
bf7b c036 c051 c063 c012 bf2e bfe4 c062
c019 bfc2 bf9e c00b c030 c040 bfa4 bfdb
bfb3 c040 bf28 c001 c0ca c00c bfeb beb3
c017 bfc5 c068 bf1c bff4 bffc bf2d c050
bfbe bf9b c01e bfe0 bfe4 c081 c01e c081
c050 bf92 c011 3ea4 c013 c021 c044 bfb4
bfa7 bf24 3d40 bff4 bfba c038 c006 c00e
bf57 bfd7 bebd bfc8 bf8a be3a c044 c050
bf90 c01c c01a bdf4 c010 bfa4 bf18 c056
c010 bfc1 bfaf c060 bf81 c03e c043 bfa5
c042 3ef9 bf9b c010 bff9 c01e c01c beb0
c04c bfcb bfbe c014 c029 c083 bf20 c001
c075 3ec0 c040 bfe6 bfe8 bdcb c096 c028
bff0 bfbe bff2 c03d bfd4 bf21 bfde c004
bfe1 c013 c04e c014 c047 c03a c008 c003
bf34 bedc c024 bf9b bf19 3fd7 c03c c026
c04c c04b bfb6 bf5c c01e bf98 c054 c076
3e40 c02e bf64 c058 c07a bfeb c009 bf4e
bf16 c064 c02b bf9e c088 bfd6 c01d bfa7
bfc7 bd48 bfe8 bf88 c058 c01e bf81 c070
c040 bf8b bfd8 c02f bf96 c04a c030 c022
bf32 bf9b bf16 bfb3 c006 c05e c05b c018
c049 c049 bf2e 3f54 c070 bff4 c001 bfc0
c03e be1c bfbc be04 bd68 bf80 c108 c042
c07e c01e c060 bfa4 c063 c036 c060 c028
bf87 c010 bfe0 c03d bf6a bf4f be82 bf2f
bf9c c051 c03c bf5c bfbb c03b bfee c01b
c01a bf2e 3d08 3e5e c040 bfa9 c050 c021
c01d c025 bffd bffe c004 bef3 c034 3f84
bfc2 3eb3 c046 bf3a bfc7 c056 bfec c116
bff9 bf62 c06e c028 c076 bffa bfd2 bfd0
c015 c02f be90 bfce c01c c00c bf98 bf95
bf30 c00f bef5 c00e bfc9 c016 bfa0 c038
c00c c09b bed2 bfdd bfef c006 c094 bfe0
bf6a c002 bfe1 c025 c023 c02e bfb2 bfc8
bfea bf98 c02f bf56 c06a beac bfd8 bf24
bf99 bfdc bf57 bfae bfc1 be50 c00c bf2e
bf4c bf50 c016 c03e bf8b c060 bff6 bf90
3f14 bfd4 bff5 c020 bfa6 be74 c0a0 c065
bfb0 c01e bf6a c04c be8d be8e bfb5 3f64
c00f c010 bfa0 c081 c005 c000 bfd8 bfd2
c008 bfbd bf6a c01d bf1c c053 bfd4 c022
bf97 bfcb c023 bf5d bf70 bff6 3f36 bf9e
c014 bfbd c076 bff7 bf90 c098 c00a c008
c088 c022 bff0 c01d bfe2 c000 3f3c bf77
bfe0 c009 bf90 bfd8 bfe4 bf52 bff4 c010
c06b c083 c01d bfc2 bf72 3eb1 bfe4 c0ab
c04c c013 c026 c05e bfae c071 c000 bfe1
c030 c02c bf79 bfaf c0fa c09b 3f68 c02a
bfa1 bf68 c092 bcc0 c046 c084 c04a c022
bf57 c05b c02b 3fb8 bff3 bff9 bfee c010
c052 bfd2 c021 c006 bfe4 bfb9 c059 bff1
bff6 c034 c02d c00e c069 c03d c00c 3f08
bfdc beee c050 bfb7 c047 bfe2 c083 bf9e
c081 c01e c007 bf8f c037 c032 bffa c006
3e88 c059 c049 bfd2 c050 bfde c021 c03c
c083 c056 bf74 c02d bfd4 c006 c07a c088
bffc bfd2 c036 3fdc c015 c054 c06a c034
c001 bea6 c099 bfd0 c042 c014 c064 c03e
c047 c047 c098 be97 bf8e beea bf98 3e40
beca bf47 bed2 c000 c060 be76 c047 c044
bec2 beb4 bfe3 3ff8 c023 bfda 3df8 bf2c
c012 bfb2 3f2a bfa8 c029 bfde bfc3 c05d
c03c c061 c025 c026 c024 c02b bf8b c032
c054 c025 c03a 3ec4 bfcd c02e bfb8 3c60
c047 c003 c067 c033 bea0 c01a c010 c069
bfea bf08 c0c2 be68 bfda bfdd bffc c04a
c039 3ed6 c017 c02a c002 c02c 3f86 bfd8
bee3 c020 bfc3 3ee0 c054 c026 c09c c072
c0bc c05d bf8c bfed c01b c033 bfec c057
c02e bf18 3f3a c080 be03 bf14 c051 bfe4
bef8 c002 bfd5 c09c c058 c01a c053 c018
c08a bff8 c098 bfea bf04 befe c016 bfad
c080 3e3a c033 c09c bce0 c02d c00c c01a
c03a bf8b c02c bf7c bf9a c005 c034 c05c
bfcf c003 c074 c094 c092 be48 bf91 3cb0
c08d c02e c026 c064 bfae 3fb6 c04c c02b
bf74 c095 c078 bdd8 c061 bfcf 3da8 c054
c07f c02a bf45 c011 c060 c0a4 c05e 3d98
c050 c04a c03a c089 bfe8 c0b4 c076 bf88
c072 c02a bfa8 c039 c06e c04c bf2a bfd6
c053 c04e c086 c01d bf80 bfa5 bf32 c011
bf3a 3b80 bfee c001 c011 c03a bf18 c004
c047 c046 beba bf7c 3f81 c066 be86 c059
bffb c024 c068 c01e c040 c06b c082 bfcd
c054 bfc2 bfe2 c047 c041 c056 4004 c0aa
c0a6 c08b c070 bf33 3fb9 c00a c021 bf39
c016 c040 bff8 c019 4010 bfa8 bf92 bf45
bef4 c058 c05b c016 bfa6 c03b bfb6 bf7e
c06c c021 bf3e c012 c010 bf9e bf27 c01c
3d20 3f69 bfe4 c037 bf07 bf3d c03d c06c
c079 3fc2 bfd9 bfe0 c06c c020 c017 c027
c042 c00d c04e c022 3ca0 bfea c017 3e30
bff0 bf12 bfa2 c083 c063 c07c c072 c08a
bfec bfd7 c01c bef4 c010 3fcf c05c bf72
bf1f c012 c002 c009 bfb5 beb6 be38 c025
c08a bfa1 c038 bfc2 bff7 bfa4 c0c2 c039
bc00 c014 c02e 3f74 bff4 c055 c001 bf9d
c089 c082 c032 c057 bf56 bf8e c056 bf51
c051 c01a c03e bf48 c003 bf05 bfbe c06c
bed6 c032 bf03 c078 bfd4 c02c bfc6 c062
c0a1 c034 be61 c019 bf8d 3fa4 bf97 bdf4
bfe6 c02a c078 bfe4 c006 c072 bfa1 be7a
bf6b bfef bdf8 3e00 c034 c039 c026 c03f
c006 bffb c00c c034 3e80 c070 bf4a c0c7
c03d c036 bff5 c070 3c40 c00c c052 bea6
bfca 3ea3 c081 c00d c0b1 c089 3f7e c009
bfd7 c08a c012 c01e bfac bfec bf80 c019
c06c bed4 c004 c089 c024 bdcf c070 c041
bf8d bee4 bec9 c02f c092 bf64 c064 bfca
bf34 c086 bf9b c001 c011 bfa7 c07b c065
bfc2 c010 bf8a c00c bfb1 bf2a 409b c03d
c075 c033 bf86 c020 bfb6 c05f bfd3 bf96
bfe0 bfa2 bfdb c07c bf33 be87 c09d c044
c03f c073 c086 c08d bf85 c054 c012 bfe4
c09e 3f82 bf24 c00e c027 bf04 c0aa c023
bfb5 bfe9 c05c c022 c04c bf52 bf39 c080
c061 c07d 3e88 c00e c023 c001 c00d bf20
3e89 c046 bf99 c028 bf74 bfa5 c074 c09d
bff4 3f21 c01a bfb7 c02e c004 c071 bf86
bfe2 bf69 bfb1 be90 c032 c099 bf7e bf07
bff0 c046 c06d c0a2 c00f c095 c062 c033
bfd9 bf70 c096 bfbb bfb3 c00d c05e bfe8
c04c c043 bf66 c03d c088 3e0c bf46 bf98
bff4 bff9 4052 c06f bfcc c09c c000 c01c
c041 c078 c026 c01e bfca bfe9 3dc4 3f7d
bf76 be1e c0aa bffa 3fbf c049 bfd2 c04c
be6c bf08 c00d c064 c015 bfd0 c0a8 bff2
c030 bea9 c001 c055 bda8 3ea4 c043 bfe8
3ea5 bfc0 bf4f c05e c05a c0ad bffc 3eab
c049 bfae c018 c026 3ef8 c09d c09c bf57
c01c c027 bfae c082 3ff8 bfef c054 bfcf
bf82 bfbc bf46 bfc6 c072 bf9c c090 bfdc
bfe5 bee0 c069 bf4c beec bf55 bfaa c018
c024 c09c bfe2 c00a bf3e bffa c02f c01a
c05d c09f c00a c02a bfc3 c013 c060 3e3c
c083 c013 c002 c035 c054 c095 c035 bfd7
c048 bf9a c0c3 bf81 c091 bf88 bf7e bebb
c03e c055 bfaa c062 c036 bfae c002 4002
bfd7 3f3d bf82 c088 3f78 bfb1 c00f c025
bf86 bf1e bf9c c0da 3f7d c019 bf2e bfce
c01d bfe1 bfd2 bf7c c05c bfbb c05d bf5c
bfee bf50 c057 c03a bfce c05d bf32 c014
c008 c040 bf26 c09e bfab c058 bd50 c07d
c06b 3ecc c002 c087 c01a c062 bf4c c042
bf3c bede bfb4 400b c046 c07d 3c40 c07c
c00d c03d c090 c00c bf8f c01e bf9b bffd
bf88 bf9e c02e bfed c066 c002 be8a bf5f
c046 bfb2 c0bc c02d c083 bf78 bf79 c030
bd90 c0c9 c014 bffc c089 c034 c05b 3f76
be10 bfd8 4032 c084 bfa2 c024 bfdc c047
c09e c048 bf10 bf9a c07f bfe6 c034 c046
c056 c040 bfd7 bfad 3e3c c06c c085 3dd4
c017 c060 c018 3d6c c02e c0a9 bfe0 bfb6
be7c c06a c03d bffa c017 c009 c083 be7c
be4a bd98 c036 3f24 bf70 c049 bfec c092
c001 bfb6 c077 bfcf 4012 bf4a bfd4 c00d
bfc7 bea1 bf0e c028 bfee c020 c006 c027
c0cc 3df2 bfeb bff3 bfef bfc1 c06c bf8e
bfb6 c015 c019 bfd7 c029 bfff bff6 c041
c006 bde0 c08e bf16 c08c c05c c013 bd00
c006 bfe4 bfcc c090 bcb8 bf7c 3c50 c006
bfe5 bf34 c088 c06b bfde bf94 c03a 3fe8
bf10 c013 c025 bf71 c00a c050 c06b c058
bfd1 3b80 3f21 c05c c036 bfaa c019 bfe6
c05a bfd6 c00d c058 bf8c bfba c03f 4019
bfb2 c003 c06a bf84 3f01 c034 c031 c057
c08f c029 c06a 3f48 c022 c04c bfc5 c062
bea9 c03c bd28 be16 bf9a bf52 c01a c085
be62 c015 c021 c06d c095 c011 c014 c026
bedc bf15 bf00 c060 c068 bfc0 bf70 c024
bfa5 c011 c06a c04c c07e bd9e c072 bf52
c020 c051 c01c c084 bf41 c029 c082 c07e
bfb5 bf70 c002 c01b bfe8 c00d c010 bfee
c088 c08b bf9a c040 3f84 bfef bf4a c04f
c02f c04f bfaf c011 bfcb bfd0 c085 c01c
bfe7 c052 c030 c08c c058 c094 c03c c003
c01c c06f bfd1 c003 c008 c07c bd34 c084
c053 bf91 bf92 bf14 bf04 bfc7 c002 bfd9
c082 c084 c01f c018 bf39 c000 bfae c007
bf99 bf98 c037 bdc3 bff7 c008 c08c bf54
c035 c014 bf79 c076 bf1b c003 bf81 c034
bff9 bfba 3e66 bffb c076 c012 c097 c030
c005 c026 bfcf c06e c03a c025 c003 c060
c026 bec0 404e c002 bff3 bffe c05e bee5
c02f 3f30 c058 bf10 bf75 bffc 3f9c c05f
c006 bf1b c006 c031 bfb2 c01b c02a c03a
bff0 c014 bff2 c05a c092 c009 c011 bf94
c076 bf1c c03c c01e bffa c040 c02d c009
c05b be18 c01b bfe1 beb0 c092 c0ae bf16
c020 c07d 3ca0 3d94 bfef bfd9 bf54 c038
c020 3cd0 c034 bfc1 c016 c057 bfd6 c041
c02e c013 bfc4 bf49 c0a4 c00a c04d c068
bfd6 c078 c03d c095 bffa c07c bfff c028
be21 bfcd bfef c039 bf3f bff9 bf6c c06a
c0b3 c038 c074 c02e c026 c03c bf8e c011
bf82 c059 bf25 bf41 bffc c088 bff3 c00f
c095 c052 c028 3ef9 c012 40b0 c077 bf59
bfc0 bfba c050 c084 c060 bf06 c018 c082
c05c bff5 3eaf bfb9 c003 bf53 c035 c050
3d20 c034 bfb2 bb00 bf58 bffc c03e c01f
c03d bff1 c080 c088 bfea c02f c074 bfc3
c076 bf76 bfeb bfee c063 c013 3f13 c02e
c04c bff8 bfa6 c020 c033 bf82 bfa2 c00f
c091 c00a c079 bf85 c020 bfdf c032 c08a
c05e bfc6 bfe3 c062 c058 c0a4 c026 c0a3
bffc c058 bfee c047 bf42 c06b bff1 c027
3ee7 3ea7 c088 bf6e 3f83 c067 c070 bfd2
bf0c bf68 c048 c014 c060 c013 bf6a c0a8
bffe c06c c05c bfd8 bffe bfd6 c004 bf88
be84 c030 bfbc c016 c04e c017 bfa0 c090
bfcc c04b c012 bfd0 c05e c00f c040 bfec
bfb4 bfc0 c034 bf5e c074 c080 c07c c05b
bf58 be1c be94 bf04 c02b c087 c035 c08f
c043 c014 c004 bed1 c0b0 bfd4 c091 3ed4
c05e 3e80 c084 bff0 bf6b bfda 3fa8 c0a8
c032 c01a c0a4 c006 bfbc c043 c0ae c049
be58 c03f c015 bfe5 c00a c043 bffc bfd0
c03a c057 c068 bfd5 c088 c07a c038 bff0
c06a 3de0 bf85 bfb6 bfcf bf6a c073 c048
bff1 c00f c05e c055 c06a bffa c044 bf49
c087 3f35 c037 c028 3f68 bfde c015 c08f
bffc bfea bfd0 bf92 bfb1 c024 c078 bf9b
c009 c036 c0cf bf1a c06f c0c0 c050 c04a
bf74 c041 c003 c028 c059 c03a c040 c02c
c090 bf9a c03d c08e bfb4 c052 bfe6 c072
c090 c0a0 c036 bff9 c099 c025 c025 bf48
bf2c bfe5 c063 c044 c02a bfdd bf96 bffd
3e9f c088 c015 c024 bf94 c018 c071 bfb0
c04c bf1e c032 c059 c04b c076 c08a c045
bfc6 bf8d 3e24 c01f bd08 c066 c07e c0a0
c00c c03e c002 c030 bff5 3ec6 c025 c012
c014 c06c 3ecd c029 c05d c00b bfc1 c082
bfae c01b 3f63 c0a7 3d60 c003 bebc c002
c06e bfa1 bf1f 3e20 c026 befb 3f1d bfe6
c013 bfa4 c078 c003 bf7f c091 bfec bfe6
c088 c019 bfde c020 bfea bff9 3f6a bf52
bfa6 c010 bf9c bff8 bfae bf82 bff0 c00a
c05c c074 c01d bfc9 bf80 3e4a bfc8 c0ac
c044 c01c c016 c047 bfb6 c061 c000 bfd6
c02c c036 bf59 bfbd c0e2 c098 3f5a c01e
bfa0 bf75 c098 bc00 c04d c07a c034 c017
befa c051 c023 3fb5 bfd8 bfbe c008 c015
c057 bfbe c038 c003 bfc0 bfdb c058 bff5
bff2 c02c c043 c003 c084 c01a c00a 3f1e
bff1 bebc c052 bfc7 c043 bfc1 c083 bf8f
c084 c036 bfe1 bf94 c037 c048 bff5 c00a
3eea c052 c03b bfd4 c044 bfc4 c034 c034
c087 c03d bf38 c02c bfdd bfef c067 c080
bffe bfd6 c03c 3fe5 c00f c05c c070 c00a
bfec bcd0 c08c bfc8 c043 c002 c06a c034
c05d c03a c097 bd48 bf89 bf50 bf6e 3cf0
bf0d bf8a be50 c003 c05f bf3a c039 c04d
bed9 be88 bfb8 401a c027 bfef 3ec0 bf49
c015 bfa4 3f11 bf9f c02a bfd0 bfb8 c041
c02b c05a c035 c01e c020 c032 bf8c c031
c04c c027 c033 3ef0 bfbb c022 bf78 3da3
c02e c008 c058 c035 bf50 c011 bfea c05d
bfcc bf5b c0c0 3e7b c00b c001 bfe8 c03f
c023 3e6c c023 c013 bffd c014 3f7c bfd2
befb c010 bfbc 3f0e c05e c023 c098 c076
c0c8 c064 bf72 bfdb c01e c026 bfe1 c051
c03e bed4 3f3d c076 bee4 bf38 c04f bfd2
bef4 bffd c004 c09f c04c c01e c057 c01f
c09a bfce c097 bfdd bf12 bf48 c012 bf91
c07c 3eb0 c044 c09e 3d00 c027 c00c c015
c04a bf83 c038 be76 bfb4 bfea c035 c06d
bff2 c00b c064 c088 c088 be28 bf8c bf09
c08c c015 c023 c070 bf9f 3fb0 c02f c03a
bf7a c09e c063 be0e c050 bfb4 be0e c052
c076 c033 bf19 c00c c04f c096 c028 3da8
c05c c03b c030 c08b c016 c0a8 c066 bf87
c079 c03a bf8c c028 c07d c03b bf00 bfdb
c06c c04c c074 c023 bf9d bf9c bf60 c00a
bedd 3dce bfd8 c010 c018 c01f bedc bff0
c02b c02f bf2e bf49 3f74 c069 bc40 c057
c005 c016 c05d c02c c02c c058 c07e bfdc
c04d bfa2 bff8 c03f c045 c046 4012 c0a8
c0a4 c085 c05f bf66 3fa4 bfc5 c035 bf44
c01a c031 c004 c01c 4012 bf9c bfb3 bf1c
3dad c06a c04f c030 bf8e c025 bf9a bf2a
c070 c021 bf1e c003 c009 bf90 bf27 c00d
3d70 3f4a bfef c048 bdfe bf6a c043 c053
c066 3fc0 bfe4 bff2 c05e c024 bff7 c024
c039 c010 c02e c019 bd08 bfbc c015 3e05
bffe bf34 bfae c086 c058 c066 c07c c07e
bff4 bff7 c021 bf63 c00e 3fba c058 bfa0
bee8 c00a bfe4 c00f bfb1 bd98 3dcc c01c
c085 bff4 c02f bfbc bfea bfba c0c2 c031
3d88 c023 c02d 3f5a bff4 c048 bfd3 bf8a
c09d c07c c03a c053 beb6 bf72 c057 bf5e
c055 c00f c039 bf33 c015 be63 bf98 c07e
bed1 c02b be58 c063 bfd0 c029 bfe2 c052
c0a3 c04c be20 c008 bfa0 3f86 bfbb be22
c002 c02a c07f bfd2 c001 c070 bf8b bed0
bf56 bfcd bd60 3ea6 c046 c02c c029 c03b
c007 bffc c014 c042 3f12 c06b bf82 c0ca
c034 c043 bfd9 c07c 3e8f c00b c05a be60
bfaa 3ed5 c06c c01c c0ac c088 3f9c c00a
bfe0 c08e c00e c029 bfc8 bfe8 bf8b c01c
c05e bf08 bfd3 c085 c030 3d97 c060 c030
bfbe bebf be8b c02a c088 bf61 c060 bfdf
bf25 c088 bf9b bff2 c012 bf87 c073 c053
bfd5 c01d bf10 c00d bfab bf2d 40aa c040
c06e c03f bf2c c02e bfa4 c046 bfcc bf56
bfd4 bf5e bfdc c076 beea be1f c0a0 c020
c028 c07a c085 c08d bf96 c04d c032 bfd0
c092 3f5c bf41 c01c c039 bf03 c0ac c011
bf5f bfcc c041 c048 c03e bf28 bf54 c07a
c060 c083 3ea0 c00e c02f c00a c002 bf4b
bd10 c039 c044 c01f bf8c bfba c06c c0a0
bff7 3f5c c010 bfde c026 bfeb c072 bf94
bfd4 bf52 bfb7 bec6 c02d c09f be88 bef8
bffb c04b c063 c09c c017 c094 c04b bf93
bfcc bf7a c095 bfd6 bfc4 bfe6 c063 c004
c03c c01d bea0 c01d c097 3f02 bf54 bf86
bfd0 bfd2 4057 c06d bfc4 c09e bfd9 c01a
c03a c06b c020 c01a bfc0 c002 bd94 3f6a
bf63 bea0 c0b3 bfb7 3fb5 c050 bfee c060
bec5 be20 c009 c050 c003 bffc c0a0 bfeb
c03c bf0d c000 c04a be84 3e7a c028 bff4
3ed1 bf82 bf4e c058 c05d c0b4 c000 3dc0
c042 bfba c019 c028 3e4a c0a3 c09c beb3
c018 c02c bfb8 c086 3ffe bff4 c058 bfd8
bf96 bfc6 befe bffb c063 bf6b c08b bfe1
bfd3 bec8 c06e bf88 bef7 bf4c bfac c020
c016 c09f bfd8 c003 bf5d c009 c02e c017
c07e c088 bfdf c01e bfb3 c001 c058 3ec8
c080 c017 bffc c02d c04c c08c c025 bfb7
c03c bfa5 c0b9 bf08 c080 bf49 bf66 bedc
c04c c05b bfaa c05a c019 bf82 c006 4015
bfc5 3f8c bf4c c08a 3f84 bfc9 c001 c033
bfa1 becc bf93 c0da 3f89 c020 be30 bfd1
c032 c001 bfbe bf47 c04f bf9e c068 bf00
bff6 bf43 c05a c02a bfd0 c049 bf68 c02c
c005 c00e bf5b c09a bfc0 c05f bd18 c05d
c068 3dee c003 c084 c037 c066 bf6e c03a
bebb bea6 bf9f 4019 c02b c08a 3e30 c080
c012 c043 c096 c01a bf83 c00c bf82 c008
bf4b bf81 c01e c002 c066 bfb7 bf08 bf57
c037 bfbe c0bb c039 c07e bf30 bf28 c02d
3e54 c0a7 c019 bff0 c087 c02d c044 3f4e
bdd0 bfda 402c c089 bf98 c020 bff7 c05c
c093 c04c bf44 bfa4 c077 bfe4 c02e c052
c058 c021 bfbd bfa1 3e20 c077 c084 3d8c
c017 c061 c021 3eb0 c028 c0a0 bfd1 bfa5
3ce0 c066 c01c bfda c004 c00b c082 bec6
be9b be9a c03a 3ee5 bf8e c050 bfdd c08f
bff5 bfca c080 bfb6 4008 bf97 bfc6 c013
bfc6 bf13 bef2 c026 c009 c000 c004 c01d
c0b2 3e07 bff8 bfd2 bfe8 bfac c05e bf8b
bfae c01c c00f bfbd c00a c01a bfc4 c024
bffe 3e44 c095 bee6 c07e c054 bffa 3e0e
c00d c009 bfc9 c096 3d20 bf87 3cf0 c015
bfc0 bf46 c08d c070 c000 bf84 c046 3fe2
bece c01c c02e bf7a c008 c051 c06d c055
bfc0 be34 3edb c04e c03a bf94 bfe1 bfd6
c05e bfd0 c00e c04a bf7e bf6c c03a 4004
bfaa bfec c06c bf6a 3ea9 c042 c034 c065
c087 c034 c069 3f88 c021 c03a bfe1 c059
be58 c03b be6e bcb8 bf93 bf2d c01c c081
bdee c00d c023 c062 c089 c007 c02b c022
beb6 bf06 bf03 c06c c053 bfb1 bf54 c01c
bf86 c00c c06a c044 c074 3e35 c06f bf78
c01b c04c c035 c081 bf5c c020 c070 c076
bfb7 bf82 bfdc c013 bff8 c003 bfc5 bfe1
c090 c092 bf94 c050 3f77 bfd6 beef c068
c045 c033 bf93 c002 bfc8 bff7 c07a c009
bfb4 c017 c037 c091 c037 c098 c02d c006
c01e c069 bfdf bfcb c007 c071 3ebf c05f
c05c bfb9 bf49 bf42 bf54 bfbb c014 bfee
c062 c085 c028 c006 bf1c bff8 bfba c009
bf9d bf94 c02e 3be0 c011 bfe7 c088 bf37
c03e c013 bf7b c070 bf1a c022 bfa0 c040
bfe6 bf9e bbc0 c00a c072 c01c c093 c02d
c016 c012 bfb0 c064 c02c c024 c000 c060
c036 be9e 4051 bff9 bfd9 bfdc c051 bef8
c028 3f60 c04f bf08 bf2c bfcd bea7 c076
c008 bf52 bff2 c033 bf82 c00d c022 c02c
bfdf c00d c00b c058 c091 c011 c00e bfad
c07a bf48 c03a c020 bfea c03e c023 c007
c055 beb8 c027 bfd5 3e3a c082 c0ab becc
c020 c07e be12 3da0 c005 bfa5 bf7e c02b
c02f be28 c02e bfc3 c013 c060 bfdf c039
c030 c009 bfc0 bf44 c0a2 c01e c048 c050
bfad c064 c02d c08f c003 c05c bfe5 c038
be81 bfb2 c00a c02a bf38 c005 bf98 c061
c08d c03f c074 c013 c00f c024 bf6a bfee
bf9a c045 bf0c beec bff9 c089 bfe4 c012
c093 c04d c029 3f38 bffb 40ac c080 bf8b
bfc9 bfb6 c052 c07e c056 beb5 c005 c076
c056 bff0 3e9c bfa8 c005 bf2a c02f c063
be0c c036 bfb0 bdee bf7d bfcf c016 c02a
c057 bfd8 c08a c085 bfed c024 c052 bfb0
c070 bf76 bfde bfe4 c054 c012 3ef4 c02a
c052 bfd4 bfc4 c00e c026 bf70 bfac bff8
c08e bfef c06e bf82 c011 bfdd c02c c081
c050 bfb9 bfec c055 c04a c0b2 c017 c09f
bfd0 c061 bfe2 c03d bf84 c064 bfe3 c033
3ed2 3dc0 c08a bf26 3f84 c04b c072 bfb9
bf77 bf5c c04e c022 c05d c00e bf63 c09d
bfc9 c078 c066 bfd8 c00b bfe4 bfe2 bf4c
bd50 c018 bfc5 c008 c036 bff9 bfa0 c098
bfb2 c054 c020 bfd6 c04c c006 c058 bfd5
bfbf bfc6 c029 bf49 c065 c080 c06e c03f
bf23 beb8 be0a beca c038 c078 c030 c08a
c03a bffc bff2 bf10 c0a8 bff6 c082 3ed8
c067 bd14 c08a bfc6 bef5 c012 3f97 c0a3
c02f c004 c09b bff0 bfd2 c04b c0a2 c04d
3dd8 c026 c00b bfe9 c021 c054 bff1 bfbf
c02c c048 c07a bfa2 c084 c076 c02c bfdc
c067 3efa bf99 bfab bfea bfbc c07a c038
bfe5 bff0 c070 c068 c05d bfee c051 bee4
c074 3f28 c021 c01b 3f50 bfad c019 c095
bfb1 bfe4 bfe7 bfb2 bfe7 c022 c07f bf83
c015 c046 c0d6 be9f c05b c0c4 c063 c02c
bf19 c038 c009 c03a c036 c02a c04b c028
c08b bfac c03f c090 bfa3 c04d bfa4 c068
c093 c0a5 c02b bff7 c09c c025 c02c bf40
bf16 bfc2 c069 c034 c003 bfb1 bf8e bff0
3deb c090 c02c c03b bf90 bfe5 c082 bfae
c050 bf88 c048 c05a c04b c068 c08e c043
bfa6 bf4e 3d98 c014 be16 c054 c06c c09a
c00a c02f bfdf c037 bff6 3f09 c042 bfc2
c020 c06a 3e94 c013 c06d c00e bfbb c06f
bf87 c011 3f2b c0a7 3e7e bff4 3d99 bfec
c05d bf9c bf3a 3e34 c021 be5c 3f5e bfe2
c009 bfc9 c065 bfe7 bfa4 c08c c00c bfd9
c08e c006 bfaa c027 bff0 bfcc 3f52 bf77
bf91 c01a bf80 bfeb bfab bf77 c00d c02a
c057 c06b c018 bfe6 bf5d 3dcc bfc0 c0a5
c048 c010 c00c c03c bfd7 c058 c002 bfec
c01c c032 bf22 bfa6 c0c8 c097 3f48 c02c
bfa5 bf40 c098 3e6a c02a c086 c03b c013
bf26 c042 c023 3f99 bfbb bfdd c006 c013
c048 bfd9 c044 c00b bfe4 bfcd c052 bfbe
bfff bfde c02c bffb c073 c010 c004 3f46
bfe5 bed2 c054 bfe3 c036 bfd2 c084 bfa0
c06d c032 bfd5 bfc2 c036 c03e bff4 c000
3ede c052 c03d bfcd c04e bfe6 c037 c02b
c086 c040 bf7c c032 bfb5 bfdd c07a c080
bfe3 bfbf c03e 3fb8 c008 c04e c068 c00d
bfc2 bce0 c08e bfbd c04e bfe8 c058 c019
c056 c02a c09e be14 bfda bf13 bf6c 3e3a
be9a bfaa bed6 bfe2 c05c bf5c c03b c045
beef 3c20 bfa8 4014 c02c bfc1 3eb4 bf59
c020 bfb2 3f49 bf87 c026 bfdf bfca c058
c026 c066 c02d c034 c020 c02b bfa4 c049
c040 c021 c038 3ef3 bfcc c026 bf9b bcc8
c02a c009 c04c c02a bf06 c028 c009 c051
bfa2 bf26 c0c6 3ec1 c026 c001 c001 c034
c00e be4c c02d c002 c004 c011 3f4c bfd0
be1c c003 bf96 3f4b c054 c030 c09a c072
c0ca c05f bf28 bfce c02a c01c bfa0 c05a
c054 bea4 3f2e c070 be38 bf1a c040 bfcd
bd80 bff6 c008 c094 c045 c015 c050 c01f
c09c bfdc c08a bfe4 bf2e bf34 bffe bf9e
c074 3ead c02a c0a8 be08 c018 c00f c006
c04e bf88 c03a bea5 bfa0 c006 c00d c079
bfdc c027 c067 c088 c083 bb80 bf3b bf36
c076 c027 c02c c05f bfbe 3fb3 c030 c045
bf6b c09d c062 3e2b c041 bfbc be00 c04e
c07d c034 bf32 c013 c05c c0a3 bfd4 bea0
c046 c02f c036 c08f c017 c0a8 c053 bf86
c072 c038 bfa6 c020 c06d c044 bf32 bfe8
c06e c04a c072 c01f bf6c bf46 bf8a c001
3cf0 bd52 bfb5 c01d c025 c00c bee5 bfbe
c026 c02f be9c bf47 3f88 c076 be8c c067
c00a c028 c057 c030 c028 c05a c080 bfce
c03f bf8a bfd5 c048 c03f c046 401c c09e
c0af c08d c041 bf22 3fa0 bfc8 c026 bf5f
c007 c02e bffa c01d 4013 bfbe bf9f bf12
be76 c05e c050 c01f bfd4 c018 bf96 bf5b
c06c c02b bf38 c010 c008 bf8e bf83 c001
be90 3f22 bfe0 c04e bf30 bf9b c04b c05b
c04d 4016 bfe4 bfec c059 c008 bfc9 c018
c032 bff1 c020 c00f be78 bfc9 c04f 3d44
bfef beb7 bf8d c07f c05d c054 c081 c079
c002 c010 c02c bf1a bfef 3fc3 c04c bf99
be98 c01c bfe4 c006 bfc0 be00 3ebb c02c
c089 c032 c030 bfab bff2 bfb5 c0c4 c041
3dd0 c00b c03c 3f5e bfc8 c03c bfc8 bf4c
c0af c087 c02a c055 bf1a bf87 c058 bf92
c05e bfee c046 bf38 c01e be40 bfda c076
bf1b c020 be94 c068 bfea c02f bfbe c064
c0a3 c048 be70 c002 bf9c 3f48 bfb6 3e6c
bfe6 c030 c085 bfb2 bff2 c062 bf4a be01
bf08 bfac be50 3e7f c043 c031 c020 c044
bffa bfe8 c01e c036 3eda c05d bf59 c0c8
c03f c03a bfe9 c066 3e96 c000 c066 beca
bf93 3eb6 c078 c014 c0a7 c085 3f67 bff4
bfb9 c094 bfcc c024 bf86 bfac bf88 c013
c064 be83 bfe3 c07c c030 be4c c05e c034
bfe4 beaf be98 c02e c055 bf4a c05f bfed
bf0e c082 bf4b bffa c010 bf96 c06c c042
bfb8 c02f bf15 c012 bfad bf3c 40a8 c020
c06a c031 bf39 c026 bfbc c050 bfe0 bf5d
bfd0 bf34 bfbc c061 bd5c 3c10 c0a6 c038
c01e c06b c080 c089 bf38 c042 c021 bfe8
c099 3f52 bf22 c017 c03d bef4 c0b4 c01f
bf52 bfeb c03c c04a c044 bf03 bf24 c083
c056 c083 3e92 bfde c031 bfec c007 bf30
bf06 c04a c086 c022 bf8d bfb2 c06b c09b
bfc0 3f7a c029 bfc9 c021 bff6 c071 bfa6
bfe6 bf58 bfbe be14 c01e c0aa 3e6a bf0a
bff5 c06c c065 c098 bfe6 c09a c04a bfde
bfb8 bf83 c097 bfc0 bfb4 c007 c04d c00f
c037 c020 be8e c015 c0a0 3d58 bf28 bf97
bfd7 bff4 406a c077 bfd0 c0a4 bfd2 c01a
c041 c072 c01e c012 bf95 bff9 3d08 3f6a
bf89 bf2c c0b2 bfd2 3fb0 c056 bfdf c066
bece be90 bfdf c046 c017 c001 c09c bfb2
c03a bf4c bfe2 c04d bebc 3ddc c015 bff0
3e62 bf8c bf02 c048 c06a c0ae bff9 be92
c046 bfc0 c015 c02c 3e8e c09c c0a4 3d84
bff3 c029 bfbd c088 4012 bffe c05c bffc
bf44 bfc9 bedc c010 c06e bf44 c099 c012
bfc9 bf3e c068 bf87 bf1c bf5e bfda c01e
c012 c09b bfcb bff4 bf42 c003 c01f c014
c073 c07a c01f c035 bfd8 bfcd c044 3e8a
c080 c010 c008 c016 c053 c088 c02c bfbd
c045 bf9f c0bb bf1a c084 bea3 bf6c beea
c030 c05d bfb8 c040 c01f bf96 c01c 4020
bf82 3f9a bf82 c08f 3f9a bfe6 c019 c020
bfa2 bebf bf8f c0d1 3f75 c026 bed2 bfaa
c012 c005 bfab bf3b c04e bfb0 c070 be3a
bff0 bf2d c060 c01c bfe3 c052 bf8c c022
c013 bfff bf2e c09e bf90 c060 3e34 c048
c056 be46 bff0 c07a c044 c04b bf86 c026
bd18 beb7 bfa1 401b c020 c08c bd60 c081
c00c c05c c096 c00a bf86 c006 bf72 c000
be60 bf6a c021 bfeb c065 bf8c be31 bf1a
c03f bfbf c0b5 c030 c056 bf66 bf40 c037
3e80 c084 c01a bff6 c086 c029 c02e 3efe
bd98 bfec 4024 c090 bfa1 c018 bffa c052
c096 c04c bf2f bfac c07f bfce c018 c05c
c052 c030 bf97 bfac becd c05f c087 3da6
c01a c056 c01f 3e0e c014 c0a0 bfd2 bf9c
3e00 c078 c00f bf9c c01a c008 c088 bef8
bf02 bebd c023 3ee1 bf99 c045 bfdc c082
c000 bfe3 c083 bfd2 3ff5 bf9c bfc6 c016
bfd0 bec0 be5a c015 bff9 bffa c005 bffe
c0ab bbe0 c00c bffe c006 bfa1 c03d bfa5
bf99 c00a bff8 bfcf c011 c02f bfe8 c01f
c00b bc90 c08f bf4a c081 c066 bfc2 3eda
bff0 bff9 bfa0 c089 3e41 bf8c 3dfa bff2
bfca bf52 c092 c069 c007 bf49 c047 3fdd
be8e c013 c029 bf78 c013 c048 c059 c040
bff1 bdb8 3ed8 c03b c040 bef8 bff3 bfe0
c064 bfc8 c011 c036 bf8e bf18 c03d 3fe6
bf88 bfb4 c066 bf58 3ea8 c038 c022 c065
c085 c02c c07a 3fa8 c019 c03f bfb2 c04f
be26 c030 3c20 3de0 bfa9 bf7b c019 c084
bde4 c008 c028 c03a c08b c011 c039 c02f
beb0 bea0 bf5e c05e c05d bf97 bf4b c00d
bf5a c00a c06b c046 c079 3e95 c073 bf86
c01e c048 c04c c081 bf56 c015 c071 c059
bfd5 bf6a bfe7 c00d bfef c00e bfc4 bfde
c08e c092 bf94 c040 3fa1 bfba bf07 c060
c034 c015 bfa4 bff8 bfec bffc c080 bffe
bfb6 c008 c026 c091 c038 c08f c044 c006
c01b c060 bfca bfb9 bff4 c070 3e89 c06b
c061 bf77 bf7f bf6e bf00 bfca c019 bfec
c061 c07e c014 c003 bf06 c00b bfbc bffa
bfb1 bf7f c030 bdae c010 bff4 c089 bf38
c02f c026 bf72 c05c be55 c006 bf97 c049
bfeb bfa5 3c28 bffa c05c c014 c096 c020
c00d c014 bfa9 c069 c01d c011 bfc8 c05e
c01a bea8 4052 c007 bfd1 bfba c040 bf34
c029 3ec7 c048 be70 bf58 bfd6 c035 c073
c002 bf52 c004 c030 bf98 c020 c025 c034
bfe7 bff4 c011 c04f c093 c00d bff2 bfb6
c05f bf52 c047 c015 bfe3 c040 c026 c004
c071 be4a c01d bfe2 bea9 c07c c0a4 bf07
c012 c083 3e1e 3de8 c013 bfbe bf88 c045
c033 be06 c032 bfdd c011 c04b bf90 c046
c02e c008 bfe1 bf30 c09f c012 c045 c03c
bf9f c04b c032 c08d c001 c064 bfc3 c037
beb7 bf81 c006 c030 bf58 c018 bf88 c05e
c02b c040 c067 bfd6 c016 c021 bf90 bfbc
bfa5 c045 bf3c beea bff6 c08a c016 c00e
c098 c04a c022 3f22 bff4 40a9 c072 bfaa
bfde bfb1 c063 c06c c057 be10 c023 c075
c064 bfe6 3e1a bfc6 c013 bf5c c02c c050
be1c c037 bf9d bd9e bf81 bfc9 c02b c039
c042 bfb6 c093 c082 bfde c038 c069 bf97
c068 bf75 bfc6 bff8 c047 c017 3ecb c018
c052 c00a bfc5 bfe3 c023 bf93 bfc7 bff0
c085 bfff c066 bfa6 c00f bfd2 c028 c07d
c04e bfd5 c005 c05c c03e c0b7 c01e c09f
bfac c060 bfc9 c04e bf8e c06a bff1 c031
3efe 3e34 c08a beb1 3f86 c047 c05f bfce
bf82 bf7a c060 c01a c04e c00e bf5c c02d
bfca c082 c04e bfcc bff2 bff0 bfc9 bf4c
be1c c010 bfb2 bfdf c02c bff3 bf92 c08c
bf9e c054 c034 c00a c053 bff5 c058 bfa4
bfb1 bf85 c022 bf81 c06f c07e c06f c042
bef1 bed3 be6a befc c046 c07a c019 c090
c022 c003 c000 be76 c0a6 bfc9 c089 3e8f
c068 be0e c06b bf93 bfae c01d 3f7e c09f
c025 c008 c09a bfe9 bf9a c044 c0ae c063
bdc8 c033 c00c bfe2 c025 c053 bffd bfba
c024 c01f c088 bfb2 c071 c068 c021 c015
c054 3ecf bfa2 bf88 bfb7 bfaa c07c c043
bff5 bfe7 c053 c057 c064 bfd0 c053 bede
c07c 3f18 c014 c01c 3f71 bfbd c02d c08f
bfc7 bfd8 c000 bfa8 bfcb c020 c07b bf8f
c030 c041 c0d4 bec2 c06a c0c4 c05e c01e
bedc c035 bff2 c032 c025 c01f c049 c01c
c08d bfa1 c040 c094 bfc4 c052 bf9d c063
c097 c0a9 c012 bff2 c08c c008 c026 bf26
bf55 bf9b c07d c024 bffe bf96 bf9c bfda
be10 c090 c03d c03a bf71 bfb8 c085 bfb6
c05d bf74 c049 c036 c065 c060 c08a c03c
bfac bf52 3d38 c009 be06 c04a c075 c08a
c015 c03a bff4 c02c bfe5 3f08 c03f bfb6
c01a c050 3e16 c028 c074 bfdc bfa6 c06a
bf9c bfd4 3f6b c0b5 3dcc c002 bdb4 bfd5
c048 bfb5 bf30 3eae c006 be7c 3f8a bfca
bff9 bfbf c05c c00c bf9a c08a c00e bfd8
c090 c004 bf75 c02d c00c bfd0 3f55 bf2e
bf9e c01a bf81 bfda bfc3 bf73 c010 c038
c066 c06d c01b bfd2 bf9e be7a bfd2 c0a1
