3f7b 3e8e 3e40 bed0 bf83 3ef3 bdb3 3edc
3e04 3f2d be50 3f06 3ed8 be9e 3f1f bf19
3e5e bbe0 bfc7 bf41 3e91 be62 be8a 3e9e
bf20 3ee4 be50 3fb2 3d26 3eed be5c be06
bf87 bec1 bf88 3f0b 3d18 bf10 befe 3ec8
bf32 be86 bedf bf4f 3eea bf75 bec3 be97
be71 3f6c 3f50 beae 3e72 bf8a 3ed1 3f2e
be3d be91 bd8d be6a 3f2d 3e8a be86 3f2c
3f03 3e6f 3e7c 3e9c bf0e bf2c bde4 befd
3e0a bdcc 3d3a 3e1a bf31 3e15 3e16 3e8a
3e37 bf2e 3e13 bf4b bedc be8a bf3a 3ea2
bd20 bf39 3edc 3e3d bf09 c002 be9a becc
3db5 be42 3bc0 3ed4 be07 3ea1 3f54 bfa9
be40 3dc4 3ea2 bf32 bf7a bf47 bf72 3f58
3fa2 3f31 3f5c bdd8 be21 3c10 3f3a bf29
bdaa 3e94 3e84 bce8 bf60 3f1b bec6 be00
3d8a 3f1d 3f07 3f81 bf37 bf37 3eee bec4
be31 3e74 3f9e 3e4f 3ec8 3e8e 3d1e bcd0
3e30 3ef8 bd54 bf74 3eef 3c88 be75 beb6
be84 be24 bed6 be9c be85 be04 be34 be7c
bf28 3de7 3f13 bc00 bd40 be48 bfa1 3dba
bdaa 3e82 bf2c bf3d 3e28 bf12 bed0 bcf8
bbe0 3e24 3dfa bf28 beb1 3f92 bdb8 bd60
3f1e be86 3cc2 3e4d bf88 3efd bd76 beb0
3f44 bdd2 3ef2 3f2d bf24 3bc0 bf25 bda0
bd80 bf3c 3e68 bde8 bda4 3ec9 becc bede
3ecc 3e42 bed0 bf1c 3e65 be20 bebc 3f3a
be76 3de4 3dc7 bef9 3f7f bfc8 3e18 bedb
be16 be1a 3eca 3f1b 3f84 bf04 be03 bf24
3ef2 bdf8 bef6 bfa2 bf10 bf08 3ef2 3f34
3eec bf42 3ebe 0000 bde2 3f12 bf1a be7e
3eeb 3f3a bde8 bf0d bf51 be79 3e8c 3d5e
3df0 3ea3 bf51 be86 bf82 be9e bdd8 3e40
bf1a be5d 3f83 bf04 bf22 3f13 bee7 3edb
be27 bf30 3f4e bf92 bf15 3ebc 3e48 3f14
be05 3d8e 3dd6 beb6 bf61 c009 3e04 3f19
bf42 3ebc befa bf53 be80 bf88 beb6 3ede
bf64 3ed0 be6a bf2e bf0c becd be62 be26
be40 3d8a be50 3f28 bf90 3f04 bf1d be22
3e12 be34 3f23 3f17 be30 bf0c bf4f bedc
bf1d beea be3c 3e3c bf83 3dd9 bf0f bf2b
beaa 3f21 3d9c 3e2f 3e02 bf3c bf08 3eb1
bd3c bf06 bf9d c013 3ba0 3e80 be17 3df0
bede 3eb4 be0a be21 be32 3fdc 3dba bd18
3e8a 3d40 bf5c 3e96 be83 bce8 be8e bcf0
3e25 3dfa 3c90 3f9c 3ef8 bf6c bead bf08
3f0d bf50 be61 bf18 3c88 3fb7 bf25 3ecc
3ea0 3e6b bb40 3efc bf80 3f81 be87 3c80
beac 3eb1 3ed6 3ed9 bf7a bebf 3e7e 3f52
bf8c beda 3e47 bf77 be88 be24 3ea2 bd5c
bec7 3cb0 3f8d c00e 3ead 3f04 3f36 be04
bf58 be56 3d66 be1b bf18 3fb6 3e62 3dcc
3e99 3ef0 bdfc 3cbc 3ed6 3ea0 3e28 beee
bdf5 3f37 bf82 3f32 3eec befa 3f69 3f3a
be5d 3d0c bdf4 3f17 bf15 3fba 3efe 3f60
bc90 bf1a bf0e 3f0e bfb7 3e64 bf21 bdd6
3f72 bf4c bdba 3e34 bebd 3ee8 bdbe 3ef0
3ec5 3e36 befd 3fbc 3f1a beb0 bdc2 bcb0
3f81 bea2 3f27 bf25 bd08 3eb8 3edd 3e8a
3f28 be85 bee7 bef2 3eee c011 3e9c 3e8c
3f56 bdb2 bead 3ede 3f1e bf0c bda7 bf8c
3d60 3e4c 3dc8 bff3 beda bf6f 3ee2 bf3f
3f4a be30 3e44 3e7d 3c80 3ead 3e5e 3e04
bf67 3cf0 bf02 be3b be33 bf17 bc20 3f1c
be4b bdf2 be25 bdf0 bf2b 3e68 bc18 3eb4
bf84 3e6c 3c98 bee4 bf00 bf68 bd8e bca0
bdbe beea bed8 bf18 3f56 3f8e 3e86 be23
3f20 bc10 3e76 bf02 be65 bfaa 3ee3 3f38
bf54 3ef7 bebc be0d be61 3f42 be34 bdb8
bb80 bf2c 3f03 bf64 bed4 bf23 bdcc beae
3ec7 3ee0 bf00 3ddd 3f05 bed1 3f40 3ead
0000 be98 beb6 bc00 bed6 bdfb 3cf0 bed8
bed9 3f3a 3dd0 bf13 be03 bfb5 3f64 be1d
be2e 3f85 bce4 3dba bd3c 3cb0 becd 3e63
bef7 be33 3e78 c02c bf16 be6a 3e92 3e64
beac 3e1c bd07 bc40 3f17 bcb8 3f04 bf50
3dfe be0a bedc bf03 3f22 3f54 3dc0 3e0a
be30 bf1d 402f bed4 3d1c 3d86 3db9 beb0
3d12 3e0e be50 3eb8 bede 3d80 3dbb bf88
3f02 bf48 3e23 3ddb be1b bea9 bcb0 3f13
3eac 3d48 befb 3ba4 bf60 3f1d 3e67 bbcc
3e48 be62 3ec1 3f00 beca 3ea3 3eb8 3f20
bebc bf90 bdac bca0 3e4b 3df4 bce8 bdac
3f38 be78 3b80 be01 3e98 c033 3dda 3f14
3e36 be09 3d57 be7f bdb5 beca 3f16 bea0
beb3 3e5a be38 bffc bf34 bf5d 3ed3 beea
3f12 3ec4 3eba 3cb0 3d10 be8a 3e8f bf83
3d14 3f13 3f0e bdea 3eea 3d38 3f03 3cf4
3ea0 3e1e bf36 3e1a bf84 3eec 3e9e 3bd0
3e69 be30 3f03 3eb4 bec0 3e96 3e9a 3f10
bec4 bf94 bdc8 be0c 3e81 3d85 3bc0 3cf0
3f46 be68 3c40 bdec 3e9c c032 3c68 3f08
3d48 bdf9 3e4b bea0 be80 be9f 3f12 be8c
be85 3e2e beb9 c007 bf30 bf6e 3ed2 bf18
3f38 3eb6 3ecc be10 3e28 bea3 3e37 bf8b
3e28 3ee3 3edf 3d3e 3edd 3d02 3ef8 bdd2
3eb5 3e90 bf17 3d22 bf7d 3ef6 3e86 3da6
3ea1 be66 3e42 3ed1 bee7 3e9d 3e40 3e89
bee2 bf9a 3dc0 be38 3e74 3dec bd54 bd74
3f32 bca4 3db1 bdd8 3eb3 c02e bd42 3f1a
3c80 be4e 3e94 bed6 be4c beb6 3f02 be8a
be84 3e6b be82 bffe bf16 bf52 3e98 bed7
3f25 3ea2 3ee2 bd32 3d54 bec8 3d2a bf8c
3e42 3ee0 3f0a bd46 3ed3 bd00 3f08 3d24
3e7f 3e52 bf17 bc88 bf7a 3f04 3e56 3c98
3c90 be92 3e90 3ed2 bf06 3e30 3eaa 3eb6
bed6 bf9c 3c40 bca0 3e7f 3d46 bcf0 3e6e
3f1a bdb3 3db1 bd14 3ebc c033 be17 3f07
3e2b be74 3e7e beda be22 beda 3ef9 bd90
be8a 3e9d be86 c005 bf1b bf78 3e80 bee0
3edc 3ec0 3ecc 3e47 3d49 bec4 3e3b bf8d
3e56 3ef0 3e9a bdc7 3ef2 3c12 3f24 3d7d
3e52 3e8c bf0c 3d8c bf89 3ecf 3eba 3c20
3d07 be08 3ecd 3ead beb8 3eb3 3e90 3eb8
bf0f bf9c 3cb0 bdd8 3e20 3d8a bd1c 3e39
3eff bd38 3d2e bdf6 3ecf c02e be42 3efa
3e0e be50 3e85 be9a bd0e bf06 3f1c be4d
be36 3e58 bea8 c00c bf0a bf8a 3e99 beba
3eb8 3e98 3ed5 3e32 3d58 bec7 3eac bf8c
3de4 3eda 3e90 be39 3e7e 3cea 3f28 bde8
3eec 3e34 bef8 3be8 bf81 3f03 3db5 bd83
3e02 be37 3e80 3ee6 bebc 3efc 3e80 3edc
bf02 bfac bb40 bd70 3e56 3c88 be26 bdc8
3f04 bdef 3d97 3d14 3ee4 c02a bdda 3f06
3e06 be58 3d40 be9f bdb2 bf10 3f18 bf03
be84 3e58 be4c c006 bf2a bf82 3ee9 bee8
3ee1 3eb5 3f1c 3e6e be0e be80 3eba bf7c
3d94 3f24 3f10 bdb2 3e84 3d1a 3f1b bd58
3eba 3e86 bf32 3db5 bf8d 3f14 3d52 bd99
3c00 bd99 3f10 3ee2 bedc 3eb4 3e57 3f06
beaa bfb6 be5c be40 3e94 3c44 bc90 3dae
3f3c be3e 3d88 bc50 3ebe c02c bde2 3eed
3e17 be28 3e1b be8e bce4 bf02 3f16 be8a
be92 3e6b be88 c00e bf37 bf8c 3ed2 bf28
3f12 3e8f 3f1c 3d2c bca8 be7c 3ec5 bf7e
3e27 3f14 3f04 3e41 3e85 3d80 3f23 bd02
3ec0 3ec8 bf3a 3d90 bf8a 3f10 3dde bd74
3dff 3d6c 3ee1 3ee8 bf0f 3e9c 3dfc 3ec4
bf1a bfac bd8e be86 3e87 3c48 bdb4 3dec
3f4f 3caa 3c78 bd6c 3eb1 c02c be3b 3efa
3e68 be7d 3e26 beb2 3d48 beea 3f13 be63
be83 3e04 be26 c00f bf28 bf84 3ee8 bf04
3f1e 3de7 3f14 3d7c be0c becc 3eae bf76
3eb8 3eb9 3f04 3e10 3e60 3d9b 3f20 3d5a
3e6a 3e36 bf06 bc45 bf5a 3f1f 3e3e bde6
bc40 bccc 3e9c 3ee4 bf2f 3e9d 3e4c 3ea8
bf1e bfa6 3dae bd70 3e90 3ce0 3c20 3e12
3f36 bd1b 3d21 3d08 3ec1 c02d be7b 3ef0
3ee4 beb0 3e22 beed 3de9 bf03 3ef0 bda2
be81 3e62 be01 c007 bf36 bf68 3eda bf0e
3ec7 3e74 3ed2 3e3e be9f beec 3ee0 bf6e
3ea9 3eb8 3ee3 bd27 3ed0 3e08 3f24 3e74
bcb0 3e6b bf13 3df0 bf87 3ef2 3e3d bdaf
be03 3cb8 3f02 3e7a bf16 3eb5 3e90 3ea2
bf2b bf9c bc40 bd78 3e90 bc78 3d87 3e35
3f36 bc8c bd84 3cc0 3ec4 c028 be4f 3efa
3f04 be9d 3e81 bec0 3d58 bf05 3f1e 3d20
bdda 3e1c be26 c009 bf15 bf77 3eeb bf11
3eb2 3e32 3e8d 3d85 be01 bee4 3f1b bf83
3e34 3ec1 3e8a be1d 3ea3 3e5e 3f20 3d44
3e22 3e32 beed 3d0a bf8f 3ed2 bd0c be19
3e1d 3e30 3edc 3e9c befc 3ec2 3e88 3e6c
bf49 bfa2 bd3a be48 3e8f bcbe bd0c be42
3f24 bc48 bb80 3da4 3f06 c021 bdec 3f0a
3eb9 bde4 3d88 bed0 bd58 befb 3f00 be5e
be6f bd3c bde6 bffd bf0f bf6a 3f03 bf00
3e87 3e51 3eb1 bdd8 bdc8 be91 3ebd bf80
3d91 3f05 3ef3 be6e 3e38 3e59 3f14 3ccc
3e57 3db8 bf12 bda3 bf9a 3eee be28 bddc
3ba0 3d94 3f00 3ea0 bf0e 3e79 3e9e 3e82
bed3 bfa6 bdf8 be3a 3eb7 bc98 3da0 be47
3f55 bd98 3d54 3dac 3ec2 c022 be2a 3f03
3ea8 bda8 3d1e bea2 be13 beac 3ec8 be4e
be9a bb98 bdd8 bff9 bf34 bf75 3f0d bf29
3e97 3e6e 3ebe be39 bd24 be81 3e79 bf74
3e4b 3f10 3ef6 3b18 3e98 3e34 3f0a 3d88
3e4c 3e12 bf24 3bf8 bfaf 3ef6 bb50 bb00
3dfd 3e09 3ef4 3e95 bf06 3e63 3e5b 3e6d
beb4 bfa4 bc20 be94 3e98 be09 3e5f bdac
3f66 ba00 bcf0 be34 3e60 c02a bdde 3f00
3e98 bd9c 3e76 bea2 bd44 bed6 3ed2 bdc8
bebc 3d76 be86 c00a bf1c bf8a 3ee7 bf22
3efa 3d06 3ec4 be3a 0000 bee6 3e65 bf60
3e64 3ee8 3ebc 3d9e 3e62 3d34 3f0e bce8
3e73 3d82 beeb be19 bf97 3f20 3e08 bb50
3e8e 3dc2 3e20 3ed0 bf0a 3e9c 3e6a 3e1d
bf02 bfa6 3d5e bdec 3e7c bdd3 3e3b be26
3f40 3d3c bca4 be30 3e84 c028 be1f 3f08
3ebb be00 3d4f bea7 0000 bee6 3ed0 bd9e
bebc 3e10 be47 bffd bf1a bf61 3eb4 bef7
3eda 3de6 3ebb 3d8d be2a bf15 3e33 bf4a
3e0e 3ef2 3f0c bd85 3e6e 3bdc 3f11 bcdc
3e0e bcc0 bef0 bdd2 bfa6 3f20 3ea6 3a00
3dab be14 3ec6 3eb3 bf0e 3eb0 3ec1 3eb0
bf15 bfa4 bda6 3dd8 3e86 bddf 3e4d bc70
3f28 bde7 bd40 be1e 3e91 c02b be04 3edd
3ee9 be52 3dec be49 bdfa bed1 3f13 3cb0
be36 3ea9 be8e c000 bf2c bf67 3ea1 bf17
3eaa 3e23 3ead 3e34 bd82 bf2e 3ee2 bf67
3d84 3f0c 3ec3 be34 3ebe 3dda 3eff be13
3e38 3e0a bef2 bcf4 bfb1 3ef6 3e84 be01
3eaa bd40 3eb6 3e98 bee4 3f10 3ec2 3e54
bf44 bfa2 be0a 3cd0 3e60 be3e 3e0a be9e
3f2a bde5 be04 be3a 3e9c c022 be04 3ed2
3e52 be42 3ddb be94 be4e be98 3f12 be30
bdbc 3ea0 be7a bff2 bf1c bf4e 3ea6 bf01
3ee8 3df8 3ecc 3b00 bc80 bf35 3e97 bf6b
3cac 3f19 3eea be3b 3eb4 3e26 3efa be7c
3ec2 3de2 bf0e be47 bfb9 3eed 3daa bdc8
3e95 bd6c 3e6e 3eba bede 3ee4 3eba 3e7a
bf0f bfb4 be3b bc60 3ecc be0a 3e4b bebc
3f32 be48 3b00 3c30 3ebf c022 be42 3eb0
3e37 bd2e 3bc2 bea3 bea2 be7e 3eba be54
bdc6 3e86 be2e bfe1 bf0e bf25 3e96 bf11
3ecd 3e57 3ef2 3d38 3c90 bf17 3e22 bf60
3d80 3f3e 3ef1 bdac 3eea 3e00 3efc bd86
3e7d 3eb3 bf1d bd93 bfd4 3eee 3d80 bd83
3e06 bdd7 3ea8 3e85 bf0d 3e9b 3ea6 3e11
beef bfaa be0c bda4 3eae be69 3eb8 be20
3f38 bdc2 bddf be3d 3e9d c02c bea8 3eb2
3e54 bdbc 3e1e bea4 be54 be78 3ea0 3ca0
bd8f 3ea4 be21 bfef bf15 bf63 3e82 bf0e
3eea 3e1b 3efe 3da4 3e14 bf30 3de6 bf71
3e12 3f2c 3e9c 3da0 3ecb 3de6 3f08 bdc6
3e6a 3e9c bee7 be16 bfcc 3ec5 3e64 bd88
3e5f bdb9 3e3e 3ebc bf1c 3eb8 3dec 3e6c
bf2c bfa4 3dbc bd98 3e68 be8f 3e98 be0e
3f08 bd37 be06 bea6 3e74 c029 be9a 3ed0
3e46 be23 3e0a bea5 bd86 be91 3e8b bd08
bd8a 3e4c bd84 bfe4 bf00 bf64 3e67 bec5
3ed0 3d62 3f08 3e54 3c9c bf3c 3e0b bf5e
3e3d 3f15 3ebe bd26 3ebe 3d8d 3f18 bde4
3e95 3e61 beca be60 bfca 3f01 3e36 bd12
3de6 be3a 3ea9 3ed4 bf24 3efd 3e8c 3ecf
bf16 bfa3 bdaf 3e7a 3e78 be64 3e98 be0e
3f13 be2d bd70 be52 3e9d c032 be7a 3eb6
3ea7 be36 3cd4 be72 3a00 beca 3ead bd97
bd7a 3e8b bdcc bfe5 bf1c bf6a 3e95 bf0f
3ea5 3e09 3f16 3ed3 be06 bf3d 3ebc bf5e
3e00 3f25 3ec2 bcc0 3ef5 3e35 3f1c bd6f
3e89 3ea2 bf03 bd74 bfdc 3efa 3e30 bdac
3e74 bd3f 3f11 3ed4 bf0e 3ef8 3e61 3f08
bf2a bfa0 be01 3ddc 3e5c be9c 3e70 be8b
3f34 be29 be54 be42 3eaa c033 be20 3e99
3eca be5e 3c58 be16 bc68 bea3 3ec9 be28
3d22 3ea4 3c30 bff4 bf2e bf76 3ee4 bf1e
3f02 3de4 3f37 3e5c bd86 bf42 3efc bf68
3dc5 3f30 3eda 3d99 3edf 3e80 3eff be2c
3ebd 3eb2 bef5 be22 bfcd 3ef9 bcf8 bdb3
3eb8 3d8a 3ec6 3efe bf1a 3ee4 3df0 3eea
bf39 bfa4 bd0c bcc0 3e93 be9a 3e88 bf04
3f57 bdfe bdc4 be4a 3ebe c030 be3c 3ebd
3ec2 be22 be07 be3c bcc6 be28 3e72 be57
3b20 3e17 3da8 bfdf bf20 bf44 3f16 bf0e
3f1c 3dde 3f31 3e70 be2f bf24 3e56 bf62
3e45 3f3e 3f10 3e1a 3ee8 3e20 3f18 3b20
3e48 3eb4 bf0c be4a bfc4 3ed4 3d8b be08
3e7e 3c8c 3ee9 3ec9 bf2f 3e8d 3df3 3eea
bf1e bf99 bcf0 3d64 3eac be87 3ecb be85
3f6e bde6 bddf be48 3ea7 c033 be76 3ec5
3f10 be77 3d90 be67 bb00 be4e 3de6 3dee
3d44 3e5a 3db2 bfe2 bf2e bf43 3f0b bf21
3f07 3e03 3efe 3e0e be3c bf46 3e92 bf73
3e95 3f1a 3ece 3e9c 3f0f 3e9f 3f0c 3e04
bd7a 3ee4 beef bc9e bfca 3ecc 3d92 bd48
3e8d 3dd2 3ef4 3e8f bf3c 3e6f 3d2f 3ecc
bf50 bf84 3dd0 bd9a 3e85 be97 3ece be84
3f5c bca2 be81 be9a 3ec3 c035 be7e 3ebe
3f31 be49 3e29 be7e 3dfc be48 3db7 3df8
3da6 3e1f 3dc7 bfe2 bf18 bf40 3f24 beda
3ef6 3c18 3ec8 3dfc bdf1 bf4b 3e7f bf80
3e87 3ece 3e82 3da9 3ec8 3e89 3f08 3e02
bd95 3eb7 be9d be81 bfb9 3eea 3d3c be38
3e92 3d95 3eb4 3e88 bf3b 3e85 3dde 3ec6
bf3b bf80 3e0c 3dd8 3e84 be86 3e8a becb
3f40 bc8c be2d be35 3ee9 c034 be4b 3ee0
3f2b be1c bdaa be75 3e02 be9b 3d85 3c90
3ca0 3ddc 3e33 bfc8 bf02 bf1e 3f18 bec0
3ead 3e06 3ea3 3e08 be20 bf28 3e2a bf82
3d34 3f16 3eb1 be34 3ecc 3e81 3f01 3e0c
bd6a 3e8b bed4 bdfd bfce 3ec0 bc8e be12
3e82 3d98 3f1a 3e8a bf17 3e83 3e2c 3f00
bf0f bf84 bc20 3d20 3e84 be8f 3ea5 bef6
3f53 be09 be47 be62 3ef5 c036 be1d 3ee7
3f1f be0c 3ba0 bd9f 3dc2 be88 3e21 bd84
3d6a 3d8d 3dde bfdc bf16 bf37 3f3a beed
3ed3 3e15 3eb2 3d88 bdee bf0b 3e46 bf8e
bd04 3f20 3ea3 bdd8 3ea7 3e7d 3ef1 bbb0
3d90 3ee2 bf09 be20 bfd0 3ea1 bc70 be38
3f02 3e3a 3f05 3e61 bf08 3e29 3db2 3efa
bf1b bf80 3dbe be20 3e70 be9a 3e84 bf2a
3f52 bd88 be52 beb4 3ec6 c035 3d08 3ed2
3f0c bd30 bd24 bdfc bdae be4d 3def bea1
3b98 bb60 3e2a bfd4 beea bf12 3f42 bed4
3f1a bac0 3ece bd5c bd20 bee8 bd08 bf88
3d1c 3f32 3f09 bb00 3e5a 3e18 3f0c bc34
3e31 3e90 bf1e be9c bfb9 3f0a 3bf0 be2b
3ef3 ba80 3ea2 3e8c bf37 3d54 3de1 3eee
bee2 bf88 3db4 bd68 3e62 be8d 3eaa bf0e
3f6e bdbe bdec bebe 3e9b c037 bdf4 3ed3
3f21 be21 bbc0 bd9e bd94 be6d 3da6 be18
bdb8 3e60 3dbc bfcc bf16 bf00 3f2d bee7
3f1a 3e58 3ed2 3e02 bdd0 bf08 be30 bf7c
3df6 3f35 3f0e 3d50 3ed0 3d2c 3f10 3d71
bd3a 3eae bf26 be19 bfbe 3ee4 3e8e bda4
3ede bd48 3ed2 3e6b bf28 3d58 3dea 3ef3
bf11 bf7c 3e2a bda8 3e38 be4a 3ea4 be5c
3f68 3c20 be12 bef5 3eba c03d be1e 3ec4
3f1f be86 3e34 bcf8 3d08 be57 3e64 3ba0
bbe8 3ec8 bd44 bfe1 beeb bf19 3f14 beac
3f3a 3dc6 3eb2 3e6c bb40 bf3e bdce bf8e
3dcd 3f08 3ec7 bd68 3eca 3e20 3ef6 3bec
bddb 3ea7 bef9 be22 bfab 3ed9 3e62 bdc9
3eda bdf4 3e7e 3e5f bf1e 3e82 3dfc 3eb8
bf57 bf77 3e51 3b00 3e26 be4d 3e67 bea6
3f28 bc80 bdc1 bed8 3f07 c039 be84 3ec2
3f11 be72 3d50 be10 bd8e bea8 3e84 bdfe
3dda 3ec6 bcda bfc3 bea7 bece 3f0e bdc8
3f18 3e4e 3eb0 3ebd 3c18 bf2d bdf5 bf8b
3b00 3f22 3ef4 beae 3ecc 3db4 3f00 bd08
bc98 3ea6 bf0d be48 bfb3 3eac 3da9 be2c
3e96 be58 3eeb 3e44 bf0a 3e6a 3e70 3efe
bf2e bf84 bc40 3d8c 3e9a be02 3e5e bea4
3f2c be28 bdef be10 3f0e c03a be1b 3e9c
3f12 be54 3daf bd88 be2e bea1 3e9c be31
3e0d 3ed6 3b90 bfc8 bec1 beec 3f14 be8f
3f03 3eac 3ee3 3ea2 3e11 bf11 bd3c bf92
bd48 3f3f 3ec2 be81 3eee 3e20 3f0e bd74
bd48 3f02 bf2e bb80 bfc8 3e65 bc38 3b40
3e98 be02 3f19 3df0 bef4 3e5e 3e22 3eda
bf1a bf80 3ce0 be95 3e5c be4a 3e38 bec2
3f32 bdbe bdf8 be9e 3f04 c039 be4f 3ebf
3edc bdcc 3e3a 3c24 be29 beaa 3e86 bec9
3e14 3e96 3cb8 bfce beae bf19 3f14 be5c
3f22 3e43 3f0f 3e4d 3e86 bece be1c bf9e
3d8c 3f3e 3ea6 bdc8 3e9e 3e15 3f01 bd9c
3e74 3ec8 bf34 be63 bfac 3ec0 be31 bdf5
3ea5 be19 3eab 3e62 bf1f 3e09 3d25 3eb1
bee7 bf84 3e84 be8c 3e7c be91 3e07 beb9
3f3e 3ce4 bd8a beb0 3eee c03c be36 3ecc
3ee7 be36 3d07 bd28 bde6 bec0 3e5a bec8
bdd4 3e60 3d30 bfbb be9f bf05 3f29 be56
3f24 3ea0 3f24 3eaa 3e10 beca be4b bf82
3d24 3f41 3f03 bdb7 3ec9 3c48 3f28 3cfe
3d6a 3eb5 bf45 be16 bfa7 3eee bca2 bccc
3e07 bdf8 3f1b 3e60 bf34 3d7c 3d66 3ef6
bef0 bf85 3ddc be6c 3e3d be6c 3e48 3bf0
3f4a bc08 bd4c bedd 3ed0 c04a be81 3eb3
3f2b be99 3deb 3dab 3c20 bedd 3e88 be24
be06 3e9d bd4c bfd0 bece bf30 3f12 bea2
3f2c 3e51 3f1b 3f14 3e18 bf04 3d94 bf82
3df6 3f1f 3ed6 bc98 3ed2 3dda 3f23 3d4d
3d22 3ed6 bf1f bd88 bf9c 3eeb 3e0f bdbc
3e82 bd3e 3f14 3e78 bf16 3e34 3cdf 3ece
bf3e bf74 3e66 be8b 3d9c be31 3d98 be18
3f45 3ddb bdda bef0 3ef6 c04b be26 3ebc
3f42 bec3 3dc3 3d8c 3e27 bf0a 3ec3 be9a
bc94 3e82 3d08 bfd8 beb4 bf28 3f31 be79
3f38 3dc3 3f14 3f0d 3d7c bf0a 3e35 bf88
3de8 3f05 3f00 be28 3ead 3df9 3f09 bd1c
3e25 3ead bf14 be01 bf84 3f04 bda9 be0c
3e3a bdbb 3f1c 3ea2 bf15 3ea2 3dcb 3eee
bf32 bf74 3e0c be38 3e5c be15 3c78 be87
3f5e bddc bcd2 be38 3f1d c045 bde8 3eb1
3f36 beb8 bdd1 3da1 bcb4 bee7 3ea8 beb6
bd91 3e84 3d57 bfc1 bed4 bef0 3f3e be87
3f18 3e8e 3f19 3f0c 3d54 bed0 3e86 bf86
3d84 3f1c 3f0d be82 3f10 3e6a 3efc 3df4
bd04 3eee bf47 3ca8 bf90 3ed0 be2e bdcf
3d90 bb40 3f58 3e2e bf1c 3e14 3df6 3eec
bf2e bf5e 3d80 bed5 3e74 be06 3e17 be4f
3f81 bdc1 be27 be27 3f24 c046 bd20 3e9a
3f3c be62 3da6 3e09 bd93 bed2 3eaa be80
bc94 3e54 3cc4 bfcc bee4 bf0e 3f4b bed0
3f3c 3e72 3f02 3e75 3e4f bebb 3e69 bf8a
3e30 3f12 3eee be09 3f0a 3e63 3edf 3dac
3da4 3ee4 bf35 bd64 bf83 3eb2 be5c bcca
3e5e 3e18 3f19 3e16 bf26 3da3 bd16 3e9c
bf2a bf5a 3e91 bf2a 3e5c be5c 3e22 be61
3f84 3e40 be12 be65 3f1d c042 bdaa 3ebf
3f1f be65 3e37 3ce0 bc50 bec0 3dbf be88
be4b 3daa 3dd4 bfbe bece bf08 3f36 be9a
3f2e 3e2e 3ef1 3e32 3e9a beb4 3d94 bf7f
3e86 3efb 3ecb be34 3f0a 3e4e 3ed6 3e36
bcc7 3e8d bf28 be26 bf74 3ed0 be63 3d02
3be0 3d2a 3f14 3e19 bf49 bb40 3d74 3e8b
bf02 bf49 3ebf bf05 3e3a be3a 3e83 bdef
3f6b 3d99 bdb7 be60 3f08 c04a be29 3ed6
3f47 be88 3e0a 3dbd 3ca0 beea 3dbc bdb6
be6f 3df8 3d50 bfbe bec5 bf03 3f1c be91
3ef1 3e26 3eae 3eb1 3e96 beb3 3d9a bf7c
3e30 3f05 3ece be86 3f1c 3e01 3ee7 3e8d
be06 3e58 bf1c bd00 bf85 3eaa 3c98 3d5c
3d96 3cc8 3f48 3d54 bf1a 3d2c 3e0c 3ea6
bf10 bf36 3ea4 bf0e 3e0a be2c 3e4e bde8
3f5a 3dd4 be0d bebc 3f01 c050 bc40 3ef1
3f48 be97 3e30 3e3a 3d28 bef2 3e7f be3c
be87 3db0 bdb5 bfd5 beb3 bf2c 3f17 be86
3f06 3d95 3e96 3e9a 3eb8 beb2 3e89 bf84
3de5 3edc 3ec1 beda 3f06 3e24 3edd 3cc8
3db3 3dd0 bef6 be26 bf60 3edb be0e 3d04
3e71 3d28 3f17 3e5b bf0a 3e4d 3e5c 3e7c
bf25 bf44 3e84 bee5 3e4d be46 3e27 bec5
3f5a 3d93 bde8 be9a 3f1e c04a 3d48 3ee4
3f1d be5a bd00 3e1c bc94 beff 3e52 beea
bea6 3dc3 bd8c bfb8 beb4 bee6 3f1e be46
3f07 3e5c 3ec5 3ea7 3e90 be81 3e42 bf68
bd54 3f22 3f12 bee1 3f09 3dc7 3ec6 bd28
3e20 3d84 bf41 be4e bf73 3ee0 be0c bb80
3e60 be03 3f29 3e26 befc 3dba 3e97 3eef
bed5 bf6a 3d9e befe 3e91 be0c 3e67 bea2
3f87 be1a bdb8 be58 3ef4 c04e 3d00 3ed4
3f09 bddc bc6a 3e60 be5a beb5 3e8b bea2
be9a 3e77 bdba bfc1 bedb bef3 3f05 bec7
3f38 3e50 3eea 3e82 3ef3 be77 3e0c bf69
bd40 3f2b 3f1a be5d 3f38 3df7 3eb3 bda9
3e84 3e56 bf4e bda8 bf7b 3ee2 bd5c 3d95
3eba bd04 3f14 3e3b befb 3d5d 3e3d 3e93
bf18 bf4c 3e38 bf3d 3e5c be3a 3e72 be4e
3f81 3d2a bdd3 bed6 3edd c04e 3b40 3eb2
3ee4 be3b 3df0 3e84 be7a bebc 3e50 bea5
be8c 3e9b be34 bfc4 beee bef0 3ec7 beaa
3f64 3e17 3ed6 3e66 3f08 beb4 3d90 bf64
3e0a 3f0e 3f0b bd8f 3f41 3df8 3ec0 bd4d
3e49 3d8c bf1b be86 bf38 3f01 bac0 3d8b
3e95 be18 3e92 3e28 bf0a 3e2d 3dd0 3e68
bf1c bf54 3ec8 bf09 3e92 be17 3e5b be59
3f66 3d84 bd8e be9a 3ee0 c050 bda6 3ecc
3ef6 be5a 3d58 3ddc be47 beaf 3e38 be19
be94 3e90 bdf2 bfaf bed3 be74 3e62 be28
3f28 3e42 3eb7 3f02 3ece bedd bc10 bf54
3d8d 3f14 3f17 beb3 3f52 3cc0 3ee0 3d12
3db7 3e23 bf1e be36 bf53 3ec6 3d88 3d20
3df2 be9a 3f09 3e0c bf15 3e67 3e88 3e9c
bf10 bf42 3e35 bece 3e4b be19 3e96 3b20
3f4e 3c88 bdf8 be9a 3eec c055 bd04 3e8c
3f12 be23 3dbc 3e48 be4e bef8 3e72 bdf6
be21 3ed6 be0a bfb8 bee0 bec0 3e59 be65
3f13 3e49 3ea1 3f01 3f05 bece 3e37 bf6d
bd28 3f16 3ea7 beba 3f54 3e36 3ed8 bdd6
3e39 3e7c bf05 bdb2 bf60 3e9d bd00 3d4c
3e3c bda1 3eef 3e0d becd 3e90 3e6a 3e94
bf30 bf47 3e59 bf17 3e3f be63 3e58 be5b
3f36 bc90 bd94 be97 3f14 c050 3c40 3ea9
3eaa be33 bcbe 3e4e be1f bef3 3e5f bec2
bdc2 3e7b bc40 bfb3 beb9 bee6 3ea1 be52
3f16 3e67 3ee4 3eee 3f10 be64 3e60 bf68
bdb4 3f20 3edc bede 3f3c 3e4a 3eb2 be2c
3ec6 3e29 bf09 be6b bf50 3ed5 be08 3d12
3e3c be02 3efe 3e80 bed6 3e8f 3e5e 3ebd
beca bf62 3dda befc 3e96 be3f 3e4a be8c
3f5a be2a 3c00 be65 3f16 c056 bca8 3ec4
3e96 bde0 be16 3e55 be6b bee0 3db9 bf00
be97 3e4e bd40 bfad becf bebd 3e7c bec6
3f18 3e74 3f04 3ee4 3efe be04 3e33 bf60
bda7 3f4d 3f14 be48 3f58 3e13 3ec5 bcb0
3ecf 3e87 bf33 bda1 bf5c 3ed6 bda4 3dc4
3e0c be32 3f26 3e8e bf07 3e6b 3d68 3f04
beac bf5e 3e44 bf23 3e88 be35 3eb2 bd44
3f86 bb20 bd68 beb7 3ed9 c062 3c90 3ed4
3eba be18 3d96 3e90 bd20 bed0 3dcc be8f
be88 3e9c bce0 bfd2 bf06 bf10 3eba bebc
3f52 3dce 3f1b 3ef2 3f05 be7a 3ea3 bf61
3d66 3f26 3ef1 bc20 3f5a 3df5 3eb6 bcc1
3eb3 3e97 bf05 be45 bf16 3ef7 3c60 3ddc
3e54 bd96 3ec6 3e8d bf21 3e30 3d08 3ee4
bf12 bf3e 3f01 bf26 3e38 be52 3e80 bdaa
3f74 3dcf bd9b bebb 3ef4 c062 3c90 3ec1
3ee4 be8c 3d32 3e54 3d70 bec4 3db7 be88
be91 3e5e bc50 bfbc bef6 bec3 3ed5 be72
3f56 3d96 3f07 3f23 3e9e be77 3e9b bf3f
3d18 3f01 3f11 bdb1 3f5f 3dca 3ece 3d99
3e5c 3e7d bf04 be49 befa 3f0a 3da3 3cea
3db6 be19 3efe 3e9c bf34 3e6a 3d88 3f26
bf19 bf40 3ea2 bead 3e7e bd9c 3e54 3d38
3f74 bcf0 bd58 be37 3ef1 c06b 3d38 3ec1
3f1f be96 3c30 3eb1 3da1 bee5 3e2a bd1a
be48 3e9d 3cd8 bfcc bf07 be9c 3ea4 beb3
3f2a 3e3b 3ef4 3f36 3e32 beb2 3f1a bf60
3d06 3ef1 3eea be40 3f84 3e7a 3ebf 3e56
3de0 3eaa bf09 bc28 bf1a 3ecd 3d4e bca4
3e09 bce0 3f2e 3e37 bf10 3eae 3dea 3f1b
bf3f bf32 3e9a bf1b 3e6a bdc6 3e81 bda6
3f81 bd72 bdca be36 3f1c c06f 3dac 3ed7
3f15 be64 bd28 3e49 3d71 bee3 3e41 be8d
bda4 3e88 3c50 bfdf bf00 bec4 3ef8 bebb
3f2c 3e36 3ee0 3ef3 3e8d be30 3f0c bf82
bc98 3ece 3ed8 be8f 3f4f 3ecc 3e98 3d31
3e3c 3e9d bef5 be52 bef2 3ec6 be5a bdf0
3e69 3d62 3ee9 3e36 bf14 3e4e 3d33 3efa
bf16 bf39 3ecc bf48 3e94 bdce 3e7e beca
3f86 bd5f bd54 bdd4 3f2c c05e 3d90 3ef0
3f0e bdd2 bdea 3def bdb6 beaf bd66 bebf
be78 3e11 3dd9 bfc3 bf01 be58 3f0c be9e
3f2b 3e84 3e94 3e93 3e93 3e1b 3e85 bf6c
bd9a 3f1d 3f0d be5a 3f4a 3e8e 3ea2 3e3c
3e06 3e2d bf2a be09 beed 3ec9 be43 bd36
3e3c bdaa 3f17 3e0f bf1a bd87 3d49 3ef4
be90 bf49 3ea8 bf56 3e8a bd50 3e84 be2e
3f9a 3c50 bd24 be63 3f16 c06e 3dd4 3f0a
3f1f be06 3c6c 3e26 0000 be82 bd7f bde8
be90 3e3a 3d88 bfde befb bea1 3f00 bece
3f32 3e26 3e98 3e87 3ebc 3e2e 3e92 bf84
3d6c 3f08 3ecf bdd7 3f3c 3e83 3ed0 3e80
3c98 3eb1 bf16 be32 bee6 3ece 3c00 3ba8
3e82 3d48 3eff 3c98 bf21 bcf8 bc60 3ee3
beee bf28 3f13 bf6b 3db7 bdc2 3e7d be72
3f82 3e0c bd92 bee0 3ef6 c06c 3d58 3f17
3f04 be4c 3e38 3e02 3dbc becc bd6c be0b
be94 3e26 bd1c bfe9 befa bed1 3ecd be60
3f2e 3cdc 3e8b 3ea4 3e8c 3e2b 3e81 bf6c
3d6e 3ee2 3eeb be6d 3f0a 3e86 3ee2 3de2
3e08 3e32 bee8 be95 be8a 3efa 3cc4 bd48
3eac bdd0 3ea9 3e28 bf1a bd68 3d9c 3f0d
bef8 bf32 3f06 bf28 3d8e 3d1c 3e05 beb0
3f65 3d62 3d74 beb0 3f1d c066 3e02 3f17
3f2d be5f bd20 3e1b 3d5f befb 3dc2 be75
bea5 3eae bda2 bfe3 bedb be94 3ebe be13
3f1c 3e42 3e71 3eea 3d93 3e90 3e8e bf60
be00 3f1a 3f18 beda 3f23 3e08 3ef1 3d2c
3dc2 3e4e bf1e be60 be93 3ed1 3d51 bcb0
3e83 be16 3f0e 3e0a beec bc48 3e7b 3f28
beae bf56 3e4d bf30 3df6 3e07 3dc3 be6b
3f86 bd54 bc20 be9b 3f05 c06a 3e5e 3f0a
3f09 bdd2 3c84 3e8a be0d bee8 3e58 be80
be22 3ee4 bdb6 bffe bf15 beab 3ed9 be7e
3f49 3e90 3e60 3ec8 3e9f 3eac 3e91 bf74
bdd2 3f28 3f0c beae 3f1c 3e42 3f07 bd89
3e95 3e92 bf2a be3e be50 3e9e 3d50 3ca2
3f13 bdac 3ebb 3e20 bec2 3b80 3dfc 3f02
bef1 bf58 3eb9 bf73 3e46 3e06 3cec bea3
3f84 3cd0 3d8b beb2 3f25 c06a 3e48 3f18
3ee6 be2d 3d7c 3e58 be94 bebe 3e42 bf10
be88 3eac bdbf c000 bef8 be76 3ed0 be4c
3f62 3e97 3e8d 3eb7 3e8c 3ee8 3d8a bf82
be02 3f23 3f28 be8a 3f08 3e52 3f09 bb94
3e86 3e73 bf24 be92 bca0 3f00 bdb2 bddc
3ebb be38 3ead 3d90 bf0e be3d 3df9 3ef8
be9c bf5e 3ebc bf61 3e8a 3dcc 3cc8 bd8a
3f86 bc8c 3dfe be44 3f24 c068 3e21 3f18
3eb9 be12 3bb0 3e62 be5f bebc 3d96 be4b
be8c 3f0c bda3 bff5 bec8 be04 3e8a bdcf
3f4e 3ed0 3e93 3f04 3e7f 3ed0 3b80 bf79
bcee 3f28 3f18 be6c 3f1c 3d7a 3f0f 3e2d
3ce8 3eba bf3c be2d be10 3ea2 3e4a 3d1a
3e7c be69 3ef4 3d0c bf06 bd80 3e2c 3ec6
bee4 bf53 3eaf bf6a 3e3a 3ddc bc2c 3e3f
3f70 3d2e 3d9c beb5 3f1e c06c 3cc8 3f18
3ed8 be80 3e35 3e09 bda5 bf11 3e1e bdc1
be76 3f0f bda4 c008 bec9 bedc 3e3c 3cf2
3f3c 3eac 3e92 3f04 3ebd 3e9c 3e11 bf86
bb80 3efb 3ed4 beb4 3f07 3e1c 3f22 3d20
3dde 3eae bedc be3b 3ce0 3ea2 3cd0 bd46
3e43 be6f 3eda 3db0 bec2 3db0 3e50 3e96
bf0a bf72 3e9b bf48 3e3f 3e36 bdc6 3cfc
3f48 bb20 3dba be70 3f30 c066 3d8e 3f11
3eb4 be71 bb00 3dbc bd63 bf24 3e5e bed7
be7d 3ef3 bcbc bffc bea8 beb6 3e6c 3de1
3f0f 3ed8 3ea0 3f2b 3e91 3ed8 3e27 bf68
be10 3f1f 3f09 bf12 3ee0 3d66 3f23 bcbd
3e2c 3e67 bf27 be42 bce0 3ed7 be1a bd5c
3df4 be5a 3f27 3e32 bed0 3db5 3e92 3f08
be99 bf90 3dbc bf3e 3e7e 3e43 bcdc 3cb4
3f6e bdd4 3da8 bdec 3f2c c06a 3db4 3f11
3ec1 be38 bd96 3e5e bdfd bf2e 3ea6 bed4
be87 3ee2 bdf6 c008 bed9 bf0c 3e87 be27
3f21 3ecc 3ef7 3f24 3ec4 3f0e 3e7d bf82
bdba 3f43 3f06 bebe 3ee4 3e16 3f18 bca0
3ea0 3eaa bf50 bd16 be10 3eac bd95 3c28
3e5c bdb6 3f4a 3e06 beb6 3d22 3e3e 3f0e
bea2 bf8e 3e67 bf8f 3e3a 3d8c bdd4 3d08
3f86 3d89 3d8e be7a 3f10 c06c 3dbc 3f19
3e66 be56 3c94 3e76 bd6f bf16 3e86 bf04
beb6 3ea0 bd84 c014 bedb bf3f 3ebe be10
3f4e 3eb6 3f18 3f19 3ebe 3f1a 3e9b bf80
3d28 3f0b 3f10 be24 3ea5 3dce 3f1e 3d26
3ee8 3e8a bf26 be33 3e40 3eee bdd0 bd1c
3e54 bde8 3eea 3e7a bf1a bc1c 3dfe 3ed8
bea6 bf96 3e9e bf89 3e5d 3e1d be21 3d50
3f8c 3e30 3e04 be78 3ef9 c06a 3d78 3f16
3eb6 be7e bca4 3e2c 3cfc bf0c 3e4a beac
beb4 3eb8 3ce4 c00e bf0c bf28 3eb4 bde6
3f54 3e92 3f0e 3f24 3e49 3f03 3e92 bf56
3e24 3f08 3f24 be20 3ee6 3d89 3f38 3e14
3df8 3e78 bf3c bdc8 3e4a 3f0d bb20 3cc4
3ce8 be29 3f2a 3e07 bf24 3dee 3dfe 3f04
bebf bf92 3e73 bf58 3e13 3e37 bd26 3ed0
3f89 3daf 3db5 be36 3f22 c070 3c80 3f06
3f0f beb7 3d09 3dfd 3e28 bf33 3e93 3b60
be94 3ede bd96 c018 bf07 bf20 3ea5 be3e
3f2d 3e95 3ee8 3f41 3e4a 3eae 3f06 bf69
3e4f 3ed4 3efd be6a 3efa 3e5c 3f24 3e1e
3dec 3e8b bf22 3d95 3e5e 3eb6 3cf0 bd20
3dbe 3cc0 3f2e 3e32 beec 3e75 3e65 3eea
bf28 bf8b 3eae bf81 3e3e 3e19 bdae 3de4
3f83 3e30 3d26 be31 3f2a c062 3de0 3f1d
3f01 be9d 3a00 3e00 3d9e bf28 3eca be5e
be5d 3eb2 bd4b c015 bf00 bf30 3ecb bdd2
3f22 3e76 3ebd 3f1e 3ea2 3eec 3f22 bf72
3dfb 3ec2 3ee5 beeb 3eb0 3e8e 3f14 3d14
3e58 3db4 bf13 be15 3e91 3ec4 be4e bdaa
3d9e 3d64 3f1a 3e0b bee6 3e54 3e70 3ed8
beda bf96 3e41 bf68 3e85 3e08 be20 be0e
3f87 3d48 3daa 3d58 3f2e c05d 3db0 3f20
3ef6 be12 be05 3df5 be0c bf17 3e30 be9a
bea4 3e5a 3cfc c009 bf05 beee 3eb4 be43
3f10 3ed3 3e94 3ee5 3e53 3f1f 3f03 bf72
3d20 3f0b 3f11 bee1 3ed6 3e8e 3f0e 3e06
3e66 3e8a bf44 bcd5 3d30 3e86 be8e 3cec
3c48 3d92 3f61 3cfc bf05 3d56 3e8e 3eba
be40 bf96 3df6 bf9b 3ea5 3d5c bcbc 3d4e
3f92 3e0b 3cf0 bd40 3f0e c062 3d90 3f28
3eeb be1a 3c00 3e32 bda6 beff 3e0c be42
befe 3e63 bd78 c01a bf00 bf49 3ecb be8e
3f28 3e98 3eb9 3ea5 3ee7 3f25 3ecf bf80
3e22 3eec 3ed2 be6d 3e90 3e8e 3f03 3d66
3e9e 3dac bf18 be16 3e18 3e94 be1b 3df3
3e26 3df7 3f1b 3d8a bf14 bcc0 3e8c 3e72
bea6 bf96 3ecd bf9b 3e66 3d24 bce8 bc58
3f84 3e8a 3cb8 be28 3efa c05a 3d9c 3f31
3ec9 be3f 3d47 3de7 3d04 bf18 3d2c be4f
bf17 3e54 bda8 c014 bee0 bf4d 3e9a bdf2
3f1b 3e32 3e92 3ea2 3ec3 3f25 3e7f bf47
3e59 3eba 3f0e bea1 3e51 3d47 3f0d 3d32
3e91 bdb4 bf06 be88 3e8a 3ed8 bd22 3db3
3d1c bd40 3f20 3e11 bf11 bc80 3e81 3ead
be36 bf98 3e8e bf54 3e46 3e40 bc44 3d9e
3f81 3e0f 3e3e be89 3f04 c059 3ca0 3f28
3ed2 be6d bd32 3e1c bcf8 bf11 3e12 3d34
bf02 3ead bda4 c012 bf05 bf37 3e36 be26
3f03 3e5d 3e94 3f0a 3e9a 3eee 3ef5 bf39
3d6a 3ee2 3f01 bedf 3ec6 bbf0 3f1a 3d20
3e8c bd38 bf1b bdc7 3db8 3ed4 3de0 3e04
3e16 bc98 3f54 3dbc beb0 3e51 3ed6 3e9d
bed2 bf9b 3e18 bf5e 3e39 3e36 3b00 bb00
3f7c 3d79 3d9a be8c 3f07 c05c 3e15 3f28
3eaa be64 bc88 3e58 3cd8 bf17 3ec4 bd78
bede 3f05 be6f c01b bf14 bf56 3dc8 be81
3f0e 3e20 3ea9 3efa 3edd 3ee1 3f12 bf51
3c30 3ed8 3f0a bec3 3e75 3e1a 3ee4 be58
3f03 bc40 bf03 be08 3e34 3ec7 bca8 3de0
3ea9 bb00 3f03 3e1e bea4 3e90 3eda 3e86
becf bfaf bb90 bf6d 3e37 3e1c bd84 be82
3f8a 3d67 3de2 be31 3f23 c052 3ca0 3f2c
3e1a bde8 be35 3e12 be4c bee7 3e90 be96
becc 3ec2 bde8 c015 bf14 bf20 3e33 be34
3f38 3eb4 3ebc 3ed4 3ea9 3f08 3ecb bf34
bd87 3f28 3f2a bed4 3e98 3dc5 3ef4 be4d
3ee6 bd38 bf46 be3b 3d80 3ee4 3aa0 3d1c
3e64 be1e 3f20 3e23 becf 3e2c 3ec4 3ebc
be43 bfbe 3c80 bf5a 3e92 3e07 3b00 bd44
3f8d bb20 3db3 be4c 3ef7 c05c 3da4 3f12
3e1c bdfa bd05 3e36 be9c beb6 3e80 bcc8
bedd 3ee8 be52 c015 bf28 bf29 bc40 bec0
3f28 3eb1 3ed0 3ee8 3ec8 3ed7 3ea2 bf48
3d33 3f0c 3f0f be0a 3ece 3e12 3efc bdc4
3ed3 3e00 bf1f be22 bd50 3eb6 3e3a 3d49
3e4e be1a 3f0e 3c70 bef2 3e70 3e86 3e86
bee7 bfb4 3e97 bf83 3e3b bc96 3d88 3dc4
3f6b 3def 3dba beae 3ed0 c05c bd83 3f1a
3dc0 be86 3d9c 3d78 be14 bed9 3e55 3d48
beb0 3f07 be60 c01c bf15 bf52 bb80 be09
3f23 3e88 3eb6 3f16 3ec6 3e9e 3ea7 bf41
3e3d 3ed3 3ed4 be86 3e64 3da1 3f1e be6d
3f01 3d20 bec9 be85 3dc8 3eb0 3dfe 3e0a
3e22 be62 3edc 3e0e beeb 3ea4 3eb8 3e01
bebd bfb9 3e60 bf39 3e5e 3cf8 bc98 bc9c
3f4c 3d9b 3d2c be65 3ef3 c052 bd3c 3f0c
3ddc be66 bdb2 ba80 bdb5 bf16 3de8 3bd0
be95 3f0f bdac c010 bf03 bf45 be14 bd70
3ed5 3ea6 3eb8 3f3a 3eb2 3eb0 3e94 bf3a
3d6c 3f0e 3eda bed6 3ea2 3d83 3f18 be37
3f00 3cb0 bf0c be1e be30 3e9e 3d93 3d9d
3bb0 be68 3f42 3e16 beca 3ea5 3eee 3eed
bea2 bfc3 bc30 bf37 3e1f 3d58 3d82 3d38
3f5e bcaa 3db6 be39 3f14 c056 bdb4 3f09
3e30 be1e bdde 3e12 bdd5 bf0e 3e74 bdd4
be87 3f10 be06 c01b bf20 bf82 3c40 be7a
3eec 3e7e 3f0c 3f34 3ecd 3ef0 3f1b bf51
bc30 3f1c 3ed8 beb0 3e98 3e12 3f00 be9f
3f14 3e36 bf08 bc74 be9e 3e62 3d2e 3dfc
3e4a bd2e 3f46 3e40 bebc 3ee8 3eae 3ed4
bed6 bfcc 3cd8 bf6e 3e22 bcd0 3c80 be63
3f71 3d12 3b80 be5e 3f0a c052 bd18 3f1e
3c80 be26 be15 3dfc be02 bed2 3e26 be66
be81 3ecd bdd6 c01e bf14 bf8d 3cd0 be82
3f27 3e5e 3f2f 3f0f 3e98 3f09 3eed bf3c
3e18 3f24 3f0c bdbb 3e0e 3e27 3f10 bea8
3f3d 3e02 bf0c be6f bd60 3ee7 bd68 3d88
3e77 bd58 3f0c 3ea3 bf0c 3e92 3e26 3eef
be32 bfd8 3da4 bf48 3e88 3c00 3dc0 be4a
3f86 3c38 3dc6 be6d 3ed1 c058 bdb4 3f11
3e02 be6b beaa 3d64 bd8b beb6 3d3a bd5e
beb9 3ef8 3c80 c01d bf34 bf6d 3e43 be9e
3f44 3e86 3f36 3f26 3e95 3ee0 3ef2 bf22
3e71 3f26 3f22 3da1 3e8b 3dbe 3f18 bdd8
3f07 3e6c bf1c be3c be2c 3eec 3e3e 3e23
3e18 bd60 3f4f 3e95 bf38 3e94 3e58 3f00
be87 bfd2 ba80 bf44 3e45 3e0e 3dce 3dfe
3f8d 3dc0 3cf0 bea1 3ece c060 bd70 3f03
3eb3 be9c bdb1 3e05 3d95 beff 3e36 3e43
be6a 3f13 bd84 c02c bf3a bf94 3dd4 beaa
3f40 3e0f 3f12 3f2b 3e2a 3e44 3f18 bf5c
3e96 3ece 3ebb 3db2 3e98 3e62 3f26 bd9f
3ec4 3e64 bed5 bd0a bce0 3ece 3e5e 3d5a
3e82 3dc0 3f27 3e28 bf1a 3eca 3dff 3edc
bf1d bfba 3e81 bf2d 3e3d 3b40 3dde bd3e
3f7e 3e37 bda5 be90 3f0b c05a bd60 3f13
3eb7 be92 be22 bcdc 3e17 bee5 3d9c 3dba
be1e 3ee4 3d48 c026 bf2d bf74 3e54 be28
3f16 3e38 3ef7 3f2c 3e2d 3e76 3f24 bf3a
3e7d 3e8b 3eef be3c 3dba 3e94 3f12 bdc8
3ec6 3e20 be8f be1c 3d40 3e92 3ca0 bd86
3e36 3c90 3f22 3e16 bf13 3eb0 3e86 3ee8
bef5 bfbb 3e27 bf10 3e34 3e19 3d12 be5b
3f7f 3d32 3b00 be11 3f24 c04b bc20 3f21
3eec be29 beae 3d74 3c82 bee2 bd17 3cb0
bdfd 3ef2 3e40 c019 bf21 bf57 3ecb be4b
3eec 3e94 3edc 3f13 3c20 3ef3 3f1c bf60
3ddd 3f0f 3eff be24 3e10 3e97 3f15 bd8e
3ea2 3e56 bf05 bc2c beb0 3e5b bd26 bd12
3e60 3dee 3f71 3d44 bf12 3e62 3e95 3f16
beb8 bfc8 3d24 bf3b 3e7a 3d18 3da8 be66
3f95 bd39 bdd6 bd8e 3f07 c052 3bc0 3f15
3ea6 be16 bdec 3dde bd1f beae bd50 3dee
be32 3ea9 bd2c c02a bf21 bf85 3eb2 bea0
3f02 3e4f 3edf 3eba 3e76 3efc 3ede bf81
3e88 3ef2 3eae bdce bd97 3e78 3ef1 bdfc
3ede 3e56 bee3 bdbe be44 3e82 bd7d 3ba0
3ed2 3e34 3f35 3d7a bf19 3dfa 3e61 3eaa
be60 bfc4 3e89 bf5c 3e36 3b40 3d60 bed8
3f8d 3e40 bde4 be9a 3eee c042 3b00 3f3b
3e91 bde4 be4f 3d98 3cf6 be99 be36 3cf8
be9d 3ea4 3e10 c01c bf06 bf84 3ec7 be18
3f2b 3e50 3f05 3eb4 3e15 3f11 3e20 bf66
3e85 3edc 3ed6 bdaa be20 3dec 3f10 bdc0
3eb2 3da4 bee5 be58 bd80 3ee3 bc78 3d8b
3e64 bd9c 3f0f 3e35 bf38 3cc0 3e42 3f04
bd8a bfd6 3e6a bf0b 3e23 3d64 3e19 be56
3f94 3dc6 3c30 bebc 3eca c054 be44 3f27
3ef0 be46 be7a 3ddc 3e0a bedc bdd9 3e4d
be89 3f06 3dee c02a bf11 bf70 3eb7 be13
3f12 3e48 3eda 3f2b 3d74 3ec8 3e5a bf6b
3e58 3edd 3ebc bdf9 be1f bb40 3f12 3c28
3e84 3e4e beda bdbb be1c 3ead 3e9d 3da8
3edc 3c00 3f42 3d31 bf0e 3e36 3e7a 3efe
beb8 bfc6 3de6 bef7 3d5e 3d1a 3d92 be60
3f87 3e2a bd8c bf02 3f01 c04c bd98 3f35
3eec be82 bdd0 3de9 3df6 bed7 3d1a 3dd8
be50 3f0a 3cc8 c02c bf08 bf85 3eb4 bdc9
3f27 3e3a 3eea 3f34 3dea 3e94 3ea6 bf86
3dae 3ec0 3ecb be64 be4a 3d8a 3f2b be88
3ec2 3dbc beac be52 be0c 3e9e 3e0a bcba
3f09 3d10 3f18 3e46 bf0b 3e88 3e98 3ef7
bf05 bfd7 3db6 bf02 3db0 3db2 bcc0 bef0
3f6a 3d0a 3cc0 bed9 3f16 c041 bcb0 3f24
3ec2 be8e be90 3df4 bda6 bef5 3df9 bde8
bdc3 3f1f 3ca8 c024 beec bf5e 3ec2 3d26
3f29 3eb6 3ee8 3f22 3d98 3ee6 3dde bf76
3bf8 3f1f 3f16 bead bea6 3d29 3f16 be92
3ec8 3e42 bf1d bde2 be88 3e90 3ac0 bd5b
3ed2 bd44 3f34 3df1 bef7 3e26 3ea9 3eea
be4d bfec be0e bf02 3e64 3de5 bd72 befd
3f89 bd62 3c00 be8c 3f20 c042 be50 3f1e
3ea8 bdda be93 3d92 be8a bea4 3dad bd04
bdc7 3f36 bd04 c026 bf12 bf62 3e9c be0d
3f38 3ea9 3f08 3f19 3e29 3eed 3c60 bf84
3dbe 3f48 3f04 be08 be54 3d68 3f29 be8c
3ed6 3ee6 bf2c be10 bebc 3ddc 3e50 3d58
3ed8 3d46 3f3a 3d34 bed9 3e0c 3e59 3e8f
bead bfec bde0 bf3d 3de6 3c94 bc30 beaa
3f86 3e03 bd02 beda 3f06 c03f be90 3f06
3e6f be33 bd81 3da1 be0d beb2 3d8d 3d7a
bd70 3f2a 3caa c029 bede bf87 3e88 3c40
3f6e 3e91 3f18 3f0d 3e92 3e92 bcf8 bf8c
3e74 3f1b 3ec6 be14 be8e 3d80 3f46 be85
3eb0 3e95 bef5 be9b be38 3e58 3de2 3d4f
3ed0 bdbf 3f10 3d58 bf19 3dae 3e2e 3e2d
bed8 bfe3 3e4d bf0e 3e42 3c60 bd14 be90
3f5a 3e24 bbd8 bee7 3f22 c038 bec6 3f1d
3ea1 be92 be1a 3cb0 bd6c befa bd68 3db4
bde6 3f34 3dd2 c01c be8b bf77 3e80 3df1
3f08 3ea2 3f00 3f40 3dec 3eaa bd3c bf65
3e7c 3f20 3ec7 be5f becc bdc6 3f43 be84
3e8e 3e7c bf1d be22 be80 3e3a 3e04 3d7c
3e22 be58 3f4e 3da7 bf0c 3e74 3ea2 3ee2
be7c bfe6 bb00 beb6 3e06 3df8 bb00 bd92
3f69 3dbd 3ce8 bee8 3f12 c040 beab 3efa
3ec3 be88 be4c 3d5a 3cc6 bf12 3da5 3dbb
bd14 3f28 3d68 c022 beb9 bf92 3e68 3c64
3f03 3eb2 3f20 3f70 3e4c 3e90 3e1c bf81
3e29 3f14 3e92 bea8 be86 3dde 3f52 beaa
3ec1 3ea1 bf22 3ca0 bed4 3e65 3dfc 3cd0
3e5f 3b00 3f76 3db9 bf0e 3ea8 3e5f 3efc
befe bfee 3d60 bf10 3d96 bd54 bd70 be47
3f56 3d38 bcd0 bee0 3f24 c03a be51 3f04
3eb8 beb8 be9b 3e61 3ce3 bf1c 3e76 be28
bc98 3f1c 3e4b c023 bed6 bfa7 3ec4 3b40
3f14 3ebd 3f37 3f4c 3e70 3ea4 3e95 bf82
3e46 3f24 3ee0 be6e bf05 3e12 3f34 bee7
3f14 3e4a bf16 be05 be8e 3ec6 be2e bd65
3e8e 3d5c 3f5c 3e27 bf12 3e97 3e20 3f07
beb8 bffe bd6c bef4 3e44 3d40 bd20 bed9
3f82 3da7 3cc0 be9a 3f16 c033 be56 3f03
3ec3 be90 bec7 3e31 bd1c bede 3d89 be6c
be08 3f0f 3e30 c018 bef5 bf8c 3eff be11
3f2b 3e90 3f58 3f49 3e80 3ec6 3e37 bf6a
3e84 3f34 3f28 bd8c bec5 3cc0 3f32 be87
3ef2 3e9f bf32 bdae bea4 3ea9 bda4 3e00
3e68 3cac 3f85 3dff bf2e 3e42 3d9c 3f05
be5e bffb bdb8 bf20 3e46 3d90 3cb0 bd9b
3f9c 3dd9 bd26 bec2 3f05 c03f be6e 3ee2
3f14 bec4 be48 3e32 3dce bf06 3def 3d67
bdd2 3f2e 3e42 c029 beeb bfa4 3f0a be3e
3f4a 3e80 3f35 3f5c 3eb1 3e50 3e19 bf81
3ea6 3f08 3eb4 3dd2 be8f 3d68 3f22 bdeb
3eb0 3ec9 bf16 bcc8 be38 3e82 bc5c 3cd7
3e86 3dfd 3f7c 3cac bf34 3e37 3d36 3e89
bf24 bfe0 3db2 bf28 3dcc 3c00 bd00 bda7
3f95 3eab bd66 bee7 3f0b c037 be92 3eee
3f27 beea be56 3e38 3e3c bf0c bc14 3e56
bdb0 3f14 3e3e c01d beca bf94 3f19 bcc8
3f42 3e24 3f18 3f58 3e66 3dc1 3e92 bf74
3ed7 3eb6 3edc be0d beb9 3ddc 3f2a be5c
3e9c 3e31 befe bdf8 bc60 3e8f bdf7 3d1a
3e29 3c60 3f57 3d7c bf51 3e6c 3e20 3e9c
bf21 bfdc 3e3e bed7 3e1a 3d70 bc08 be6b
3f8c 3e2a bdb2 bea4 3f20 c02e be4e 3eec
3f4f bec7 be98 3e43 3e22 bf08 3d76 3e23
bd9a 3f0e 3e96 c00c beec bf7e 3f14 3cac
3edb 3e9e 3f0e 3f6c 3e54 3e16 3e80 bf73
3eb9 3ef2 3ecd be96 be7a 3dbc 3f28 be1a
3e0f 3e6a bf14 3bc0 bea4 3e69 be0b 3cdc
3de4 3e32 3fa0 bd52 bf16 3e92 3e6e 3e92
bf14 bfe0 bdbc bef2 3dc4 bd1a 3dca be97
3f8d 3de4 bd78 be42 3f39 c02b be52 3f00
3f3c be93 be54 3e81 3d02 bf01 3d99 3dc6
bda7 3ee2 3e19 c00f becf bf93 3f22 be05
3ecc 3e74 3f0e 3f24 3edd 3e76 3e94 bf8a
3e8c 3ee8 3eb6 beb2 bec5 3ea4 3f00 bea0
3ee0 3e5e bf14 bce0 bec0 3db4 be61 3d9e
3eb1 3e93 3f98 bd40 bf14 3e97 3e52 3e72
bee8 bfde 3e1c bf49 3e30 bd00 bbe0 bf11
3f98 3e57 bdc6 beb8 3f26 c024 be26 3f02
3efd be52 bea4 3e89 bd66 bece bd48 be26
be74 3eb8 3e39 c00c beec bfa0 3f1c bd6e
3f10 3e06 3f1d 3ef9 3f08 3ea2 3c30 bf78
3e9c 3ef0 3ec8 be40 bed7 3e1c 3ef2 be96
3f06 3d1c bf0e be30 be90 3e68 be9a 3e60
3e70 3da0 3f7a 3d92 bf26 3d4a 3e1c 3e49
bdf9 bfe0 3e26 bf08 3de6 be0c 3e2a beca
3f9c 3e68 bdb5 beda 3ee2 c02f be2d 3ee0
3f06 be4d bea9 3e83 3ba0 beda be51 bc30
beb7 3eaa 3e6a c004 beca bf91 3f00 bdb3
3f1c 3e8a 3f12 3f12 3eca 3e98 bd98 bf7a
3ebe 3f08 3eef bd8c bebf bcf8 3f16 be53
3eb2 bc80 bf39 be30 bee0 3e7e bd7e 3e82
3e27 3cf0 3f90 bc40 bf28 bbf8 3e45 3e5e
bea4 bfd3 3e30 bf11 3d24 be1c 3e20 be00
3f93 3e90 be03 bf36 3ed4 c030 be62 3ed4
3f20 be93 be34 3ec0 bcd8 bede bd3c 3e64
be66 3f0c 3db0 c00e becc bfa7 3ec6 bd6a
3f3c 3daa 3f16 3f26 3efc 3d50 3db4 bf60
3ed6 3ec5 3eba be00 beb8 3d68 3f0e bec3
3edc bcc0 bf08 be65 be72 3e78 3e10 3e70
3ec8 3dac 3f6e 3d60 bf17 3e8f 3e02 3e30
bf14 bfd2 3e70 beee 3b80 be10 3daa beea
3f86 3e8b bd83 bf33 3f05 c026 bdd4 3edc
3f07 be95 bebe 3eae 3b80 beed 3d56 3d82
be6e 3f01 3e3c bffa be95 bf8a 3e9d 3e46
3f30 3e12 3f08 3f4c 3f02 bd9e 3dcc bf5e
3ea3 3ed9 3ed9 beb8 be38 bbe0 3f03 bf01
3ed2 bde4 bef8 bd76 beb2 3e34 bca0 3e74
3e61 bdb2 3f8e 3d70 bf1a 3e9f 3ed4 3e93
bf08 bfdc bd9e be8c 3e12 bd96 3dd1 bef0
3f82 bd40 be30 bf04 3f13 c028 bdc4 3e98
3f06 be66 bec2 3ec6 be54 bec3 3d36 3d5c
bcf4 3f1e 3dc2 bff5 bec6 bf80 3eae 3dbd
3f1c 3e96 3f2a 3f6f 3f27 bd3c 3d78 bf58
3e26 3f1c 3eec bead bd24 3cf0 3ed0 bee2
3ef7 3e48 bf35 3da4 bf01 3d9c 3d4c 3e62
3e82 bd40 3fa0 bdb5 bf00 3ed4 3e8c 3e55
bef0 bfda bcf0 beff 3df8 be36 3ddb bedd
3f8a 3dbc be21 bf09 3f12 c026 be42 3ed1
3e9d be12 be9c 3e9e beaa bea7 bc4a bdcd
be27 3f22 3a80 bff6 bead bf94 3e87 3d66
3f51 3e96 3f43 3f30 3f4c 3a80 3c50 bf84
3e8a 3f1c 3ed8 bdd2 be3c 3db4 3ede bf25
3f2c 3dbc bf15 3c0c bedb 3cb0 be24 3e91
3ea9 bd80 3f72 3d42 bf0c 3e98 3e3a 3d44
bee7 bfd6 3d8e bf18 3df0 be3a 3e04 bf03
3f86 3e24 bde4 bf19 3ee4 c020 be4d 3e82
3e50 bd61 bece 3ea9 be85 be88 be89 3d9c
be46 3f03 3e30 bfdb be7a bf8e 3e90 3e56
3f36 3e8a 3f41 3f31 3f4a 3d50 beb0 bf6a
3edc 3f0c 3ed6 bd98 bd78 3db5 3ee1 bee6
3ef2 bc00 bf20 bddd beea 3e60 bd93 3eb2
3d26 be38 3f7c 3d3c bf48 3e6f 3e3e 3e9f
be6a bfd8 3e38 bec8 3e50 be54 3eb3 be09
3f84 3deb bdea bf29 3ed5 c02a be82 3eae
3ec8 be74 be5e 3ed5 bdf2 becf be29 3e7f
be08 3f32 3de8 bfd9 be98 bf99 3e4e 3d24
3f2a 3e32 3f44 3f85 3f5c bdf0 3d88 bf63
3ee9 3f06 3e90 bc00 bd48 bcd0 3f04 bebe
3f16 3dd8 bef6 3a80 bf13 3e00 3db0 3ec2
3e2d be30 3f98 bc70 bf3b 3eda 3df2 3eb4
bef4 bfc7 3e38 bede bc70 be8b 3e60 be16
3f75 3e32 be84 bf44 3ee6 c02f be39 3e8a
3eca be9a be7a 3f01 3d6c bf0c bd8e 3d79
bda0 3f0e 3e03 bfe7 be86 bfad 3eb2 3dec
3f22 3e43 3f51 3f80 3f5c be1a 3dc0 bf6f
3e9b 3f04 3eb0 be12 be06 bce0 3ee0 bf0a
3f35 3d38 bee9 bdb2 bef0 3e64 3cc4 3e90
3e32 be26 3f91 3e06 bf1e 3ef8 3e07 3ed1
bee5 bfcc 3db4 be94 bb40 be30 3dfa bedb
3f7d 3d9e be0a bf1e 3f00 c02e be12 3e7e
3eaa bea8 bf03 3ee8 bc7e beed be22 be22
bdfc 3f01 3e55 bfda bec3 bf9c 3ed7 3e3d
3f4a 3e94 3f6d 3f88 3f25 bcb0 3e38 bf5e
3ea1 3f24 3f0c be02 bc40 bd24 3ed0 bef4
3f29 3e28 bf2b 3c98 bf0d 3e62 bd66 3e95
3e55 bdfc 3fb0 3ded bf27 3e97 ba80 3f21
be92 bfd5 3d08 bf09 3b00 be6c 3e5c beb5
3fa5 bc98 be4d bf1c 3ef4 c038 be38 3e98
3eb2 be46 bee2 3efd bd74 beb8 bdf4 bd96
bdf0 3f10 3e42 bfe9 becc bfa8 3eed bd06
3f70 3ea0 3f5e 3f66 3f44 3d0c 3e82 bf74
3ebe 3f2f 3f06 3dd8 3d30 3e1c 3ec8 bf22
3f21 3e87 bf25 3cc4 bee5 3d96 bd84 3eb8
3e9c 3be0 3fa6 3ddd bf1e 3e91 bd96 3ef6
bf04 bfc5 3ea5 bf4e bc40 bdfe 3e78 bee6
3fa7 3e88 be89 bf30 3eef c036 bdd0 3eac
3ee0 be96 bebe 3efe 3a80 beb0 be26 be0d
be06 3ec9 3e87 bfeb bea9 bf9f 3f13 3e1c
3f86 3e50 3f62 3f53 3f4f 3d9e 3e0a bf80
3eff 3ee3 3edc 3e50 bc60 3cc0 3ec6 bebe
3f06 3de4 bf04 bd31 bdec 3e48 bd04 3eb0
3e56 be0c 3f8f 3deb bf54 3e4f bdd0 3ec7
bed2 bfb8 3ee5 bf13 3d14 be1a 3e6e bead
3fa1 3e46 be27 bf03 3ee4 c03c be00 3ea4
3f27 be98 bec8 3eda 3dd1 bec3 bebe 3dc0
be67 3efb 3e7f bfda beab bf92 3f22 3de3
3f4c 3e8a 3f2d 3f5e 3f3e 3d8a 3c10 bf75
3f06 3ec0 3eb5 3a80 3e1a 3c60 3eb8 be48
3e96 3e7a bf0a 3d90 be8f 3daa 3dad 3e96
3d1c be03 3fb8 bdd8 bf34 3e1a bc74 3ef8
bece bfab 3ea2 bf0b bc98 be12 3eaa bdef
3f92 3e0b be6c bf0e 3efc c03c be4a 3e94
3f16 beae be82 3ee1 3d84 becd be28 3e94
be0e 3ed3 3e83 bfde be67 bf9b 3f09 3e33
3f3a 3e90 3f20 3f5d 3f5e 3ba0 3e8e bf84
3ed6 3ebc 3e26 be3b bd3a 3e22 3e9d becd
3ec0 3e06 beca 3c8c be82 3ddc bd34 3eac
3e77 bd30 3fab bcf8 bf1c 3e83 bc64 3ecd
bee5 bfa6 3eee bf2c bdb4 bdc9 3ddd bef1
3f91 3e88 be69 bf20 3f28 c034 bcc0 3ebb
3ef8 be9a bedd 3ee1 3ce6 bec1 be02 be1e
be09 3ebc 3e9f bfd4 be22 bf94 3f3e 3e81
3f35 3e8c 3f1d 3f4a 3f52 3e4c 3d58 bf84
3e72 3eb2 3ecf bea2 be04 3dbc 3e84 bec4
3eee 0000 bf0c bd66 be40 3e2a be7e 3e93
3e92 bca0 3fa2 bb00 bf17 3e05 bd24 3ef4
be84 bfb8 3e80 bf22 bc90 bdbe 3d89 bf1e
3f9e 3d26 bdec bf15 3f05 c030 3d98 3ec2
3f05 bdd8 bf01 3f10 bdd2 bea1 be55 be1e
be75 3ebe 3e8b bfc8 bea6 bf8f 3f2a 3e43
3f5e 3e9b 3f24 3f30 3f76 3ebd 3d48 bf87
3e85 3f1f 3f08 bd68 bd6c 3d48 3e8e beda
3f13 3e02 bf3e 3d00 be74 3dda bd84 3ec2
3ead 0000 3faa bd88 bf1f bc68 bd64 3f18
bdfc bfa8 3e8d bf44 bde8 bd5c 3e45 bed8
3fac 3e1d be6a bf48 3eaf c03c bd28 3ebd
3ef2 be9c be63 3f2b bdbe beae be2a bd8c
bea3 3ec8 3d5e bff9 be82 bfa0 3f18 3e0e
3f90 3e4e 3f41 3f22 3f71 3e88 bda8 bf84
3ec9 3edc 3ef4 3d50 bddc bdb8 3ec2 bee8
3f14 0000 bf1d bdc5 bc40 3e16 3d98 3ee0
3efb be5f 3f8b 3d06 bf39 3d72 bdcf 3eda
bebe bfa8 3ee1 bf4e bdbe 3cd8 3d49 becb
3fa8 3e8a be0a bf56 3efd c03d bd80 3eb7
3eff bec1 be79 3f08 bd20 beb8 be52 be32
beb6 3f09 3e0d bfe6 be87 bf8d 3f14 3ea4
3f82 3e98 3f32 3f53 3f50 3e8a be8a bf5a
3e96 3ec7 3f16 be28 3c00 bdaa 3eb8 beea
3eea bda0 bf36 bdaa bd30 3e6e 3e0a 3f04
3ea0 beb2 3f92 bc08 bf1e 3d7c bcf0 3f0c
bec2 bfae 3ef0 bf15 be12 3df3 3cb2 be4b
3f9a 3e5e be1a bf2d 3f23 c040 bd00 3e95
3f0c bec0 be64 3f06 bda7 bf0a 3cee bd92
be67 3f4d bd7c bfed be7b bf8e 3ec8 3e96
3f6e 3ece 3f26 3f8a 3f70 3dec bd10 bf79
3e94 3ec4 3f0a beb2 3dfe bdc4 3ec6 bef2
3ed4 3de8 bf3a 3e46 bd80 3dac 3e68 3f00
3e47 be93 3f9a bd82 bf06 3e90 3c88 3f08
bf12 bfaa 3ea4 bf24 be30 3e1a 3d1f be80
3f8f 3e30 bdc3 bf3a 3f2a c03a bdac 3eb2
3ed6 bec8 be48 3f19 bd86 bef9 3e29 be5e
be18 3f2f bd34 bff0 be6b bf94 3ef6 3ecf
3f6e 3ece 3f4e 3f6f 3f8c 3dd8 3c30 bf94
3ea4 3ed0 3eb9 be9e 3db8 3bb0 3e84 bf18
3f15 3daa bf4e 3bb0 bd60 3da4 bda6 3ec0
3eb9 be32 3f8c bc38 bef7 3ecb be09 3ed2
beda bfbc 3ea4 bf46 bd98 3db3 bd8c bf05
3f8e 3dea 3d21 bf11 3f34 c02c bde4 3e7e
3e9a be99 bebe 3f02 be64 bf0b 3d7e bec7
be87 3f13 bd20 bfcd be0b bf89 3eea 3ed8
3f75 3ed8 3f5c 3f5b 3f8b 3ea6 be0b bf96
3e48 3f19 3f09 be68 bd40 bc84 3ea4 bf0e
3f39 3d40 bf72 3dab be82 3e0b be3e 3ef5
3dba bea5 3f98 3d82 bf1b 3e10 be15 3ee8
be3e bfb5 3e85 bf3e bca0 3d80 bd9c be66
3f9c 3dc4 be42 bf00 3f2c c032 bd4c 3e79
3ec3 be3d be62 3f25 be81 bef1 3e36 bea5
be54 3f19 be28 bfde be54 bfaf 3eb7 3e6c
3f70 3ed0 3f59 3f5b 3f9e 3e50 bdd8 bf82
3ec6 3ee0 3ea1 bc00 3da4 3d9c 3e99 bede
3f28 3d8c bf4f 3e29 be7c 3e27 be0b 3f0d
bc4c be72 3fa2 3c78 bf42 3e19 bea1 3edd
bee6 bfbc 3ef3 bf5a bcd0 3c00 bd0a be64
3f88 3e74 bc58 bf44 3ee8 c034 be58 3ed0
3eb7 beaf be14 3f26 be31 bf19 3e47 be54
beb0 3f08 bebb bffa bd20 bfce 3ead 3eda
3f8b 3e73 3f68 3f51 3f94 3e24 bdba bf5d
3f1e 3e7c 3ecc 3cf0 be2a 3dfa 3ec2 bf04
3dd0 bfde 3f8e be52 3fb4 be56 bfd2 bfea
bde4 3f28 bf52 be14 bfb0 3ee4 be46 bf3c
3ed0 bfea bf34 3f59 bfb2 3d18 3fbf 3ef2
3d94 3ff4 3f49 beea 3df8 3d68 3f5a 3ed0
bf19 beb5 bff6 3ee5 bd10 3f32 3fa7 3f88
bfc7 bf26 bf8b bf19 3f15 bf8f bef3 3f42
3dfe bd90 3ee5 3fd6 3f95 3f32 3c90 bf48
3f60 be9f bea2 be9e 3de0 3fa2 c008 3e3b
3f70 bdd4 3cc0 bec4 bd9e 3f09 bf0f 3d20
bf46 beca bd40 3e2c 3cb4 bdf0 bf7c 3e60
bf3e bf15 be18 be48 bedb 3e9a beda 3ecf
3f60 3f0e be06 3f12 3e27 3eca bf22 3e34
3f85 3d89 3e18 3e20 3e2c be98 3f69 bed6
3fce 3f22 3eef 3e91 be88 3f2d bf96 3ebc
bf15 3eda 3db0 be25 be52 3f38 3d66 3f8a
beb6 3f74 3eae 3e3a 3eaf 4014 3daa 3b00
bef2 be60 3ed6 3f37 beb2 3ef0 bf95 bda5
3f3c be4c 3ed7 3f14 bea8 bf1e 3d00 3ef3
3f35 3d84 be3f bded be41 3dc4 3eef bd60
3d2a 3e3c 3e59 3e65 3f56 3e56 bf2d befe
bf0b 3dcc be96 bdc4 be04 be18 3ea0 3ede
3f16 3e7e be76 be86 bd74 3ec2 3e44 bde2
bee0 be0e be9f 3ff4 bf2e 3ef8 bf02 3ed8
bf52 3de8 bf22 3e08 3ede 3f80 bc10 3f16
3ea9 3f2d 3f6f 3e93 3dd0 3f3c 3edd bf1b
3d38 3efb bf93 3e1a be9b 3da8 bf3e 3e1e
bf3c bf1e 3e65 bea3 3f20 3f24 bd10 3f0a
3f7b 3e86 3f53 bd26 bdc3 3ebf 3dec 3c60
bea0 3ea8 be5e 3cd0 3f24 bf50 3f31 3d68
4010 3ec1 3f3e 3da8 be82 3f1e bf1a 3ecc
be98 3f36 be57 bef4 bf12 3f8c bf20 3e9e
bec0 3d36 bf19 bf5f be95 3fa6 be96 be9a
3ee6 bd34 bec6 be7e 3e28 3f90 bee8 be08
bde8 bf0c beac bf16 3f12 3ef5 3f00 be37
3f46 3f26 3eb2 3f53 be66 3f18 bf12 be41
3f72 befa be80 bf38 beeb 3e92 bca8 3f95
bf6f bf8f bee4 bf08 beb6 beb3 bee0 beaa
3ff1 3f34 3f74 bee3 3ed0 be26 bf59 bfa4
bf88 beea 3f41 3f4a bf9a 3f30 3eb6 3e46
be54 3f07 be86 bf1c 3f3c 3fbc 3d10 3c20
3b00 bdff 3e54 3e2c 3f98 be8a bed5 3da0
3ddc bd24 3e32 be4c beca bf57 3dd8 be0e
3cc6 3e7c bf16 3f96 3e98 3f80 bea6 beea
3d9b 3e2c beee 3e36 3e06 3f06 bf13 bea1
3e80 3eef 3f38 3f43 3f7b be10 3e9b 3f7f
bf06 3eba 3eb6 bf9e 3f30 3f90 3f5c beb9
be4c 3f2f bf20 4036 3e95 3e60 be89 bd14
3de2 3f5e bf3c bf18 3e09 3f64 be07 3f09
bf8e 3d00 bd6e 3f94 bd28 3d0b bfe4 bda8
3e94 be8c bee4 be37 bf52 bf10 3eb6 bf6c
3f16 be86 3eb0 bf4a 3db4 3de4 bf0a bef8
3f7e 3eda be83 bed8 3f24 bf20 3db0 bf17
be73 bf89 3d98 3ffb 3d78 3efc 3ea2 3e92
bf8c be24 3f57 bee4 bec6 3f47 be46 3d8c
bea2 be0a 3f22 4078 bed9 bedd be10 3ed0
3ed2 3ed2 be23 3db5 3f40 3f8e bea5 3f26
bf9c 3e3c be27 3f6d bf0f 3e5f be86 bf60
befb be73 bf6c bea8 3e1a bf25 bea8 3e10
be34 be00 be4b 3d20 3e38 bf5a bf48 3f46
bfac beb4 beb7 3f50 be7d be9a bece bb00
3f8a bd90 3e14 bf13 3e22 3f28 3f72 bef0
4042 3f34 bf5e 3e35 be4c bf7e bef4 3e7b
bf4e bf18 3f47 bf96 be10 3f08 bf7a bece
bf86 3f53 bf08 bf0b 3f14 3f9a 3f4f 3f12
3eb8 3e8e bf22 beb2 3e2c 3c8c 3db8 bec5
bf54 bbc0 bf63 bf3e bec3 be99 beca 3ed1
3f06 bdce bf24 befe bf06 bf06 3e4c bef1
be17 bf19 bf34 3dd6 bf17 bf3c 3dd8 bee5
3d08 3dd8 3f59 bedd be7e 3e65 3f6e be58
4024 3f30 3f88 bde4 be3a bcf0 bf82 bd20
3f52 3e8f 3f3a be2b bea3 3f09 bf10 3dd0
be8c 3f01 bf92 3f32 3de8 3c70 3e98 3f02
be0e bf07 3f51 3ed0 3f17 3fa0 3f16 bbc0
3f1e bf1b bfde be85 3cc0 3e76 bf30 3f4e
3f34 bf0c bee4 bf26 bea6 bf30 3f6a bfd4
3ea9 3ecc bf96 3fd4 3f1a be6e 3e5e 3eba
bdf4 bf8c bf52 bfa5 3ea3 3f42 3f26 3f18
3d50 3f2c 3f2f bf47 3eff bc80 bf40 3e72
3ef2 3f80 3f8a 3fc4 3ece 3f8e 3f1a 3ccc
bf9b 3f36 bf45 beaa 3f48 3fa9 be52 3e8e
3e6e 3de8 be84 be2f 3ea6 3eb1 3f01 be7b
bea9 ba80 bdd2 bed3 be8a bc20 be56 3efc
bd42 bf3a 3e56 bdc8 3bf0 bd90 be30 bf17
be4b 3cb0 bdc2 bda2 3e82 beca 3da6 3e96
3e52 bf4c bf50 bede be78 3d80 3f2a bcac
407e 3eee 3ee7 3f0a bf3e bed4 bf01 3e57
3ea6 be87 3f08 c00c 3e95 3ea1 3ead 3e9b
bd1e 3e14 bf10 bea3 be22 3faa 3d64 bdb6
3eac 3d14 bea4 be78 3eae 3e8e 3eb0 bed2
be7b bb00 be48 bea6 bed5 bcd0 bece 3eed
bc2e bf32 3ca0 be6c 3dbc bd24 be35 bf06
bd2c 3c40 3cb0 bd04 3e01 bf0b 3e3e 3e5c
3e40 bf61 bf71 becd bde4 3e4f 3f4f 3d14
4085 3ea1 3f03 3ed5 bf4d bef2 bf0f 3e42
3ed3 bed8 3f0a c00c 3e98 3ea6 3e81 3eb0
3e44 3eb2 bed8 be96 be6e 3fa8 bbe0 bdba
3eae bd1a be40 be1a 3ef6 3e9d 3edb be96
be5a 3dbc be3a be72 beba 3d30 bef9 3ec6
bc88 bf34 3e02 be18 bd04 bde0 be20 bf28
bd4c 3d70 bd9e 3da6 3dfd beca 3e33 3e64
3e1f bf48 bf75 bebb be88 3e3f 3f32 be21
407d 3e7d 3f14 3ed0 bf44 bf2c bf44 3d64
3e3c bef2 3f18 c00c 3e5b 3f03 3eec 3ec4
3e6e 3ebe bea8 be82 be4a 3fb6 be63 bc84
3e1b bd04 bea6 be55 3f1f 3e69 3ee7 be32
bee7 3e06 be6e beb4 bf05 3c80 bed7 3ee8
3cc1 bf14 3e96 be38 3e5c be1f be1e bf23
bcd0 bdf2 3c00 bde8 3e0e bea3 3ea0 3e83
bdc8 bf4e bf85 bee4 bdf4 3e84 3f3d be90
407b 3ebe 3f1a 3f07 bf42 bf14 bf55 3e46
bc90 bee1 3ef2 c00a 3e94 3ef5 3ec2 3ea1
3e7f 3e9d bf01 be99 bdbf 3f9d be7c 3e14
3dd3 3d50 be8e be4c 3f0c 3e77 3df8 be09
beb8 bb70 bedb be2a bf13 3d56 bf04 3ee2
bdc2 bf49 3e87 be9b 3e40 bdd0 be25 bf32
bbc0 3d38 3d90 bd22 bdd6 be17 3e8f 3e7d
bd1c bf86 bf80 bf02 be7b bda2 3f40 be54
4082 3ed1 3f01 3ece bf18 bf12 bf55 3eac
bd28 beda 3eee c009 3e9e 3ea5 3e6e 3ea4
3e9a 3ec9 beb5 be4b be92 3f9a be54 3d94
3e54 bcf0 be6c be81 3f14 3e54 3ea0 bd3c
bebc 3df2 be92 be83 bf1a 3dea bec0 3eb9
be3c bf4a 3e80 beaa 3e42 be1c be9c bf11
be00 3d18 3d44 be04 3c70 be0a 3d84 3eb2
bd88 bf76 bf6e bef3 be90 be2a 3f1a be49
4078 3ece 3ef0 3ef6 bf0a bebc bf16 3ed5
3ddc bef1 3ed2 c009 3efe 3e56 3ea0 3eba
3e60 3e4e beee be83 beab 3fb6 be0a 3d5a
3e73 be06 be3d be68 3ee9 3e32 3e72 be84
beac 3cb0 be94 be8a bf18 3d70 bef7 3ecb
be31 bf3f 3d5a bec4 3e84 be56 bea2 bf0d
bddc bdb6 3da4 bd8a bc58 be1a 3dfc 3e84
bba0 bf88 bf80 bf03 be27 3daa 3f2a bdbf
4080 3edc 3ec5 3efe bf06 bef6 bf29 3f05
3e84 bf09 3e80 bfff 3f10 3e36 3dcc 3ebc
3e86 3ea6 bf0b be3e bf1e 3fa7 be05 3e2f
3e5b bd81 bc40 be07 3ede 3e24 3ec2 beda
be2b 3da0 be19 bda6 bf0c 3dd0 bf18 3ea2
be7d bf3e 3e16 becb 3eaf be33 bedd bf29
3e0e 3e1c 3cd0 3d60 be31 be88 3e45 3ea1
3e26 bf7c bf86 bedc be2f bddd 3f2c be98
407e 3ea0 3eea 3f03 bf12 bf31 bf3e 3e94
3e0c bf36 3ee3 c009 3f12 3eb8 3e8c 3eba
3ec3 3f00 beef be14 bf1a 3fa7 be91 3d5c
bd4a bd20 3c60 be0c 3f11 3e19 3f16 be97
be95 3e04 3c60 bd7c befd 3e1c bf0c 3ed6
be0d bf2c 3e54 be95 3ea9 be54 bee8 bf12
3e0c 3db0 3dc4 bd90 bdc4 be6e 3e54 3e6c
bd9c bf65 bf80 beda bdc8 bba0 3f1a bee3
406a 3eba 3f1a 3f24 bf22 bf28 bf62 3e5b
bb00 bf37 3eea c00d 3f00 3ebe 3eca 3ed4
3eac 3e88 bf1b be90 bee6 3f97 bea5 3d6a
be54 3ba0 3cf0 be2a 3edd 3d9e 3e5e bea3
beba 3d10 bd94 3de2 bf08 3dc8 bf20 3e8c
be1c bf5b bd34 be18 3ea2 bdb5 bf14 bf25
3e44 3d20 3e42 be4b be79 be05 3e42 3e73
be18 bf90 bf82 bee2 bb00 bd76 3f48 be9b
4072 3ee7 3f1e 3ed6 bf20 bf02 bf4a 3ebf
be0c bf34 3eb2 c00c 3efa 3ea4 3e8a 3ee8
3ede 3eb2 bf19 be84 bef8 3f84 be98 bda4
be46 3df4 bd98 be4a 3ec4 3e15 3e6c bebc
be16 3e20 3dde 3e91 bf01 3e0f bf28 3df8
be37 bf56 bb40 be30 3e14 be12 bf0a bf1e
3d44 3e28 3e52 be5e bdc7 be3c 3cc0 3e46
3d18 bf94 bf71 bec2 be06 be68 3f34 be95
4076 3ec1 3f14 3e90 bf23 bed4 bf18 3eb2
ba80 bf3e 3ee7 c00e 3f0e 3e86 3ea7 3ec0
3ed3 3eab bede be0a bee0 3fa4 bdfc beb4
bdea 3ca8 be54 be72 3edf 3da0 3ed2 bf06
be42 3e0f 3e20 3c9c bf07 3dbc bf36 3de0
bdc9 bf59 bd76 be66 3dfe bea2 bed6 beec
be05 3d3c 3e1a be80 3dd6 be99 3c78 3df9
bd38 bf8b bf7e bee2 be26 3e60 3f18 beae
4072 3eed 3f10 3ec9 bf3e bed2 bf12 3ec3
3d7c bf3c 3e84 bfff 3f16 3e56 3ea7 3e81
3e90 3e59 bf25 bdfa beb4 3fa7 3d3c bea4
bcb0 bc88 bc40 be62 3e99 3db8 3ed4 bf46
bdc4 3dde 3c88 3da2 bed8 3d88 bf82 3e56
bda6 bf64 bc90 bea1 3de6 be3c be93 bed8
3d50 3e35 3df8 be37 bd97 beaf 3e2f 3e55
3d82 bfa7 bf93 beff be52 3ce0 3f35 bebe
4082 3ef8 3eda 3ee6 bf40 bf2c bf18 3e85
be07 bf58 3ea4 bffc 3f28 3e8c 3ed0 3ea7
3e8e 3f05 bf27 bcae be8f 3f9a 3a80 be89
3c58 3cb8 3d30 bede 3ec8 3e11 3f1a bf3c
be18 3de4 3d6c 3dbc bea7 3d20 bf86 3ea6
bcf2 bf5d 3e3d be8a 3e26 bdb3 beac bf0c
3d9c 3ea2 3d90 bea0 bc38 bed9 3e35 3ee1
3c98 bf87 bf8f bedc be93 3c70 3f16 bf1c
406c 3ef6 3ed8 3f0b bf4c bf32 bf38 3e04
be5c bf66 3eb1 c007 3f02 3e9d 3f36 3ea5
3e95 3e9b bf20 bdc4 bdd4 3f92 3db8 be91
be13 bdea bd58 bf07 3ec6 3d04 3f24 bf27
beac 3de9 bd58 3d98 bee2 3cc0 bf5e 3ecc
3da2 bf60 3e1a be34 3e86 ba80 bea0 bf19
3df0 3e49 3e97 beef 3ba0 be84 3e94 3f09
bd34 bf85 bf8d bf0d be4f 3de8 3f0a bee1
4068 3edd 3ede 3ed8 bf79 bf0a bf4c 3eb8
be49 bf67 3de8 c009 3ee2 3e18 3f14 3ef2
3e8f 3e50 bf43 be47 bdce 3f51 3e0e be9f
bc60 bdd6 3d90 bf2a 3ebd 3e11 3edb bf13
be76 3ea6 be48 3e8e bee6 3dc4 bf8c 3e98
3ca2 bf68 3d00 be32 3e20 bd6c bebe bf12
3e2a 3e86 3ecc be8a be02 be9c 3e10 3f0a
3e46 bf80 bf8e beea be9c bd64 3f0c be90
406b 3ea2 3eb3 3dc4 bf5a bf03 bf2e 3ead
bdab bf61 bd31 c016 3ebc 3d70 3f20 3f06
3f02 3ea7 bf07 bdc7 be39 3f5f 3da4 bf13
3c70 be58 bdb0 bf16 3f01 3d48 3f32 bf03
be74 3ec0 3a80 3e36 bf04 3ce0 bf84 3e26
3d3a bf44 3d24 be26 3e06 be63 be92 bed4
bd48 3ca0 3efa be56 bd9c bead bcd8 3f0d
3e90 bf70 bf83 bf06 be86 3d87 3ecc be94
4061 3e59 3ee2 3d78 bf72 bf02 bf28 3ecf
bd6c bf3e bce4 c014 3efa 3c10 3f31 3eb2
3f15 3e72 bf07 be22 be54 3f89 3e88 bef4
bd20 be83 bd82 bf0b 3f0c bc80 3f04 bf18
be8a 3e96 be0e 3dd6 bf25 3e06 bf94 3e05
bd89 bf60 3d10 be9f 3e07 be4f be88 beb8
3d6c 3d96 3f1c be34 be58 be4e 3e66 3f01
3e63 bf82 bf9d bee1 be14 3d68 3f13 becc
406e 3e8a 3eb4 3db2 bf8a bf40 bf3a 3eda
be9e bf4c be30 c00f 3f00 3d30 3f34 3ec8
3f2c 3eea bf1c bd69 be60 3f5e 3e38 bec2
bd10 be46 bd40 befe 3efc 3c40 3ef8 bf16
be44 3e6d be14 3e24 bf0d 3da0 bf87 3e51
be06 bf70 3e7d bebe 3e2d bdbe be33 becd
3e3b 3e63 3ede bdec bebc be0c 3e8a 3f11
3e9e bf7d bf92 bf0a be10 be8a 3f05 bf2c
4064 3e6d 3eb4 3e17 bf86 bf5f bf4c 3e93
bf12 bf4a bdc2 c010 3f07 3e0d 3f4b 3ed0
3f18 3f08 bec3 bd07 be78 3f64 3e45 bec8
bdc8 be37 be06 bef4 3eec 3d70 3f00 bef9
be9d 3e39 be03 3d10 bf17 3dac bf6b 3e63
be66 bf6a 3e66 bea0 3e2c bdbc be28 be8a
3e20 3e26 3ef3 beae bec8 bdbc 3e02 3f29
3e3e bf83 bf94 bf14 be28 bea2 3eed bf1c
405c 3e9d 3e5a 3eb3 bf92 bf39 bf40 3ef0
bf04 bf3c be96 c019 3f13 bce0 3f4b 3f15
3f22 3eca bf21 bd78 be5d 3f41 3eae be94
bdd4 be30 bdc8 befa 3ece bd6c 3edc bf18
be76 3e06 be95 3e22 befe 3c80 bf77 3d96
be9e bf80 3d20 beb4 3e82 bd74 be4c be36
3ddb 3e4a 3f0b be56 befa bdd1 3e6b 3f1d
3edb bf8f bf9a bf10 bda7 bec0 3f22 bee8
4069 3e58 3e2e 3d88 bf7a bf22 bf14 3f06
beb4 bf4d bec2 c01c 3efc bd8a 3f46 3f0f
3f39 3f10 bf03 bd1c be9b 3f20 3eba beea
3ce4 bd8e bd30 bf12 3e95 bd88 3f26 bf1b
bdd0 3e88 3cf8 3e17 bea2 3e16 bf62 3d70
be8e bf5c bd90 beb8 3e43 be40 be8a be54
3dca 3e9e 3efa bdc0 bf04 be36 3d20 3efd
3f30 bf78 bf98 bf0d be13 befa 3e9a bee3
405e 3d98 3ea4 3da6 bf8e bf37 bf0b 3ea8
be8e bf4f be9e c01c 3efe bcc8 3f56 3f08
3f37 3f0e bf02 3d30 bf0b 3f6f 3ef6 bf27
bdfa be2c bd90 bee9 3e8c be06 3f22 bf2e
be48 3e03 3e1a 3e13 bec1 3e2c bf5c 3e11
be73 bf62 bdee bebe 3e1a be88 be48 bd3c
3d64 3e70 3f01 be0b bf03 be7d 3e3c 3ea3
3f0c bf7d bf9b bf14 3d30 be80 3ec2 bf14
4059 3b80 3e94 3e14 bf94 bf56 bf26 3e88
beda bf44 bea6 c018 3f07 3dee 3f62 3f0c
3f32 3f03 befc bdf5 beeb 3f3b 3eba bf04
be6a bd7c bd50 bea1 3e97 bcf0 3efc bf36
be1c 3e19 3dcc 3e79 be9e 3e36 bf86 3dc9
bea6 bf80 bd74 be8c 3e09 bde2 be63 be1e
3e4e 3ea8 3f04 bdbc bf39 be7f 3e82 3ee6
3f15 bf82 bfa0 bf18 3db0 bed4 3f10 bf2e
405c bd70 3ea8 3d14 bfa3 bf56 bf33 3d50
bf24 bf5b be56 c01c 3ec5 3e00 3f7c 3ef7
3f59 3f48 bebc 3c74 be8e 3f25 3eb0 bf18
be7e 3e2c bd18 bee3 3ec3 bdb8 3f00 bf02
be77 3e0e 3eb1 3dce be84 3e81 bf6c 3d7c
be50 bf72 bd86 be44 3da0 be2d be51 bd9c
3d6c 3e99 3ee0 bea6 bf1a be8f 3e30 3eba
3ee4 bf74 bf86 bf1c bcf4 bf04 3eac bf31
404f bdb4 3ea8 3dac bf96 bf23 bf0e 3df6
bf44 bf48 be87 c020 3eeb 3e0f 3f89 3ed6
3f44 3f0e bece 3d8d be06 3f2d 3f0e bf41
be58 3dfa be86 bebf 3e98 bd5c 3eec bf39
be48 bcc0 3e14 3da0 be89 3e2c bf74 3da8
be6f bf86 be5e be68 3dba 3d24 bdd0 3d44
be06 3e5d 3f03 beb3 bf04 beb4 3df2 3ea7
3ee8 bf8c bf8e bf2e 3d8d bee1 3ee2 bf03
405b 3bc0 3e95 bb00 bf9a bf05 bed1 3ebe
bf02 bf46 bea9 c014 3ef2 bd54 3f71 3ebc
3f4d 3f0a bef0 3dee be81 3f1a 3f23 bf2d
3cac 3e2e be97 bf03 3e32 bd70 3ed1 bf40
bda8 3df0 3dfe 3d26 be82 3e44 bf7d be0c
be8a bf7a be9c be8a bb00 bca0 bd04 3dab
bd86 3ebc 3ef8 be3a bf10 beb0 3e5a 3eb4
3f2c bf88 bf9a bf35 3c30 beee 3ebd bf18
4060 be1e 3e99 bdb4 bf9f bf2a bea2 3db7
bee7 bf36 be81 c016 3eb8 3bc0 3f9a 3ed4
3f26 3f3c be67 3ea9 be37 3f28 3f3b bf52
3e34 3dae bec4 bf15 3e90 bdd0 3f44 bf38
be71 3de9 3ea6 be29 be03 3d9c bf67 bc88
be08 bf66 be2f be50 3b00 bd34 bd54 3e3d
be61 3eab 3ef2 be83 bed2 beea 3e2e 3ed0
3f15 bf7d bf92 bf12 bd20 be3b 3e64 bf18
4050 be6e 3ead 3e3e bfa9 bf56 bf02 3cd8
bf02 bf4a beb1 c014 3eb2 3c90 3fa8 3eca
3f0d 3efd bec5 3e52 3dae 3f24 3f3f bf40
3e02 3d0c bebb bf19 3e7e bdc2 3f14 bf35
beac 3d84 3d98 bdde be23 3e54 bf86 3cfe
be5a bf70 be52 be92 bd18 3dea 3d00 3e06
3b00 3ea6 3f0f bdfc bf16 bf12 3efa 3efd
3f06 bf4e bf9a bf0b 3d90 beb0 3ec8 bf09
4052 be84 3ec7 3d4c bfb2 bf70 bf20 3c90
bf20 bf5a beca c016 3e20 3e16 3fb2 3f05
3f3a 3f2b beac 3e8e 3e52 3ed2 3f0f bf2e
3e66 3e4a bebf bf06 3eb6 bc98 3f11 bf02
bed9 3e56 3da7 bd34 bdd6 3e4e bf6e 3d96
be5e bf66 bda4 be61 3d30 3e1d bd28 3d10
bcd0 3eed 3f17 bdd6 bf27 bec9 3eba 3f19
3ed6 bf40 bf90 bf1f 3c40 bee5 3ea6 beee
4040 be97 3eb6 bdc0 bfac bf66 bf12 3b98
bf35 bf43 bec2 c020 3d60 3e44 3fb5 3eea
3f38 3f1c be40 3e89 3e3e 3ed3 3f0e bf52
3e75 3e11 bf17 bf17 3ecb bd60 3ee4 be8a
bf0e 3e70 bc58 be1f be8a 3e88 bf51 bc90
be44 bf62 be62 be10 3d94 3dac 3c40 3e17
be97 3e7e 3f23 be40 bf06 beee 3e91 3ef0
3ec1 bf5a bf8c bf16 bd60 bec6 3ebf be36
4045 be8a 3ecc be20 bfb2 bf2b bed2 3e8c
bf12 bf21 bf14 c01a 3dbe 3df0 3f9e 3ed8
3f37 3ed6 be8e 3e52 3e0c 3ef0 3f0a bf31
3eb6 3c38 bf2b bf0d 3ed2 bdac 3dfc beea
beef 3e85 bde6 bddc be9d 3ea0 bf44 be3a
bec3 bf76 bea6 be9a bd94 3e34 3d3e 3eac
be87 3eae 3f40 bd44 bf2d bed9 3e81 3ece
3eda bf64 bf96 bf08 3d40 bf14 3ef2 be03
4054 bec4 3f03 bed4 bfa5 bf48 bebe 3e86
beaa bf36 bf0e c011 3dff 3e2b 3f97 3ec6
3f60 3f40 be39 3ed2 3c34 3f26 3ef5 bf37
3efe 3da6 bf2b bea6 3f02 bd70 3e78 bea8
bedd 3e97 3dcc be71 be88 3e7a bf2a be05
bef2 bf62 bce4 bed2 3b60 3d83 3dce 3eca
beae 3ee3 3f16 3c40 bf32 bed2 3e3e 3ec1
3eeb bf46 bf93 becd 3d68 bef2 3e9a be89
4046 beac 3ef3 bd8c bfa6 bf8e bede 3e31
bf07 bf1e bf0f c012 3e19 3e6f 3faa 3eaa
3f36 3f34 be80 3ec2 3d32 3f50 3f08 bf39
3edc 3dfa bf33 be8e 3ec6 bdba 3e1a bed6
bf19 3de0 bdcb beb3 be61 3e8d bf40 3d24
bf01 bf4e 3a00 bebd 3dd6 3e54 3e0f 3ee4
be8b 3efc 3f04 be12 bf40 bede 3ee2 3ed4
3e8b bf3b bfa0 bf04 3e0a befc 3f01 be84
404b be82 3ef8 3e0e bfad bf93 bf1a 3e48
bf15 bf16 bf1d c00c 3e3a 3e57 3fa9 3ec8
3f12 3f3b bee7 3e95 bb40 3f15 3ef3 beea
3ee6 3e6c bf18 be90 3eb8 bcc8 3d84 be9b
bf21 3d21 be1e be05 be22 3eaa bf44 3d8e
bf16 bf6e bd83 bec3 3db1 3ebe 3dae 3eb6
bd88 3f16 3f01 bce0 bf67 bedd 3ef7 3ef1
3e85 bf34 bf99 bef0 3e45 bf42 3f15 be70
4050 beb8 3f02 3cf0 bfa4 bf9c bf0b 3e17
bf01 bf23 bf1a c01b 3db0 3eb8 3fa8 3ec9
3f1e 3f66 bee8 3ea6 bbd0 3f07 3ee1 bf18
3eba 3e52 bf17 be52 3ed3 3c90 3e52 be8e
bf2f 3e45 3d48 be6b bd9e 3ecc bf0a ba80
bf38 bf4c bdac be54 3c10 3e90 bc30 3ed6
be86 3f13 3f16 be01 bf20 bee2 3e66 3e96
3e2d bf26 bf85 bec6 3d9c bf20 3ee4 bdf4
4038 be94 3f09 bd50 bfa7 bf86 beee 3e14
bead bf0c bf1e c019 3ddf 3e88 3fa6 3ea2
3f0a 3f09 bf08 3e96 3ba0 3f25 3eca bf24
3e9e 3e2d bf31 be07 3e41 bd18 3db8 bed4
bf36 3e54 3cb8 be6c bdf2 3eb8 bf18 bd81
bf2e bf50 be74 be04 bd54 3ec8 bbc0 3ef1
bec8 3f04 3f24 be10 bf48 bf16 3e94 3e36
3e88 bf46 bf99 beb9 3e69 bf08 3f17 3dbe
404c bea5 3f25 be74 bfae bf9c beda 3e2c
bdf8 bf26 bf1a c018 3e60 3e84 3f8f 3eb0
3f15 3f48 bf0e 3e89 bdcd 3f36 3ee6 bf23
3ebc 3edb bf12 3d74 3e88 3d20 3d10 bf03
bf0c 3e20 3e29 bdb5 3d2c 3ed8 bf3d bda2
bf30 bf40 be4f be2d be28 3e9a 3dcd 3f04
be9d 3f21 3f15 3b80 bf43 bf1b 3e7a 3da2
3e6f bf3a bf98 be90 3e3e bf0c 3f17 be29
4044 beba 3f20 bea2 bfa6 bfb9 bee6 bd10
be84 bed7 bece c011 3e34 3efd 3f98 3e36
3f06 3f67 bec0 3e68 ba80 3f73 3ec5 bf2d
3eaf 3f0c bf28 bc40 3eac 3db3 3dd2 bf09
bf36 3df5 3e2e be84 3d28 3e9e bf2a 3d94
bf06 bf4a bd66 bdf4 be24 3ece 3e04 3ed8
beb4 3f2b 3f15 be74 bf27 bf16 3e6b bcd8
3ce0 bf40 bf96 beb0 3ea0 beaf 3f0e bea8
4040 be4f 3f15 3d48 bfb0 bfb0 bf07 bd84
bec5 beb2 bee6 c00f 3e0c 3f20 3fae 3cc0
3ead 3f46 bf24 3e1a 3e3a 3f6a 3ea5 bf22
3e2a 3f1a bf29 3d30 3e7d 3e48 bce0 bf12
bf40 3d90 bdd6 be82 3cf0 3ed4 bf3c 3d8c
bf1f bf56 3d60 bda4 be3c 3f12 3dc0 3ed9
be67 3f24 3f0e be89 bf30 bf0f 3ebe 3e0f
bcc8 bf52 bf94 beb2 3ea0 bee2 3f2d be27
404f be44 3f1c bda0 bfb0 bfb6 bf12 3d70
bed3 bec7 beee c00d 3e28 3f0b 3fab 3e00
3e99 3f5a bf2e 3e9b 3de8 3f34 3eb0 bf10
3e90 3f29 bf2a 3da0 3e38 3e3f 3d0c bf02
bf46 3e1a 3d50 be80 3dad 3eb8 bf46 3d80
bf1c bf34 3d8c bd90 be57 3f06 3dde 3edb
bef6 3f3b 3f04 be84 bf12 bf14 3e2c 3e1a
3da9 bf44 bf82 be9e 3df2 bee7 3f12 be00
4041 be4e 3f11 be22 bfad bfa2 bebe 3db5
be3e bebe bed0 c016 3e86 3ece 3fab 3d04
3e25 3f26 bf09 3e6d 3e9d 3f6a 3f14 bf3a
3ed9 3f02 bf48 be2f 3dd2 3dec 3e78 bf11
bf5e 3e28 bd1e beb4 3d00 3ec0 bf3a 3dac
bf0f bf28 bb40 bd40 be92 3f16 3e26 3edd
bf15 3f18 3f24 bea9 bee6 bf31 3e15 3d88
3e24 bf27 bf88 be89 3dfa be2a 3ef8 3d66
4042 be0f 3f15 bdf0 bfbc bfa5 bee4 3e6e
3d64 bece bf12 c00d 3e83 3eb6 3fae 3dd1
3e2a 3f0e bf40 3e87 3e34 3f69 3ef2 bf2a
3f03 3f14 bf20 bd81 3e00 3e88 3e72 bf1c
bf49 3e9b be04 bea4 3d80 3ebd bf54 3dae
bf23 bf02 3e33 bca0 be9f 3f28 3ddc 3eec
becc 3f4c 3f51 bd1c bf19 bf2e 3e8b 3e18
3e93 bf33 bf9c be47 3e3c be3d 3f0c bd30
4045 be98 3f12 be9a bfbc bfd0 bf1e 3e58
3d74 be9e bee7 c00e 3e8c 3eeb 3fbf bc94
3e5d 3f56 bf08 3e39 3e1e 3f65 3ecf bf3b
3f0a 3f36 bf17 bd30 3e8b 3eb4 3ec7 bf0a
bf76 3eb5 bdb9 bea5 3d2c 3ecb bf51 3e9f
bf07 bf13 3eb8 3d80 be77 3f14 3e4b 3e8a
becd 3f30 3f2d be88 bf0e bf3f 3dac 3e63
3e1e becc bf91 be87 3e50 bdf4 3ec9 be80
4030 be9e 3f14 be17 bfc2 bfdf bf48 3df0
be43 be52 bf12 c01e 3e32 3f20 3fc6 bda4
3e6c 3f40 bf14 3d70 3e83 3f70 3e96 bf1c
3e9a 3f18 bf32 bd50 3e6d 3e56 3dd0 bedb
bf92 3e84 be79 be9b 3ca0 3ec7 bf31 3eab
bf05 bf06 3ed2 3dc0 be82 3f2f 3e5a 3ea6
beea 3ee4 3f5e beba bef0 bf12 3e33 3e51
3d10 bf20 bf8d be88 3e8e be1a 3f27 bd68
4034 be26 3f13 be89 bfc2 bfc2 bf53 3ea7
be89 be34 bf24 c01b 3e38 3f02 3fad bd8b
3e9e 3f34 bf1c 3e13 3e84 3f3f 3e89 bef6
3eb7 3f40 bf2b 3d28 3e64 3ec5 bd30 be90
bf88 3e9a beba be7a bdc0 3ed1 bf2c 3e8b
bf22 bf1f 3ee1 3ca0 beb4 3f17 3e3c 3e80
bf01 3f2e 3f55 be62 bf21 bedc 3dce 3e16
3e17 bf30 bf8a be77 3e3c becf 3f0e 3c40
403e be36 3ed1 bf02 bfab bfc0 bf22 3ea9
bd60 be00 bf1a c020 3e96 3ef6 3fad be5c
3eae 3f36 bf09 3e10 3d9e 3f6a 3ea6 bf11
3ee9 3f2a bf36 3cb0 3e6a 3eba 3e30 be8c
bf92 3eaa beb4 beea bd58 3ee0 bf07 3e44
bf3a bee1 3ec4 bd40 be95 3f08 3e59 3ed0
bf1f 3ed5 3f53 bec5 bf0e bee4 bcb6 3c60
3e86 bf0f bf8e beac 3e0c be82 3ef2 bd28
4037 be5a 3ece bea8 bfb0 bfc0 bf22 3eec
3e0c 3df4 bf0c c01e 3edc 3eba 3fa6 be81
3e6c 3f1c bf26 3d90 bd96 3f8b 3ef2 bee2
3ec7 3f31 bf3b 3e5f 3e46 3ebf 3e06 bef2
bf81 3e4a bec4 bed9 bcf0 3ec0 bf18 3e94
bf57 beff 3ee6 be30 be6c 3f13 3e48 3eeb
beee 3ef7 3f48 be32 bf22 bf08 3d62 3ce0
3e79 bf14 bf94 be82 3e95 bea0 3f1c bd60
4048 be63 3eee be73 bfb4 bfe8 bf41 3f0d
3e05 3d40 bf26 c01e 3f08 3ec4 3fa7 be0c
3e8a 3f68 bf10 3deb be43 3f7e 3eb4 be78
3ed0 3f74 bf00 3ebd 3db4 3ed1 3e44 bed6
bf7e 3e2c be70 bed2 3cb0 3eee bf13 3ebd
bf73 bef2 3f0a be22 be3a 3f16 3e0a 3e9e
bedc 3f24 3f22 be39 bf48 bf02 3d5c bb80
3ec4 bed5 bf9c be10 3ee6 bee7 3ed8 be46
4038 be8d 3ee3 bdcc bfb4 bffc bf5c 3e85
bd8d 3c70 bee0 c02b 3f06 3f1c 3fb6 be88
3e4c 3f62 befb 3d2a be22 3f86 3e9a bea1
3d5e 3f64 bf0a 3e9c 3d36 3ee5 3eb8 be6c
bf9e 3da7 be92 bed2 3da6 3f13 bea3 3ee3
bf52 bec5 3f12 bd28 bdfc 3f1f 3d6c 3eb1
bed5 3ed4 3f41 bea9 bf26 bede bb80 bcd0
3e67 bee2 bf8d be6e 3eda be3d 3efa be64
4031 be58 3f14 bc60 bfb6 bfd5 bf76 3eb3
3d24 3df2 bf0c c02e 3f07 3efe 3fa6 be2b
3e64 3f36 bf24 bd86 be17 3f59 3e9d be66
3d81 3f8f bf02 3ea9 bd3a 3efa 3e4c be6a
bf8e 3dcc bec3 be62 3d54 3f0d bed8 3ec2
bf5c beda 3ee8 bc90 bebc 3f21 bd74 3ea0
bea7 3ed0 3f59 be61 bf42 beb5 bda6 be4d
3ebe bf10 bf86 be22 3ee2 bec4 3f21 be1d
4044 be98 3f09 beb1 bfb2 bfcd bf4d 3ee6
3e6f 3d24 beea c031 3f10 3eb6 3f9e be30
3eac 3f56 bf08 bc48 bec7 3f7e 3e37 bea4
bc50 3f92 bf0b 3ece 3cb6 3ef6 3e94 be39
bf81 3ea7 bdb0 beb5 3db2 3f1a bea6 3e0f
bf58 be98 3e94 3dd8 bed0 3edc bd22 3ebe
bf1a 3ee8 3f4e bdb3 bf12 beab bec0 bea8
3ece bf0d bf74 be36 3eb3 be84 3eb0 be36
4037 beba 3f21 bea7 bfaa bfd2 bf27 3eee
3e64 3dd8 bea3 c029 3f1e 3ed0 3fa3 bf02
3e48 3f2c bee5 bda0 beaf 3fa4 3ea1 bee6
3d30 3fa2 bf40 3eda 3ce4 3f06 3e97 beb7
bf99 3df6 bd26 bee3 3e09 3f11 bee6 3e7f
bf43 bea6 3ecd 3d70 beb4 3ed2 bc38 3ec3
bf22 3e84 3f48 bec1 bf08 beca be7c beef
3ea3 bf08 bf8c be9a 3f03 3da2 3ed6 bebc
4045 be98 3f0f be5a bfb0 bfd6 bf29 3eaa
3e66 3e62 be9a c01c 3f2e 3f02 3fa2 bf10
3e75 3f27 bede bb94 be8a 3f9a 3e6b be2e
3bb0 3fb9 bf1c 3edc bd3c 3f04 3e46 be8a
bf8c 3d72 be56 be95 3de0 3f22 befe 3eb0
bf31 beb1 3f00 3d30 bed0 3f02 bbe0 3eac
bf09 3ede 3f38 be9a bf2d beb6 bda6 be6e
3eb6 bf1c bf88 be68 3eb4 be12 3ee4 bf06
404a be98 3f10 be4f bfae bfe0 bf50 3e9b
3d7c 3e05 be22 c01b 3f29 3f1f 3fb4 bf01
3dec 3f52 bec7 3dab be57 3fa0 3e70 be6b
bb50 3fb3 bf28 3e8b bdb2 3f25 3ef0 be92
bf94 3e04 be50 bf0a 3e48 3f17 bed4 3ec2
bf16 be77 3f20 3d70 bea1 3f08 3bd0 3e41
bf3d 3ea7 3f12 bef8 bedb bebd be30 be16
3df5 bf0f bf6c be7f 3e97 be04 3e65 bf11
403d be8d 3f0e 3ce0 bfa4 bfc4 bf32 3e90
3db4 3dc0 be22 c020 3f06 3ee2 3fb8 bef3
bd1c 3f02 bef5 bcaa bcb8 3f98 3ecc be2e
3e19 3fb0 bf4e 3ddc be34 3ee8 3e90 bea7
bfaa 3e32 bea4 bec7 3de0 3f0f becc 3eaa
bf22 be83 3edb 3d00 be96 3f0b bd9e 3e8e
bf29 3dd8 3f3a befa beb3 bea6 bde6 be1d
3e8f bf10 bf74 be5b 3e52 bce0 3e87 be94
4042 be62 3f26 bda8 bfa8 bfb2 bf2a 3efe
3ec4 3dc4 be78 c019 3efb 3e42 3faa bee8
3dfc 3ea9 bed0 3dc4 bda6 3f86 3e94 bb80
3eca 3fb7 bf39 3de9 be20 3efc 3ea6 be76
bfa8 3ec2 be94 be87 3e36 3f35 beec 3e97
bf1a bd82 3ecc 3e0a bf0e 3ed8 be0a 3e9f
bf26 3e63 3f46 be78 beaa beda bdd6 be42
3ec8 bf18 bf5c be42 3e4f 3dae 3e1c be70
4046 bef8 3f1d be9b bfa3 bfbe bf40 3ed3
3f04 3dde bdc0 c018 3efd 3eb6 3fba bf1a
3dee 3f01 be48 3e21 be52 3f9e 3e8e be0b
3ec3 3fa4 bf53 3dfa bd68 3ef0 3ef4 bdce
bfae 3e9d bde5 befb 3e6b 3f06 bec2 3e9e
bf10 bcb0 3f02 3de0 bec9 3ea8 bc38 3e76
bf3e 3dce 3f2d beb5 be8d beea be7e be3e
3e68 be8f bf73 be44 3e82 3eb2 3d28 be90
403d bedb 3f1c bc40 bf96 bfd0 bf40 3ec1
3ec4 3e2a be2d c01b 3ed9 3ef9 3fb8 bf33
3da9 3e96 be6e bdd2 be00 3fa6 3ded 3e0c
3eb2 3fa2 bf49 3e3e 3d96 3ec2 3e48 bdde
bfab 3ea4 bee4 be6c 3c50 3f10 beb4 3ecb
bf16 bdbe 3f02 3c40 bea4 3ed0 bda9 3e01
bf14 3db8 3f3e bebd bf02 be9d 3d70 bdf6
3d4a bec6 bf82 be06 3e9f 3e22 3e56 bec2
4046 bea7 3f14 be10 bf99 bfd9 bf62 3ed9
3eac 3de2 be45 c016 3ea7 3f0f 3fae bf1e
3e86 3f10 be28 bde3 be30 3f8f 3c20 3e8e
3ecc 3fb2 bf36 3e72 3d93 3ef4 3dc8 3e50
bfc0 3e93 bebb be8a 3d48 3f2c bea6 3edc
bf1b bdd0 3f21 3d40 be96 3ea3 bb88 3e02
bf22 3e04 3f2d bebd bed0 be1e bdf6 bda0
bd0e bed1 bf64 be49 3dd4 bdc1 3e5e bec9
403e be8f 3f01 be4c bf7a bfbf bf46 3ef0
3e88 3e97 be30 c01d 3ecc 3ede 3f8b bf02
3e0e 3ebe be90 bdac be07 3fa8 bd14 3e4b
3ed7 3fa4 bf7e 3dc8 3b00 3eb9 3d40 3e26
bfc2 3e8a bec2 bec6 3cd8 3f22 be4f 3eb2
bf24 be16 3f01 3d40 be92 3e79 bbe0 3e28
bf3a bdae 3f0c beec bebc be38 be36 bdfc
bda0 bf00 bf54 bde3 3d9c 3c90 3e35 be2c
4046 be1e 3efe bc80 bf80 bfb0 bf12 3f30
3ee6 3e84 be85 c014 3f20 3e84 3f7b bf09
3de0 3e32 bed2 bd78 be90 3fb5 3d5a 3ebc
3f29 3fa0 bf4b 3e68 3d9c 3ec6 bd20 3c00
bfae 3e3e bed6 be96 bd54 3f19 beca 3eaf
bf66 be0a 3eff bd10 be93 3e5a be08 3e23
bf0a 3e32 3f15 be98 bedd be33 bd97 be53
3dac bf17 bf6a be04 3e12 3bc8 3e20 bdbe
405d be84 3ed0 bde0 bf61 bfd0 bf2a 3f3c
3f1c 3e00 be0a c00e 3f2e 3e8b 3f75 bf11
3e5d 3efe be98 bd16 bf04 3fc2 bc50 3ecf
3f17 3f9e bf3b 3ec9 3da1 3efe 3e64 3d24
bfa7 3e92 be53 be9f 3d04 3f0f be4e 3ec6
bf58 bda4 3f1b bd18 be35 3d4c bd99 3e34
beec 3e32 3ef6 be91 bed6 be80 be51 bdd2
bd8c beb3 bf62 bd97 3e58 3d06 3dac bef0
4046 be02 3f08 3e6c bf7b bfe2 bf4a 3ee0
3efe 3e3c bd82 c00f 3f38 3ec8 3f88 bf0a
3da3 3eb6 beef be12 bed2 3fd8 bd7e 3f00
3ed8 3fa6 bf34 3e86 3da6 3e94 3da8 0000
bfbc 3df8 be55 be24 3cc0 3f1b be7f 3f03
bf3c bd30 3f10 bcb0 bda0 3e83 be2a 3d40
be8a 3e12 3eb8 bef0 beba be3d bd80 bd8e
be82 beff bf60 bd88 3e77 3de5 3e46 beca
404c bdf0 3f1b 3e96 bf52 bfd8 bf74 3f06
3eb5 3e05 be01 c010 3f2c 3f01 3f68 befd
3e03 3e49 bef5 be5a bef4 3fb4 be25 3f13
3eac 3fb2 bf02 3e9e bc30 3e9d bd8c 3d7c
bfbc 3eb2 be84 3df8 3e1f 3f17 be8b 3ee7
bf42 be45 3ef0 3e1c bd9d 3e75 be88 bd70
be8b 3e7c 3f1b bec1 bee4 bdda be16 bdd9
be17 beed bf4e bcc0 3e1e bdc4 3e3a beb4
4050 bd98 3ee1 bd10 bf38 bfc8 bf38 3edc
3ef4 3e1e bd10 c017 3f3b 3ec2 3f48 bf11
3e53 3e8c bef6 be4c bf08 3fc1 be4a 3ea6
3ea9 3fb2 bf3d 3e63 3cf0 3eb6 3e0d 3e09
bfb1 3e87 bd2c 3d92 3dfa 3f2c be5d 3ea7
bf34 3a80 3ec4 3e60 be54 3dd3 be5c 3ca0
bf04 3d82 3f03 bed5 be15 bde3 bec7 bec0
bdea bf15 bf4e bd01 3de2 3e7c bd00 be51
4047 bdc0 3f0c 3d00 bf3d bfb6 bf04 3f0e
3f22 3e22 3d9a c012 3f4b 3e9e 3f3a bf1c
3d96 3dfc befc be87 bf02 3fda bd81 3e93
3e9d 3fb2 bf3a 3ea0 3d30 3e78 bb80 bde4
bf9d 3ea2 bdb8 3cf0 3da2 3f25 bec4 3e6e
bf21 bd84 3eaa 3d60 beaa bc58 be5c 3ca0
beed 3df4 3f0c befe be03 bea4 bea8 beb6
be2a bf3a bf75 bd21 3e82 3ed0 3e2f bec8
4060 3d70 3f01 bcc0 bf4d bfcd bf08 3f09
3f2e 3de6 3d8e c003 3f5a 3eb2 3f41 bf1b
3e1e 3ea2 befc be70 bf0e 3fea bd98 3eec
3eab 3fb6 bf22 3eb8 3d90 3e79 3da8 be98
bf9b 3e83 3bf0 3cb0 3dfe 3f17 befe 3ea4
bf28 be02 3f03 3cd0 be74 bda4 bdd4 bdd0
be97 3e52 3e9b bf06 be22 be83 be3a be72
be3e bf16 bf62 bbc0 3cb0 3e7c 3e0e bf24
4058 3c90 3ee2 3e14 bf45 bfe5 bf1a 3eb2
3ef7 3dc8 3e9e c002 3f4b 3f04 3f69 bf30
3d00 3e8e bef7 bec3 beaa 3fee bde8 3eee
3e9c 3fb2 bf26 3e6c 3dec 3e9a 3ebb be4b
bfb1 3e49 bdae bd28 3e02 3ed6 beba 3eef
bef6 bc40 3f3a 3e50 be00 3c96 bd24 bdc0
bea5 3dc0 3e44 bf42 3a80 be7f bde8 be04
beb1 bf20 bf48 be2c bc00 3ecc 3d78 bf1f
4048 3e44 3eca 3ec8 bf2e bfc4 bf1a 3ef6
3eeb 3e72 3dd8 bffd 3f41 3eae 3f48 bf16
bdd5 bcc4 bf2d bef6 be13 3fd0 bd00 3f1f
3ec3 3fb2 bf0c 3d68 bd92 3e78 3e31 be5c
bfbc 3e3c be98 3e50 3da8 3ed8 bf1e 3f05
bf12 be64 3f1c 3e6a bdc3 3e16 be47 be7e
be5a 3db4 3edf bf3d 3c80 be91 bde0 bd04
be84 bf20 bf5e bdc3 bd86 3e9a 3e52 bf07
405a 3e6e 3eab 3e1a bf47 bfc4 bf0d 3f24
3f1b 3ce0 3de5 c006 3f55 3e30 3f4c befe
3d82 3dac bf20 bf03 bebc 3fca bb80 3efa
3ef4 3fb3 bf25 bd30 be0e 3e66 3ece bdbe
bfba 3ede bdfc 3e63 3c30 3eaf bf28 3ee3
beec 0000 3f23 3dc0 be3e bdea be72 bea3
be8b 3d44 3ed8 bf24 3e1c be86 beb8 3d10
bdc8 bf18 bf33 bdf8 be9d 3ec2 bdf4 bee8
4053 3e25 3e72 3d8c bf31 bfb4 bf0c 3f07
3f49 3d50 3e51 c00a 3f61 3e1d 3f5b bf06
3ce8 bdbe beed bed3 be9e 3fe8 3e38 3eb4
3ef0 3f94 bf1c be10 3d98 3e3a 3ed3 be00
bfb4 3ee2 be20 3e24 3ce0 3ef2 bf2c 3f0e
bea8 3d10 3f1d 3db4 be7d be51 be34 be93
be8e bdd0 3ef6 bf38 3dfa be93 be8a be1c
bd98 bf0a bf64 bdf8 bd10 3f44 be0c bef9
4058 3e64 3e9f 3e12 bf4b bfbc bf28 3f1c
3f3e bc40 3d10 c007 3f6a 3e30 3f4b bf02
3da5 bdaa bf09 bf00 bedc 3fea bd1c 3f08
3eec 3f9e bf03 bdea 3e70 3e14 3ea8 bd98
bf9e 3ee5 be98 3ed0 3dea 3e96 bf3c 3f10
bebb 3c98 3f3c 3d30 bdb6 be61 bde2 bede
3c28 bbc0 3efd bf10 bdb0 bdcc be3b 3c80
be1c bf16 bf72 bdf3 bdcc 3f08 bd70 bf2e
405e 3e8a 3e8a 3c30 bf46 bfd8 bf56 3f20
3ef0 3d48 3db6 c007 3f52 3ea9 3f6a bf07
3ea8 3e36 bef2 bf26 be98 3fe2 be48 3f26
3ec0 3fa4 becc bdc1 3eb3 3e1a 3e97 bca0
bfae 3eea be7d 3e8c 3d48 3ed4 bf1a 3f11
bea3 bcc8 3f5a 3e60 be06 bead bdb2 beec
bd34 bde0 3ec9 bf37 3d16 bd05 bea2 3de8
be44 bf02 bf62 be12 be42 3f06 be12 bf52
404c 3e90 3e18 3e22 bf2e bfbb bf2e 3f09
3e5f 3e65 bd04 c00c 3f4e 3e49 3f47 bf03
3e38 bd58 bf0e bf24 beba 3fe9 be00 3f26
3ea2 3f8e bf04 be6a 3e36 3de6 3e83 3dfc
bfb4 3ed0 bed5 3e97 be12 3ebb bed4 3efb
beec bd9c 3f5c 3e04 bca8 be87 bdaa be9e
be17 be0f 3f03 bf44 bcf8 3dc5 be4a 3e18
be14 bf1d bf62 be8e be3a 3eb2 bdda bf1e
405c 3e91 3cc0 3ce0 bf12 bfa0 bf13 3f73
3ecb 3e1d be04 c004 3f6c bdd3 3f1d bee3
3eb5 be26 bf11 bf21 bf11 3fda bc9c 3f40
3ef8 3f98 beb4 be4b 3d9b 3ce0 3e38 bd28
bfa1 3ec2 beab 3eb6 bd88 3ebe bf19 3ef0
bf15 be67 3f22 3d50 3d38 bec2 be3f bea0
bb00 be01 3efc bf1d bdf4 bc0c bec6 3e58
3dd8 bf2e bf70 be3c be95 3e24 be83 bf2a
4068 3e9d bd40 bce0 bf2f bfaa bed9 3f43
3f0e 3db8 bd8e c001 3f7d be82 3efd bec5
3ec1 bc60 bed5 bf1f bf41 3ff8 3e34 3f2c
3ef5 3f89 bed5 be16 3e4a bc60 3ef8 3cc8
bf9f 3ecc bdc1 3e9d bc00 3e95 befe 3ef3
befc bd64 3f2d 3c20 3db2 bf10 be12 be99
bd16 be07 3ec8 bf1c 3cc4 3dcc bebc 3e58
3d78 bf09 bf74 be9c be72 3ebf bede bf56
4059 3e8c bb80 3ea2 bf16 bfc4 bf09 3f28
3efa 3e48 bcc0 c005 3f94 be3c 3f04 bef8
3ea2 be25 bf16 bf3a bf39 4001 3e45 3f30
3e82 3f8a becb be1c 3e16 bd60 3edf bd16
bfa4 3eaa be12 3e9e 3ca0 3ed4 bf01 3f10
bef7 bdf4 3f14 bd2c 3e42 bf1c be0e beba
3e56 beab 3e94 bf1b bddc bb60 bd54 3da4
3dc4 bf16 bf81 be85 bd74 3ec2 be80 bf6b
4068 3e66 3d68 3ec0 bf26 bfbe bf40 3f26
3eaa bd00 bbe0 c006 3f82 bd84 3f38 be82
3ede 3be0 bf02 bf34 bf51 3fe2 bcbc 3f68
3e68 3fa0 be68 bd93 3d98 bdc0 3e9c 3daf
bf90 3e90 bde7 3f32 3dc6 3ed7 bf1c 3f08
bee4 be44 3f2c 3d38 3e32 bee0 be46 bf17
3e9a bdf0 3e78 bf1c be7c 3da7 be76 3df0
3d5c bf0b bf76 be96 be2a 3d40 be8b bf82
4060 3e28 bc20 3e8c bf1f bfb4 bf12 3ee8
3e72 3d10 3d64 c014 3f64 bd00 3f2e be9e
3ee4 3d90 bee2 bf2d bf4c 3fda 3d82 3f49
3dba 3f9b bec6 be6e 3dfc be16 3eb0 3e12
bf98 3ec6 3db4 3f16 3e0a 3ee0 bed8 3ec4
bee8 be07 3f09 3dec 3d58 bf27 be84 bef0
3d9a beb0 3eac bf38 bd46 3dcc bed0 bc00
3dc4 bf27 bf63 be9e be6e 3e9c beea bf68
4050 3e4c 3da4 3e93 bef2 bf92 bec9 3f27
3e9c 3d14 3b40 c00d 3f7e be56 3f18 beae
3eea bebe bec1 bf3a bf38 3feb 3e3b 3f22
3e32 3f9d bf0e beae 3db0 be2e 3e4e 3c00
bf7a 3e74 3d10 3f33 3d4c 3ed2 bf26 3eaf
bee8 be31 3e63 3dba 3da0 bf48 be56 bec2
3e12 beb6 3e8c bf39 bcac 3dda becb bb10
3e3b bf46 bf74 beb0 be4e 3e98 bec6 bf6c
406c 3dc0 bd28 3da4 bf0e bf89 be8d 3f36
3ede bcb0 bd30 c001 3f7f beac 3f0b beda
3f2a be0c be90 bf19 bf46 3fe2 3e4e 3f1a
3ea6 3fa0 bef6 beaa 3c80 be80 3ece be05
bf69 3e41 3ea4 3f20 3da8 3ec8 bf38 3e42
be8f be96 3ea0 3db0 bce4 bf5a bddc bea7
3d84 be6a 3e32 bf19 bd9d 3de1 bebe 3a80
3e86 bf41 bf70 beb6 be8b 3e7e bf03 bf9e
405e 3dc0 be3d 3e4d bf06 bf99 be09 3ed1
3e46 bdd5 3e1a bffa 3f79 be76 3f21 bed8
3f0b bd64 be58 bf22 bf28 3ffe 3e8b 3f0f
3e9d 3faa bf12 bea5 3e16 bec2 3f2a bdce
bf7f 3e53 3ea1 3efe 3e52 3e8d bf23 3f0d
be6e be84 3ee7 bd20 3d5c bf64 bdfd bea6
3e10 beb3 3e40 bf35 3dfb 3e00 be59 3dbe
bcac bf23 bf74 bef6 bea1 3f07 bf36 bfbc
405a 3e76 bd78 3f11 bf0f bf96 bec0 3eeb
3cb4 3bc0 3de6 bff4 3f6d beb4 3f57 be85
3eea be52 beda bf1f bedf 3fdb 3eaf 3f40
3ec4 3f95 bf08 bf07 3dab bea3 3ed6 bd89
bf85 3e36 3dac 3f29 3dcc 3eac bf4a 3eed
bdf2 bece 3e96 bb80 3e4a bf28 be28 bee4
3e90 be76 3e84 bf48 bdbc 3db8 bde3 3ea0
3c9c bf42 bf74 bf14 be9c 3e1e bf1e bfa0
4060 3e57 bdf0 3ed0 bf10 bf89 be82 3ee3
3e01 be74 bd0c c002 3f53 beb2 3f5c be35
3f0c be9a bea0 bef8 bef8 3fb7 3ecc 3f2e
3f0e 3f93 bf25 bf40 3d38 bec0 3eee 3d8e
bf80 3ec4 3e3c 3f42 3e76 3e5e bf26 3eb7
be46 beb2 3e64 3d58 3e39 bf5c be84 bee1
3e25 be9c 3e44 bf3a 3bd8 3e12 be84 3eac
3e35 bf23 bf3c bf1a befb 3e54 bf54 bf90
4058 3d58 be24 3e94 beec bf6b bdde 3eed
3df8 be65 3df2 c001 3f29 bee0 3f5e be1c
3f20 beaa bd78 bf00 bead 3fd4 3eeb 3efb
3f20 3f74 bf40 bf5c 3d50 bf04 3f16 3c70
bf90 3ec7 3e26 3f2a 3d80 3e98 bf48 3e96
bde4 be73 3b80 3d50 3e2f bf87 be24 be56
bd8a bee3 3eb5 bf3c 3e26 3d2c be48 3e92
3e16 bf1d bf54 bf00 bf05 3ef8 bf75 bf7a
4056 3cf0 bd60 3dea bf0e bf60 bd6e 3f06
3ea2 be8e bd4c bfee 3f32 bf05 3f40 bda6
3f42 bf06 be7c bf0a beec 3fc8 3efc 3f12
3f44 3f4c bf22 bf4e 3e89 bf1c 3ec0 bd5a
bf82 3ef3 3e27 3f6a bc00 3e81 bf4a 3e78
be1a bee8 bc90 bdf0 3e51 bf89 be0a be9b
3e66 bee8 3ea8 beee bd86 3c00 bba0 3eaf
3e45 bf2c bf7e bee8 bee4 3eb7 bf41 bf8a
4061 3ce0 bd50 3cf0 bf0e bf94 be10 3ec5
3e1c becc bd14 bff4 3f37 beae 3f78 bd60
3f6e be7c bd9c bef7 bf0f 3fcd 3e8c 3f28
3f34 3f52 bf32 bf36 3ec8 bf22 3ea4 3e54
bf81 3ee2 3eab 3f43 3e14 3e9d bf5a 3ea0
bdf2 be9c 3e48 bd28 3e2d bf92 bd1c beac
3e88 beb6 3e56 bf1c be2a 3dd9 bd82 3ee3
bdbc bf10 bf52 bf0c bf14 3e12 bf70 bfa4
404a 3d54 bdd4 3e8e bf00 bf8a be3a 3eaa
be47 be98 bd24 bfe6 3f2f bece 3f74 bcc8
3f44 be9f be08 bf03 be90 3fd2 3eec 3f34
3f2c 3f42 bf64 bf3f 3ed3 bf18 3dcc 3e97
bf8e 3eb9 3dc6 3f36 3d28 3ebe bf2f 3ec5
be31 bebe 3e04 bdda 3eb5 bf72 bc30 be80
3e4f beb6 3e7e bf46 bdd2 3e46 3e00 3ee6
be33 bf41 bf74 bf20 bee4 3e73 bf3c bf92
4054 3d30 be16 3eb7 bf03 bf75 be20 3f0e
be3a be88 be88 bfee 3f1d bef5 3f5e 3e09
3f3e bee7 bebd bf17 bec8 3fb9 3ebb 3f48
3f56 3f32 bf48 bf4a 3ea6 bf3a 3c00 3e5a
bf8b 3eb9 3cf0 3f59 3db8 3e8e bf3c 3e65
bebf bf10 3cf4 be2c 3ed0 bf6e bda4 be53
3e89 be20 3e20 bf2c be84 3e4a 3df4 3f08
bc90 bf34 bf66 bf10 bf1c be56 bf44 bf86
4062 bd60 be46 3e32 be98 bf5e 3df7 3f1e
bc30 beb7 be54 bfe8 3efb bf16 3f3c 3e19
3f64 be2c be6d bf06 bf00 3fbe 3f0e 3f23
3f77 3f27 bf40 bf34 3ed3 bf44 3e38 3e86
bf74 3ee9 3ea9 3f42 3dde 3e8a bf34 3e26
beb2 befe bd6c be18 3ed7 bf8a bc70 be38
3e1d be4c 3dfc bf20 bda2 3deb bbe0 3ee1
3d10 bf10 bf54 bf0a bf11 bd48 bf57 bf83
4050 bca0 be05 3eae bec2 bf7e 3e64 3ecb
3d78 bed0 bea3 bfe6 3f2e bf1b 3f49 3e06
3f4a beb2 beaa beea bf06 3fd3 3f18 3f0c
3f7a 3f38 bf52 bf3c 3eb4 bf6d 3e96 3c10
bf70 3e98 3ed8 3f3e 3dae 3ea3 bf1a 3ea2
bed4 bf0a be1c be8e 3f01 bf8e bd64 bd18
3eac be6f 3e50 beff be82 bd30 3dae 3ec4
bdac bf1d bf86 bf08 becf 3e63 bf48 bf6e
4057 3d50 be16 3ea7 bef6 bf8c 0000 3ea9
3d63 befa be8c bfca 3f2e bece 3f54 3e6c
3f4a be74 bee0 bf04 bf2b 3fb9 3eea 3f23
3f71 3f42 bf1e bf15 3ec1 bf70 3d80 3db0
bf66 3ec4 3ece 3f85 3e55 3e8e bf64 3e9a
bef6 bf14 bda8 be5d 3eee bf80 3c38 be37
3f18 bd20 3d88 bf20 bede 3d3e 3e8a 3f02
be2a bf1c bf82 bf0a beb0 be05 bf2e bf8f
404f bcc0 bdac 3e9b bec1 bfb4 3be0 3d98
be04 bf04 be8a bfe4 3f22 be8f 3f6d 3e4c
3f74 bd4c bec6 bf01 bf0a 3fb3 3ec6 3f18
3f48 3f45 bf30 bf30 3ece bf56 3dbc 3e2b
bf85 3ec1 3f11 3f7a 3e97 3ebe bf2a 3e8a
bec6 bf17 bd44 3dff 3eb6 bf8a 3c00 be14
3eab 3c80 3d10 bf10 be32 bd6a bc8c 3ec6
be98 bf24 bf66 beec bed8 bdf6 bf5e bf88
403c 3d58 bdb0 3eb6 becf bf87 3d92 3e04
be70 bebc be9e bfe9 3ef1 be3e 3f53 3e5a
3f30 bec4 bedf bf08 beb0 3fb7 3edb 3ec4
3f48 3f3d bf53 bf3b 3ea0 bf78 3b80 3d88
bf68 3eb6 3eea 3f5e 3e91 3e92 bf4c 3e46
be9c bf16 bea4 3d68 3ed2 bf85 bc40 be00
3ebd bc60 3e54 bf46 bdbc bd62 3e1d 3e87
be97 bf44 bf60 bef0 beca bbf0 bf31 bf4e
4054 3d98 bd50 3d50 bef9 bf67 3e95 3ea5
bdb2 bea0 beb1 bfdd 3f0a be98 3f34 3e28
3f62 beac bf12 bf04 bec0 3fab 3f1e 3ebb
3f72 3f65 bf3f bf19 3ecf bf78 bd00 bd40
bf4e 3ea4 3f0f 3f78 3e8e 3ea0 bf60 3d90
bee0 bf24 be99 3d00 3e38 bf8e 3da6 bd2c
3ecc 3cd0 3d18 bf05 be18 be89 bca0 3ec2
bdcc bf3e bf5c bf0d bf07 3d38 bf30 bf77
4056 bd68 be2a 3d8c bf0c bf66 3ee5 3e0f
bcf8 bee4 be9e bfc6 3f14 beda 3f3e 3e24
3f3e be13 beea bf05 be99 3fd6 3f29 3e46
3f8f 3f3f bf6b bf43 3ef0 bf7a 3e76 bd5b
bf50 3ea3 3f29 3f38 3ec2 3e84 bf5c 3e16
be94 bf26 be90 bda0 3e80 bf9a 3e69 3dd0
3e4a 3dfc bd88 bf1c 3e28 be47 3cea 3ea0
be55 bf1f bf4e bf04 bf02 3e52 bf56 bf84
404d 3d9c be18 3ec4 bf2e bf9c 3eb7 3ca0
bdf2 bedc bebc bfcd 3f23 beae 3f74 3e48
3f0f be8e bf14 bf18 bd62 3fda 3f58 3eb3
3f99 3f0c bf5d bf36 3ee0 bf78 3e20 be93
bf57 3e76 3efd 3f46 3ed2 3df4 bf77 3e9a
beac bf48 be0b bdf8 3e94 bf5b 3e98 3d14
3ea9 3e4a 3d98 bf1e bd9d be89 3eb2 3efa
be98 bf21 bf87 bf02 bee5 3d98 bf38 bf77
4054 3e1a be4b 3ec8 bf31 bfb0 3e52 3e33
bea7 bf03 bec9 bfba 3f00 be62 3f86 3e85
3f33 be2b bf20 bf13 3d5c 3fac 3f38 3edb
3fa0 3f33 bf4c bf5a 3ec2 bf50 3e5c be18
bf7d 3ea9 3ebc 3f6f 3f07 3dcc bf86 3e98
be68 bf2f bce8 3d8a 3e88 bf4a 3ed4 bcf0
3ee0 3e9c bc90 bf11 bd8a bea9 3e9e 3f40
be91 bf04 bf72 bf28 bf21 be16 bf48 bf75
4042 3dfc bdb8 3e9d bf0e bfac 3e73 bd99
beb8 beca be96 bfe3 3ed0 be97 3f98 3e99
3f1f be9a bf1e bf1c 3e10 3faa 3f60 3e53
3f95 3f1b bf6c bf6a 3eb1 bf84 3e74 3dbf
bf8e 3ed8 3eec 3f3e 3ee9 3e14 bf57 3eaa
be9a bf05 3cb0 3c00 3ea6 bf6e 3eb8 bd48
3e9b 3dc4 3e2a bf2e 3d1c bee2 3e47 3f30
be76 bee9 bf76 bf16 bf2f 3e2c bf5e bf42
403a 3e30 bdf4 3db8 bf37 bf84 3eac 3cb4
be23 beb6 bf0e bfd8 3e6b bee5 3f8b 3edd
3f2e befa bf1f bf2b 3e44 3faa 3f5c 3e70
3faa 3f11 bf62 bf83 3ed8 bf8a bcd0 3ce0
bf88 3ee2 3ea2 3f68 3ec5 3e8a bf82 3e84
be96 bf28 bea3 3e1e 3e46 bf66 3eea 3d84
3e6e 3e04 3e74 bec8 bd60 be97 3e55 3f0b
bdf4 bf0e bf75 bf09 bf33 3db2 bf53 bf08
404c 3d18 bea0 bd08 bf2b bfa5 3eb6 3da9
be03 bebd bf22 bfdc 3e9f beef 3f73 3eee
3f58 be3c bf0c bf14 3b10 3fc3 3f4c 3dea
3fbc 3f1b bf69 bf4e 3f18 bf85 3ddc 3dcc
bf58 3f08 3eee 3f46 3ee7 3e8a bf5e 3e60
be7b bf06 be06 3c60 3e7b bf86 3f12 3df0
3eda 3e48 3de8 beba bd38 beaa 3e04 3ef9
bdf0 beb9 bf80 bf11 bf30 3d24 bf6a bf3f
403d bd20 be6e 3b80 bf3e bfb2 3eb1 be04
be88 be26 bee5 bfcc 3e84 be75 3f87 3e90
3f37 be0f bef0 bf22 3dd8 3fe2 3f38 3e5b
3fb4 3ed2 bf85 bf2d 3f1a bf84 bc30 3e01
bf8b 3ea0 3e92 3f13 3ee2 3e36 bf6b 3eb1
be93 bf3a 3d31 bd9a 3ec1 bf70 3f29 3dec
3ed0 3e48 3e34 bf1c bdd7 be90 3e99 3f16
be70 bed1 bf8e bf19 bee0 3d02 bf46 bf46
403e 3df0 be98 3e68 bf47 bfb3 3e96 bcd8
becc bd18 bf20 bfca 3e92 be9f 3f87 3eaa
3f25 be0c bf29 bf2e 3e02 3fbf 3f42 3ec8
3fb4 3f02 bf81 bf0e 3f0b bf84 be84 3d1c
bf9a 3e50 3e4d 3f26 3ec8 3e0f bf41 3eeb
bf0e bf48 3d64 be18 3eb8 bf4c 3f21 3da0
3f12 3ebe 3d48 beec bee4 be34 3eb8 3f22
be50 beee bf8c bf24 bf13 beb8 bf16 bf58
4047 3d60 becc 3d00 bf48 bfb2 3e93 3cda
bf06 bd18 bf22 bfd6 3e6c be91 3f7d 3f04
3f44 3d18 bf12 bf37 3cb8 3fbb 3f4d 3e96
3fbc 3f2a bf7a bf20 3efb bf79 bd80 3e75
bf94 3e94 3ea5 3f26 3ef2 3e30 bede 3e5d
bef0 bf46 3d5c bc80 3ed1 bf4d 3f26 3db8
3ebc 3e64 bddc bee9 be7f be5b 3e01 3f2a
bca0 bebe bf86 bf17 bf16 bece bf46 bf3c
403a 3da8 bea5 3e06 bf36 bfb4 3ecc 3d28
be79 3d38 bf30 bfde 3e86 bed1 3f5d 3f0e
3f29 be3e bf3d bf3a bd0c 3fd5 3f74 3e81
3fbe 3f10 bf8d bf1e 3ec4 bf71 3d5c 3dde
bf88 3e17 3ea2 3f20 3f08 3e8a bee8 3e9f
bf14 bf34 bce0 bdf2 3eca bf44 3f28 3e94
3e92 3e44 3d90 bece be6a be7d 3e58 3ee6
bcc0 bebe bf88 bf14 befa be88 bf19 bee9
4048 3de8 beb0 3c80 bf3b bfac 3eb9 3d8a
bd88 bdd4 bf3b bfc4 3ea7 bec6 3f78 3f0c
3f2a be55 bf3b bf46 bcf0 3fd3 3f8a 3eca
3fcc 3f3a bf86 beca 3ec6 bf7e bde0 3e45
bf64 3d96 3ebd 3f3a 3f34 3e81 beec 3e8d
bf1c bf16 be42 bd99 3e63 bf53 3f2a 3e83
3ef6 3ea8 bddc bd94 beae bec2 3e95 3ec4
3e2c be94 bf85 bee6 bef2 bed2 bf29 bf2c
404c bdd0 be92 bd8c bf4d bfd0 3ecf be4e
bdf5 bca0 bf1a bfcf 3ec2 be2e 3f73 3ee8
3f30 3de6 bf02 bf24 be83 3fda 3f60 3eac
3fbb 3f64 bf80 be9c 3f06 bf6e 3d10 3e90
bf87 3e76 3ef2 3f15 3f3b 3e9b bece 3ed4
beba bf0d 3c80 bd62 3e4c bf73 3f26 3eb6
3ec8 3e52 be00 be8a be92 bef2 3e83 3e09
bd98 be5e bf84 bee1 be82 be36 bf54 bf44
4036 bd40 bddc 3e74 bf5d bfd6 3e52 bea2
bead 3dc8 bf01 bfd1 3e75 bb80 3f8e 3e9c
3f0f 3bf0 bf24 bf4e 3d72 3fde 3f5a 3ec3
3fa0 3f4d bf87 bea9 3eca bf6f bd90 3e3f
bf88 3d98 3ec4 3f04 3f2f 3e41 befa 3ee6
bf16 bf28 bd54 3c88 3ddc bf32 3f46 3e27
3ed0 3ed4 bd70 bed2 be8b beb4 3eb7 3e8e
be84 be94 bf88 bef5 bea3 be6f bec7 bf30
4042 bcc0 be20 3d00 bf4e bfc2 3ec1 be4d
be9f 3de2 bf0f bfd5 3e56 bca0 3f78 3ede
3f42 ba80 bf12 bf60 3a80 3fbd 3f4a 3ebd
3fa3 3f88 bf87 be9e 3eca bf4e be14 3e92
bf7e 3d08 3ef8 3f04 3f3e 3ea9 bed1 3e8a
bef3 bf2b be22 3de4 bc90 bf2d 3f4e 3e60
3e7b 3ed3 be0c be83 beb6 be9c 3e3c 3e80
be3f beca bf63 bf20 bef2 bed4 bf1a bf1a
4040 be0a be4d bd00 bf3c bfa9 3f24 be02
bea8 3e30 becf bfce 3e28 bdaa 3f83 3e93
3f03 bc50 bed4 bf36 3e20 3fe0 3f6d 3e70
3fbf 3f79 bfa5 becc 3ebd bf83 3e19 3e41
bf77 3d20 3f0c 3eaa 3f59 3eba be8f 3e78
bee2 bf0c be5c 3d58 3d54 bf3a 3f5e 3ed2
bd96 3e71 be7c bea8 bd2c bec6 3e3a 3e20
bc88 beb6 bf72 bf1f bf0e be4c bf24 bf16
403c 3c20 be4c 3df0 bf3e bfa6 3f3f be39
3c40 3dd4 bee8 bfb6 3e27 be82 3f93 3e36
3eb8 be69 bf21 bf16 3e4f 3fe4 3f8f 3e6a
3fd6 3f84 bfaa bee2 3e92 bf67 bcc0 3b00
bf82 3ce0 3eee 3e98 3f3e 3eae bec6 3e84
bf10 bf3c be74 3d00 bd34 bf17 3f46 3edd
3c48 3e98 be2c be5a be3c bf0a 3ea3 3e68
bd08 be7e bf76 bf04 beeb bdc9 bf1c befe
4050 be20 be28 3dcc bf3c bfbb 3f0d bea7
3cb0 3e36 bec8 bfc2 3dd4 bde4 3f9b 3e26
3ef4 3d9e bf03 bf14 3e44 3fe5 3f8a 3e9a
3fe3 3f95 bfa5 beb6 3e9b bf46 3e02 3e84
bf66 3e09 3efe 3e7a 3f44 3eba bef0 3ed9
beb3 beef 3d66 3da4 bdaf bf0b 3f55 3ead
3e2f 3ece be8f be93 beb4 bf23 3e88 3eb0
bd88 bda4 bf63 bf0a bf04 be37 bf3c bf44
403c be58 bdd0 3e10 bf54 bfc2 3ed0 bef0
be12 3e63 bed0 bfb9 bcd0 bd50 3fa6 3eac
3e69 bd0e bf06 bf2e 3ede 3fe2 3f5f 3ec7
3fdc 3f6a bfaa bee9 3ece bf3d 3dc4 3e83
bfa4 3d9c 3eba 3de6 3f40 3ec8 be92 3f02
beca bf06 3d78 3e0b 3dd8 bf02 3f43 3ec0
bccc 3e20 bdd4 bebc bd04 bf16 3ee8 3eb9
beca bd4c bf5e bee2 beb9 3c94 bf38 beee
403e bde0 bcd0 3e2e bf6c bfb3 3eea bedc
be33 3dc3 bed1 bfc2 be32 3d80 3fa7 3e90
3e8c be3c bf1e bf1e 3ef4 3fc8 3f59 3ec4
3fde 3f7a bfb7 bef6 3ede bf64 be4e 3ebe
bfa2 3dec 3db0 3e99 3f24 3e92 be9c 3f02
be99 bf12 bccc 3cb0 bae0 bea7 3f44 3e2c
3dc6 3e6e bd68 be5a be6e bf16 3f00 3eb3
be8c be3a bf6c befe bf04 be3e bef9 be8e
4046 be38 3cc0 bca0 bf4e bfb2 3ed4 be60
3e00 3e02 bec2 bfc6 bdf4 bca0 3f99 3ec2
3ee2 bd60 bebc bf31 3eb2 3fd0 3f6b 3e87
3fee 3f6e bfb7 beb9 3f14 bf70 be17 3f18
bfa0 3e24 3ea2 3d60 3f1b 3ec8 be40 3e98
beea bf10 bd87 3e12 bc30 befe 3f64 3e8c
be60 3e62 bdf0 bdf0 be72 bf0c 3e38 3e94
becb bdd9 bf40 bf17 bf12 be04 bf12 be21
403d bea1 bd00 bd40 bf14 bf98 3f38 bde4
3ddc 3e3c beca bfb9 bd8b bdc0 3f93 3eb0
3e8c be18 beda bf1a 3eb1 3ff6 3f68 3e54
3fec 3f33 bfc5 be61 3f2a bf54 be66 3ef0
bf8e 3e23 3e88 3d8a 3ef4 3ece bdb4 3eb4
bee9 bf13 be36 bc20 3cd0 bf02 3f51 3eda
be1e 3e82 be06 be33 be3d bf3b 3eaf 3e36
bebc bdde bf8b bed0 bf02 3d02 bee9 be3a
4049 be9a 3dae 3de8 bf44 bfb2 3f0a 3b80
3dac 3e20 beb2 bfa7 bdac 3d62 3f55 3eba
3ea4 bd10 bf1c bf24 3e02 3ffc 3f30 3ecf
3feb 3f67 bfcc be1a 3f46 bf42 be92 3edf
bf77 3d08 3e81 3e30 3ee3 3ebb be4d 3f05
bf0d bf34 3c8c be36 3e1d beb5 3f40 3df4
3d76 3e78 bed6 3bb0 be64 bf08 3ee6 3ea4
beef be36 bf80 beae bec1 be67 bef4 bebc
405c bdd8 bd20 3e7c bf2e bfc4 3ebf bde4
bb80 3dec bec1 bfad bdd6 3d28 3f82 3ee0
3ea2 3dc8 bee8 bf10 3e1e 4008 3f05 3ef9
3eff 400a bfb6 be8d bb00 be6a bef1 3f18
beea bf06 bf3e bec1 3f0f be69 3f6c c017
bba0 bec0 3edc be8c 3dc0 be35 3da8 402c
3f0a 3f30 bf84 3f2a 3f37 3f56 bf5e 400c
3fd0 bfb0 3f84 3f73 bfba 3fca 3e86 c00a
bf81 be90 bfb2 c00b 3eae 3fa2 bf48 be5d
bfea bf73 be1a 404a bfd9 3fb2 3fde bdd8
3f6e bed9 bfba bf66 3fb8 bdf4 bf60 bf35
3f02 bf43 be38 be20 becf 3eab be40 3f26
3f8a 3fa6 3f9e be80 3eff 3e0f bfa6 be64
3faa 3f3e 3d28 bcc0 bf85 3fa1 be9e bfbc
4016 c016 3f2c 3d38 3fcf bf94 bf2a bf43
bed8 3e0a 3fb6 3f70 3edc be70 bfb0 bfbd
3f7e 3f44 be9d 3ecc bf08 3e1a bd90 3efa
bf92 bdc0 be64 3e7e bfae 3f99 3f1f 3f73
3e8a 3f11 3f00 bd91 bf62 bf34 3f99 bed5
be8b bf77 3f88 3b00 bed0 bef9 3f24 3e6c
bd94 bf89 bfc6 be77 3eea beaf 3f86 3f82
3ede 3f82 3b00 3e94 be70 3f24 3ee4 be8f
3ebe bd84 3f08 bf9f 3eaa bfe1 bf81 bed6
bf5c bf34 3e61 bf1c 3ed8 3e7c 3f84 3f8b
3f33 3e7d bed8 bf83 beea bf44 3f68 bde0
bf4b 3f74 be36 bf0e 3ebb 3da8 4022 3f8d
bebc 3f98 bfd4 bd68 3edb c02e bf86 bee0
3f20 bec8 3ee8 bffa be3f 3f1a bef5 3f8f
be2c 3f81 3d80 3dae 3f94 bf5d 3e7c 3f34
bfa6 3f18 3d98 3f8c 3ed5 3f24 3fa2 bf00
3f47 bf32 3c80 c005 3eb8 befe bf75 bdca
bec6 be92 3f9a 3fbc 3ecd bf52 bfe8 3ec3
be7c bf90 be96 bf1c 3e60 bfa8 3f95 3f5c
bf43 3e8c be15 bfa0 3e60 bed7 3fa9 bed0
3f1a 3e0a bd40 3f62 bee8 3d80 bfc0 bf86
3f56 3e30 3f9b bce0 bf34 bea5 3f8c 3f28
401c 3f9c bdf8 3e4c 3efc bff0 c001 3ece
bf6b 3ea5 bf0e bd20 3e18 3d5c be94 3f05
3ede be64 bf52 3e94 bfde bf64 3d20 bf11
bfca 3f4a 3ebf 3f33 3f1a 3d00 3e2e 3ef9
bf67 3e80 bf5d be24 beae 3ecc be9a bedb
bf93 3eab bd60 bfa3 3d1c bf2e 4022 bf2c
3f10 3f35 bfb1 bdfe bf98 bf6e 3f81 bf8e
3de8 bf79 bf62 3f52 3e83 bd8f bede 3f1d
3f85 3f51 be04 3f02 3ea2 bfc4 3f18 bf0a
3e7c 3fd9 3f25 3e6d 3e8d bf2c 3e89 bfa9
bc80 3f86 3f20 bf5e beb0 bf40 3ee4 3f63
bef8 3d28 bee8 3e17 3df4 beee 3cec bf9b
3fa6 3f06 be91 3dd0 bf84 3f35 4029 3e12
c005 bf1d bf1f 3f27 3f44 3e20 3fad 3e90
3f3e 3e5b bf78 bfc1 bf4c bea0 bf48 beff
3ea7 3f28 bf22 3e5c beb4 3dee 3fb9 3ec2
3de4 3e34 3ee9 3e65 bf19 befb 3ea7 be5c
3fc6 3fae 3de0 3f40 3f70 3ecd 3dc4 bf16
3e15 3eda 3f54 bdb0 3e07 c003 3ea3 3d9c
3f37 bef2 bcf8 3f72 bfac bf1f bf26 3f8b
3f69 3dfa bf59 bf45 bed7 be80 3fa8 3f16
bfc6 be86 3f22 3f52 3f25 bf1d 3ebd 3f06
3f3c bf35 bf8a bf14 3e86 bd20 bdf5 3e62
3f0d 3e1a bf41 3e4a 3f6a bf08 be0a be7e
3f1b bef6 3f6f 3f22 3f2a 3ebb bfe0 be4e
3fd6 3fec be46 400f 3f12 3ec5 bd30 bf48
bf5b 3f6e 3fe8 bfb0 be31 3d60 3e76 bfdd
bf1e be68 3edb 3f05 bf89 3d28 3f34 3eb1
bedb 3f54 3eba bf13 3eec bf12 be56 3fac
bfc7 3e9e bee2 3ed7 3eba bf94 3fd4 3e9d
3c20 3f92 bdfb 3f16 bee6 3f06 3e9a bfec
3f58 be66 be03 3ea3 bfd5 bf1c 3f13 bf40
3fbe 3f92 3f32 3f8d bce0 bec8 bde2 bf10
be36 3fb2 bf4b 3f48 3f91 bee3 3e19 c029
c006 3fdc 3f82 bf42 3f40 bf26 3f2a bf5e
be7c beee 3fa6 bfdc bf90 3ee1 3f54 3fc8
3c40 bf44 bf25 3f66 be88 be12 4003 3f8c
bf0e 3b80 3e8e 3ee4 3f02 bf30 3f9b 3f31
3e04 3f6c bf49 3fb8 bf02 3e9a bf0c bf00
bf03 3ec8 bdc2 3f02 bf11 bf18 bf4d 3ec0
3f0e 3db6 3f55 3edc bf19 bfd0 3f10 beb7
3f18 3f59 becc be3c bf1c be41 3eea be0f
beac 3f17 bf82 3ec4 3f47 bf6e 3f8c 3e8e
3f2a bf62 3f2d bf26 bf81 3f4c bf18 bda0
3e8a bbc0 bfae be4b bf35 bf31 3f42 3f83
c012 bce8 3f94 3eef 3fd3 bf69 bf88 3f48
3f4a bf6a bf6c 3de2 be73 3dd8 beb2 bf22
bf52 beca 3ef1 3f84 3e85 bf43 3ec7 3d22
3f92 3ed4 3f0f 3f08 3f32 be09 bfce bec0
3fe5 3f19 be76 bf8a 3f65 3e10 beb2 bfb5
bf08 3f91 be1a bfb4 3eba 3eb8 3fbf be99
bf44 beda bf77 bfc2 3f81 3fa0 bf02 3f34
3f8c 3f1a 3f25 3e84 bf46 be64 4009 3f10
bf8a 3f8b 3e85 bf92 bec0 beda bf04 3d57
bef9 3f9c 3f5c 400e be12 bf0c 3f0b beac
be89 bce0 3f6c 3fac bec4 bdae 3fb4 becb
3ee6 3e4c be65 be84 3ec2 bdac bf97 3d5e
3f1b 3f9a 3d28 be5c 3f96 bc80 3e50 bfe3
3ead 3f32 3f38 bfb9 3ed1 beda 3f44 beb4
3ea0 bf32 be78 bf62 be6e 3f1d bf9b 3f9e
3f98 bf59 3f16 3eda be98 bec8 4004 3fc7
be7a 3f41 3edc bf32 bf0f bf10 bf06 bf45
bda5 3fae 3fb5 402e bd50 bf17 bd90 3f19
be8a be8c 3f87 3eb4 be9e bf77 3f86 3e9d
3ee4 bf1c 3ea9 bcb8 3f12 3c0c bf94 3ecc
3f08 3ea7 3cc0 3cb0 be0e 3ecd 3e44 bf5e
3f38 becb 3e56 bf8e 3e73 bf07 3f20 bfa0
3f07 be2a be9a be8f be7c 3f22 bf28 3f98
3e62 bf02 3fa6 3d0c 3f06 bdf0 bd60 3ffa
bf9c 3f64 3eec bfa0 0000 bf02 bf22 bdf8
bf48 3fc2 3f40 401e 3e60 3c00 3ebc 3f1c
3d30 bede 3f24 3f0f 3eb3 bf62 3f30 3da8
3ea4 3e81 be6e bca8 3f58 bf46 bf20 3e76
bf85 bede be85 3e01 bd08 3e8c 3ed9 bf51
bead 3f93 3dcc bfad bf5f 3e9a 3f25 bf4d
3e0c becf be5a bf7a 3fba 3f8a 3ee6 3f0d
3d14 3cfc 3ffc 3ed2 bf0e bf18 3f29 3ffc
be82 3f81 3e7e bfc0 3da0 3ed8 3f00 bf31
bf7c 3fe8 3eed 4044 be70 bea7 be86 3e91
bf59 3ec9 3f06 3f46 3df0 be92 3ece 3f4a
3d0a 3f57 3d9e bf2e 3f86 bfaa bf27 3ec4
bf8e bec9 be43 be26 3f17 3f48 3efe bdfe
3f1a 3f0a be46 bf5e bef4 be6a 3f66 3e31
bec5 bf02 be82 3d42 3fd6 be94 3d9c 3f90
3f1e bf6a 3f9d 3f48 bf69 bf0e 3f9f 401a
bd60 3f12 3f78 bf8c 3ec8 be5e 3ea5 bfb0
3f1f 3e9c 3eeb 3ff8 bf2e 3e74 3b48 3f6b
bfb3 3f04 be12 3f2a 3f90 bf70 3eae 3f82
3f55 3dfc be3e be8a 3fa2 bf31 bfd9 bd24
3f26 bf72 3e9f bf8a 3e99 3f4e 3d9a be9a
3f48 3eb6 3ddc bf94 bea6 3e86 3f34 bde8
bf85 be6f bf96 3e7a 3fee be83 3f34 3f6a
3f99 3d98 3fad 3eca bf5d 3f5a 3f7c 3fb0
bf8a 3f82 3e40 bf89 3e68 3e76 3e78 bf0e
bd25 3ec6 3da4 3f9d bf0f bce0 3fa0 3f13
bf58 3e8c bf1d 3f77 3f90 bf04 3fae be46
3f01 bd84 bfb8 bed0 3f32 be96 bf77 be39
bede be7c 3ea4 3dfc 3f92 3ef2 3eb4 bfd3
3eca 3f86 3f96 bfa5 bf62 be07 3e5f 3e46
bf02 bf46 bed7 3e88 3f43 befc 3eed 3f93
3fa1 bf0c 3fa7 3f2e bf44 3f31 3fca 3fc6
3ce0 3fa3 bd08 bf28 bdfc 3f2e 3f68 bfa4
be87 3f85 3e74 3fbe bf35 bd20 3f0a 3f79
bf82 bca0 bf58 3e04 3f2e bf76 3fa7 3d44
3e06 bee3 bf1d 3d78 3ef4 3d86 bef3 3ed6
be7e bedb bd20 3f80 3f3e 3f5c 3e06 bfab
3f42 be8b 3f64 beec bee8 bf84 3ef7 be38
bd70 bf1b 3e2e 3f62 be4e bf66 be28 3fd8
3ea2 bf88 3f8f 3f46 bd48 3f24 bf07 3fd7
bf40 3fad 3f13 bf25 3eda 3d00 3f14 bf81
bcd0 3ee4 3e10 3f21 bf45 3fa4 3f2c 3f85
bf57 bf22 bfbe 3cb8 3fb1 bfda 3f40 be72
3f14 be20 bea0 3f82 3f36 bd14 bea5 3c30
be80 bf9c bf12 3f62 3f12 3f3a be25 bfa2
bf21 3f1c 3e39 bece bf8b bd14 3f6e 3cb8
bed2 bf0a 3dd0 be93 3f88 3e34 3f3b 3f85
bd84 3ece 3fd9 3f53 bf25 3e8c bf3e 3f25
bf47 3fe3 3d80 bf6d 3eda 3f27 3fa2 bf08
bf57 3f3e be40 3f60 bf88 3fa4 3f14 3e09
bfbc be7d bfbe 3f2c 3f5f bf5c 3ed0 bf12
3e49 3f4e be20 3f30 3f34 bee9 bd2a be44
bf21 bf38 bf5a 3f19 3ff0 3f08 bea6 bfb6
bf3c 3f89 3e42 be46 bf4b be2f 3fa4 3fba
bf24 bf7c 3f02 bf03 3f96 be19 3d70 3f93
3f5c beff 3f66 3fbc bfc6 bf04 3f49 3f1c
3d90 3fa6 3ec0 be54 3e24 3e62 3fab bfa5
3f1a bec8 3f02 3f7e bfbe 3f9a bda0 3ef3
bfff 3e02 bfa2 3e94 3f72 bf9c 3d9e bd9c
3f32 be03 3ef1 3f68 3f49 3e50 bf98 bdd7
3fec bebb bef0 bef1 3fd6 3f10 bf0e bf83
3e36 be07 bc0c be28 3ea0 bef0 3fae 3f88
bf44 beea be76 be37 3f30 bd70 bf14 3fba
3fe6 be33 3f2c 3f47 bf6b 3e96 3de8 3d83
bf92 3f99 3e86 be58 bdac be90 3e97 befc
3f0b bf1e 3f3f 3eac bf94 3f92 3f82 3ebc
bf94 beb5 bfaf 3f0a 3f6e bfaa 3f1e bf99
3f31 bf58 bf0e 3f99 3ed0 3f79 bf8e becd
3fd2 3eba bedd be5e 3fee 3d60 beb2 c004
becf 3f22 3f1b bf61 be20 be92 3f86 3f1c
be70 bf45 bbc0 bf9e 3ea4 3f7f befc 3f4e
3fdf 3da5 3f87 3f17 bf52 3e8e 3f20 bf08
bf16 3fb7 befa be96 bf4f 3f02 3f50 bee1
bf31 3f5a 3f8c 3f95 bf1d 3e94 3f43 3e66
bf3f bf23 bf42 3e48 be80 bf66 3f4d bf88
bebc bf52 bdf3 3f7e 3dac 3f64 bf23 3ed9
3ea4 3f6e bf22 3f41 3ff2 3e6c bd9a bff7
3e99 be6c 3e90 bed2 3db8 bfb5 3f8e 3ecb
3f5a bf38 3f6a bf84 bf42 3f70 bfcf 3f97
3f6d bfb6 3f2d 3f78 be5a bf52 befd 3e59
be98 3f4e 3e90 bef0 bf1d bcf0 3f58 bf76
bdc4 3f29 3fcd 3fa1 bf15 3f7a bcc4 3f44
bf74 bf87 bf0e be56 3e84 bfe8 becc be96
3d65 bf8a 3f2c 3fbd 3f40 3f50 bf86 3ed6
3f32 bd34 bf6a be63 3f55 3ea4 be6b bf4a
bcc0 bef8 bf2e bf0c 3e28 bf62 3fc6 be76
3f18 3b40 3ef6 bfe6 3f1a 3fe3 bf5c 3f0a
3e8f befe 3f8d 3f3a be28 bf5c bfca be80
bf5d 3f23 3db9 bfb4 bea2 3d9a 3f49 bec3
bf3a 3f4d 3fc8 3f97 bef4 3f2c 3ece 3c30
bf40 bf39 beaf 3f55 3ee4 bf78 befa bf06
bd64 be9a 3db9 3f87 3f94 3c20 bf72 3e49
beec 3d4c bf5c bf80 3fd7 be08 be50 bf56
beb3 3eef bf34 bf8d be85 beac 3fad 3f33
3eae bead 3f03 c020 3fe9 3fed bf25 3d6a
3f50 bf07 3f80 3f9c bf88 bfa4 3f04 bdf6
3f02 3ea3 bd88 bfc8 bf44 3ee4 3fbe bf8e
3d48 3f54 400e 3fbe bf20 beac be33 3e1a
bf9e 3d9c 3ebe 3f78 3e00 bf10 bed9 3e8e
bcfc bf61 3eec 3eb2 3fb4 3e2f bfe5 3e6f
3eee 3eba bd60 bfd0 3fdc 3c40 be24 bea2
3fa2 bf61 bef0 bf83 3f07 bf92 3f6d 3ee2
3ee8 bd08 3e0a bfd2 3f82 3f55 bfbe 3f2e
3f9f bf93 3f04 3f59 bee1 bf24 3e96 3e57
3e3c bd9a 3e9a bfaa bf2d bd99 3ef0 bfa1
3f72 3be0 4038 3f22 befa be8a 3f1c 3f46
bf22 bdca 3ede 3f1c 3f45 bf86 bdce bcc0
3ef4 bfea be49 3ef6 3fd1 3f2c c00e bca4
3f4f 3e52 3edf bfd8 3f96 be56 be38 bf1a
3f8a bf27 3e55 bfde bc90 bf36 3e83 bf2c
3f0a 3d82 beac c005 3f81 3fb8 bf2e 3e5e
3f53 be8d 3fae bc40 3e40 3e64 be92 bd68
bd20 3efe bebd bfe2 bf96 3f6a 3f01 bf50
bf09 3fbc 4020 3f47 bb20 bf1c 3fa0 3f44
3e87 be64 3f1a 3f39 3e6c be3f 3f22 be35
bed8 bf97 bf35 bdc2 3fb6 3e8e bfb4 3e8e
bfb6 3f24 3e80 bea0 3fdf becd 3d28 bf69
3f6a be64 3ec2 bfbe bf19 bfb3 bdd6 bf1e
3f8f bf02 3f12 bffd 3f06 3f6d bf69 3ee6
be36 bfb0 3fa8 3f06 3dec bf0e bec6 3f6c
3f94 3f10 3e24 bfc8 bf89 3fb0 3f84 bff5
3d88 3fcc 4024 3f65 bdb6 3ca0 3e72 3f96
be2e beaa 3f05 3b80 3e8b bf30 be8e 3f8a
be94 bf5e 3e8e 3e11 3fe3 be1b bfd8 3f24
bf98 be5a 3df1 bebb 3f8f 3ce0 beb1 3e64
3f9d bf90 bef7 bf61 bef8 bfc4 3e8c bf92
3f23 bd8e 3e2a bfd4 3f8a 3f0a bf0f 3f4b
bf84 bf76 3f95 3ece 3ea0 becb bfd4 3f82
3e14 3ee4 3f54 c003 beb4 3f86 3f0c bfc2
3ec6 3f6e 3fea be4d be84 3f71 3f78 3f75
be48 be8c bda4 3ee6 3fa5 bf02 bed2 3f70
3e7b be08 be38 3e9c 4009 be9b bfde 3c5d
bf84 bf46 3e65 bf8d 3fdc be92 bf40 bcf4
3e88 3e3c bef4 bf95 bf81 bee0 3eef bf26
bf06 bed4 bee1 c01c 401e 3f40 3ee6 3e3e
bf47 3d8a 3fa8 3f24 bf3b bd90 be68 3e8e
3f52 3f76 3ea7 c003 bf2c 3fe8 3f9d bfd2
3e0a 3f6a 3fc5 be9f bf23 3ed8 3fa4 3ed6
bf2e 3e92 bd60 3f73 3f64 3ef0 3e6b 3f7d
3c70 3dcc bed5 be8c 3fec be8e bfee bd0e
bf36 be78 3f0a bf64 4038 bed6 bf77 bf0c
3f8b be6f 3e2e bf4d bf0a bf9b 3e94 bb80
bf1e bf3e beba bfd9 3fa4 beec bef8 3f8f
bd6e bf74 3e5e 3f76 bf59 3e78 3f1e 3f0f
3fa1 3f5b 3f3f bf88 bf46 3fa4 3f2a c00e
3fa8 3dca 3ff5 bf8c bf4b 3f4a 3fae 3f8c
bf2a bdb0 bec0 3ec8 3f9e be92 3f03 3f50
3f3c bf7a be82 3e96 3fd6 3f3a c00c bd97
3f70 bed2 3f60 bf46 400d beef bfb8 bf5a
3f8f bf82 3efd bf32 be10 bfa0 3d9f bf88
bf74 bee8 bf3f bfbd 3e44 bed1 beb4 3fbc
bf00 be7e 3ef0 3e0d 3e1c 3fa7 bf53 3a80
3df8 3fc9 3e9c bf8c bf44 3f9e be0e bfa0
3d92 3f12 3fc4 bfc6 bf18 3f9e 4010 3f6a
3ea6 bf28 bf4e 3ed4 3f83 be42 3f8e bec2
3e94 bf0a bf5f 3f2d 3f9a 3f5c bf9d be07
beac be35 3f0e 3f25 402a bf61 bfba bfd6
be17 3e7e 3f56 bf09 bf6a bf5e 3a80 bf74
bf03 bf8e bd58 c020 3d86 3e42 be8c 3f8a
bf9e be02 3f2c 3efb bb80 3f0b bf09 bd04
3f96 4006 3e2c bf7a bf6c 3ff6 3ee6 bfc0
bf14 3fb4 3fb7 bf30 bf23 3fb0 3f90 3f15
3da8 bf23 bf29 3d44 3e48 3df2 3f22 3ea4
bbf0 3dca 3e98 3f16 3f96 3ec7 bf3a 3f04
beeb bea9 3d20 3f83 4038 bf34 bfce bf83
3d78 bed4 3d50 3ef8 bea1 bfb2 3f13 bf1a
becc bf85 3e8e c00d be5c bdf4 bf84 3fdf
bfd4 bf36 3dd6 3f6b 3ca0 bec8 bfa9 3ed4
3f71 3fe0 3f95 bf10 bef1 3f56 bea9 bfbe
3ee0 3daa 3fb1 bf50 bf56 400f 3f3a 3f48
beef bf14 bf58 3ca0 3f23 becc be2b 3f0c
3f4e 3e40 3f26 3f90 3fbe 3f10 bfaf bd12
3f8a bf68 bda9 beb4 4021 bf57 c003 bf1c
beee bdc2 bf12 3e89 be18 bc90 3f98 bf40
bfb0 bf45 bf0c c03d 3f9d 3f44 be8f 3f96
bf94 3f18 3ec7 3f04 bf03 3d98 bf82 bf0c
3f03 4004 3f3d bf4c bf38 3f64 bf4e bf31
bedd 3cb0 3f8d bee4 bf7a 3fdb 3fa4 bda2
bee6 be3a bf44 3f68 3de9 3f20 3eaa bde6
3f09 3f1b bcf8 3ec8 3f8e 3f0e bfa0 be68
3f84 be0e 3e34 bf16 405d bf9f bfea bfad
beb0 3f3a be07 3d00 3e3e 3de4 3f81 bd18
bfae bfa3 befc c046 3f4c 3f26 bf3e 3f8b
bd3a be33 be38 3f65 bf86 be18 3f5f bec8
3fc6 3fea 3f3f bd80 bfad 3f4c bf54 bf97
bc86 bc60 3fea 3ee0 bf81 3f74 3f26 3e96
bf26 be46 be1a 3ea0 bf20 3eeb 3f35 3eaa
3efc bedb 3e6f 3e82 3f5d 3f9d bfc7 3eea
4010 3e28 3f18 bf24 4034 bf91 bfe1 bf90
3f77 bf80 3d10 3f02 3f88 bf07 3f58 bf56
bf53 bf34 bf18 c00c bf0d 3ee8 bfbc 3fce
bd90 bf54 bea5 3eb8 3e54 3e38 bf07 bdc8
3f6b 3fcc 3f4a bde0 bfa9 bdad c000 bf20
be9e 3cc8 3ff1 3e73 bec8 3f92 3f82 3f08
3e96 bf78 be53 3d3e be84 bdd4 3f4e bd98
3efa bf7a beda 3f04 3f62 3fbc bf90 3ef8
3fbd be64 3ee3 be1b 3fe2 bfaa bfb9 bfa1
3e92 be8e 3da6 bd00 3ed6 3e7a 3f26 bfca
bf16 bf41 bee7 c046 be14 3fcb bf24 3f4b
bf49 bc90 3f43 3e44 3ec3 3df8 bf6e beb2
3fb3 3ff6 3e39 bf32 bfbf 3ef8 bfb6 bd50
bff4 3fb6 3fe7 3fb8 be32 3f00 3f10 3d8a
3ec0 bf86 3e96 3dc6 bf84 3f0c 3f52 3e7b
be9a 3c80 beb5 bda0 3f66 3f11 be44 3f90
bee0 be60 3e32 3ec6 3ff8 bfa4 bf81 bf4c
3ed5 be3f be54 3edf 3ed1 3e1c 3f38 bf8c
be20 bf58 3e9f c02f 3e40 3f88 bf65 3f29
bfa2 bf84 3e9b 3f83 3d68 bf8f bf41 3f33
401f 3fae 3f7e bf0a bf9c 3d28 bf8c bf82
bf64 3f6d 400c 3ffe bf0e 3f31 bf3c 3e9c
bee4 bf2b 3ee9 be5e beda 3e22 be1c 3fbe
3ebe 3e16 3eba be1d 3fd2 3e20 bf50 3f83
3f00 bf8e 3e9a bf4d 3f70 bf61 bfb2 3eb3
3f8a bf8f bf7e 3f10 3f6b 3f2a 3f5a bf9e
bf74 bc70 bf1d c005 3fb2 3f26 be20 3f0a
bf84 be8e 3f2b 3f08 0000 bef4 bfa2 3f16
3fcb 3f90 3f84 bf53 bf70 beb4 bfba be98
bf32 3e32 3ffa 3fa6 bf04 3f0f 3dd0 3dd4
bf08 be4e 3e88 3ee7 3e1e 3f12 3e90 3f88
3f2a 3ea6 bf5e bf0a 3fda bd94 bf6a 3ed0
3eb6 bf65 3f44 bfa6 3fa2 bf95 bf90 be0c
3f59 3cce bea8 be44 3e92 3fba 3ec7 bf50
bfc7 be96 bf62 c008 4003 3f1a 3f1a 3db6
bdbd 3dd4 3f64 3f10 bf3e 3c80 3f19 3ead
401c 3faf 3ecd bf29 bfc6 3ed4 bf3e bf20
bf81 3f24 4002 3fe2 bef2 bee6 3dc0 3d7c
bf32 3e30 3ef9 3e82 bf0d 3f90 3f88 3fa5
3c10 3dc0 bf94 bfb5 3fb9 3e86 bf43 3f69
3e34 bd97 3f9a bf0e 3fb5 bf75 bf64 be9c
4002 bf7a 3e40 3e6e 3f36 3eac be8e bf84
bf8a bed2 bf1d bf12 3ede bf0d be3a 3f64
3dae bf89 3f1a 3eba be55 3e70 3d96 3f8c
401a 3f94 3f4c 3cc8 bfba be08 bf80 bf7a
be98 3ecc 400c 3f98 be80 3e3e 3e15 3f56
bee2 bf15 3d04 bf3f 3da0 3e60 3f84 3fc0
3e84 bed7 bf90 bf52 3fc0 3f16 bf6a 3f99
3edd bf1e 3f85 3d68 3e42 bf08 bf6e be5c
3fe0 bfad 3d00 3df0 3ecb 3f24 bec1 bff5
bf9f bd18 bf4a beea 3ed7 be41 3f08 3ed8
bf6b be04 3fb2 bdf2 3ec8 3f53 bfbd 3f0e
3fca 3fd6 3ec7 bf02 bfa9 3e24 bf1e bdd2
bfca 3f8d 3fa0 3f6c 3c40 3f31 3f24 3e7d
3d20 bf7e bed6 bf04 3e94 3f1c 3f96 3f8a
be07 3f3e bfce bf27 3fb3 bda7 3df6 3f8d
bfb9 bf29 3f1f 3f6a 3f3f bf0f bf4f bf2c
3f22 be1a bdae 3ea6 bedc 3f78 bdeb bf92
bfb7 bea8 be6c bf3c 3f94 be9b 3f6c 3d4c
bfb8 be26 3fb0 3f44 bf07 3d70 bf24 3f1e
402c 3fdc 3ee0 bed5 bfa3 3f0a 3f3f bf4f
bfa0 3f93 3f81 3f8e bef8 3f50 bf06 be05
bf90 bf1f bf0d bf44 3e05 3f4f 3f04 3ffa
3c40 3fb6 bf02 bf35 3fd1 bea4 bd5e 3fad
bf1c bf6c 3ef5 3f2a 3f63 bdf8 bf9a bda0
3f9a bf8e bf1e 3f89 3e46 3f0a 3e84 bef0
bff1 be20 becc 3d98 3f8f bfa4 3f08 3f30
bf98 bf00 3f2a 3f82 bf2d 3d60 bf44 3f14
4006 3fba 3f9c bdfe bf32 becf 3e81 bf2e
bcdc bed8 3f85 be4c bf53 3fc4 bce0 bd10
bfbc bf1a bf92 bf1c 3f94 3e59 3ef8 3fc2
3f65 3f77 bf56 bdd6 3fe6 3e21 bf18 3f11
3f91 bf62 3f2c be44 3f61 be82 bfc0 bf28
3f00 bf1a beff 3f20 3e83 3fbd 3e4e be96
c02b 3b80 bf8b be1a 3fba bf52 3f8e 3e73
be93 3f71 3f63 3f04 bf66 3f69 bd50 bf49
3fc6 3ff7 3e6e 3d1e bf96 bda6 3e8e 3e51
bf44 bdbc 3f82 bea6 bf44 3f63 3f2c bf24
bf92 bf12 bf88 be86 3f05 3f6a 3fca 3eb8
3eb0 3f78 bfb9 bec2 3f9f 3efa 3d52 3f1d
3f0f 3e90 3f18 3f3f 3fee bf00 bfa6 bfe7
3ef2 be8e 3ed4 3f19 3e84 3f3e be3e 3e1e
bff8 befa be8a 3e0c bdf5 bf8a 3d88 3ef6
3d06 3dbc 3ebb 3f5a bf5c 3f2b 3f22 bf1f
4016 3fe8 3eb4 3f4d bfd6 be51 3f14 be8f
beb4 3d10 3fc3 3d60 bf21 3f82 bd1a be3c
bf8b bf84 bf6d bfa0 bc00 3e01 3fac 3f10
3e6e 3e89 bef0 3d64 3f70 3f94 3d80 3f76
3fa0 3f18 3eca 3fae 3f7d be02 bfb8 bfc4
3f2a bfbf be07 3f8e 3f32 3ddc bd8f bf16
bf9f bd9a bd8c 3f22 bf9c bf4c bef8 3f5c
bf30 3dcf 3ee8 3ec1 3e2c 3f09 bfba bf49
3f8e 3ff2 3f20 3f2e bfad bf66 bccc 3f03
bf41 3e16 3fa6 be35 be64 3fe9 3e97 beee
bf3c bfe0 bf84 bfa8 3e9e be63 3f53 3e0c
3e3e 3f56 bec8 3f1c 3f87 3f79 3e8c 3f3e
3f12 3ecd bec9 3fb1 3f3c beb6 bfaa bfd6
bf71 be8a bf41 3f44 3db2 3f74 3ea8 bf04
bfb2 be34 bd90 bf45 ba00 3f14 3e36 bdf7
bf82 3f84 3f8b 3ef2 bee0 beb8 bf8f bfbc
3fb6 3fe8 3e0e bd54 bfc0 be57 3f60 3f26
bfc8 3f50 3f9c 3f48 beaa 3faf be94 bf98
bf98 bfa7 bf00 bf70 bee9 3f18 3eeb 3eec
beba 3fd4 3e9f 3e44 3f9f 3ec2 3ed8 3f6a
3c00 3f76 bf1e 3f70 3fc6 bde0 bf88 bfa2
bf00 bec6 bfa4 3f84 3f00 3f13 3f36 3ef9
bf97 be55 3e50 bf1b 3e8a 3e8a bf4c 3d56
bef7 bd06 3e20 3f93 bf83 bf8e bd50 bf88
3ff1 3f80 3f61 3eb0 bfc3 bf88 3f39 bda6
3df8 be3f 3ff5 3f4c bef8 3fb6 bf78 bf68
bfde bf8b be00 bf7b bd81 bc60 be19 3f8b
3e8b 3f4f 3f29 3ed2 3fd2 3f43 bf6d 3f29
400d 3f64 be86 bf1c 3f50 bd98 bfa5 bf5d
3dc0 bfb0 bfbd 3f2a 3f9a 3f64 3f42 3e1a
bfc9 3eca bf3e beb8 3f0c 3f01 bf15 be08
3e85 3f20 3e79 3eec bf29 be80 bdd4 bfe5
3f64 3f5a 3f04 bdea bfe2 bfb2 3d40 3f4e
be4f be00 400a 3eb4 bdb8 3f3a 3e9c bf90
bf6c bfa4 3e84 beb7 3db0 3ea3 3f42 3e2e
3e1c 3e9e bef7 3e0e 3fb2 3f90 bf5e 3eca
3fb4 3fdc 3db8 bf0a 3f96 bee0 bf5b bff0
be4e bf0e bf33 bea8 3f41 3f5c 3d9c bd94
bf76 3e8d bf02 bf7a 3da2 3f84 bf42 bf2b
3f01 3f18 3ef6 3ea1 bece be38 3f57 bff0
3ff4 3f38 be36 beba c01a bf3b 3f2d 3eb2
bf4c 3f89 4039 3f8b 3ea9 be96 bde2 bf6d
bf0e bfa4 3f8b bf5a bf34 3f1a 3f82 3ed5
bf20 bddc bd70 be96 3fba 3f8a bf15 3f92
3eae 4006 3e18 3f0e 3f44 be28 bef0 bfc4
3f16 bfdf bf24 3c40 3f5e be45 bede bf30
3e6e 3f06 bb00 bd26 bf9a 3efd bfd0 bec0
bee1 bf0e 3e66 3e89 3f33 bf19 befe bf7b
3fe5 3e97 3f0a beee c000 bfa5 3eb9 3e42
bdc0 3f92 4052 3f65 3f3c 3ee8 bec2 beb0
beba bfd5 3f91 bfae 3cd8 bea1 3e32 3f89
be9c be07 3eec 3e1a 3ffc 3f57 bf46 3f89
3dd8 3fa8 be7e 3e0b bf04 3d58 bf12 bf43
bddc bfc6 bfb8 bece 3e88 3f03 be96 bfac
bd9a 3f68 bee4 bf22 3e10 3f90 bf0a bf60
bfb8 3f46 3fa2 bd44 3f20 beec bfb7 bfa0
3fa0 3ea8 3ea0 bfcc bfdd bf36 3f46 3f15
bf7c 3fce 4035 3f5e 3f38 3ed0 3c8a bf79
bed6 bf9a 3fa8 bee2 3e06 3f24 3db0 3f85
bf06 3f91 3e5f bf00 400f be8f bf31 3f38
bfb5 3fb6 be36 bdce 3efc bdc0 beec bf28
bf18 bed1 bfb0 bf2b beae 3f3e beca bea1
bef0 3f1e beb3 bf64 3f9c 3f33 be96 bf8c
bf95 3f01 3f77 3ee9 bea2 bf90 3f04 bf32
401a 3df1 3f28 bfb8 bff5 bee5 3faa bed9
3e28 3fa6 4040 3f76 3ed0 3d94 beec bf42
bf85 bee7 3fd2 bf0b 3ca4 3f52 3d50 3ff7
be66 3f82 3f43 bf7c 4027 bebb bfcc 3f0f
bdc8 3fcc 3e8c bf54 3eff 3e46 bf1a bdee
3f09 bfb9 bfb6 bf0f 3ec6 3dbc bf1a beb3
bf71 3f51 bf8c 3ec1 3f48 beb4 bf25 bec4
bf19 3e50 3ee0 3d7c bcb0 be64 3f0f bf14
3fbc be96 3f82 bf8e bfc6 bf63 3ed4 becf
3f91 3ece 4040 be8b 3f01 3eb4 3f1e be80
bf04 bee7 3fc2 bf0c 3f76 3eec 3f26 3fbc
3e20 3ed0 bde4 bf25 4024 3e96 c002 3d29
3ed6 3fda 3f16 bf5c 3ea5 bce0 bf35 bf84
3ca0 bf48 bf16 bf9f bea6 3f11 bf92 bf8a
