3ec3 beb2 beb0 bece 3daf bee8 3d8c bdbf
bd28 befe 3c92 3df1 be9c 0000 bf48 3e6a
bd06 3d6a 3cbb befd bee2 beda be05 be22
be7e bec1 beb2 3e8e be28 3db0 be8e bcc6
be48 3e1a bdf8 beb0 bee8 3eb4 bc93 3eb5
3d46 bdcf 3d10 3d12 bec2 3cc2 c09a 3e0e
3f4a beac 3f5c 3ea8 bf0b 3fa5 3f17 bdd1
bd37 bdbc 3e96 bf1b 3dc0 3dbb bf9d be81
bc9c be4c 3e48 bed4 be7d 3ed0 bce4 bdb6
be98 beab bde9 bf14 be48 3e6f bec3 3de7
be30 bd4d 3e43 bead 3deb 3d9e 3d76 3d4c
bd0b 3d21 be1f bc36 be5e 3e96 3e4a be20
3efa beba 3e84 bd94 3ee6 bdba 3e30 bea8
bd96 3e50 3e00 3e56 3e1a bebc 3f08 3e50
bdd4 be50 3e67 bea0 bee2 3e82 3e91 beb8
bf13 4036 3d27 bf01 bd58 bdca 3e01 3e83
3e61 3bec 3dfc 3d4a 3eec be38 bd5f 3e78
3e83 3dcb be4a 409c bd85 3b50 bf88 3f3c
bd74 c05b bca8 bd88 3e17 bba0 beb8 3eae
3b00 bea2 becc 3e37 3e12 bd91 3cd2 be2c
3e06 be7a 3e1c be56 3d55 3ee1 bd0c 3e85
4016 bdff 3e50 be83 3e8e be5c 3d0c bd1c
be11 3cae be54 3db0 bdf7 3d1e bb00 3d00
be98 bdc7 3e83 be44 be2c bd70 be1e 3e9c
bef0 be88 bdfa bb88 bd2c bdbb bd5b 3ca4
bef7 3d02 3f16 bec7 3edc bda2 bcf6 be56
bd54 3db8 3e36 bd9c 3e14 bea7 be52 bfb4
3de0 3eab 3ea1 3cf8 3ea2 3ea2 be22 3ce8
3e90 3fa4 3dd2 3e46 bde9 bf14 3edf 3c00
3dbe 3e24 bc46 3e98 3ca4 3dcc bd70 be31
bdd1 bea0 bce2 3ed1 3c40 be5d 3d16 bed4
3e00 3f4d 3c58 bf40 3d74 bd22 3e66 bd62
3e0f bd9e bd26 3a70 be40 3cdc 3e42 3ee3
3d96 beae 3c95 bcca 3e2e 3dd7 3c96 3eb8
bca8 3ec2 beef bf00 be27 3e58 3ea2 bd9f
3d7a be25 3ee8 bdd5 3dd9 3e0a 3dbe beae
be99 bd25 3e6f bec0 3dc0 bdd4 3e5e 3e7d
3f44 be5e bea6 bf0d bf23 3e45 3ee9 3a80
bfd6 bc9f be82 bda1 c150 be70 3e26 bdf0
3ee4 3c3c 3e96 bd80 be76 be3e 3efe 3ed5
3e35 be12 3e34 bd92 bd84 3d17 3ea7 3e4c
3ddc 3ce2 bdbc 3e0e 3e96 3e38 bf3a 3d00
3d54 be49 3e4f bdf9 bd75 3ea7 bd1e bb90
bddc 3ec5 3ec1 3e9f be8f 3d44 bdbb 3e30
3e88 bda6 be70 be9b bef7 3e4e 3e5d 3c24
3e8b bdde 3d8e bea0 3dbc 3e9d 3d45 3e17
bea3 bdeb 3db7 becd 3e09 bdb4 be66 beea
bef0 bdd0 be3e 3e17 3ddd c058 bc54 bcca
bce4 3c30 3e80 3eaa bf20 3e74 bed3 be18
3cc2 be20 bf34 be84 be7c 3e78 bb30 be4e
3da1 0000 3d8e beab 3e08 bedc bdd0 bdb8
bdbc bc5a 3e18 bcc4 bdb8 be96 3eac 3eb1
bee0 bde2 bd3f 3f20 bcae be5e 3eb0 bedf
3d8a 3d5c 3e4d bda6 3e0a bdf1 be87 bead
bcc1 3cc4 be8c beb2 3e74 be13 3eb7 3f28
bd80 3e92 be0e 3f60 be07 be1a bcd6 3ecb
3ea2 bd82 be54 3ebf 3d2f 3dac bea8 3bf0
3e80 3d88 bd18 bea9 3e82 bd25 3e9c 3db4
bdaa 3e7a 3e97 bcfc 3e1d 3e3c c002 bdd7
3dc7 3cbc 3df0 bd80 3ebe 3d93 3e48 be83
bdb0 3ea7 bf20 3e01 be4e 3e5b 3e20 3e1a
3ec4 bda4 3d55 3efe 3ef4 be1a 3db0 bdc0
3e9c 3e58 bdb3 bf18 3e51 be15 3df8 be28
3d14 3e0e 3d0b 3e7a be8b bedf bdd6 bd98
be7a bd8a 3dd3 baf0 3e39 3e9e bd22 be1a
be36 3de4 3f0d 3d78 bd26 bd1a bd39 3d00
3d78 3f46 3e6b bf1e be99 be9d bd42 bec9
3dd8 3df0 bd85 bdaf 3e8d bd08 bda5 3eec
3e3b 401f 3e00 bdfe bef6 bde8 3da2 be9d
be15 3e0e 3b9a bdd2 be8e be3b 3e85 3e30
3d62 3e98 bd05 3e8a bcf4 3e43 3ae0 bd17
bde2 3cb2 bed2 bd01 3dd6 3e19 3e81 3e9e
bca4 be04 bcba bebc bdfa 3db2 bdf7 3d4d
bdd5 bd5c be36 3e09 be21 bd31 3de2 be18
3d62 bc90 bd32 3e3a 3e82 3d90 3e5f 3e3e
befc be7c be1b 3ed2 baa0 3e8f be42 3dd6
bf4a 3f00 beb1 bf07 bd8e 3e2c bf56 bcfd
bc36 3de6 3ec0 be1b bea2 3e5e be38 3e26
be89 3c96 3ca7 bdb5 3c8a 3dfc be11 beb4
bd93 3e90 3ee9 3dbb 3e70 3c80 bd5e 3d82
3ec4 3d17 bdd0 beab be69 3e80 3dd8 3e57
3e76 be9c 3e2e 3d56 be36 3e6b bf81 3e32
3e81 bec6 bd4a bc94 3f1c 3e03 be5c bed9
3e24 bc9f bece bd86 be54 3c34 3d0c bed0
bd98 3e2f be86 3cfe 3e2c 3d06 3c9c 3e9f
3e5a 3d22 be80 3da1 bef7 be4e be2a 3cfc
be06 be06 be8e bc74 bde8 3e96 bece 3eb5
be92 be36 bd0a bf3f be6e 3e98 bd0d be46
bc9b bc8e 3f18 bbd0 3df4 3d4d 3ddc bd2e
3ea4 3e8f bf2d 3e95 bea2 bead bd12 bd78
3e06 3e9b 3daa 3cdb 3dc5 bda8 bdc0 3d7e
bdcb 3d8d 3ba0 3f03 3cc8 bfbe bd2a be16
3ea2 3e5f be48 3a00 bef7 3d8c be52 be59
be25 3e25 bd56 bd2a 3ea0 3e38 be65 3dd0
bf0d be05 3d82 3e42 be05 bcbd bdec 3db2
be01 bf0f 3ebc be68 be19 be14 3e8a 3ea2
3e84 bfab bc87 bea1 3f06 3d4c bea2 befc
3f1f beab 3d34 bc88 3e15 3f17 bec8 bf62
3f21 3e2a bf14 3f04 be8b bd86 bec7 3d9c
3e3b bfaa bf52 3e92 beef 3f44 3eca be30
3d84 3dcf bf09 3ef2 3e23 3d34 3ed4 3fa9
bf3a 3d7f bed3 bddc bdb5 3eba bf2e 3f60
3f37 bed4 bebb 3f33 bf2e 3e32 3f12 3eb2
3ed0 bec5 3f56 bf56 be16 3f25 bf42 bf19
bf3e bf68 3f2f bef7 bf6a bf00 be10 3fb7
bf0e bf4b 3ede bdfd 3d3a 3ebb 3f2e 3e1e
3e79 bf24 be2c bea7 bf0a 3f59 bf70 3edf
3f35 3f15 bf42 bf0e be18 3ecc 3ec6 be59
bf16 bfb0 bf63 bfb2 3f1c 3ebe 3e12 3d07
bf74 3e60 3f30 3f76 bf7b be60 3f56 3f38
3eaa 3f65 3f25 3f24 3e21 be2c bfb0 bde4
bf11 3f14 3e5f bee4 bf08 3f50 bfc2 3f22
3f65 be4e 3fa1 bee2 3ef4 3ea1 bec2 bbe0
3ebe be8c 3f8c bf08 bfaa 3dfb 3e28 3ea0
3f49 bd9c bf9f 3e8d bfc0 3f83 3ebc bea8
3f3a bea6 bfa3 3e5f 3e58 bf33 3f22 3f32
3ee4 bedd 3f0f 3ef5 bf9d be50 3f2c bf73
bf8d bd88 3e98 3ede beeb bc86 bf34 bd28
3dfc 3d64 bdac bdba beda beb7 3f4b bf19
3ee2 3f3e 3ece 3da8 3e73 3dac bf7d 3f43
3f4e 3f22 3ec5 3e03 3efa 3eb7 3ed4 bedf
bf8b bf1f beac 3f1a bed8 3e3f 3f11 3e9c
bf0c be11 3f4a bf23 3f38 bee4 3de4 3ee0
bed9 be01 3f60 3ed7 3e59 bf46 be94 3e6f
bf1c be24 3f46 3f9e bea5 3f3c 3df7 bf3e
be72 3eb6 bed8 bf1c 3e30 be10 be92 beaa
be92 3e0a bf05 3f6a bf3a be1c bdbd bf4e
3f96 be00 3ef9 bf15 bf22 bec2 bec3 3eb3
bed3 3fc0 bd48 3edb 3c88 3eca 3f64 3f4b
bf54 3e95 beb3 3cd4 3fb4 3e9f be9b bdac
be5d 3e1b 3e18 bf83 3f57 be71 3e5b bf1a
3f26 bf4c 3f34 3ea0 bf24 beb7 bda2 bdaa
bd69 3e1c 3f06 3f24 bdd4 bf87 beba bf16
3f74 3ee2 3eac 3e94 bf1a bf22 bec2 bf7c
bd0a befc bed0 be22 bda8 be53 be9e 3e78
3f0b bf9d 3f36 bf17 3ea2 bf0c bfa4 bed2
3eb0 3ecb bf6c 3f2d bfd6 3ed1 bf24 3f52
3ece 3eda bf0b 3ecc 3f28 3e4a 3f39 3ee5
bef0 3cf8 bdd3 bf17 bf38 beb4 3f53 3efe
bec6 bf0f 3ef0 3d9c 3ea4 3c84 bfa6 3f15
beff 3ee6 3e54 be7e bd63 3e10 bed6 3f68
beff be8e 3efe 3eda bfcb 3e8c 3e7d bdaa
3e20 3ee0 bc4e 3f94 bf5a bf4a bea0 bf56
3f6c 3f49 bf08 bfa9 bf2f be8a bc2c be99
bf09 bf0b bef4 3eea 3d04 3ed6 3f36 be38
bfbc 3f6b 3f52 3f15 be81 bcd8 bf83 be8e
3eab 3e9d 3f4b 3f5c bd08 bd40 3e64 3f22
3e60 bfbd be8b be18 3ddb 3efe 3f0b bef3
bd30 be6e bfa3 3d10 bbe0 3e88 bf5d bf5e
be3e 3e14 be0e befe 3e54 bd50 be26 bd60
3eeb 3eb5 3e30 bedc 3d49 bfb7 3e5b be32
bf28 3e21 be7a 3e02 3f55 3e24 bfc9 bdac
3f92 3f14 beb1 3fb7 beac beff be28 bec8
3ea7 be4c bed8 be8e 3d78 3eb0 bf1a becb
3ef3 3e40 3e14 3f94 bf47 3eae 3ea9 bdf3
bf72 3fb2 3e8e bf4c bd8b bf7f bf30 bf2f
beb6 bec4 3f68 bf93 befb 3f2a bf2a 3ef3
3f89 3c82 3f01 bf41 3ee8 3e72 3f9b beb6
bf83 bf7c 3f47 3eef 3f8b bea5 bf9f bf26
3b60 3ecc 3f3f 3e66 3e92 bfab be56 bef1
bcc2 bdea bdc3 3f32 3f1e 3e36 bdbe be0e
bf5c befd 3f5b 3e31 3f73 bedd bec4 3c1c
3e89 3dec 3eac 3d1c bf21 be19 bea4 3f0a
bec6 bfae bf98 bf1e 3e25 bff3 be0a bf80
3f49 3faa 3f19 3e0e bd48 bf34 be0e bf25
3e46 3e98 bc78 be97 3cfc 3e7c 3f62 3fa1
3f2b bf38 bf20 3d13 bf3d 3edd beaa 3f32
bf52 3ef6 3f88 3ea4 bede 3cfe 3e54 bf45
bf17 3f5c bfaa becf 3ea0 3ea6 3f50 3d04
3f26 3f16 bea7 3f31 3e5c 3f57 3ce4 bee1
3f18 be2e 3d6b be47 3f6a bea2 bee6 3f8a
bf24 bfab bf2c be38 be6d 3f78 bef9 be75
3f4d 3c40 bdd2 3e88 bf13 3f3b bf0a 3f0b
be38 3c48 bd08 3e8e bf27 3f8a 3eb0 bfc0
3eb4 bf85 bf4a 3ec1 c020 be8a bd7a 3db2
3f8a be96 bf6e bdb3 3efe bea6 3e6f 3f09
3f14 3ed6 3ef6 be1f bf23 bd92 bdc2 3c40
be58 3e35 bf06 3d81 3ee0 3e82 3d50 bdd7
3ee7 3e15 3e97 bec7 3ce8 bc54 3cb4 3f31
3c30 be69 3f9a 3e6f bf62 bf08 3f18 bf01
3f3c bd82 bf77 3c98 beae 3c70 3e8c bfe1
beee bdc4 3fa2 beda 3f1b be83 bf88 3e29
3f08 3c53 bf33 bf4e beb1 3f2b bd9a 3eec
be42 3f56 3ecd be70 3f34 bd90 3f84 bef4
3f7e bd95 bf0a 3e5f be3c 3f3f 3ee4 be33
3ed0 3dd4 bee7 3e86 bf9a 3e8c 3f87 bd88
3eb7 3ed2 3f22 3e3b 3f0c 3dc0 beee bc44
be56 be66 3e8a bf28 3f5b bf2c 3d99 bece
bf0b 3f85 bfca 3f16 bd3c 3f10 bf20 3ef6
3d8e 3f8b 3e6c be14 3f2b 3f07 bf08 bf1e
becf 3f5b bec8 bee9 3f6a 3fe8 be89 3f3e
be86 bf65 3f5c be4c 3f7e 3f19 be08 3f1a
3dc0 be7d 3ede be83 be0e be67 3f72 bedd
3e86 3ea9 3eea bf56 3f67 bf4b be8d 3f06
3f06 3eca be5c bea1 3ecc bf2a bf50 3e23
3f20 bfbf becc 3f01 3eb8 3f8f 3e2c bd2a
bf05 bed8 3f59 be98 bf4a be10 3d22 bed2
be96 3c74 3f2b 3f56 befd bf30 bb40 3ddb
3dc0 3e51 3bf8 3ee8 3f10 be7b 3f48 3dca
3f91 3f31 3f6e 3f44 be53 be6b bec5 3f21
bed0 3e57 bdf2 be22 bf51 3ef1 bf62 be25
be36 3ec7 3f20 3f02 bf0b bf00 3f8a bfb3
3e9a 3e75 3e88 3f22 3ea4 bf50 3ece bdc8
bf25 3e62 3f56 bf1d bf1c 3f87 3eb6 3e70
bf1f 3e44 bf36 3f77 3f3c 3f57 3df1 3f50
3d32 3e20 3d76 be09 bf8c 3ef2 3dc9 bed2
bd6e bf07 3f69 3f84 3e1d 3f52 3e52 3cc8
3f40 bdbc 3f05 3f1a befa 3eec beee 3e91
3e8e bcc8 be40 3f0b 3d0c 3f3a 3eff be1a
3e03 bea8 3e8b bff1 3ef2 3e8c be00 3edf
be7f bee2 3e38 3fb0 bf6d bea6 3e87 3f0c
3f35 3f9e 3dc8 3e74 bf27 bfd5 3de8 3d94
3f4e 3eb6 3e85 bf01 bea1 bd46 bf9e 3f1a
bee7 bf04 3e22 bdd1 3e63 3e6a 3f15 bf0a
bf17 bed8 bf00 be3e 3d5e 3da3 bdd4 bf1b
be44 3f1b bd95 3f44 3ec1 bde6 3dc5 3da4
3f3e 3f0e 3e68 3e92 be85 bef8 3ef6 3f29
be37 3e2e bc60 3ef9 3efb 3f3f 3eaa bfa3
bf2a bee1 bf04 bdf5 3f07 be07 3e4f bf2d
becf beaa bf47 bf35 bf4c 3f58 3f45 bd1c
bf4b bf0d 3dba 3f3e be0a 3d75 be6c 3eca
3ec1 3d9e be4b bd3a 3f90 be65 bee2 bf66
3e74 3ec1 3f6c 3e3e bebd bf52 3ed8 3df3
3e5e 3e8f 3ec4 bee0 3eac be38 bf81 bf6a
beb7 3f25 bf5f bf0a 3e3c 3f56 bce8 3e89
3e88 bf0e bf71 3f34 3da5 3efc 3f7b be19
3f6a 3e8a bf4f 3e73 3f66 bf67 3f0e bf8e
bdf8 3ec5 3da5 bdc8 bf84 3ee7 bf5f bf30
bdf1 bec7 3f5a bee8 bec5 bee9 bf2d bf1e
bf84 3e3c be9a 3ea8 3ee3 3f17 bef5 bebe
3f46 bd85 3ed2 3dec bfb0 be9a bead be8b
be64 bd8c 3ea4 3f6b bdda bee1 3f2c bcc4
3f60 bd1d 3f27 3f4f bf2e bd4b 3d9f bf10
3f2f 3eca be2f bd38 bdee 3ecc 3e34 3f1a
be73 bf1c bf30 bf27 beb3 3f6d be9f 3f2b
bfe3 bf76 bea3 bcf0 bf85 bed1 bec0 beaa
3ee6 bf4e be2c 3e56 bf8f 3f74 beb8 bf78
3eda 3e1e bf30 3f17 beac 3f89 3ed9 3f48
3e7f 3f0f bf47 be1d 3e61 3ee5 bf73 bf8c
be7d bd54 bf2e 3eca 3f22 bec8 3e04 3e92
bd95 3ee9 3f48 be1c 3d20 3e9a 3cf8 3c82
3e24 bf35 3e0b bed1 be3a 3e35 be93 3e34
3f4d 3e9a bf99 3eb9 bdce 3ec2 3e9d 3f60
3f0a 3f11 3d15 3f44 3efa 3d8f 3eb0 3ee5
3f52 3f30 3eae 3e3a bf1c bf2a 3f13 3e43
3f28 3df4 3f4f 3eb6 3ea9 3f52 3e10 3ea9
be07 bf36 bf65 bf0f be63 be08 3dd2 3f68
bfa1 bf2e bee1 bf7e 3ea6 bedd bf45 3f55
3e26 3e2c 3e5d 3f03 3efb bdb7 3e8c bf15
3f2c bf49 be93 3d3c 3f36 3daa bee0 3e81
bdd0 be81 3f8b 3e24 bf86 3f15 bdc0 be44
bf0e be20 3e93 be1f 3ec4 be6f 3e2d bef2
bfa7 3eed 3e6e befa 3f16 bdf4 3f37 3ed9
be3b 3f1b 3f4e 3dc0 3f86 3f8b 3e84 bf96
bee1 bf7d 3f04 be37 3da9 bf38 3ebc 3f75
be4c 3ea0 3ece bf40 3f8c bcf8 bf66 3ec0
bbe8 beb2 3f56 be14 bf05 3f09 3eca bea7
3f11 bf8c 3d18 be9a be8a 3f73 3e68 beec
3e91 bd70 3d60 3ed3 bca0 bf63 bf14 3daa
3f0a bb50 3d9c bf88 3e84 c033 3e93 3e44
3f58 3e1f 3e8f be03 3f1c 3f13 3e9b beb0
3ef9 bfa3 bf3b 3e5a bfb1 bed6 beb5 3db0
3f82 3c50 3ef2 3c9c bf3d 3d18 3ed0 3f06
bf7a bd28 be9a 3f18 be5c bd5c bf16 3f7e
be40 befb bf05 3ead bf01 3f12 3e78 3e16
3e40 3e41 be9b be22 bd68 3f6b bf29 3f2f
3e60 be89 bd98 bd0e 3f0d be50 bdea 3f86
3f04 be24 3ede beac 3fcc 3efa be85 3f3d
be3d 3ee5 3e32 3ec7 3f50 3f15 bf7d bdb8
3e00 3ea0 bf0b beec beb7 3f4e 3f62 3efb
bd38 bdc8 3d0a bd20 be32 3f50 be5f 3e89
becf 3f1d bd90 3f7e be19 bd7e 3f79 bdfa
bdc4 be30 bfa7 bc90 bed6 bf5e 3ddd bf94
3dce 3b80 3d00 3f36 bddb 3eee 3e19 bf69
3f18 3e2e 3eed 3bb0 39a0 beff bf2c 3cf3
3e18 be1b 3cb0 bf53 bfa7 bf20 3da0 3e2c
3eb7 3f58 bd85 3f47 be3d 3f3a 3efb 3e2f
3e66 3e73 3d91 3e78 bf08 3dbf 3e7b 3ce8
3f49 3f17 3e25 3f05 3c88 3e5e bf41 3ef7
3f1f 3e86 3eca bea8 bf51 be9a bf1c beae
3f30 bf45 3eac 3f97 bf25 3f1b bed8 3efa
3eaa 3e78 3e08 bf0b bf4d bf9c 3e5a be72
bc64 be58 3ea3 3eef 3cd0 bf40 3e34 3efa
3f38 3f0f 3f3e bf34 3f1e bf6e be87 3b40
3ea0 bf21 3e8f bd96 3e67 bf88 be89 3e46
3f55 bee4 bf12 beea 3ef3 3f51 3e02 3f53
bec0 3f3c 3ea9 3f91 3f34 bf22 3e8a 3f27
3f10 bf42 3ee2 3e21 3f1d bf5c 3f0a bf9a
3e91 bfc4 3e90 3c40 3e8e 3e3d bdf1 bf79
3da8 3e49 3ee4 bd65 bebe bf22 3f1a bfc1
bea4 3f21 bf47 be67 bed3 3dc0 bf33 be96
3e80 3e4f be35 3d2c bf04 bf1c 3e1c 3f10
3e06 bfd7 bf24 bf13 be08 3e41 bf11 3e89
beb8 3e95 bf8d 3f60 bf46 be27 bee5 3f88
3faf 3e17 bd44 3f36 becd bee6 be70 3eee
3e22 bf27 3f76 be77 bee0 bd8e be70 bf06
bfb8 bde6 3f20 bf1a bf8a bf05 bdea 3eb8
bf9b bdf6 3f13 3ee0 3f76 bc02 3ea8 bd18
3f8c bf34 3e22 be28 bf67 3f08 bf34 bd96
bf2a 3f04 3f5e becc bf9c bf0d bfb1 3e68
bd6c bf1a 3f36 3e72 3f8e 3f24 bf44 3eaf
bf7c bde0 bf4f beed bef8 bcca 3f50 3da4
3ecc be24 be06 3f3e bef1 3ea2 3eae 3f08
bec9 3d98 3f81 3deb be92 3db1 3f21 3e83
3edb 3edf 3eff 3f7a 3da6 3f33 3e36 bc10
3f1b be3a be65 bf55 3f84 bde2 3f8f 3f85
bc90 be1a bf46 3ead bf61 3f99 3f39 befc
bdf8 3f1a 3f7d 3e2a 3f98 befb 3e8b 3ebe
3f85 3db0 3e9a 3e82 bfb6 3f06 3eb8 3e01
bf1a bf51 beff 3fb9 3f1d bea9 3eaf bf21
bf69 bd56 be8e 3f77 3cca 3fc0 3e0d bf14
bfa3 3f88 bf90 bea5 3be8 bef3 3d8f 3f02
bbd0 3d4a 3e4b 3f4e 3f35 3eec 3bc0 3f10
bf0a bebc beac bf3d 3d4f 3ea5 3ce8 3f09
3eba c00f befe beae 3ee4 becd bf18 bb80
bef6 bf53 bece 3f87 bec4 3eb5 bd30 bf21
bf2e be06 bf2c 3f7f bef9 3e80 be74 bff5
3f8d bed9 bf47 3e9c 3fb6 bf29 bf4e 3eac
bcd8 bf5a 3e46 3e9b 3f02 beb7 3eb6 3f79
3f26 be38 3e92 3d84 3f41 be85 bfb3 bef5
bdb7 3f17 bed6 bef4 3ea8 be5a 3dc6 3df0
bf40 be21 bf06 3f99 3f01 3ea6 3f7a bf6e
3f6a 3eb7 3ee3 bf51 3f68 3ef4 3e46 bf7c
3ed2 beb1 3cde 3e7e be81 bf58 3c1c bf07
bf26 bd74 3ef6 bf4f bf21 3f1c bf21 bf1a
bf37 3f3a be8e 3ca8 3df4 3f04 beae 3f2c
3f64 be30 3eeb 3e92 bdde ba00 bf1d 3f82
3f74 3e5f 3f2d beba 3e8e 3dc7 3f64 bef2
3f1c 3efd 3dd3 bf58 bf0f be39 be74 bf08
3d88 3f88 beb4 3ef4 be35 3d5c 3c50 3e8c
beea 3fa0 bf78 bfbe 3ed5 3ef5 3e3a bed0
3cc8 be4d 3f20 3f36 bd84 bf63 bfef 3ed7
be8f befd 3f1f bfaa 3e91 3f9c bdee be88
bf7e be8e 3f8c 3e94 bd98 3f0f 3f12 bf40
bf47 3e20 3f92 3ed9 3e34 3f2a bfaf bf70
3f1c 3ed3 bf7d bf92 bd8e bebe bf35 3b00
bd52 3ec6 3e51 bcd4 bf4a 3fc1 be70 3fb6
3db0 be38 3f07 be98 3e00 3ed4 bf60 bd82
3e2a 3e08 beec 3e7e bf44 3e13 3ec8 3f88
3f8c 3f51 bf7a 3e9a be2d be52 3f49 3e8a
bfa9 bef6 bf03 3ed4 be32 3f39 be3e bf28
3f1f 3e15 3f25 ba40 bfce 3f32 3ee9 3d90
be7c 3e1d 3f7f bf45 3ed8 bfa0 beac bba0
3f49 3f06 be2e bf3f 3e2e bfa4 bf13 beb2
3f3b 3ec0 bf20 3f64 bdc6 3e3c 3eeb be99
3f24 bf1d be9a bf8d 3e46 3ec0 bfa2 bde7
3f84 3f1e 3f06 becd beb2 3f0c 3de5 3f49
3db8 be69 be46 3a80 3f3a 3e4a bd91 bf28
bf5b bee0 3f68 bf16 bf7c bf53 3ea0 3eef
3f92 3f39 bfb2 be34 3f21 3fb2 be9a be05
3e9a bf0e 3e0c be92 3f4f 3e39 3e03 bf8b
3ea8 3e92 bf0c bf17 3f0f 3de3 be20 3f17
bea6 3f2e beae 3e05 3ee8 3e8a 3b80 bf47
3e91 beaa 3e32 3da8 3f20 3f01 3de0 bf06
3e24 3ce0 bec7 3f06 be6a bfa0 3eaa 3dd4
3e05 3db8 bf42 bd2c 3dca c02a 3f65 3f69
3fa0 3fd4 3dc8 bef2 be77 be1f bd91 3f34
3f34 be68 3bb4 be4f bda8 be08 3ee2 3f22
3f20 bfc2 3fa9 bde2 bf18 3fbc 3f52 3f2a
bfa3 bef6 3f2a 3f8b bf18 bf4a be8a 3f2f
be56 3e4e be9f bfa2 3f80 bf43 bec1 bbf0
3f62 bf54 be9f 3f6f 3e7e 3faf 3e7d 3f98
bf33 bebb bf5f 3e08 3ffe bd8e 3e2f 3f1c
be5e bf7a bf41 3f60 bf67 bec1 bf27 bd87
3df8 bf3e 3e58 3f00 3f08 3e9b befd 3e99
3f98 3c9f bf49 bee2 be81 bde5 3d93 3d56
3f44 bfde bdde 3ede bf8b 3fa3 be59 bf5c
bf00 bc48 beee bf35 be7a beed 3f32 3e77
3de2 be61 3d31 3ccc c000 bf9e 3ee7 3f3b
bf75 bf6b be1a 3cc0 bece 3f16 3ece 3f9b
3f7e 3f28 c016 ba80 bebc be83 3e65 bfe1
3f07 be86 bea9 3d2e be12 3ef5 bef0 be40
3f3e bee7 3f04 3f09 3f4c beae 3eca bcca
3e24 bf02 3ec2 bf5b 3dc1 3f25 3f0a bf61
3da1 3f97 3d5c be8a bf99 3fa7 bf35 bd6c
3c80 3fdf 3e89 3e1d 3ef6 bee1 beb9 3f28
bf5a be61 3f25 be6c bf70 be09 bf2e 3f34
bd90 3ef2 3e25 3f16 3f68 3f04 3ed2 3e82
3ebc be4a 3f20 3f7c 3f01 3ac0 bef5 3e90
3ee8 3f6d 3f86 be02 3f07 be9e be99 0000
3f5b 3d21 be40 bf5a be82 3f0a c030 bf30
bd7e 3f18 bc86 3c50 3f90 3e63 3e62 3f24
beaa 3f4c bf83 3f49 3dc7 3e80 3f04 3f65
bdca bf98 3f04 3f00 3f16 be63 bf75 bf5e
be97 3f29 bd1f bf05 3ef1 be94 bff3 3fb4
bf10 bec1 bebc bea7 bd40 bf70 3e15 bf39
bf37 bbb0 bf14 be32 3e56 3f12 bf99 bf20
beec bf59 3f4d be53 bf85 bf5d bf02 3be0
3f12 bec8 bebd bf25 bf5a 3e07 3e2a bed0
3fab bf21 3f14 3e10 bf59 3ca2 bf8a 3f1f
3f92 be8e 3e24 3ecc bf1f 3f98 3f6d 3eba
3f88 3f44 3ed0 bf5e 3c60 bcac bd20 be9f
3e7b bf2f 3de8 3de0 bf68 3e73 3f1c 3f7c
be80 3d55 3f40 bf67 bf35 3f30 3d50 bed0
bf87 bbb0 3c96 bd22 bfc6 bf36 bd79 3e08
bd14 3f05 3edc 3e18 bf16 3f17 3e3b 3e3e
bdb4 be0e bf1c 3e9d 3eb1 3d29 bf82 beb1
3ef4 3c88 bf30 3de7 3d10 3ec7 bea8 bf95
3e62 3edf bed1 3ec6 bf12 3f44 3ebd 3f84
3f43 3db8 3e9a 3fa0 bf09 bf12 bee8 bee0
bf53 3dc8 bf9f be31 3f9c beb0 bcf8 3e0e
3f4c bef7 3f47 be81 3d06 bf0b bfac 3f66
3faa bebc bf0e 3f33 3f6a bf46 3bf0 3e1b
bfa7 3f01 bf88 be8d 3efa 3ee4 3f20 3f82
3f53 3f3a bf2c beb4 3eb7 bf06 beeb 3fab
3f3c be57 3e92 3f84 3f1e 3f69 be4a bf19
3f33 3f08 be3d 3ea2 bf34 bedb bfe6 3ec9
3f44 bf4f bf08 3f9a bf0b 3f99 be07 be3a
3ec2 3f65 3e60 bfb8 be95 bea5 bf25 be90
bf77 bf1a 3f6b 3e64 3f00 bf80 3f36 bc38
3fcc 3f97 be84 3ede 3ee5 c004 bf16 3e7a
be7e bfa2 3f38 3fc4 3f23 3e9b bf28 bf03
c004 be1c 3de4 be77 bdbe 3eb7 beba bd9c
bf79 bf01 3e76 3cb4 bf47 3f61 3f95 3f0b
bf5a 3e8e bdec bf23 3e5c 3e94 bead 3dd0
3e86 bec6 bf7c 3c88 3ea3 3da2 3eb8 be67
bf85 bd6c 3f2b bda8 3d22 beee 3f99 bd66
be64 bdb3 3ef6 3ef9 be95 3f08 3d3e 3f0a
be1a bf17 3e8c 3f81 beaa 3efd 3e3d bfaf
bea6 bf28 bed7 3f52 bc82 bf05 bf2e be9a
be12 3eaf be20 bf74 3faf 3f0e bf32 bf4c
3f44 3fa1 3dd8 be96 3b80 be3e be32 3f49
bf62 3ce8 3f45 bf7c bec4 3f7b bed7 3ec8
bf86 3c9e 3fad bed8 c00e bda0 be03 3ea5
3f12 bfaf 3d1b bb70 bee4 3db8 be32 bf0b
bea1 3f66 3e26 3fbb 3f12 3e98 bd65 3f58
3e73 3f54 bfc2 3f4b 3e7a bd6b 3fc0 3f08
bf28 3efb bdf0 bf49 3f89 bf35 3b60 bf22
be92 3c00 3f07 bf84 be50 bd98 3f22 3e87
bf11 bf60 bec9 bf75 bf6d 3ed2 3f44 bfa9
be93 3fac be59 3f33 be64 be42 3f47 3df8
bf2f 3ed7 3e09 3d14 3f6a bec8 bf52 bf67
bc0c bf0e 3ef4 3c9c be6a 3f2f 3f26 be7e
bff6 bf0e 3e8a 3e42 3d1c bdcc bf03 3ea4
3f67 bf5f 3cec bdb6 bd9a 3e83 be4e bb80
becb 3fab 3f98 bf1b 3f74 3f12 be66 be10
bf54 3e33 bf96 3f0e be24 bee9 bf7d be60
bf51 be9c 3f98 becf bf8c 3e46 bd8d 3e9c
bf81 bd9a bdf2 be3b 3b60 3f8e 3d0a 3efb
bf9e bed2 bf62 3f27 bdea 3eee bf83 c000
3e52 3f16 3f61 3ee5 be48 3e8a 3fb7 bf1f
bed3 bf7b be05 ba00 3f0b 3c68 bf06 3cdc
bf85 bf74 3f25 bf2e bfdc 3f3c bf44 3ea6
bf0c bfb6 3dd0 be6c 3f1a 3f41 3f84 3f29
bfdf bf86 3fca be5a bf57 bf96 bf6e 3dba
3f9f bf38 bf3c 3eaa 3f28 3df6 bba4 3cd8
be0c be7c 3e1d 3e07 bf4f 3ccc be70 be83
bf88 bea0 3f57 bf4a 3e84 bf94 bec2 bf2f
bf55 bea4 3f08 3ebd 3fbd 3f36 be1a bf64
3e91 3e09 3f4f bf50 bf06 3f0b 3f30 3f65
3f82 3f6c 3de6 3e00 3f43 3e15 3f44 bfb1
3e88 3ed0 bf41 bd18 3f24 c005 3d52 beb4
3f3f 3f87 bf7b 3c70 3e6a 3fbc bf23 bfad
bc8e bf71 bf4e 3e72 3eb3 3f3d 3da5 3ed8
3f6a bdfb c001 3fbe 3f35 3f1f bf2e 3f8e
bf7f bf2e bf88 bf2a be04 bdfe bdbe 3f7f
3e87 3f93 3e28 beb0 3e9f 3f3d bf79 becf
3eae bf06 3f6c 3f01 bf26 bd64 3ee4 bddc
bfb8 bf36 3d9c bf1d bf06 3f91 3f89 3f84
3f71 bde9 bf54 3e62 3f2e 3ec0 bd98 bd37
3d3c 3ec4 3f93 3f22 bf76 bf45 bf2a 3e7d
3dbc be3c be66 3ee7 3e50 bfcd bd94 bec1
bfb7 be8a bea5 be89 be26 3d0c 3f38 bf73
3eaf 3f24 3f56 be04 3e04 bf8c bf84 bf8c
3e20 bf4e be8d 3fac 3f36 3d49 beea bf6b
bdc8 3f38 3f0e 3d6f be9a 3e93 3f81 3ebf
bdd7 be09 3f0e be92 3ec0 bc38 bf1c 3efd
beef 3ec2 3f46 3da7 bf51 3f8c be9a 3d0c
bedc be3a 3dbd 3c58 3c20 baa0 bfc4 bd0e
bdc8 3f06 3e7e 3f81 3f31 3f1c bf07 3f2b
3f16 be8a 3f57 bf02 3d68 3f0a be99 bf09
bf20 bf56 bda3 3dca 3f4e 3ea1 3f12 bf99
3f7c be09 bfa0 bf0d be26 beca beac bf32
bf48 3e07 3e86 3f61 bf95 bf54 beaf 3fb3
3f73 bfd2 3f83 3ed1 3f18 beee 3f17 bec0
bf35 3edf 3e8c 3f7d bf8d bea5 bcc0 be1e
3fdf 3f49 bf59 be62 bec8 3f03 bfbc bfbc
bd1f 3f7e bf13 be9a 3f24 bf64 bdaf bfa3
3f16 3ea8 bf76 bf17 3dfc be5e beec bfad
3f0a bf5c bdcc bfa0 3fbb bdc6 3f74 3eba
be06 3e73 3d67 3ce0 3ee9 3f12 3f76 3ee4
be97 bf3a 3e6a 3eb6 bbc0 3e98 be8e bd34
3f73 3f5a bf6c 3e3d 3f10 bd68 3e31 bf70
3f51 bfba bead 3d82 be1d bc00 3ef7 3f54
3e28 bf25 3e46 3e84 3e38 be20 bf60 3e33
bee3 be6c 3eb9 3f0c 3e81 bf1e 3d4b 3f03
3ef3 bcc0 bf1e 3f2c 3e9a be92 3c90 bb40
bf1e 3e62 bdf8 beb7 beb8 3f35 bf08 bf9c
3cb8 bf5e be3e 3ea2 bf02 bf1b 3f31 bcd0
3df4 3e21 3f20 3d16 3c88 bf25 3b40 be88
3e6e 3e90 bef0 bf3b bc40 3f28 3eab 3e39
bdee 3f22 3f55 3e34 bd08 3e2a 3e56 3f31
bee2 bdb1 3e5c becf bee9 bf16 bf44 3ea0
3c8e befa 3ec0 3f1c bf18 bf4b 3f0d 3e6e
bf6a bf3b bebc 3f1d 3e66 3e08 3f4c 3ea4
bd56 be26 bf0e 3ef4 be46 be25 bf32 3e6c
3f13 3f04 bee5 be5d bee5 bf9d 3ed4 3eaf
be9c bc40 bf09 bf6a 3e4d 3f15 bf54 3c08
3ed2 bf31 bf6b 3f13 3ee0 3ead bcbe 3e6a
be22 3f4f 3dd2 bef9 bc40 be00 bf90 3e68
3e84 bf5c 3ef2 bf1b 3df0 bf19 bf3a 3e60
bf09 3f28 3f0e bf1d be52 bd7c 3f36 bf5d
bec9 be80 be8c bf65 bf4f 3f42 bca0 bf9b
be69 3e43 bf7b 3ed4 3ebe bf37 bf28 bf46
3f74 3f42 be79 3ea9 bea9 be6a 3f43 bd51
bf11 bf45 3ed9 3eda 3e0d 3d80 be86 be56
3e20 3f6e 3ead 3eac bf05 bef5 bf1a 3e38
beb5 bf10 3cb0 3e0c be93 3f55 3e9d bee0
3e0c be64 bf66 3f66 bf08 3e93 3f1c beee
3ee0 3f00 3e7f bf3a 3f23 bf81 bf1b bf03
3f10 3f21 3f52 3f69 3eb8 be3f bebd 3df6
3f2a 3e99 3d97 3cc8 bef0 bdc4 3ecc bf1b
beb3 3ec4 bf1d be9f bf1e 3f1c 3f76 bcf0
3eb7 3e2c 3eab 3ee6 3f35 bf89 3ede 3f34
3f1e 3f0a be39 3f39 bea8 3f14 3f2d bf04
bd1c bf7c 3e74 3eda 3f20 3e7d 3ede be71
3e47 3ef7 3f50 bf88 bcce bf7f 3f3f 3e43
be4a 3f2f 3f25 3ed9 3f72 3f14 becb 3ef6
be9a be92 3ef4 bf51 c084 bf51 3e20 be04
bac0 3eeb 3f50 bdb8 3e5c be26 bee8 bd3d
3eee be0b 3cf4 3eed bda6 bd1a bdde 3edc
be42 3eb2 bf62 3f01 3de7 be48 3f80 bf05
3ecd 3e85 3d9c bf09 3f80 3fa9 3ed6 bf03
bf4a bf01 3f2c bf8e 3f0a bf54 be88 3e3c
3d35 bf9a 3de9 3d90 3ecf bed5 3e01 bf30
bd46 bf3f 3e2c 3dd6 bf30 bf32 3ea6 be4c
3eb4 3eec 3e56 3f28 3eb3 bf4a beac be92
3f26 3e86 3f07 be76 3f7e be83 bea6 3ec8
bef2 bf41 3c50 3f20 3d68 bd98 3f36 bebc
3eaa 3f09 3f2a 3f2b 3df6 bdcc beee 3cae
bf1e 3f9f 3f17 be02 3f68 bd7c bf13 3f27
be12 3f14 bf5f 3e72 3e56 3f46 3f15 3e6a
3ef7 3f13 3e70 3efd bd96 bf36 3f0d 3ed1
3ae0 be68 3f68 be4f 3ef1 3fa6 3dd6 3e38
3f29 bf8a bee3 be12 3e96 be07 bddb 3ef4
3f4a beaa 3d8d bf13 be5c 3f7e be40 3ee0
3ed6 be0c 3ed0 3ea9 3f10 3f48 3f4b 3d24
3ef8 befc bef9 bf9c 3f80 3eaf bfad bf0c
be7d be0c 3f39 bd9c bf85 3ea3 3f13 3f18
3ee1 bedb 3f12 3f0e be8b 3f08 bf20 3e98
3e47 be96 3f88 3efe 3dbf bf37 3d08 3f2a
be53 3f2f bf70 bf92 3f34 3f0c bf4a bf1c
3db0 be5b bed4 be26 3ddf bf8c 3eca 3f81
bf99 3eef bec9 3e2e 3e95 3ec1 3be0 3ef0
3f32 3ef6 bf27 bef0 be8b bed5 3f45 3df5
3f51 be16 bf06 bf46 bef8 be98 bed8 3ef3
3ecc bdc0 bef1 3e34 be70 be4a 3f63 befa
3e9f 3f2e 3f4d be63 3e4c c034 beae bf12
be4a 3f31 3f79 bdc2 bead bf33 bf18 3f08
3f0a 3f35 bf04 3f0a 3e1f 3e8d 3f44 be74
bd86 3e42 bf57 bf07 bea5 3e86 bf0e bdd3
bfa2 3ebd 3dde 3eb3 bec1 bea6 bf02 3eaa
be65 bee9 3e39 3f09 bcd8 3f11 3f5e 3c70
bea1 bf64 3dee 3f8e bedd 3f00 3f3e 3ee4
3ebe bf5c bf43 beca bec2 be89 3edb 3ea0
3efd 3f53 3f07 3e90 3f68 3ebe 3d9c 3ec2
3f48 beaa bf05 3e5e 3ebc 3ebb bf82 3f7e
bf52 3e77 3f10 3eea 3f3e 3f07 be47 3e81
bf03 3e8e bfa7 bf09 3e76 3d82 3e78 3ea7
be8f 3f23 bf08 bef7 3d46 bf57 bf01 be98
bd28 be02 be1a bf2b bf05 bf1d bf0f 3ed7
3ed7 3f0a 3eac bf07 bf90 be81 3b00 bf44
3f14 3ec7 3e95 3d8a 3f08 bf2e 3db8 bf66
3e8a beb1 be96 be83 becb becb bf7b bec6
3e88 bcf0 3eda 3f06 bd60 3ef1 3cc4 bf20
bf34 3e99 bec8 3ee5 3e6a 3f1b bf58 3f02
3dae 3ec6 3f12 3f2e be6c bf45 3eef 3f25
be5e bdd4 3f12 beda bf50 be96 3fa6 3f6c
3f15 be07 befa bc8e bf15 3f23 bf58 3d0c
bede 3e86 bd8d 3ed8 3e33 be90 be3a beac
3ed4 be58 3f50 be5f bf4c 3eb7 3eb6 be0e
3e69 3f71 3f90 befc 3e9e 3e37 3eea be82
bf18 3f0b 3e3a be1e be3d beb0 3f17 3ec2
3ef9 3e99 bf12 bce8 be5c be43 bbf0 bd84
3e06 3f58 3e7a bd7d bf54 bd4d 3eaa 3f33
be12 3f16 3f30 3f10 3eb8 3e46 3f83 3f0d
bec4 3db4 be5e 3ea6 befa 3eb9 3e6a 3f09
3f0a bccc bdfb 3ebe 3f26 be1a bf14 3f15
3f40 3f33 bca4 3f3e 3f41 3ed3 3ec8 3dc4
3f32 3eb2 be8e 3f40 bf45 be25 3e87 bf4f
3d24 bf4a 3e99 bdea bdd1 beb6 bd81 be8d
3e5f 3eee 3e86 be2c 3f0e bf53 bead be62
3ea8 be82 3ee0 be18 be0b bfba bea4 3e82
3ebb 3dfe 3b80 3ef8 3cdc 3e90 bf76 bf82
3ef0 be25 bf1f 3eac 3e8d 3e9d bdc4 beb7
bdfc 3d1a 3f0b beed bf2b 3e85 bef6 be7b
3ea5 3eb6 3c82 3eb8 be65 bf34 bf25 3ed6
be3c 3f30 3ee0 3f22 bf18 bdd1 3e97 3f32
bf7f 3f27 3f22 3f13 bdc0 bf14 3f1a 3ead
3ebd bf3b 3ed6 be91 bf55 3ea9 3e48 bee1
bec2 be7e 3c50 3e80 3c58 3ecb 3c88 bf25
3e5d 3e1b 3e8f 3e06 3ed7 3ea1 bf05 3f03
3e57 3e06 3ec0 3ee5 bf57 bf13 3f1f 3f06
3ecc 3eae 3db2 bf8d bcb8 bec8 3ee2 bf0f
bb40 bf10 3ee4 3e2b 3ec1 3f08 bea6 3ebf
3d8c be89 bed2 3ecc bee1 3ea0 3dd0 3d86
3ed5 bdd8 3ddc 3eda bf5e bde1 bf25 be82
bfb9 3eba 3efe be98 bebf bf39 3cfa bf8e
befb 3e2a bdc0 3ec1 beaa 3dac 3f10 3cf8
beba 3e64 bf07 3f3b 3eac be86 bf5a 3e7e
3f70 bdce 3e34 bd2b bf1a 3e0a 3edc 3efe
3eba bed0 3e0c be24 3e89 bf3b 3e56 bee1
bef6 be80 3f00 3eba bbc8 bf00 be7d be78
bed0 beb8 be50 3e7a 3ee9 3f0d be9c 3d8a
3e92 bd14 be23 3f7c 3ef1 3f29 bf09 3f0b
3e76 bf1f 3d1b bea2 bed3 bf02 3f01 3ca8
3e8c 3f12 3f00 3f17 3eea bf3f bda1 bf06
bc48 3ddd bd6e be7f 3ef4 bed6 3d93 bf83
bf6e 3ebc 3e92 bdbc bcbe 3f4c bd4c 3e89
3e3a beab 3f24 3e51 3dd5 3e44 3f34 be03
be3a 3f31 bf1e 3dd5 3efd 3ec8 3f3d bdd8
3ed2 3ef5 bed0 3f5c be9c 3f0a 3e1e 3ec2
3f3b 3ebb 3f10 bd80 bee6 beb1 3ef9 3d20
be1b 3f21 3ecb bf04 3f43 3d30 3e0e be50
3f45 3f09 be94 bf20 c0c5 bd6b beb4 3e21
bdda 3eec 3e0c 3e6e 3e8e bf34 becb bf51
3dee 3ec0 3e13 bd7a 3d54 3cd4 3edf 3ec9
3ed9 be02 3ecc 3d88 3ed6 3f08 be09 be4f
3e9f 3ede 3eb5 bf3d bec5 3f67 bd60 3d90
bee2 be78 3ec6 bf19 3dd8 be05 3ea1 be7c
3f36 bf16 3ea3 3e28 3df4 be1a 3e24 bf2c
3e68 beaf be66 3da5 3e6b be85 bdf8 bf20
3e1e 3dc6 bee6 3ee5 be0f beed be84 beb8
be34 3ef6 bf48 bf06 3e32 bd30 bec8 bf58
3f3c 3ec0 3e88 bf10 bdbf 3f4c 3ebe 3e07
3eec 3dac 3b9e 3f34 bf51 be53 be90 bf02
3efa 3f0f 3d15 3da6 bbc0 3ede bf33 beb1
3f1b 3ed9 be28 3ed0 bd68 3f02 3e07 be9e
3e80 3edd 3f0c 3efa bdaa 3e2c bf40 3e68
3e2f bf16 bd29 3f00 3e60 3f5c 3eba 3d08
bf34 3e71 bee1 be21 befe 3ea6 be63 be86
be6c bea4 bf89 bf1a 3e70 be9e be8a bf0f
be30 bef7 3ebe bc60 3ee1 be8d 3ea5 beaf
3f2f bdb3 3f69 3e38 3f3b 3ef4 3eaa 3eae
3eea 3e98 bf26 3ec9 bf65 3ea5 3f3b be18
bf58 beca 3ce8 be9f bebb be85 be25 3eb0
be4b bf34 3e37 3ed6 3e46 3f18 be23 3eee
bf10 3ee3 be8c 3ec0 3f4f 3ed8 3e85 3b80
bede bf1e 3e9d bca3 bdbe beb2 3ef5 3ed9
3e91 3e75 3ed9 be65 bd30 3edf bc40 3eb2
3ecb 3ee2 be58 bf7e 3f2e beb8 3f14 bf4c
3eb0 bcc0 bee0 be3c bc14 be32 3e36 3ea9
3ca0 bf23 be8a 3d10 3ebe bf21 3e76 be2f
3ede 3eae be58 bf04 3e1a c029 bdc6 3f25
be9d 3e93 be96 3f34 3f04 bdf4 be90 3f51
3cf8 bea0 3ede 3e96 bf86 3e1f 3edd 3e70
3f03 be63 bd0d 3f0a 3e3e 3f76 3ee6 3eea
bf82 bdc7 bbe8 3f3c beca be06 be99 3ee2
3eb7 3cd0 3f02 3f1e bee0 3e5e 3f58 bf32
3db3 bf0a 3e94 3f69 bf5c 3f1e 3f4d 3db9
bf33 3d1a 3f38 3e63 3f14 3ce0 3ed0 bece
3f0e 3e2e 3e86 3d24 3ea1 bf33 bd7e 3d6c
3e54 3e9c 3f21 3e72 3e8c bdbb bf3a bea4
3e8e 3ed5 bebc 3efe 3e77 3f47 3f3f 3eb0
3f18 3eb1 3e76 bee6 bf7a 3f6e be9d be16
3f14 3e97 be86 3edd bf31 3e08 bf3e 3ea0
3edb be3b 3ebc becd 3d06 bf0d 3eef 3e84
be98 bd9a 3eb4 3f22 bf69 3cfc bed4 be3d
3dee 3e84 bdaa 3d9f 3eb5 bc10 3dfd 3f4c
3c20 3e3f 3ee6 3d7c 3e62 3edf bf4a 3e20
3f07 beea be7a bf0b 3f08 3e8c bf2c be26
3e80 3e24 be81 3e30 3e57 bd61 bf1c bf3d
3e08 3eff bec6 3f4b 3f06 3ede 3e82 3eb7
3ebc 3f05 3eea be36 be67 3ebc 3f53 3f29
be84 3ea8 bdd3 bf61 bc50 3ebe bed6 3de0
bf0e be72 3cf4 3eff bea0 bf51 3e07 bf00
bef2 bf2b bd80 3e12 be96 3eb3 bef8 be9e
be21 bce8 be82 be36 3e1b bdf6 bf37 3db4
beff be54 be94 bf23 3e4a 3f10 3e9a 3e65
be0c 3d35 3efa 3e59 3f09 3ea2 3f03 3da7
3be0 3f4c 3e44 bf12 befc bee2 3eab 3e46
3ef7 3e90 3f24 3f17 3f50 bed4 3f1a bec0
beb8 beb9 bfb1 bf7a bf31 3ea4 3f18 3f43
3f05 be8d be9d bf1c bd6f 3e98 bfb2 3f2c
bf12 be0a beac 3f0e 3eb8 bf4c bebd be3d
bde8 bef0 bf17 3ef4 3f4f bf12 3f02 3f3d
3ee0 bf72 bf73 bf73 bed4 3f26 3e90 beed
bf4f becd be74 3f06 3f6d 3f47 3c30 3f74
3f96 3f3e bea6 3eb2 bf88 3efb be8c 3d8a
3ecb 3f57 3fae bd80 bf17 bfa0 3d28 bd8b
bf6e bf37 3ea4 bf1a bf16 be6c bfc0 3f0f
bf6b beb6 be93 3eab bfb8 3f8b bf6d bf28
3dea 3ec6 bef6 bdcd 3f34 3d1a 3e1a 3d06
bec7 bf73 bcee 3f59 bfb8 3f5a 3e2a 3df9
beeb 3f10 3f05 3e9f bfb4 3f9c bce8 be96
bfb5 3e28 3e36 3eed bf31 3d20 be20 bea8
3ed9 bf88 be2a 3ef0 bec8 3e6a bf61 bf17
3dee 3f22 3e7c be8c bfb1 3fab 3e2a beb7
3f08 bd32 3ee4 3f09 3f76 bf5f be7e 3f80
3f4a 3ef2 be1b bf8e beb1 be05 3e66 be38
3ddb be47 bfa1 bda8 bf35 bdc5 be12 bf09
beaa 3e13 3e9d be91 bb20 3da0 bfd1 be1a
3f4a 3e32 be5a bfc1 bf1d 3e36 3ea2 bde8
bee5 bf4d 3f20 3d8c 3e03 be00 bea8 bec5
bf2b 3f95 3d44 3ed7 3fab 3e95 3f21 bee3
bdf6 bcd4 bdde be98 bf3e bf49 be88 bdf5
3dc5 beae becb beb2 bdcc 3ec2 3f42 bf03
3eb2 bf08 3f16 bed6 be52 bea4 3ea3 3d56
bf45 bee0 3f5c 3dc1 be20 bdce 3f7e 3e14
be85 3f74 be10 3eaa 3d0e bec1 3e7f bf0b
bed1 3f49 3f86 3e84 bf02 3e8b bf3d bf22
3e0d 3f67 bcb3 bf92 bcd8 3f4a 3e22 3e80
bf67 3efa 3e42 3efe 3f67 3e90 bf49 3e94
be10 3f02 bef4 bd84 3ed4 3f42 3e73 bfe3
bfc4 bfac bf0e 3f5c 3e89 3f48 3e72 bf18
bf07 bd39 be1c 3eb9 3f3c be24 3ec5 bd64
bfc5 3da3 3cc8 bf89 3f2a bfa6 3f78 bf4e
3f62 bf13 3ed1 3f9e 3e7f 3e7a 3f7c 3f13
3f19 3e97 3e24 3ef4 bf1e be25 3fa4 3ebe
3f1c 3dd0 3d4c 3ed3 bf21 bf1f bf01 bf69
3f8c 3f3b bf6b 3f2b 3ec2 be1c bdfd 3e9a
3ec8 bf22 3f8a 3f4a becc 3eea 3f3d be9d
bf93 3e54 3f1c 3dc0 bc80 bf71 be77 3d28
bfb9 3f4f beb8 3fb2 3eed 3fad be1c 3f1d
bf40 bf68 bef6 beb2 be99 3f5e 3e1a be85
bf80 3f78 3e0e be8a 3e9f 3fb6 3e8d bf34
bf2c 3d6c be66 beea bf15 be74 bd47 be8a
3e3c 3efa beba 3f0b be7c 3ed2 3e17 be08
bf47 3f67 3dce bf73 3f12 3cbe bfcd beae
3e94 bde7 bf4e bf94 bede bef3 bf1f bf0e
3f00 3e0a 3de2 3ec0 3e71 3d94 3e72 3f8a
bf18 be7f bf08 bf8d 3f0e be9e bf45 bf87
3e65 3c9c 3eb5 bf11 3f86 bf18 3d65 3f85
3e19 3fb7 3edd 3f24 3e3a 3eb2 3e2e 3f11
bee5 be8c 3d28 3ea8 3f3a 3d8f 3d94 bf96
bf9b 3e0c beb5 3ce4 bea5 3e2e be62 bf21
bf6e bf99 be23 be34 3f6a bf07 3e1d bc84
3e95 3eac bf1e 3e84 3dc0 be42 bee5 bd7f
bf9a bf90 3eca bf59 3f9f be7f bba0 3f28
bf38 3e62 bf41 be0e 3f37 3f83 3f2f 3f3e
bebb 3f16 be83 be71 bea2 3e6e 3ea3 3dd0
3f54 3e2e 3f0a 3e20 bdfa be46 3ea4 bac0
3e9e 3f10 3f47 be34 be49 bf3e 3f04 bfad
bf57 3e69 3e6d bf95 3e81 3fa1 bcae bf33
be27 3dca 3e75 bea2 3e8c beba bf84 3f3e
becc be9b bf02 bf6f bf37 3d76 bef2 bf40
3cc4 3ea2 3ee6 3f28 bfd9 3ed7 3f18 bed6
bf28 3dcb 3f20 3c92 3f1a 3d30 3eda 3efd
be8a 3d10 bf3c 3ec9 bf29 bf85 3f04 3f1b
bdf0 be86 3f09 be86 3eb5 bfcd 3e1b bdc0
3fcc 3fa0 bf07 3fa0 bd7a bf1c 3ecb 3e8a
3e05 bf40 3f05 3d3c bf41 3d75 bfab 3f83
be86 3e35 3f23 bfd3 be58 3f81 bef8 3f99
bfaf 3e5e 3e89 be42 3df2 3e88 bef0 bfbd
bf5b 3efc 3df4 beb1 bd05 bf20 3f1f bf54
bd5c 3f46 bec3 3f3e bf63 beac 3ece 3e81
bf00 bf09 bf14 3ea7 3e62 3eee bf0e beaa
bfbe 3c78 3b00 3ea0 3ea0 be61 bd9e bf13
be9d bebb 3e84 3f2d 3f0a 3f45 beec 3eb6
bec1 3f30 bea3 bf71 3fc8 3ee5 be72 3f3d
3ec6 3f37 3e04 3d94 be8e 3e3c bdb8 be96
be24 bf16 bd4a 3f41 3e8e be8a be57 bf3f
bdf3 3efa bcf8 3e18 bded bf14 bef1 bea3
bfe4 bf64 3e30 bf15 bf9a bfe8 3dcc bf85
bf12 bf5b bef3 bef0 be62 be4b bea5 be0b
3f80 3f20 3dc4 bdf2 bee7 3f33 3f07 3f52
bee6 bf44 3dca 3cf8 3f36 bf01 bec6 3dff
3b48 3ef5 beeb 3f88 bdd8 3e2c 3e2e befe
bfb0 3f5e bc5e 3f06 3f89 bee3 be8e bdd2
3e86 3e2c bd0c 3ef5 3f75 bdf0 4008 3e80
3f92 3ec9 3dd6 3ec3 3e55 3ed8 bfc8 bf27
3eb8 bf0d 3ccb be8d bf3d 3f79 bc88 3f18
bf1e 3f0c bf8c 3f5e 3ea6 3c8e 3f92 bf88
3d7e bf48 bdc2 3f72 3f95 bf8f 3dd2 3d91
3f4b be3e bffa 3f91 bf3a bfca 3ecc bf0c
bf3c be58 3f6a 3e9c bc00 3f3b 3f55 3dfb
bf32 bf86 3f2c 3ef1 bec0 bf10 be6b 3f63
bcc0 3f85 be98 be43 bf65 3f16 3e76 3f18
3e80 bf0c bf82 bfa9 3f12 3e7a 3e4c 3d00
3f86 3df3 bfb9 3e4b 3f77 be83 be58 bf18
bf2b 3f44 bd42 3dd6 3f2b 3e09 3e26 bf93
bf4d bec6 3ec4 3e46 bf0c bede bed4 3ef6
3db4 3e90 3ead bf82 bf12 bd54 3f79 bee0
3ec7 bf4e bed6 bd40 3f77 3e10 bf94 3f52
3f36 bf1d 3dfa bef3 be67 3ca0 3f0a 3d30
be9c bd64 3ec6 beab 3f48 be1a 3e91 bde9
3f4a bf8e bf23 3c88 bfb6 3ec6 3e30 beb3
3ea0 bf58 bea3 3f2b 3d6f 3f27 be5f be9e
bee2 3d94 bede 3f07 3eaa bea0 bf6f 3e19
bf46 beb8 bdc8 3ea7 3e04 3e6a 3f50 3ed3
be50 3f1c 3f02 3e8b bdfa bf88 be82 3e4e
bf33 be87 3ddc 3f0b 3e00 bf8e bf83 3e8c
3f86 bfcf bf2e be88 bfbb 3f2d bf1e bee9
bea0 3ed8 3f4c 3f5a bf91 be41 3ed6 beaa
be10 3e02 bf1a bf56 be16 bf87 be97 bd2e
bf05 bf16 3dce bf98 3ea1 3f0e bd2d bed8
3ec6 bd8e 3eee 3ef4 3e95 3e0c bf88 3ecc
bf18 3ee0 bf4e bed4 bda6 3ea0 bfa9 3fff
bfa1 bf87 be97 bf0b 3d94 3c30 becb 3f20
bf05 be65 3edc bf2e 3ff4 bec8 3f81 be56
bf59 3f40 bd04 bea6 3f16 bf38 be5e 3cca
bf0b be2c bd9c 3f6e 3fb0 3e89 becc 3e9f
3e67 beec bf93 3efc 3e84 3e8a be50 3f37
3ef6 bf22 3e04 bb80 3f10 bf3f 3f4c 3e4d
bd6e bd88 bea0 bf23 bdd0 bb40 be58 3f4f
3ef6 3d88 bf56 3ee5 bf63 bf52 3dce 3f56
be1a bdee 3e1a 3f20 bec7 be96 3ed6 bed7
bda0 be9f bfdc be87 3ec2 be4f 3e2d 3f15
bdea 3e4c 3e28 3db8 3f37 bd98 3ec2 3e24
3e23 3fad be60 3f11 be14 3f49 3f1c bf2e
3ed8 bd08 be91 3f82 beed 3fd8 bf13 bf9e
3f4b bc9c be12 3f86 bece beca bdf0 3db8
bec3 3e88 3ed7 be4a bee0 bed2 3a80 be8e
bef0 bf72 3f04 3ed1 be14 bf0e 3e2a 3ed0
3bc0 be71 3e81 bf4c 3f2a bdea 3f3e bef1
bf17 3e7a bd64 3ec5 bfb1 3be0 be95 bf47
3dbf 3d67 3f12 be2d bee5 becf be27 bf38
bf2f bd88 bf60 beb2 be8c 3dc2 3ef3 bf16
3f7c 3ece 3c60 bf7c bdb4 3fcc 3ed5 3f64
3dd0 3f8e 3ea4 3f68 3f0a bd96 3f24 bcbe
3edd bfbb bf70 3eb5 bf04 3f52 bf06 bf58
bf92 3f85 be79 3e84 3e09 bc10 bf14 be20
bddf bf68 bf2f 3df7 3ec9 3f18 3f2c be30
be17 bf95 3eac be4a bf8e 3f1e 3e21 3e20
3f10 3e86 be6e be2c 3f43 3f1d be20 3da0
be1b bec4 bd60 be8b 3f2a bf16 3e29 bed6
bea1 3f2f bea7 3f80 be1e 3f82 3ef8 bed6
3e7f be86 be12 3f1b 3ea8 bdd4 befc 3f95
bef4 3f54 be29 3f2b 3f3b be2e bf0d be57
be18 bf31 be84 3e63 bf68 3f0f bf71 3f24
3ea8 beb7 bf49 bede bec1 3f4a bf27 bdfe
3f45 3f08 3e45 3f25 3ec9 be40 3e94 bcf8
3d91 3e41 3e9b 3f1e bf09 3dec 3fb9 be38
bece 3ef9 bf67 3f6c beba bd4e bc80 bf05
bf8b bea7 3eb2 be24 bf45 3ed4 3f40 3e82
3edb 3f3a be8a be68 3eae 3e7e bf22 3d68
be63 bf58 3f44 bdb0 bf82 3f96 bc98 3f67
3e95 bc70 bdd2 3f30 3ed0 3f0e bea3 3f25
3f09 bea9 3f4e 3f85 3e96 3f58 bf4a be36
3eb2 3f5c 3fa5 3e7a 3d70 3ead bf3c 3f80
3eb5 bf7c 3f53 bfd4 bed7 bf3e bf9f 3dfc
bf5d 3c70 bb80 bf7f 3e82 bf84 3e37 bdee
bce0 bc80 be82 3eb2 3f42 bd40 bf24 3d4a
be90 bf5d 3dda 3e00 3f48 3fa5 3d68 3ee7
3eb7 3e32 bf20 bee0 bd4c bf02 3f7a 3b00
bf41 be54 be4a beb0 bea8 c022 be63 bfa6
be30 3f78 3f66 bfd5 bd38 be9e bf1e be8c
3cb6 bf1c bf04 beac 3f62 3ffa bf89 3f39
3f8a beff 3ed0 bf9a bd8c bd84 3f1d 3e6c
bfb2 3e7e be4e 3fd1 bf88 3c94 be8c bf97
bdd5 3f9b be96 bb00 beb3 3e71 3d4d 3e92
3f38 bf12 3f9b 3ee0 3e11 bd79 3f67 3ea3
3e88 3ec8 3e56 be23 3ec8 3e54 3eb2 3e78
bece bf81 3f8e 3fc2 3f16 3f71 3f2a 3e6d
bdac bf8c 3dce be6e bf6e 3ee0 bd9f bd89
3f27 bf73 3da5 bf88 bf36 be93 bdc3 be98
3e81 3e1a 3f79 3e6e bf04 be38 3f31 bf26
3e7b 3e65 3e40 3f84 bf88 bf36 3f1f bdac
3e52 bf40 bdf8 3e16 be88 bfa5 bf8f 3e98
bf2a bf39 3f6d 3f71 3f46 3f57 3f1a bebf
3f8c 3fb1 3dc9 bf2b 3f00 be4c bf17 3d9a
be92 bf56 3f37 3f43 bf20 3d38 0000 be07
bf75 be24 3eb1 bf40 bf92 bf03 3f35 bf11
3ecf beb5 3f50 bf4b bf44 be90 bdf2 bf8e
bf0a 3f2e bf70 3f4c 3f2d 3f85 3eaf bbb0
bee6 bf50 3f18 3e08 bf52 bf50 3eab 3d78
bfb0 3f70 bf28 3e74 bf7c bf2c bf52 be86
bf6a 3f2b bed5 be81 3f92 3f54 3f3c 3e30
0000 3ed2 3e66 3fc4 be94 3f5f 3f0a bf01
3f03 3f66 3f61 3db4 bd20 bf67 bf1e bf44
bea2 bf14 3e3e be94 3e83 3f81 3e1c 3e38
3ec7 3f21 bdec bf4c 3de8 3f4c bdd1 3e88
3d94 bdcc 3f12 3f4a bf1e 3f03 bf3e be86
3ef4 bed1 3d24 3e32 bf7f 3f1b 3f94 3f1b
3e45 bea8 bd24 be8a bf70 be56 becc be16
3e9e bedc 3bc0 bea4 be37 3f05 be2a 3d50
3dbd 3dda be73 3f3a be99 3c30 3d60 be96
3eea bee6 be7e 3eba 3e23 3efc bdb4 3dec
3ddd 3e7d 3e98 be46 bd20 3cf0 bd9e 3f9f
3ebe 3ebc be8d be97 3da3 3e7c 3f30 3ef9
3e96 bf1f 3ea9 3e2a 3e1a be9a bebd 3f85
bd13 3f86 3ee0 3ec8 3f33 be42 bf70 bc28
3c84 bed3 bee4 3da2 be2b bf21 bec3 be11
be4e 3f20 3e86 3e24 3ee9 3f48 bcf0 bf28
3dbc be6d 3f0f bf1c bd6c bef5 3e58 be2a
bf1f 3d92 3cee beaa 3f58 3f19 3d86 be07
bf3a 3f36 be60 be72 3ea0 be02 3f03 3f1b
3ea2 bedd 3b00 3d04 3ea2 be91 3f2d 3f0a
3dc6 3e67 bdea bee3 bf3f 3ef6 3f1d be75
bd38 3e08 3d44 3e66 3efa bed8 3e0e 3f16
beeb 3e18 bdf0 bdd1 be9a 3e2b be2f 3eaa
3e0a be0a 3e32 bf92 3ec9 bec1 3d00 3f4a
3bc0 bfa3 3eb5 bebb be58 bec6 3ec4 3e5b
bebe bf0c be0d be3c 3e49 be86 bf0e 3fb6
beb0 bdc7 bed8 3d18 beb6 3eab bf91 bf21
bf04 3f12 be4e bdd0 bede bd10 3ecf bf34
3ec0 bddc 3d18 bed8 bda2 be84 3f03 be82
3e2e 3e7d 3d1c 3e6d 3f11 3d58 bec0 3f08
3ef9 3f0f bc10 3ded be85 befa be70 be02
3f6a 3f0c 3da9 be85 3d2a 3e49 bde8 3f96
bf2b 3f28 3e1e 3dd3 be4a bf13 3db8 3e64
be93 be1c 3e68 3f82 3eba bed2 3e7d beb3
3d4e bdb2 be90 3f11 be8a 3e06 bef1 3f38
bf09 befa be16 bef9 3eac be76 3d28 3eb6
bf21 3e1e bee9 bd60 3f2c beaa 3f34 be9a
3d7e 3e3a be97 bf7c be29 beb4 3ebf be0d
3f03 3e2c bf03 3f14 bee9 3e83 bd04 bdd2
3ea0 3e9e 3f12 3f13 bede 3e48 3e99 bd3b
3f37 3efa 3ed0 3c3e 3dff 3da0 3c98 bed7
3d3c 3d86 bf63 3f58 be84 beff 3e83 bf20
bf62 be82 bd58 bf2a 3ea0 bd1c bdd2 bef4
be99 3e57 3f6f 3e32 3d82 bd18 bf3a bdea
bdac 3f1b 3e24 be9c c0e2 be32 3e98 be97
3eee 3e4b 3de4 3d03 bec9 be96 be64 3e87
3eee 3db0 3e30 3ed5 bf3d 3e45 3f00 bca0
be18 3efc bebc 3e6a 3f8e becf 3ed4 3e00
3f02 bd80 3efe becc bd84 bd7c 3ec4 3e82
bf40 3dbf bf07 bf22 bec9 bdc5 3f16 3e8b
be8e be86 bf08 3e5a 3e5c bef0 3f01 3eda
3b80 bd3a 3e86 bec8 bf03 3e84 be92 bf4a
3ee3 3f00 beae bd98 3f19 3f29 bf50 bee9
beb6 bee6 be92 bf13 3eaa c09e be28 bea8
3ec0 beb9 3e92 3d96 bf08 3dd5 3e97 bee6
bf13 3d46 be05 3e6c 3dcb 3f11 3d51 3db3
be7a 3f9f be6d bf18 3b80 3f16 be18 3f02
3f14 3eb4 bf22 bb00 bf7e 3f0b 3f14 3eb5
3dfe 3d22 bebe be9b 3a40 be45 3d02 3ece
be54 3db0 bcb6 3c30 be0d 3f33 bd40 bf30
3f16 bb00 bd23 3cc0 3fa2 bce0 3f03 3c90
3dde 3e3a bea4 3db8 bf1c be01 3ed4 3d97
3aa0 be3b bd7c bd70 bf47 3f32 3efe be78
3c90 3e80 3f10 3e78 3e47 3f70 3f1e 3e1f
3dd8 bd26 bf2c 3e34 3d1c bd40 3dbb 3f5c
3f1c 3e6c 3e58 3d60 be0a bd9b 3ea7 3e59
3f5e bed8 be8a 3e26 3e24 3ed0 bee2 3daa
bd6c be4c 3ea2 bd15 3ddf becd bde1 3f20
be97 3da1 bc8c 3ed4 3ec3 3e22 3eac bf64
3e71 bea2 bf06 3d83 be2e be12 be0a 3cb0
bf2c bda0 3c65 be1e 3f2e 3eb1 3f09 bd86
3e96 bf30 3edf be9e 3eb5 3e90 bece 3ed7
3eda bec4 3f48 3d48 be56 bf26 bea4 3e29
3e56 3ec6 3e28 3f2f 3ea6 c024 3e0f be77
3efa 400a 3f26 be2d be84 3e8e 3ecb bed6
3db1 3e08 3d8a 3d60 3e70 3e28 beb3 3ec8
3eac be2a be24 bf55 3e9c 3f62 3eeb 3ed2
bf07 3c50 bed3 be2f bea8 3d84 3d70 bdc8
beaa 3f18 bbc0 bee8 3e02 3cce 3d3e 3e6d
3df3 bef7 3e19 3e1d bf6f be90 3f4a 3ca8
be9a 3d5a 3d4c bce8 be8f bd56 3dc8 3d86
be3c 3e17 be70 3efa be29 3c98 bcb4 bf35
be6b bd18 3f25 be1a bd84 beaa bf66 be9e
3f62 3e1a bf29 bf02 bedb 3ec7 bf2d 3ea2
3d98 3e97 3f5d be9c be27 3f1e bdfc be24
3f5c be94 3d70 3f20 3d56 3e1c be70 3eca
bda0 bec8 bd98 3ec6 3e56 be00 3c24 3eb0
befd bf06 3e48 be70 bdf6 3dc6 bfbf bed8
3eb6 bdc5 3d33 3d75 3eae 3d63 bf00 bd22
3c40 3dec bed6 3e41 3ec2 3e9f bdac bd31
bf11 3d7a 3e1c bee3 3ea9 bf62 bf3e beed
3d04 bf0d beaa 3e7a 3e8a 3c88 be7e 3e24
3f2c 3edb be43 3f08 3b90 3e87 bf2b 3df1
beff 3dfa 3e78 3e46 3ed9 3d67 3f01 3f7c
bede be9e bd20 3e97 bdbe 3e2e 3eac bf4c
bf2d be78 3ea4 3dd4 bdc0 bf2e be0b bd36
bef9 bdd6 3d8f 3cc0 bc60 beac beb5 bdb0
3f1c bcc0 3f8b bea1 3d1c bed1 beb9 be74
3efb 3e44 3ec3 bdbc bf15 bdae 3f21 3ee4
be94 3da4 3dac bee4 3f19 3e26 3c82 be44
3e05 3ea7 3f51 3da0 3e13 3e20 3c30 3f36
3f1c 3ec0 beb1 3ec7 3ea4 be9d 3e3c bd64
3e24 bf28 bdce bf25 3e5a be36 bed8 bea8
3efd bf70 be96 be58 bd05 3f0a 3ea2 bef5
be7a be5c be88 bf1c 3d25 be75 3d9a 3e20
bf79 bec8 3ea4 3e12 3eef bd92 be91 3edd
3db5 3d83 be2f bf58 be31 bdae be42 3e52
be84 bf27 be3b 3e09 3ef7 3ea8 bc80 bdf6
3f2d be92 beda 3eae bf3d 3efe 3ea7 3eb1
bcd6 3f0c 3e48 3f32 3eb4 3e80 3e54 beac
be7f be26 bc30 3cd8 bf16 be2c beb3 bedc
beea bf10 beca 3e9a bf60 3fa4 3ebf bf29
3e13 be8b 3e5f 3bf0 3e46 3ee1 3b80 beec
be75 3e34 bf37 3ed0 3f2c 3ed0 3e6c be52
3e83 3efd 3e9f be8e 3dcf bdd8 3e41 be92
bf23 bdce be94 3ee4 3e89 be86 be68 bdc8
bd90 bf20 bd8d be7b bda6 be8c bf0e be76
3bc0 3f33 3ebd be87 bf94 3dc1 3d9e bf97
3cf4 bd60 3e04 be87 3f89 3eb7 bef4 3d9d
bdce bd90 3e8f be2e beb8 bc0c bf25 bd74
3e11 beae bdef bf4c bee3 bea4 3c44 3d8a
bf3c be1c be0c be9d 3df5 be31 bec8 3ebc
be07 be9c 3dac bf41 bee9 be8d be6e bdb2
3f03 be9f bec1 3e7e 3f06 3e43 3ed9 3d00
be75 3e22 be4b bd03 bd3a bd8a bf28 bd54
beaa bf30 3f07 be98 bd89 be35 bdb6 beb8
bf03 3d74 be22 bf22 befa 3cec bd8a beda
bee3 3eda 3f63 bf02 bd2e 3c80 3db5 bf13
be7a 3ee9 3ea2 3e8f bce4 beb5 3e84 3f93
3e8b 3ec8 3fad 3eb1 3ed5 be2e be9e be00
bf73 3f81 be42 bd92 be61 bc36 beaa bddd
bf72 bede be2e bc90 3d89 3efe 3dd2 bf28
bd2a bea1 bea8 bdc1 bdca 3fb5 3ef8 bf8b
3e02 3f18 3ca0 bec4 bd10 3eb1 be98 3e10
bd3e 3ea3 be39 3e93 be9f bdec 3e0c bece
bf0b 3e57 3ecd bd20 bdef be14 bf3d 3dc8
3ee1 bdad be9e befb 3f0b bf2e 3e8a bf00
3f0a be98 bc28 3fe6 3e31 beea bf10 bb78
be82 bf06 be5e 3faa 3d7e be69 be8a 3e10
3ee8 3c10 bf07 be76 3e69 bca0 bc70 3d32
bd43 3eb6 3f24 bf07 3f72 bf59 bde8 3f34
be3a bef2 be89 be8e bf47 be7a be2a 3feb
be28 3e7e be07 bf29 beec 3d89 bdc1 bd2e
3edb 3f20 be3d 3f6d bebd bd97 bdea be51
3f00 bf1f 3e30 3ba8 bb40 3a80 becd bf33
be34 3fc9 3cfa bf82 beb4 3db8 bfab bcb2
be26 3ec5 bed7 be8b bec5 beee 3e68 3e78
bdcd bf52 3ecd be87 bd43 3ea6 bed0 bf1c
bf0d 3dcc 3dc1 bf4a 3ef0 3ba8 bf50 bfd0
bf06 bf20 be49 be5b 3e62 bec4 beac bdb0
3e5c be89 3f07 bdb7 bf05 be24 bf3f bc64
bebf 3edf 3c8c be6a be99 3eab bef2 bf35
3a80 bf51 bf04 bea7 bb80 3eb4 bf1b 3f0b
3e9f bef1 bef6 beeb be70 bf60 3e9d 3f22
bec4 bf17 bdd6 bf7e 3ef5 3e45 beb5 3e60
bf7a 3e31 3e00 bf1f 3d94 3eb7 be60 bf10
3e1c 3e30 3e4a bd3d 3d58 be1e 3f0d 3e84
be18 3f42 bd23 3fa4 bf4f bd8a bf14 3eae
bf2c beec beca bd92 bd20 be0c 3f00 be95
be20 be84 3e0c be44 3ec0 3f41 bf22 3e42
3d8e bf90 be1a 3f1a 3e52 3d9b bd94 befc
bf0b 3e82 3e7b 3e3c bd8a bf47 bc90 bbc0
3d7c bb10 3fde 3e06 be0e 3ed2 3f0a bd64
bdd8 bcf0 be94 bdb6 be24 be38 be3f 3c08
3e31 bd9c be8f bef6 3dc1 be2e 3e52 be76
bf1e bc48 be96 3e49 3cfc be7c 3eff 3e05
be32 bed2 3e84 beb1 3ddb 3f65 be0e beb5
bf56 3dda 3dc8 3dd0 3e0a bd88 3dfa bed4
be9c be86 3d80 bf37 3cc0 bdc0 3e59 3e08
bb90 bed2 3e54 3cf0 bdee bfa0 3e0e be77
3f46 3ffc 3f76 3bf0 3e8f bb20 be11 bdeb
3de0 bdcc 3d88 3e19 3f1c 3d56 bedc bd58
3c50 3ed7 3eac be5a be18 3df2 bf82 3cc7
bf87 3c72 be80 bf17 bec1 bc20 3ec7 3e58
bf07 3f13 3a80 be31 3e9e beef 3ef2 3ea0
bd99 3f4e bedf 3e97 bf2a bfa8 3e13 bf6f
beca be88 3e28 3ecc bdb5 3e18 bf1b 3e6f
bdb0 bc98 bf47 3fb8 3d13 3e45 3e01 bf9a
be5d be9f bde2 bf14 be87 3dfa 3e88 be88
bba0 bdcc bdf0 3e7e 3d20 3e04 3e2e be9e
3e0c bd91 bde8 be90 bdd5 be96 be16 3ec3
3f14 be6a 3edb 3e44 3de8 bf12 bcb2 be52
3f00 bf12 bea3 3ec2 3c30 3ea8 be93 3e86
bd91 3ee4 bf47 3c04 be5a 3dfa 3ec2 3e39
3f28 bdf3 bc00 bea7 be38 bf38 bd2b be82
bee3 bd1a 3e22 be5b bd9c 3e5f 3fd0 bf1e
be90 3e84 be87 bf02 3e86 bf4a be0f 3e8a
3e26 beab bdff bce6 bf20 bd46 3e36 be32
bdce 3da4 beaa 3ecb 3d36 3e26 beae 3d72
3eca 3c60 3d34 bd44 3ed8 3ee2 3e8d be49
bf4e be89 3ed6 3e8a be5e beb8 3cbe 3ce4
3d80 bdc2 bf04 bd30 be02 3dbc bf95 3dcc
3e5a bdde bee6 3ce2 bed2 bebe bb96 bf2e
bede 3dab bd3a 3e18 be9b bf79 beec 3dd3
3e56 3f13 bf8b 3f64 beb2 bd48 be81 bf10
be10 bc6a 3f0c be49 3f0c 3ee6 3e05 bf46
bed0 be56 3e21 3e5e bf1e bcbc bf5b 3e86
3e37 3dfd be90 be5a 3e2c 3e68 3dce 3ec7
3d9d bf00 be4e bebe 3ecd be3e bef4 bead
3eae bf85 bdfc be57 3e83 3f39 3d04 becc
be5f bebb be1d bf4a 3e38 bd40 bb20 3da3
bf83 beb0 3f01 3e0d bccf beac be8d 3f04
3d86 3ccc be04 bf41 be90 be87 bee7 3e9b
bdc8 bf17 be10 3e4e 3ee3 3dbd 3c5e be3c
3f1c be6e be81 3e6d bf3d bf44 3e58 3eb4
3d5f 3ee4 3df4 3f1f 3d6a 3d14 3f08 beba
becd bd36 3e15 bc16 be86 bdc7 be04 bec1
bf16 bf84 beb3 3e03 bf48 3fd4 3efb be2e
3e8e be78 3eb1 3d12 3eff 3ee7 3db2 bf26
be0a 3e8f bf15 3f1b 3e10 3eb8 3e3c bea7
3f64 3ed2 bd4a be8d bceb be31 3ebe be82
bf3b bda6 bdac 3e91 3ef2 3ea0 be62 3d6e
3e5a bec2 bc5a be84 bcde bf06 bf05 be38
bcc0 3f51 3e9a beb1 bf8e 3ca9 bdfb bfdf
3e2c be3d 3e55 bebf 3f42 3ec6 bf0d be05
3c02 beac 3e28 3e42 bea5 bd19 bf32 3e1b
3e10 be86 3d83 bf54 bef5 bd08 bd88 3e62
bf40 bcfc be57 beae 3db7 bf0d bec8 3f3e
bd45 bec6 3dcd bf08 be52 bd58 bde2 3d4c
3e90 bea0 be46 3df0 3eb7 3e6a 3ee6 bc88
bec9 3e3f be2f 3ecf be74 bed2 bf7b bdf7
be3a bf13 3ea1 bc94 be32 be15 bcf0 bebe
befe be66 bed0 bf0f befa be10 bf09 bed1
bf17 3f01 3f84 bf18 be22 3e9c be5c be57
be90 3e9a 3e42 3e75 3dfe be91 3da7 3fa6
3cb0 3eb6 3f97 3e98 3ea4 be5d bebd be6d
bf64 3da4 be45 3e2b be7f bcdd 3d96 be37
bf7c bef1 bea0 3e08 3e5b 3dfa bd63 bdcf
3de9 be89 be58 3d8d 3e03 3f6f 3f1f bf88
bd9a 3f89 bde3 bec2 beb6 3e9e be95 3e66
be47 3e6a bdec 3e88 bea9 be0f 3dea bea2
be93 bdb5 3ec8 bdbb be27 be2c be99 3ca8
3eca be91 be85 beeb 3ece bf47 3ef0 bf23
3ee1 bea9 3c93 3fe0 3d59 bea6 bf02 bea1
bd13 bf02 be9e 3f97 be72 bea8 be96 be0b
3ef2 3e10 bf16 be3c 3e23 3e5e bccc 3e32
bd8e 3e8c 3f25 bf00 3f86 bf6d be0d 3f52
be34 bedb bed5 be66 bf4d bdf8 bbb0 3fb3
3d18 3d16 be82 bec0 bec4 bdad 3dcc bde2
3ea9 3f16 3df8 3f81 bf0f be80 bc08 3d72
3ebd bf1a 3d9a bd6a be8f bb98 be9a bf4e
3d9e 3fc9 be4d bf0c bebe 3e79 bf9b bcdc
3d5e bdba bea3 be80 bdc9 be2f 3e8f be1a
bdf2 bf11 3e62 3c94 3e10 3eb8 bd7a bf1f
bf38 3e5c 3dbf bf29 3f04 bd09 bf88 bfbb
be9e bf00 be1d be58 3e19 bed8 be37 bdb6
3dcb be45 3f1f bd92 bebc bda9 bf65 bdc7
bc98 3d8a be44 bea1 3b50 3e80 beca bf54
3ed8 bee2 bf1c be66 be85 3eae befc 3edd
3e84 beca be18 be78 bea9 bf1f 3d23 3ebd
bece bf4b bdf1 bf0a 3eb4 3d97 be9b 3e35
bf5d 3e80 3eb0 bef5 3d0c 3e20 be8e be70
3c78 3eae 3ea3 3c40 3e50 bdaa 3efd 3ddf
3dc1 3f20 bd2a 3f77 bef5 bd26 bf20 3e5e
bf47 bf06 bed4 bdcc bda3 bd60 3eb8 be76
bba0 bed1 3d5a bed2 3e3c 3f46 bf00 3ec3
bdf4 bf49 be82 bbe0 3cf4 be40 be0e bf32
bf0e 3ea2 3a80 3eba bd9e bf33 3e08 3ce8
3e60 bdf3 3feb 3e4c beaa 3ea8 3f04 3def
be37 be60 be4e bd12 3e91 be38 3d24 3da8
3f05 be82 bec1 bf21 3f27 be70 bdd8 be85
bf4a be08 be73 3e14 be02 be43 3f46 3e40
be7e be5b 3eac beda 3d86 3f6c 3d92 bee5
bf48 3e5e 3e38 3e0b 3e9e bca8 3c90 bec8
be80 be17 bd24 bf2c bdf1 bd92 3e62 bdba
3bb8 be57 3d9c bdff 3b20 bfa5 bd18 be88
3f18 3ffb 3f5b 3da7 3e14 3d8c be60 3cda
bb18 bdf2 bd89 bebf 3ed8 be44 bf20 be1c
be0c 3e04 3ef8 bddc 3e32 3bc0 bf58 3d40
bf57 3d5a 3e86 bf51 be7c 3d78 3ed2 3e68
bf1b 3f26 bd72 be90 3ea7 bf0a 3ea6 3ebd
3d80 3f1c be9a 3eb9 bec0 bfac 3d30 bf59
be87 be65 bdcc 3f14 3daa 3de4 bf2a 3cbe
bdf2 3b98 bf47 3f86 3e3c bde9 3d9a bf3f
be2e be86 beb8 bf58 be06 3eb3 3f16 bed0
3ce4 be30 be14 3f16 3e30 3e28 3d14 be79
3d95 3c9d be87 bf19 be96 be57 beeb 3f40
3ef4 be2f 3e7a 3eb5 3e61 be98 3ecb bdc1
3e10 beb2 bed2 3ed3 3e40 bce0 bebe 3de1
3e8e 3eae bf47 3e12 be72 be4a 3ef1 3ebe
3f60 be40 be38 bef4 be92 bf43 be37 be88
bf0e be74 3e46 be98 be13 3e4f 3fe2 bf2c
beb4 3e94 be4e bea6 3e78 bed6 3d5c bd8e
3e87 bea2 bd7e be07 bf19 3d96 3b24 be72
bec9 3da9 bedb 3eca bdb9 3cc2 be5d 3d10
3ec8 3e28 be6c be08 3e8a 3ec0 3e72 bdb2
bf4e bed3 3d91 3ec3 be77 bebe 3ed0 3e03
3dca bee2 be96 3de2 bd1c 3da8 bf7d 3e0e
3e96 be68 bf05 3d19 bea4 bee2 be13 bebe
bea9 bcd4 be5a 3ea9 bec3 bf79 beac bba0
bc08 3eed bf8b 3f13 bf21 3e6c be95 bf09
bd8c be2f 3e19 bd89 3e6e 3ec3 3e83 bf26
3d3c bc20 bd0d 3e50 bf20 be02 bf42 3e39
3d51 3d9a be20 be7a 3ea0 3cd8 3e08 3e74
bb38 bee1 3d90 3a00 3ee3 be11 bea6 bedc
3e98 bf8a be61 bdd2 3c83 3f50 be9b bf03
bf0f bee1 bd00 bf44 3df2 3e1a bd7b 3e40
bf94 be91 3e94 3e16 bdf4 beba be42 3ed1
bcb2 3e1d be6c bf22 beba be42 becd 3ed2
bdf8 bf00 bdd9 3e22 3e75 be0a 3d3b be7f
3f0f be86 be99 3e91 bf4e be98 3ecc 3dec
bb80 3ec2 3e48 3ecd 3cbc beec 3f0a 3d14
bee2 3c38 3e1b be7c be42 3c7e be58 bead
bf17 be82 beb8 be26 bf2f 4007 3ee6 3a00
3e64 be42 3f0d 3e62 3f12 bcde 3e4a bf57
bdbe 3e5f bf3c 3f3a 3e84 3ebd 3ee4 be36
3e9c 3eae bd9e bec1 bd16 bda9 3ed7 be32
bef1 bdb5 bdf3 3dcb 3f41 3c96 be12 3e45
3e5c bead bcea bcc8 3d36 bf16 bec6 be45
bc8c 3f5b 3e59 be64 bfa8 3e58 bd24 bfc5
3e31 bde4 3e1a be0c 3fbc 3ece bed4 be3f
3dee bd92 3d53 be46 bea3 be25 bf2a 3dc2
bece be75 3db4 bf68 bf02 bdef 3ea2 3df8
bf35 3cd9 bef1 be77 3e3c bec4 beb0 3f43
bde1 be5b 3df4 bf00 be9b be23 3dc4 3f42
3e73 be51 be72 3d56 3dc6 3e91 3f01 bd70
3d03 3dee bde4 3ec0 bec4 be88 bf74 be38
be02 be9a 3ea3 3e81 bdd5 bcac bb00 be8c
bede bd9c be99 beba bf06 bda7 bed2 bf16
bf45 3f0f 3f85 bf3e bd9c 3e4b be68 bd28
be8e 3ede 3ecb bc22 3e92 bd0e 3e25 3ee4
bd08 3ed4 3f5f 3e4b 3eb6 3be8 be65 be8c
bf38 3eff bdba 3da4 be46 bea3 3dce be93
bf66 bf1d be93 3e85 3de6 3f24 bdc1 3e58
be24 be1c befa 3d4d 3e82 3f23 3e9a bf4f
3e08 3e93 be9c bed6 3d8c 3f49 be92 3d82
be96 3c00 be51 3e6c be7e 3d8e 3e3e bea4
bf1a 3db8 3e86 bdf2 be9a 3e32 bea5 bde7
3ea3 be9b be8e bebd 3f3f bf2c 3e23 beba
3eef be66 3e18 3fe2 bd36 be4b be3a bece
be44 beea beed 3f96 be50 beca bef6 bdf2
3f14 3e35 bf34 be53 3d2a 3e64 3e08 3e9a
be07 3e96 3ed9 bee7 3f82 bf34 3df3 3eef
3e89 bf31 bee2 be70 bf63 be2a 3dfe 3f58
3d60 be0c be8a bea8 bed3 bdc4 3e18 be6a
3e77 3f2f 3dde 3fab bf4b 3c50 bd6e 3dd8
3ebb bf1f 3e1e bdad be90 3d63 3aa9 bf06
3e80 3fd9 beb5 bf02 be32 3eae bf99 3da6
3e1d 3ea6 bf00 bec6 bdc8 bebb 3e72 bef7
be1a bf0e 3e59 bdae bda4 3e80 be0e bf1b
bf54 3e30 3e8a bf37 3ef4 3dc8 bf87 bfae
be10 be97 3e11 be0f 3e18 bee6 be8c bd98
be13 befe 3f13 bdef becc 3d28 bef9 bd80
be6b be4a be29 be63 3d9b 3de8 be58 bf16
3eef bf31 bf1c be17 beba 3cae be93 3e66
3e78 be68 bea2 bd66 bedb bf26 3e48 3e08
bf1f bf26 be60 bed2 3e22 3ddc bec5 3df0
bf5e 3e86 3dcf bee6 3cd0 be2b be73 be8d
3daf 3c40 3e8d bd1e 3ed5 bc62 3ea8 3e12
bd6d 3f11 bdc3 3f22 bf14 be02 bf24 3db8
bf06 bf14 bee4 bd18 bdbc 3deb 3e86 be98
3e7d beba bc48 be92 3e91 3f27 be9e 3eba
be2c bf0a 3dbe be90 3df4 befa bdac bef9
bf0e 3e30 be90 3e22 be25 bf14 3e4f 3e7c
3e42 3d9a 3fbe 3d79 be67 3ee4 3ba8 3dc2
3d8b beba bdbc bbc4 3ede bdeb 3e12 bce8
3d74 3be0 be6c beca 3f2e bdfc 3d99 be54
bf3b be4c 3cc0 3e14 be08 be94 3f12 bf38
bed4 be2e 3e96 be8d 3d4a 3f6e 3d95 be96
bf31 3f02 3e9c 3e8b 3e64 3db1 bcdc beba
bea5 be1f bdeb bf2f bdff be0a 3e21 3e0c
ba80 bea4 bc00 be15 beee bfbc bc4c bed3
3f11 3fde 3f48 3e78 bda0 bd66 be32 be8d
3d8d bd81 bda3 bede 3f0a 3e83 bede be0d
bdb2 3c9c 3f09 bdb4 3ec4 bc8c bf3e 3c92
bf5c 3d44 3deb bf63 be40 be2e 3e53 3ec8
bf33 3f85 be10 bf13 3e45 bef1 3e48 3ebe
3e4f 3f15 be02 3eb2 bf0d bf99 3d50 bf67
be86 bec6 3df6 3f39 be53 be56 bf4b bd57
bdec bd1a bf3a 3f6a 3e82 be1c 3e2a bf09
be9f be89 bf1d bf0d bde0 3ecc 3e7c be9d
bd8a be37 bee5 3ed9 3e22 3d9d bdc7 be9e
3e4d bd27 beca befc 3da2 be82 bf02 3efc
3ec7 be3c 3e49 3eb7 3eeb bec1 3ed4 be8f
3e04 bece beca 3ee3 3e18 3d4f be81 bdf2
be15 3ee6 bf65 3dee be69 3e8e 3f36 3e94
3f00 be42 3e2e bf0c bea1 bf51 be3e beb7
bf1c 3e7f 3e62 beeb bd7e 3ef6 3fc8 beef
bede 3ead bcf4 be94 3db8 be86 bcc8 3dae
3ec2 bebf bf01 bec3 bf6c 3e10 3d8f be6b
bed4 bd7c bee6 3edd be05 3c2c bdc3 3d4d
3f09 3e84 be24 3eb9 3e8e 3ea8 bc20 bd9c
bf5f beab bd1a 3ed3 be8c bead 3e21 3e12
bae0 beb3 be70 3e53 be28 3ea2 bf5a 3e7c
3e42 be97 bf1e 3e89 be9f beb9 3d64 bf68
beda be08 be8a 3f1f beb1 bf5b be38 3e13
3d0a 3ee4 bf82 3f63 bf38 3e48 bea9 bf23
3e24 be3b 3f11 be94 3e3a 3ed7 3e16 bf15
3d58 3cd8 be15 3e08 bf32 be32 bf46 3f43
bb80 be18 bd8e be9b 3e48 bcbc be13 3e86
bd89 bee7 3dc2 be40 3ed6 bde6 bd15 beca
3e8e bf82 3b0c be59 be58 3ece bdd1 bed4
bf64 bec5 be03 bf3c 3dfa be9c be52 3daa
bfad bea0 3e75 3d86 3e45 be7b be1e 3f16
3b20 3e60 be9c bf1f be70 bc96 be94 bd5f
be6d bed6 bd22 3dba 3dec 3d9c bd64 be2b
3f27 be68 bebd 3e63 bf4f 3f04 3ead 3eec
be1a 3e85 3f0c 3f00 bd80 bec2 3fbd 3e01
bee0 bdcc 3e3c be89 be6c 3d9a be9e be94
bf1a beef bea2 3efd bf2f 3f9b 3e2b bee8
3e17 be02 3f08 3bc0 3ea0 3c92 3ed9 bf53
be28 3e12 beb7 3f08 3ece 3dfd 3f20 bed0
3ed6 3e9a bc14 bed6 bda5 bd56 3ea3 bc60
bf34 3da6 be80 3df5 3f33 be58 be44 3e9d
3dc5 be86 3e18 bbe0 3d80 bf29 be8d be92
3d34 3f62 3dac bdb9 bfe1 be06 be2c bfa8
3dee 3ea9 3e36 be72 3f88 3e50 bed5 be3f
3d19 3d50 3e31 bea9 be85 be51 bf2e 3e58
beb3 be62 bb20 bf40 bec2 3d12 3eb5 3ddf
bf26 3c86 bedf be30 3e12 bdf2 be4b 3f4b
bb60 bda8 bda7 bf11 bee6 bdd5 bd5d 3f14
3f3e be66 be89 bd65 3ea5 3edb 3eeb bd9e
be82 3e0e bd9f 3e2c be8f bea5 bf59 bd99
bd24 bebe 3df1 3def be8c bdac 3bd0 be20
bec2 3d8b bea4 bedd becc 3d6c bede bf15
bf41 3ee3 3fbe bf02 bd0a 3d98 be24 be8f
beb4 3ebd 3e9a bde2 3e83 bc70 3dcf 3f71
bdf0 3ed6 3f16 3f05 3ef3 3e98 be22 3db2
bf5c bca8 bdf0 3cb8 be0f bf11 3ec8 bef4
bf58 bf2d bec4 3d90 be24 3f40 3d2c 3da4
bd2a be3d beb1 3c92 bd30 3f43 bc98 bf47
3ecc 3f84 bde9 bf00 3de0 3f72 be83 3dd8
3ebe be1f bea4 3ea6 bdc7 bdd0 3e3e bec2
be85 3dae 3e6d be6c be8d 3df8 be35 bdf4
3efe bed8 bec5 be5b 3f31 bf3c 3c70 bed3
3e3e bda9 3d95 3fde bd14 beef be65 be85
be9a bec1 be99 3f57 be04 bec2 bef0 3dfc
3ecc 3ede bf25 be78 3dd0 3db7 3d6a 3ef6
bd8a 3dd1 3e42 bf01 3f90 bf23 bd47 3e6f
3dc1 bf47 bebc be4e bf7e bdf3 3e91 3faf
bd83 be3e 3d8c beec beb4 be32 3dcc be5e
3e8e 3f05 3d90 3faa bf2c bce4 bd65 bddc
3e21 bf33 3dfa bda2 bd98 bd1f be38 bf21
3e1a 3fe8 bea5 be95 beb9 3e98 bfb1 3dc1
3c7e bea8 bf30 bed2 bd1e be5d 3eb2 beb8
be40 bf7b 3e95 3e40 be0c 3e8a be11 bf26
bf25 3eaa 3e91 bf47 3ef6 3dfa bf60 bfb6
be3c be9a 3e22 bdfc 3e1c beda be51 bc28
be4c bed9 3eee be00 bf16 3d94 bece 3b30
be87 bea0 be12 be7f 3e16 3e70 bee0 bf01
3eee bf6b bec4 bd86 3e38 bd85 be39 3d45
bb90 bea2 bf33 be0f bee7 bf2e bbc8 3e4e
bf16 bf0d be43 bf33 bd56 3dae becb be70
bf3a 3d18 3cc2 bed3 3bb0 bdee be22 be86
3de9 3e00 3ec5 be34 3e6c 3e13 3e20 3efb
bda6 3eb2 3e7b 3f65 bef4 3e22 bf0f 3e5e
bf0c be56 bedc be4a 3ce4 3ce4 3eb2 be88
ba00 be9e 3c8a bec3 3e9a 3ed3 befc 3e9c
bb98 befe bea7 3d5f 3e8f be5a bd95 be76
bec1 3d04 be3f 3cf0 bdf8 beec be3c 3f03
3d1c 3e3d 3f94 3d2e 3cbe 3ecb 3dd7 3e2a
3e44 be99 beb4 be1b 3ee2 bdfe 3bc8 be85
3f88 3e46 bea9 bf26 3dfa be09 3d14 bdbe
bf26 be70 3e04 be0a bbe8 be78 3f18 bf3b
be62 3c68 3d66 be58 3d25 3f66 3d85 bd1a
bf0c 3e53 3e98 3edc 3eb1 3e82 bd0a bf03
bec9 bdc8 be98 bf34 be63 bdd3 3e28 3d70
bd5e be26 3e7a be97 bedc bfc0 3c9c be52
3f09 3fb0 3f34 be48 beec bda8 be10 be66
bdc3 3a90 bdfe be89 3f10 3e91 beb9 be04
bd99 3d18 3eed bc92 bcd8 bdb9 bf38 be52
bf3b 3e22 3ea2 bf45 bd30 3db2 3f0b 3ee2
bf15 3f34 bdab bf16 3ddf bf01 3e6e 3eb1
3ea8 3f20 bea3 3eab bf06 bf9d bdcc bf38
be48 bf02 be42 3f37 be88 be26 bf44 3db8
bcfa 3d91 bf39 3f45 3eba 3e28 3eb2 bf10
beac bdbc bf0c bf4e bd49 3eaf 3e0c be08
3e56 be34 bead 3ef8 bd02 be78 be32 be64
bdee be1e bf15 bee5 3e8e be8a be70 3ed0
3eb7 bdf5 3e87 bd40 3edf bf0a 3e27 be5f
bcfa bf42 bec3 3e77 3d98 bc20 be90 be30
be95 3eae bf67 3d22 bdd8 3ef0 3f25 3e66
3f66 be52 3e12 bf5e beb4 bf61 3d16 be95
bef8 3d14 3e69 be98 be05 3e78 3fbc bf03
be4e 3eba bea6 be8d 3da8 be0c bd8c 3e26
3e84 bee3 bed3 bf00 bf45 bd06 3e7e be49
bec2 3dac bed0 3ed2 bbc0 3d91 bd7c 3e02
3e9c 3ef2 be98 3eba 3ea2 3eb8 bda0 bc74
bf44 beab 3e10 3e11 bed1 bd86 3e76 3e84
bdfd be9b be63 3e7a bcf4 3ee2 bf30 3e9a
3ebf be81 bf07 3ea8 be0a beaa 3cbc bf72
becc be17 be66 3ef2 be15 bf41 be83 bd30
bd36 3ec4 bf88 3ed1 bf13 3d46 be98 bf3a
3ebe bedb 3f02 bedd 3e14 3eae 3e37 bebe
be11 3d00 be4b 3f0b bee2 be2e bf4c 3f47
bd9b be31 be85 be4b 3d4a bd68 bc10 3e8f
3e2c bea6 be2f bd40 3ed3 be5a bdea bdd6
3eb9 bf77 3e00 be47 beef 3f19 bd8b be30
bf4a be05 bda0 bf21 3e81 bdd0 bdea 3db9
bfac be61 bce1 be79 3ed1 bd66 bcc8 3f16
3e30 3e13 beed bf24 bf00 3e1f be80 bd0f
bda6 bee6 be14 3d78 bdda bd38 3d87 be9b
3f1c be30 be92 3d9f bf4c 3e44 3e67 3ec0
3e45 3ea6 3f2f 3db0 bd46 bbd8 3f50 bdd8
be9c 3dd2 3e10 be23 be58 bd22 bed0 becd
bef0 be81 be9b 3e6b bf17 3f8c 3dd9 bec2
3d2b be0e 3eef bde0 3ebf 3ea7 3f02 bf4a
be79 3e18 bf00 3f05 3e4c be3c 3e90 bf22
3e4a 3ef1 3d9f bef0 3bd4 bd0b 3eca be50
bf08 be2e bef2 bc8c 3f2d 3dd2 3c22 3f02
3ec9 be67 3dae 3d44 bdfc bf1d 3cb4 3cb0
3e4a 3f7a 3e32 3d81 bf97 be99 3d60 bfc4
3e56 bd51 3ec9 bedb 3f5e 3ed6 bef0 be90
3e15 ba00 3e26 bd12 be5b be6a bf36 3ed6
3d0a be47 bdc9 bf36 be3a bdde 3e4b 3e15
bf82 3a90 bf0d bee1 3d2a be4c be8a 3f5a
bda3 bb10 3e10 bee3 bebf 3dcf 3de8 3ebb
3db0 bebf be6a 3dc9 3ec1 3e86 3e97 bd24
bee3 3ca0 bdda 3ed2 be83 bedf bf13 3cc4
bd1e be15 3d8d bc10 be67 be8a bd38 be08
be9b 3e80 bed1 bec5 bef6 3dab bf00 bf0d
bf17 3ede 3f98 be67 3e47 3de8 bebc bd87
bec4 3d5a 3ed5 3ba8 3f08 bebc 3e00 3fd8
be86 3eba 3f9e 3eea 3ef8 3e41 be4a bec9
bf60 3d18 beb4 3f08 be81 bee9 3e20 be9d
bf16 bf24 be4d bdb0 be5c 3efa 3d5e 3e33
3d42 be93 be4c be60 bdbe 3f14 bde0 bf5c
3ef1 3ecc be80 bf05 bd81 3f45 be15 3ece
3e9e be0c 3ce8 3d8a be5b 3dd7 3e9b be02
bdb5 be44 3e0c be0c becc bdd1 bea7 bdd2
3f26 beba bf0e bdbe 3ef9 bf42 3db3 befb
3d4c bd99 3d24 3fe9 3d76 bee6 be43 beaa
be36 bed3 bd7c 3ef6 be40 bef0 beee 3f1c
3f86 3ef2 beeb be94 bcfc 3e28 3e12 3ede
be18 bc92 3eb1 befa 3f8b bf4c be7b 3e63
3e0c beea be9e beb3 bf5e bd80 3e76 3f0e
3d7b beca be93 bec8 beab be1a 3e76 be3a
3e09 3e7e bdc4 3f94 bf31 be58 3e44 3ee1
3e58 bf40 3d6d be7a bede 3e07 beb6 bf2d
3e99 4003 bf01 bdc0 bee6 3ed3 bf8c 3d35
3d95 bdf2 bef4 bf0a be79 3e07 3f09 bdbc
bdff bf4a 3eae 3da4 bd1b bcd0 be87 bf10
bf1f 3e90 3e6a bf17 3edd 3d0a bf5b bfb1
be3a be23 bdf3 bb20 3e78 bec1 be77 3de8
3c28 bea5 3e6c bde4 bf16 3d98 becc be1f
be8c be28 bdf0 be54 bd05 3ed2 be8c bf1e
3f2d bf12 bebe be4c 3e69 3d2f be41 3c40
3ea8 be47 bf41 beac bf0c bf06 bdf4 3dc2
bf53 bf37 bcb8 bf7f 3dec 3ca5 bea2 be63
bf1f 3d28 bd24 bede bc0c beda bec4 bee1
3d58 3e8b 3ee4 be8e 3edd be4e 3e9c 3e02
3e58 3e8c 3e79 3fa2 bece 3db4 bf0a 3ed0
bf07 be6b be0e be1d bde0 3e54 3ea4 be53
be8c bec8 be17 bdeb 3e68 bd04 bef3 3eb8
3d89 beff bf2d 3c1c 3e5b bea9 bdf6 bef0
befd 3d8c beeb be0b 3e2e beda 3c94 3edd
0000 3de2 3f88 3de7 3d87 3e03 3f06 3e94
3e99 be48 bece be46 3ecb bd90 3e75 be47
3f81 3eea bf05 bf38 3ed6 be83 3e08 bec2
bef7 be92 3e55 bd60 be23 be08 3f08 bf09
bef3 bd98 3e33 be56 3dc7 3f6e 3e27 bddd
bee2 3f05 3e81 3ed2 3f0e 3e23 3da2 bec6
bec3 bdbc be7f bf41 be8c be46 3dc0 bdf0
3d20 3d28 3e14 be96 be7c bfb9 bd9e be6a
3f03 3fb8 3f46 be18 be54 3d9d bd9c beaa
be2d 3c50 bcfb be74 3eb0 3e96 bec4 be0d
3ccc 3d15 3ee5 be00 3da0 bddf bef7 be92
bf5e 3ddc 3ed9 bf48 bcb8 3ea4 3eca 3f18
bf04 3fa7 bde0 bee0 3e9a bf52 3d88 3f04
3eb0 3ec9 be83 3e6d bea9 bf72 3d9e bf4e
be65 bef5 bd67 3f44 be44 bce0 bf3c be10
bd23 bdb3 bf55 3f4e 3ef7 3e26 3dec bf52
beb4 bd16 bf11 bf36 3dfc 3eae 3ee2 3c30
3eb1 be29 be80 3ea9 be5c be92 be2c be5a
be27 be8e bf02 be91 3e2c be9c beda 3d93
3efe bef3 bdb2 3d14 3eba bf04 3dfd be72
be8c bf3c be64 3e1c bdbc 3e7c be38 bdf2
bd39 3e42 bf78 3dac bd84 3ea3 3eec 3cc0
3f47 bd83 3e1e bf44 be3f bf4f bcfe bece
bf11 3e38 3e63 be52 be67 3ea0 3fce bf53
be64 3d81 bebc be23 3e36 bdbc bd9e bd10
3e89 bee2 beaf be8f bf18 be2d 3cd0 be99
bec6 3e21 bee1 3efe bdc8 3dd2 bde8 bc3c
3f09 3e40 bec6 3ec2 3e82 3eae be10 bde2
bf22 be9e beb6 3e78 bdbb bd8c 3e2d 3e29
beb7 be83 be57 3dfe bd5e 3ec1 bf3e 3dc5
3d93 be50 bf28 3e7a be89 beb4 3dc1 bf32
bf03 be2e be67 3ef9 be64 bf21 be87 3e98
3db0 3eba bf85 3d82 bef8 3e50 be80 bf0b
3f21 bec4 3e55 bf2d 3e86 3e66 3dc0 bf12
be3f 3e8f be84 3ed5 bf35 be64 bf35 3f0f
bda1 be1e 3de4 bdf3 bcec 3e1c be88 3eaf
3d86 be04 3dd6 be70 3ede bec8 bd56 3cb0
3e92 bf7a 3e40 3d29 bee0 3e90 bdab 3c70
bea4 3c8e be1c beff 3dc5 bd88 be04 bdb6
bfa6 be7d bd68 be8c 3f26 3cb7 bd2a 3f3a
bdd2 3dc4 bf07 bf07 bf0f 3ee7 becf bda2
bb40 bf00 bdd4 3e4e bd89 3dee 3d56 be90
3f19 bd95 bed1 3e2a bf58 3f58 3e87 bc90
3dac 3ed7 3f22 3e3b bd9c 3e64 3e68 be5a
bea8 3cb4 bc8f 3d00 be78 3d4c bec8 bea5
bece 3d95 bef0 bc90 bf5a 3fa2 3ea3 beca
3d8a bdbd 3e99 bdaa 3f12 3ed2 3df5 bf2d
bef5 3e56 bf09 3ed9 3ea4 be5a 3eee be9b
3e72 3f1d 3e16 bf41 3d6f be28 3e50 bec9
bea5 be89 bf09 bc28 3f22 be37 be4d 3ef2
3e95 be6f 3d58 3e6d be3f bf0e bdb9 be0e
3e61 3f70 3e81 bdfa bfaa 3df1 bce4 bfbb
3d10 be39 3efd be32 3fad 3f0f bee4 be2d
bc4a 3e8a 3de9 be4c beb8 beaa bf2c 3ea0
bb48 be82 be12 bee6 bea9 be0c 3e7a 3e1e
bf10 bdcf bed4 beee 3df5 be1c be78 3f2b
be2a 3d1c 3e84 bf0d be9f 3cb1 bdb6 3f01
3da6 bea2 be6a 3cd0 3eb1 3e43 3e3c bd86
be60 3d9d bd20 3d14 bdc3 bea1 bebe be58
be08 bed0 3d46 be42 be98 beda be71 be2f
bf03 3e97 be20 bef2 bf08 3d5e bdc5 bf06
bf13 3e7f 3fa6 be3a 3e45 bc20 bc38 be78
bea5 3e14 3eab bc60 3ebc bedd 3ed9 3faf
be8a 3eac 3fa7 3e3b 3ee4 3e24 be36 bf1a
bf7c 3f6a bee2 3ecd be14 be81 be0c be9e
bf22 beeb bddb 3d8e be10 3ed5 3e17 bdaf
be29 be95 beac bdc1 be8c 3f84 3c50 bf77
3f36 be5c bc94 bf0c 3d00 3f48 bdfa 3ef1
3d5c 3e48 3dec bd18 bea8 3e18 3ecb be13
bf04 bde6 3a20 be0b bd9f be68 bf4f 3df8
3f0e be48 bf38 bd3d 3f1e bf4e 3db7 bede
3f0e bdcd 3dac 3ff6 bce3 bec5 bea2 3d52
be82 beb0 3d89 3f82 bc80 be39 beb2 3ea8
3fa1 3ebe becc bea2 bddc bdd8 3e13 3edc
3d06 3db6 3efa bec6 3f83 bf2a bc6c be53
be06 bf0f bdc6 bc82 bf5e be86 3e0c 3f7b
be3c be04 be92 bf49 bedd be03 3ac0 be35
bc8f 3d51 bd9b 3f98 bf29 be05 3de4 3e1f
3e65 bf4d 3e16 be9c be58 3de4 be26 bf11
3e68 3fd3 bea7 bec0 bec1 3e8b bf9b 3c38
3cae 3e1e bf24 bf1d beae beb5 3ed1 3d73
bb58 beda 3ea9 bebc bd86 3d58 beeb bee9
bf04 3d4a 3ec0 bf53 3e5f 3dad bf4a bfbd
bdfe bd90 bcac 3d14 3e28 bee6 bede 3e8d
ba80 be92 3eb3 bde5 bf29 bd9c be7a be1c
bf12 3df2 bd83 beb9 bd1a 3ee5 bee6 bf1e
3eb8 bf1d be90 bf08 3e61 3de4 bea6 3d40
3d0c bf0d beda bee4 bee5 bf2a bd88 3e5f
bf1c bf3a bdf5 bf78 3e91 bddc be86 3e1e
bf31 3e8a 3df6 bf0a bd12 beac bee8 bebc
3e4e 3e95 3eb3 beba 3e42 bccf 3e82 3e86
be1d 3e81 3e48 3fbc bebf 3e1a bf0c 3f09
bf25 be76 be86 bdf1 bde8 3e99 3e98 be74
be74 becf bed7 bda9 3eb5 3e62 bf09 3e6e
3dec bee7 be93 3e66 3ee9 bd10 be1a bed5
bf27 bdc1 3c80 bd98 3d96 bf18 3e05 3e86
be2a 3e76 3f96 3e3c 3da8 3d8c 3efe 3e55
3ecf bde5 beec 3d0a 3e37 bd98 3da9 bcd0
be23 3ead bee4 bed9 3e74 be63 3e26 be8e
bef8 be62 3d44 bc28 be16 be1c bd88 bf16
be5b 3d42 3e96 bc50 3cd8 3f87 3e42 be84
bed9 3eef 3e1a 3e99 3eba 3e85 bdb6 beac
becb bd28 bca4 bf15 be8c beae 3e45 3e64
3e00 bd2c 3d70 be69 be4a bfc6 bd6b bec6
3ed8 3f4a 3f43 3e13 be0e be22 be90 be2b
be79 3dd0 3d9a be0c 3ea2 3e0e beca be74
3e2f bdd2 3eaa be4b bdcc bd1c bf03 bea5
bf65 bdd0 3e3a bf3a bded bcd6 3ec6 3f2d
be55 3f92 3ca8 bed4 3e65 bf58 3e08 3e4e
3e5b 3ef7 be9a 3e0b bf1c bf58 3d18 bf87
be96 bf04 3e93 3ee4 be6a 3d8c bf27 3d59
3cbc 3d1c bf3c 3f4e 3ece 3e6a 3e04 bf39
bede bdce bee6 be50 be4c 3e86 3e5e 3da1
3dfa be43 be9c 3ef0 3e52 bec3 bdbe be8d
bcf4 be15 bf0e be36 3e36 be72 bf05 3ead
3ecc bea2 bdfb bd42 3ef7 bf24 3e3c bf16
be08 bec7 beb5 be0d bd08 3ef5 be2d be34
3da2 bd80 bf8e 3c3c bdaa 3ea2 3f27 3e0b
3f1e 3ca4 3e40 bf2a be36 bf38 3d68 bed6
bf1b 3e40 3e96 be02 bead 3ea1 3fd8 bf60
be8f 3e47 beb0 bde9 bd22 be8f be0d 3e3b
3ea2 beba be2e bed1 bee3 3d84 3b10 be88
beb5 3e2a be8a 3f18 3cf0 3d31 bdd0 bca4
3f25 3e5c bedc 3ead 3e6b 3ea4 beaa be64
bf02 be7e be3b 3eac be9b bd00 3d42 bb00
bda4 be0e bef6 3e1b be67 3ec2 bf18 3dc5
3dbe be22 bf36 3e41 beb4 bece bca4 bf2f
bf24 3dd0 bda6 3ed2 bdd2 bf10 bf1f 3e5b
3e43 3eb0 bf90 3f2a beeb 3e55 be8b bf08
3f19 beeb 3eca be9e 3ee4 3e4f 3db4 bf1d
bd84 bda3 beb0 3e9b bf40 3ca8 bf74 3ef1
3e8a be6a 3dcd be86 be11 3e46 be87 3e8d
bd12 be81 bd66 bef9 3f01 bef2 bd78 3df6
3de9 bf82 3e8c 3dc1 bd40 3ebc bc76 be19
bea2 bb10 be2e bee9 3ef2 be08 bd59 be14
bf9e be26 3ea2 be18 3ecb 3db9 bdb1 3edc
bd58 bd8c bf0f bed4 bf00 3ec6 befc be46
bd1d bf29 be34 3e90 3e16 3da1 3dc6 beb8
3f06 3d85 be98 3e6d bf6b bc60 3e1c 3ca8
3dba 3ee1 3f2d 3ea3 be8b 3e26 3f8b bec6
bea9 bcdc 3d2e 3e19 bdb4 3c80 bead be45
beb0 bf64 bef8 3eba bf83 3faf 3ef4 bee6
3e46 be6c 3e15 3c68 3f4b 3ed6 3e5e bf12
bebc 3d15 be94 3edf 3e00 be2a 3ede be60
3f4a 3f0b 3df0 bf57 bcdf bdd6 3e59 be5e
beda be0c beda be20 3f1d 3e47 beaa 3ea7
3ed8 bde4 3d8e 3e1b be30 bf13 3c70 bea2
3df4 3f71 3ec4 bdfa bfa7 3e5f 3cd8 bfeb
3d51 bd9f 3f15 be80 3f77 3e91 beba be6c
3d9a bdae 3e11 3ed9 bebb be97 bf3e 3ef0
3db6 bea4 bd08 bea1 beab 3e02 3e5e 3eef
bef2 bc44 bef1 bed4 3e93 be8a be9d 3f51
be0e 3de8 3d9f bf0c be1e 3e2a bdf6 3eb8
3e60 beb4 be78 3d6b 3eb5 3eba 3e56 bda4
bf30 3e50 3e36 3e03 be3c bebb bf1c be78
bd99 bf1a bde0 be38 bec7 bf09 be7d be89
bedd 3e20 beb1 bede beeb bd86 be78 be9d
befe 3e5a 3f98 be80 bb70 3df2 bdee be16
be94 bd40 3d21 3dcd 3eac bec3 3e88 3fb7
be8b 3ed8 3f33 3e52 3ee1 3cc8 be16 be92
bf33 3ebf beb6 3e91 be57 be97 3dc2 be91
bf30 beb7 be10 3e52 3de6 3c8e 3dad 3b10
3ce4 beb1 be3d 3e62 be47 3f95 3e24 bf97
3ef8 3f66 3d60 bf1e be94 3f14 be2b 3f1e
3df7 3ea4 bcb4 bdc2 be8c 3e2c 3ee4 bdce
bd94 be8c bd56 be1d 3de0 bec2 bf12 3dea
3eff be7e bf38 3d4d 3e90 bf4e 3efa bf41
3f20 be6a 3d1e 3fee bd8a be86 bf02 bda4
bda6 be2a be12 3f73 bdc6 be6a be0b 3d80
3f81 3eb0 bf30 be30 be49 bd96 3d10 3ee8
ba40 3c00 3f24 bf1b 3f81 bf4e 3e89 3db4
becd beeb be18 3dd3 bf45 be04 3e60 3fa7
be18 bdfe beb8 bf03 bed1 bd83 bcd0 be26
bdd8 3e27 3e2f 3f9d bf2c be3e 3e5a 3dd8
3e20 bf42 bcc0 be83 3c84 3d94 be74 bf1a
3ed4 3fd4 be70 bead bedb 3ec5 bf9f be20
3de2 bec2 bf23 bf02 bdee be09 3efc be36
3de2 be8b 3c82 bdc4 3d4e bc18 bdcf be88
bf04 3c70 3e34 bf1d 3ea8 3e9f bf3d bfce
3d08 3c80 bc44 bc80 3e60 bec8 bead 3ea0
be46 be00 3e9c bd2e bf0e 3d36 bf10 be44
bed4 be0f be2a bec1 be36 3eb8 bf1f bf25
3eb8 bf07 bee0 beaa 3e23 3d3a bea8 3e2e
be25 bf22 be0a be8c beee bf43 bea2 3e22
bed7 bf2e be1a bf17 3e13 bec3 be47 bdf2
bf09 3e69 3f13 befe be47 bce8 beb0 be50
3d35 3f06 3ed5 bed6 bdcc bd9f 3ec5 3e72
bd21 3e1f 3e9e 3fb3 be64 3dbe bee4 3e78
bf41 bed8 be9b bdde be87 3e23 3e94 be8b
be84 bf03 be56 be92 3a80 3f1b bedb 3e84
3e82 bea4 be9d bdba 3ea3 3d88 bdb6 bf2d
bf2b 3e1a 3e3e 3e0e 3c10 bec4 3e2e 3e8a
bebe 3e63 3f9c 3e99 bb8e 3d87 3f30 3df5
3e99 be2d beb5 bde1 3e98 bd38 3ceb 3e49
3f00 3e3a bedd bf5b 3e79 bf07 be8d be97
bf4f be67 bdba bd98 bdf2 bdca 3e97 beb9
bd81 3dd2 3e30 bdf8 3b60 3f82 3ef2 be9e
bead 3e76 3e0d 3e57 3ed2 3e8c bd99 bec7
bee3 bd40 be1e bf31 bdf4 bee9 3e92 3dab
3e86 be1b 3dd0 be68 ba80 bfc6 bdd5 be7c
3ea6 3eab 3f2e 3e0c beb4 bd38 be9e 3e9e
bdd9 bba0 3dd5 be95 bd9a be4d bf16 beb2
3e80 be22 3ed4 be44 be90 bbb0 bf0c bec3
bf50 be54 3e9b bf21 be0d 3c90 3eba 3efb
bde4 3f39 bd8a bee7 3eae bf7a bd9f 3e9b
3ec0 3eb3 bece 3ea0 bf0d bf6a bd80 bf8a
bea3 beff bda8 3ec6 be3e 3e82 bec8 bd2a
bcb0 3d9e bf78 3f2a 3efc 3e82 3c00 bed2
be78 be0b bf1b bf2a be20 3ea5 3e92 be52
bda4 be9c be96 3f23 3edf bf01 be42 be3c
bd16 beb8 bf0c be9a be09 bdf6 beb4 3f22
3e19 bdac bdf9 3dbe 3ee6 bf0b 3e88 bf29
bd39 be85 be9e be58 bda4 3a80 be46 bc80
3f20 bcfd bf95 3e35 bd79 3d7a 3f00 3ece
3f80 bd6c 3db6 bf3d be5f bf47 3dd9 bef2
bf08 be8a 3e9d bd9f bedc 3d1c 3fe7 bf7f
bec8 3ed0 bebb bc98 bde1 be5a be36 bc10
3e76 beb0 3d87 bf07 be91 3d27 3de1 bed9
bee5 3ecc be28 3f3d 3c94 3e31 bd6e 3cee
3eec 3f1a bf1b 3d50 3e82 3ee7 be7b be88
bef4 be86 bd94 3e7c bed2 bdfa 3e59 bdc2
3e20 becb beaa 3d8e be51 3e9f bf23 3e2a
3e0c be60 bf29 3d5c be87 bf03 be06 be67
bf2d 3d07 bc00 3f08 be3c befd bf23 3db4
3df8 3e19 bfa6 3f5f bf1c 3e86 be72 bef2
3ec7 bf1a 3d90 bc88 3e7d bcb0 3ba0 bf01
3dea bdb6 beac 3edf bf23 3db1 bf5c 3ded
3e92 bd19 bbc0 beb0 bdf0 3de4 be8a 3de1
3dd8 bebc 3d3e be4c 3eb9 bee2 be7e 3e86
3b90 bf9d 3eab 3e4b be31 3f69 3cca bd99
bee5 be50 bcae bf00 3ea0 3d62 3e3b bc90
bfc1 bdfe 3ed2 be12 3c30 3eae 3cd4 3eae
bd1a be34 bef7 bef8 bf09 3ed4 becc 3dd8
be10 bf01 be27 3e88 3e81 3d8f 3e06 beaa
3f09 3da0 be23 3e49 bf74 bf45 3ee4 bdc8
3e5c 3f04 3f14 3e06 be2a be09 3f80 bea5
bec4 3c84 be2a bccc 3d78 bc70 bedc be8a
be6c beb0 bf00 bc98 bf58 4008 3ed8 bd95
3e61 bec7 3e8e 3de6 3f55 3e0d 3e3e bedf
be0e bd1e bf13 3f12 3d18 bd6e 3ea7 be00
3e96 3f05 3d89 bf52 3be4 be04 3ea9 be04
be88 bd76 bec0 be7f 3f4b 3e7d be86 3efd
3ea6 bce2 bd0e 3b60 be34 bf03 3dc0 bdef
3e2c 3f78 3e9e 3c48 bf75 3e24 3e46 bfd2
3b20 be3e 3f2a bd35 3fce 3eac be65 bdbc
3e6e be88 bdab 3f4a be8d beca bf00 3f00
be60 be9b 3d86 bf20 bee1 bdfc 3e52 3f05
bf0d bc0d bf22 bed9 3e7e be4e be82 3f48
bdad bcfd 3e6f bf03 bdd8 bd07 bcd0 3f2b
bd20 be81 bea8 3e6d 3e79 3ec5 3e5f bdc8
be66 3da2 3ed5 3e86 be41 beeb bf19 be84
be03 beca bd64 3bc0 be88 bf04 be6e be3b
becc 3e33 bec2 be88 befa 3c78 beea be98
bf2a 3eba 3f26 be9c 3df6 3df2 be8e 3e94
bea5 bd0c bb20 3e00 3eca be98 3ea4 3f3b
be62 3ea9 3f06 3e36 3d99 3d8f be7a bebd
befb 3f6c be2e 3dbe be94 bec7 3e34 be8f
befa bec8 be18 3e86 3e06 3e18 bdb9 3e76
be62 bdff be80 3e01 bda2 3f5e 3e8e bf6e
3eb0 3f05 be95 bee0 bd58 3f31 bea7 3f27
be0a 3e45 3e1c bdc0 be1d 3e63 3ea0 3c88
3dc1 bd8e bca7 bde4 bdf4 becd bf12 bd9c
3e9c bea9 bf0f bc82 3e8a bf1e 3f1d bf3b
3e97 be78 3de5 3fd0 bd06 bc20 be92 bea2
be7e bdd7 be55 3f40 bdfe bea1 be13 3dac
3f63 3e6e bf3d be20 be81 be43 3e45 3eda
bd1f bde0 3f20 bee5 3f85 bf3f 3edd 3dec
3d90 bed5 be2c bdc8 bf28 be1f 3ee9 3f3c
be32 be97 bef9 be23 befa bdb7 bcb8 bdbc
be24 3e73 bd16 3fc2 bf3e bde9 3e81 3e99
3ebb bf2a bda0 be84 beb4 3d98 3e02 bebb
3f1a 3fc8 be64 bebe bea2 3ee6 bf8c bdd6
3e95 3e8b bf1b bf1e bdd8 be4a 3ef4 be42
3da5 3dc8 bde8 bd48 bdd0 be2a bd43 bebd
beea bdc4 3e66 bf0b 3ea1 3ecf bf58 bfae
3ded 3e82 bdf5 bdae 3e87 be92 bedb 3e82
be9a be73 3ee2 bddc befc 3ea7 beaa be8e
bf2e bea7 be29 be91 be4e 3e10 bebb bf14
3ebb bf3d bf41 befc be2b be80 bead 3cec
3dbc bede be32 bea2 bedd bf30 bec2 be75
bf33 bf30 3d6e bea4 3da4 be27 bda5 3c8d
bf11 3d4a 3eb7 be95 be73 be2a be88 bee9
3d80 3e5a 3e48 bf05 3e3e be19 3ea3 bdea
bdca 3e86 bdd9 3f7b be9c be24 bf01 bd7b
bf20 bf4d be9c bd89 beae 3e8a 3e92 bec1
be38 bef2 3c38 be97 3dcc 3f13 bef9 3eb8
3e44 be94 bd68 beaf 3ecc be98 be20 bf5b
bf20 3cab bc00 3e5f 3e62 be12 3e52 3dff
be58 bd84 3fbd 3e50 3e31 3e36 3ee5 3dbf
3e89 beb9 be39 bdbe 3ed6 bdf6 3e6f 3e46
3e4d 3e51 bef8 bf30 3f3a bed1 be8b bec7
bf3a be98 bd20 3e9c be08 bdf0 3eb2 bf74
bed4 bda8 3e4e bdc3 3dec 3f7e 3ee5 bec8
be20 3ee2 3da4 3e1f 3ebd 3ea9 be32 bed7
bed8 bde8 bee8 bf40 be04 bf10 3e68 3df9
3eb3 bd8c bdf0 bde5 be3c bfc7 bc08 bed6
3ecc 3f60 3edb 3dcd befc 3ce0 be9d 3dee
3d00 3d17 3e21 bee4 be27 3dc0 bf0a beaa
3e56 be3b 3f22 be24 3d96 bd44 bee6 beda
bf42 be84 3dad bed0 bb20 be6a 3e80 3ee3
bc58 3f9e be82 bf18 3f04 bf7c 3c10 3eba
3ed9 3de6 be3a 3e94 bf26 bf4d bd86 bf89
bead bed2 3e17 3f2c be0f 3ccd bee1 be5f
be5a 3bd8 bf8e 3f56 3f0c 3e63 bd70 be5c
be97 be56 bf58 bf0a bde4 3f05 3e94 be76
be0c be46 beed 3ec1 3deb be9c beb9 be70
bbb0 bef8 bf0c be8a bda0 bb00 bef6 3e6b
3d6c bdba be57 3eb9 3ed8 bedc 3ea9 bf39
bd2c bd54 befe 3e11 be86 3e76 bd9c bd66
3ef1 3e38 bf80 3e32 3c4c 3e4a 3f1f 3ea0
3ef4 bde2 3e48 bf3f be8c bf67 be2c beb2
bf45 bdbe 3e90 be41 befc 3df0 3fef bf6e
bef6 3e81 be8a 3e1f be92 bde7 be94 bdaa
3df4 bea5 bd2e beb6 bef1 3dbb 3e26 bf10
bed3 3e7e be8e 3f60 bd90 3e5e be17 bd43
3f35 3ea2 bec2 3ec0 3e03 3e9e be89 bed5
bf11 be92 be1e 3e52 bede bea0 3e53 beb1
3980 be8e be18 3e08 be96 3f00 bf2e 3e8a
be88 bd92 bf2b 3e91 bec1 bee0 3c24 bf0a
bf49 bc88 bdbb 3f04 bec2 bedf bef2 3e8c
3c4c 3da7 bf9a 3f7e bed8 3ead 3b50 bf2b
3e68 becc 3e61 bebb 3e66 bd7e 3dc1 bf04
3cb4 3df8 becb 3ed6 bf72 bd96 bf30 3f0d
3e6c be78 3dd5 bf00 3c7e 3e89 befd bbd8
3e02 bf09 3dc6 beee 3e73 be8d be21 3e79
3d0d bf8c 3e65 3e9b bed4 3f22 3df8 be27
bf1a be6a 3d84 bef2 3ea5 beaf 3e0c be90
bfbf bcc8 3ede be06 3e5d 3eaa 3cb8 3f0c
be48 bdcb bee8 bef4 bea6 3ec9 bf00 bdf3
bea0 bebf be06 3e8a 3ec4 3ee0 3d5e bed0
3f0c 3d5a bcca 3ebb bf76 3d92 3ef8 3e30
bcc3 3f10 3f15 3e8d bd98 be7f 3fcc bd86
bed9 3d30 be0f bd16 bda0 bce2 bf0d be5f
be8e be02 bf27 3f1e bf8c 3fd3 3db1 bee1
be11 bee4 3eb5 3e38 3ed8 bd8d 3eb6 bee2
be3c be0c bf1d 3e99 3d30 be2c 3f0a be50
3de2 3f00 3e42 bf2e bc9a bdf6 3e5c 3df2
bebd 3e2a be84 be74 3f2b be59 beab 3e88
be52 be4c 3dec 3cc2 3d20 bf15 be32 be84
3e91 3f58 3e54 3e01 bfbe 3e38 3e76 bf93
be7c 3e22 3f24 3c2c 3fde 3e40 bd40 3d8d
3e0e be34 3e26 3f28 be88 bec1 bef2 3e4e
be9a be8c bdc3 bf3a bed4 be99 3e33 3ecc
bea3 bcd2 bf02 be40 3eda 3d94 be42 3f42
3df8 3d24 3d5b bf10 beb9 be98 be1d 3f52
3f58 be84 bed1 3ed0 3eab 3f04 3e16 bdf0
be3d 3d52 3f10 be6f 3ac0 bea0 bf0b be93
be38 bf01 3d8f 3d36 beb6 bec5 be86 bd90
bee1 3e8c be28 be81 bec8 bd8e be2a bed4
bf61 3e58 3f5c bece bc7c be97 3c88 3dc1
bea4 3d9c 3dca bc65 3d8d be8e 3eca 3e36
be50 3e85 3e86 3ea7 3df0 3e6a be9a bc38
bec7 3f84 be90 beaf be98 bf15 3e9d bedb
befc beb9 bc60 3ec6 bdc0 3ea2 3d78 3d18
bebc be2c beb7 be1a beca 3f77 bc58 bf36
3f15 3f01 be0a beb6 3d1c 3f57 beae 3e97
3ed0 3d12 3dba 3ea1 bc24 3db0 3ebd bdca
be50 3e48 bda0 be46 bea5 be9f bef6 bbf0
3eb7 be84 bee9 3d94 3e82 befe 3eb3 bf2a
3e5b beb0 3e4c 3fd7 3e32 bec9 be4a bd3e
bed8 3bbf be54 3f54 bbf8 be5a bda8 3e58
3eab 3e30 bf4c be6c be70 befe 3dad 3f04
bb10 3e31 3eb7 bee9 3f89 bf31 3ec7 be11
bd94 bf19 be18 3c34 bf40 be6a 3ee1 3fbc
bea2 be3a be8e be80 bf0b be51 bc28 bcbe
ba98 3eab bc08 3fd0 bf2e be2a 3d2d 3d3c
3eac bf0d be22 be3a bcb8 3cbc 3d5a be77
3e84 3fb5 bde3 bf12 be81 3eb5 bfb6 bdae
3e01 3d96 bf5a bf0e bd35 beb3 3ea6 be67
3c98 be68 3dfc be1e beae be90 bd9a be3a
bee8 3d91 3eaf bf30 3e9f 3eb0 bf58 bfb0
bd02 3e87 bcb6 3b00 3e78 be56 bed8 3e6c
be8c be9f 3f03 be59 beee 3ea2 3d48 bd44
bf45 bedd 3ce6 be37 be0d 3e4b bf13 bf0c
3d9f bf5b bf11 bede bd78 bea6 be7a 3c54
3d18 bf01 bf1a bea0 bec8 bf2d be48 be88
bf12 beda 3cbb bed5 be0d bd1e be22 bdeb
bf3c 0000 3e8a beae bdd6 3de8 be01 bf23
3e2c 3d72 3d01 bece 3e53 3d06 3dc5 3de8
bea5 3e40 3cb0 3f46 bedc 3e24 bf18 bd8f
bf1c beff be8c 3cac be97 3e30 3edd bf07
be6c bedd 3e88 bebf 3e26 3ed1 bf26 3ea5
3e91 beec be2c 3dd4 3efa bddc be30 bf17
bf0a bde7 3e72 3de8 3e4e bbc0 be2f 3e7c
be6c 3cf8 3fc4 3e76 3ea4 3eee 3e4b bde4
3e7e be88 be4e bdfe 3e57 be85 3dca be24
3f33 3ec0 befe bf4d 3e9d be8d be99 bdb2
bf2a be87 3c20 3e40 bbc0 be9e 3e5e bf77
be8b be32 bc6c 3dec 3ded 3f5f 3eda be49
bdbd 3ea9 3ca8 3dc4 3e91 3e5f be92 bf01
bf01 bd90 bece bf41 bdbe bed7 3e94 3d9a
3e24 bbb0 3e66 be2c bed4 bfcc 3e65 beb5
3e92 3f62 3eb4 3e3f bf49 3d50 be8d 3e0a
bdcc bd5e 3e19 be98 3e55 3e73 beff bebe
3e0f 3d92 3efc be4d bdce bd0c bf22 befc
bf1b bdc3 be49 beae bd09 be76 3ea0 3e50
bb40 3f0d be1d bf2b 3eaa bf5e bd48 3eaf
3ec3 3e8f be95 3ea2 bf52 bf57 bdca bf84
bea9 bed0 3e4f 3f45 be94 bd38 bf14 bdf6
be3a 3df8 bf89 3f83 3f08 3e8e 3de3 be90
be8f bdca bf42 beb8 bb10 3ea3 bc50 be0b
3ca6 bd64 bead 3e88 3d16 beb2 bea6 be90
bdf4 bf1f bf21 3de0 3ec5 bd64 bd2e 3e98
bd7b 3e08 be7e 3e24 3ed7 bf28 bd24 bf54
3d63 be79 bee2 3d1d be8a 3e4a bdd3 3e05
3df2 3f0c bf84 3e48 3d0a 3edb 3f48 3e32
3f21 bd9c 3e81 bf5f be69 bf55 bd30 beac
bf36 bdd6 3e38 3c8c be4c bc08 3fd4 bf35
be9b 3eb3 bed9 3dab bee2 be2b bf01 3e0a
3e26 bf0e 3dcd bf15 beef bd12 3ec7 bee3
be92 3ed2 bc74 3f4b 3e07 3ea2 be2a bda0
3f06 3f16 be71 3f27 3e6e 3eac be8c bea0
becd be3a 3e6b be0f bf12 beb6 3e99 bec4
bd59 bd48 bd2e 3e0c be78 3f21 bf16 3f2a
be23 be1c bf10 3eec beef bed4 3e2a bf6c
bf86 3e4b bb00 3eab be9e bf10 bea6 3e4e
3d60 bce2 bfa5 3f49 becb 3de4 bd1b bf62
3e38 bec0 3f2a bf09 3e84 bd0c 3e4d beb0
bd8e be0e bede 3f4a bf88 be00 bf1e 3f51
3ea2 be6c bdc9 bec0 bd90 3e0e be90 3c8b
3e97 bf09 be8e bee8 3e80 be58 bebe 3eac
3e53 bf7d 3e30 3e41 bf0e 3f52 3dba bd44
bf05 3b60 bd4a bed0 3efd be4d 3ec0 be3a
bf94 be28 3eca be6b 3f0d 3e90 bc40 3f12
bc30 be8d beb8 bf35 bec5 3e28 bea0 bdde
beec be96 bea8 3e1a 3ed7 3efe 3c0a be7d
3f12 bdda 3daf 3e8a bf45 bf28 3f02 3e9e
3e65 3f21 3efc 3e03 be10 3da8 3fe5 be86
be8b 3e2a 3db0 bc50 bd2c be41 bef2 be5e
be95 befa bf19 3f2e bf84 3f66 be78 beea
be98 beb8 3e8e 3e14 3e9c 3e9c 3edc bed4
be4d bdb2 bf14 3ec6 bdb0 beca 3ec4 bf03
3ea0 3ea3 3e47 bf07 bdea be66 3e55 3d7a
beff 3e0a be38 be91 3f1b 3d49 be7c 3e54
be06 bec1 3e0b bd32 be5b bee2 be4a 3dc0
3ec3 3f75 3e23 3e4c bf87 be63 3e81 bf93
be8d 3da0 3f28 be41 3f80 3e22 be6d bd06
3e90 bece 3e6f 3f37 be94 bead bef7 3e78
3dca be8e be84 bf4f be7d be86 bea1 3ee2
bf30 be1c bec0 beb6 3eea bce0 be1a 3f50
3e89 be71 3d69 bef2 be8a be97 bd7a 3ebc
3f53 bec3 bed7 3ec0 3f11 3ee5 3e66 bde0
bec4 3dc6 3f19 3bb0 3dc2 bed2 bf03 bdec
be14 bf02 3dc6 be64 bec6 bebe be92 be08
bec2 3eb9 bf0b be49 bebf be4b beb8 bed9
bf4d 3e84 3f73 be90 3db6 be53 beae 3c20
bec0 bca4 3e86 3ded be19 bebb 3e65 3f96
be1f 3e3a 3f83 3eed 3df6 3e10 beec be1e
beba 3f0e bef8 bca0 be8e bea5 3eac be80
bec8 bead bc91 3e52 be33 bdc3 3db2 be52
be27 be38 3c40 beb1 bf0a 3f2f ba80 bf4e
3f13 3f5a be42 bee2 be5e 3f1a be18 3e86
3f1d 3e05 3ea8 3ed8 bcd0 3e16 3e61 bca0
be24 be25 3ce8 be0c bed2 bef2 bef7 bd46
3f23 be86 bece 3e0c bde6 bef4 3eb9 bf54
bd74 be38 3e4a 3fe3 3e12 bf0e bed6 bcb0
be86 bdc4 be12 3f38 bcc4 bef2 bcdc 3f0d
3efb 3e52 bf32 be9a be31 be70 3c08 3ef8
be4b 3dd5 3e68 bf04 3f80 bf58 bc94 bbc0
be66 be5c be86 be3b bf18 bd62 3eac 3f7c
be40 be5d bed5 be83 beff bc38 3d1a 3e23
3c3c 3e7e 3c38 3fa6 bee8 beb0 3e0e 3e58
3efe bf18 be84 be99 be62 3e34 be28 bebe
3e1c 3fd6 bddc bf22 be9b 3ee1 bfab be37
3e38 be2e bf1d bf03 bda0 bd9c 3ec5 3dda
3d91 bedf 3e34 bd8a be8b beb3 3c6c be59
befa 3cf8 3e81 bf1b 3ebc 3e1e bf41 bfc0
be01 3e14 bda1 bdf4 3edf be67 bec4 3e89
bca0 bcd4 3e99 be58 beba 3eca be17 be11
beed be9f bc8c bde4 bebe 3e85 bef1 bf1a
3e5f bf04 bf05 becf 3e14 be18 be93 3de6
3ea2 bec3 bf4c bf2b bee5 bf01 be9e bd7a
bef4 bebb 3e7a bf19 bdb0 3db0 bd16 bea6
bf1e bda0 3eb9 befb bd70 3c10 3d18 bf58
bcc0 3e32 3e7a becd 3e9f be42 3e04 be26
3c48 bc40 3e15 3f96 be86 3ec3 bf18 3e54
bf21 bf02 be02 bd8c be70 3e1e 3eeb bef0
bf00 becc 3f14 bed0 3e4a 3ba0 bf38 3edb
3e40 bf0c bf3e 3e50 3f18 be84 be3d bf48
bf1a 3cc2 bd90 3d20 3ee4 be1c bb40 3e20
be2a bd9e 3fbe 3ed1 3e6b 3f06 3f05 bdfe
3c98 bd6a be3a bec5 3e1c beb0 3d74 be56
3fbb 3f0f bf16 bf92 3ea8 be8c beed be63
bef4 be3e 3dc7 3e98 bded bea2 3f22 bed4
bed2 beeb bea3 bcae 3e3a 3f4a 3ec3 be84
be83 3ee6 3d8e 3d8d 3ee7 3cd6 be6f bf09
bf0d bddc bf04 bf71 bda5 beb6 3e81 be83
3e30 3e17 3f06 be63 bdf4 bfba 3e16 be24
3e82 3fa3 3ec4 3dd2 bf15 3e80 beaa 3e31
be18 bdec 3e9d be5c 3e82 3d91 bf0e beb2
3cbc 3ea7 3e9a bd72 bc8a bdc9 bf11 beef
bf35 3cae bbd8 be90 3bc0 3e3e 3f01 3e46
3ccc 3f4d bdeb bf20 3e3b bf72 3c00 3efd
3ea4 bc47 be65 3ebb bed5 bf60 3ce0 bf74
bebc bea4 3d6e 3f3d 3d67 3d0d bf1c be80
be84 3d99 bf91 3f90 3e94 3e94 3d9f bf16
be9d bdd8 bf20 befc 3e51 3e97 3e66 bd9c
3eb8 bb80 be3a 3eb5 be91 be82 bebb be30
bedc bf12 bef9 bc78 3e26 bdff bdfc 3eb0
3e5d be68 be7c 3df6 3ed2 bf41 bd89 bf2a
be40 beac bec3 3df6 bebc 3e4f bdf3 3e95
3e80 3ee6 bf5c 3e05 bd77 3c80 3f20 3e3a
3f32 bbbc 3d8f bf32 be8d bf5a bd80 bedd
bf1c bea6 3e44 3e8b be2b bdca 3fbf bf20
be62 3e66 beef bd4b bebe bdd0 bf2f bd34
3e45 bf13 3e84 be70 beca be6e 3d74 beca
bedd 3efd be58 3f47 3ca0 3e96 be96 bd9c
3ed6 3edd bee4 3f2e 3e98 3eba bdf9 bea8
be9a be0e 3d18 be31 be89 bec4 3ea9 bea4
be66 be77 3d96 3dfe be74 3f1e bf20 3f05
3d00 bd91 bf07 3e64 bef0 bf1b 3e72 bf33
bf86 bbb8 bcf0 3e33 bf01 bef7 ba90 3e98
3d25 bbf4 bf96 bcef be2a 3d78 3d55 bf39
3dfc bdaa 3e10 bf03 3ddb bdd4 3e8c bee1
bdcc bba0 befe 3f6c bf9d bea8 bf26 3ece
3e64 be79 3da9 bddd 3d80 3d89 bdfd 3d4a
3ef7 beca bea5 becc 3e8d be80 bee1 3e9f
3de8 bf8e bd60 3e5f bf09 3f74 be0c 3cbb
be85 bd9a bc8e beb5 3efe 3e5e 3eca bd50
bf88 bda5 3e9b beae 3f5a 3e32 bd8d 3f1a
bde2 be2a be96 bf45 befd 3e43 beeb 3e33
becd bea4 be85 3e76 3f09 3ed4 3d6e be7c
3f4a be2c 3d1b 3e60 bf4a be5b 3f0a bea5
3e2a 3f22 3ec6 b980 bd58 3de2 3f30 be83
be36 3e29 3d81 bd86 bd20 be4b beb0 be9f
be5a 3e08 bf14 3daa bf5e 3f9e bd68 be24
bebb beac 3ebc 3e68 3f08 3ef7 3de8 befe
beb4 bc18 bf5e 3eeb bb40 be65 3ea2 bdee
3d7e 3eee 3e94 bef0 bdea be7a 3ec2 be20
bec2 bd10 bc30 be08 3efc bdb2 be10 3e35
3d00 beae 3cea 3d56 be42 beb0 be36 3e31
3e31 3f84 3eab bd0f bf8e 3e28 3e1b bf97
beb6 be8a 3f10 be06 3fb2 3f03 be68 3c14
3eb4 bd6e 3ec2 3d93 be9a beae bf02 3e07
3dd9 be87 bdba bf61 bed7 be6a bec3 3e4f
bf14 be35 bebc becd 3eca bdee be30 3f36
3e91 bea6 3eba bedc be18 be89 bd3c 3f13
3f0a bee4 bee4 3ed2 3ee7 3e9f 3e5b bdba
bd90 3deb 3f2a 3da8 3d81 beaa bf14 bdb4
be9b bf0c 3e21 3cf1 be3c befc be6a be3b
beea 3dc0 bef6 beb0 befa bed4 bc44 bf1c
bf68 3e21 3f7c bea0 3e02 be41 be02 bdac
bead bd16 3ef3 3ddc be12 bedb 3eae 3f80
be3a 3e1a 3fc1 3ec3 3e07 3d8e becf bf22
bf10 3fb6 bf14 3e3c be30 be81 bdde bde8
bedf bea6 3b9c 3ec6 be65 bd54 3ca6 be90
beb5 bdf6 bd53 bed3 bf10 3ed7 bdb4 bf6f
3e98 be8b bed6 bed3 be35 3f33 be25 3e48
3e3f 3ebe 3eb3 3edc be56 3e10 3de8 3d20
bf1b bd94 3e13 beaf be92 be8a bf3a 3dfe
3f1d 3bdc be9a bc24 3dee bebd 3e3e bf4f
3efb be8e 3e62 3fea 3dbf beb4 becc 3c74
be89 bd58 be5d 3fa6 bc40 bed0 bd89 3e3c
3f95 bc80 bf4c bee4 be26 beb5 3da8 3e5a
be3c 3e40 3e78 bf05 3f86 bf60 bd0d be63
bdb7 be84 bea4 bdf8 bf2f bdba 3e06 3ebb
be68 3dbd bed9 befb bf1b 3c32 3dec bd5c
3dba 3e90 3c08 3f80 bedc be95 3d93 3e96
3f1e bf28 bdb4 bef2 be80 3e64 bd8e be5f
be02 3fb2 bde8 bf3e bde7 3ec2 bf9c bda4
3e8f 3eb8 bf09 bede be8b bec4 3e52 3e5b
3d7f be0f 3eab bead beaf be4c bedb be04
bf0a 3db6 3ece bf27 3ed0 3e26 bf70 bfb4
bd26 3da3 be62 bd3c 3ea4 be6e bec8 3e21
bd10 be00 3e96 be50 bed6 3e46 bde2 bede
bf00 3d68 3da6 be6f be90 3e8a bea5 bf25
3e0f bea9 bf07 bf0b 3cfc bd8b bed4 3d92
3ee9 bf06 bf05 bf2b bf0c bf17 be00 3dbc
bef7 befd 3e94 bf60 3e14 3eaf 3e1b 3df5
bf63 3cf0 3e9f bf51 bcb4 be8a 3dc7 bf30
3d6c 3d97 3e57 bebc 3e5e be5d 3e37 be63
3d5d 3db6 be05 3fb2 be8d 3ef5 bf1f 3e3c
bf00 bf3a be1e 3be0 bd6a 3e2b 3ecc bf01
bed3 be38 3e56 bea3 3ea4 3e08 bf57 3eab
3d35 bee8 be9a 3eae 3f20 becd be3c bf78
bf4b 3c0c bd82 bd83 3e86 be9d 3e6c 3b90
bdb9 bda2 3fbb 3e8e 3e3b 3f1c 3e94 be1f
3dc2 bbe0 bd9c be3b 3e19 be86 3d68 3d84
3eac 3ed0 bf08 bf4a 3ea2 be3e bdf7 be44
beda be24 3d8b 3f06 be9d be76 3d54 bec6
bee1 bf28 bdc3 bd84 3d6e 3f7a 3eb0 bec3
beba 3f34 3c5c 3dc2 3e88 bdce be9b beed
bf2e be0c becc bf84 bdf4 beab 3e4a be1c
3d6c 3e03 3eaa be19 be9f bfba 3db5 beb7
3e6e 3f86 3f06 3ec6 bea5 3e58 be8f bd5d
be7a bd9b 3e29 3e06 3e9c 3d70 bef9 be92
3da7 3ebe 3e5f bdfc 3e9a 3bd0 bf2f be9c
bf3b be00 bdfe beae bdff 3e21 3eba 3ebe
3d68 3fc1 bd89 bf24 3dac bf7e 3e04 3edb
3d92 3baf bd6e 3e8b be0c bf62 3e28 bf90
bed9 be76 3eed 3f09 3e3e 3e29 bf22 be1b
beb9 bc28 bf85 3fa8 3cf4 3dda bd88 bf15
bf18 bd40 bf04 3d70 3e00 3e88 3db0 be28
3e21 bca8 bdbe 3eab bdba bda9 be9e be99
beac bef5 be79 3ccc 3e04 bd91 bef9 3f0d
3e95 bebc bec5 3e94 3edb bf30 bd86 bf26
be30 bd0d bef9 bd32 be3a 3e84 be4a 3eba
3e36 3ec6 bf5b 3d8d bea2 be18 3f31 3df6
3ef7 3e34 3e24 bec8 be81 bf3c bd0a bea5
bf22 be5a 3e3e 3de0 be42 bd72 3fa6 bf01
be7a 3d96 be8b bdba befc be58 bf3e 3d38
3e82 bf09 3e8a bdeb bebc bdbe bdc6 be8f
befa 3ecc be89 3f21 bcec 3eaf bec6 be6c
3f21 3e90 bf08 3f7c 3e65 3e6d be60 be45
be67 3d1a bdb6 3e00 be18 bef4 3e52 bf07
bdc4 be4d bdbc 3d69 bee5 3ee4 bf11 3f08
3e02 bc78 bf10 3e04 bf11 bf28 3e8c bf22
bf81 3e06 3d36 3e54 bf08 bef1 be0e 3ef9
3e4d 3c7a bf9f 3e3d bdd5 be02 3d9e bf43
3e8e bb92 3e20 bf00 3e76 bd9e 3e97 bf49
bccc bd84 bed3 3f2c bf9a be66 bf1f 3efb
3ebf beca 3e80 bdc8 3e1d bda0 bd9d 3d8e
3eab bec2 be16 bf41 3e82 bec7 be2c 3db8
3d9c bf84 3e0e 3d86 be5e 3f12 bdd4 be37
bf02 be92 be0f be57 3f05 3d5a 3eb3 bd98
bf84 be14 3f16 be30 3f4c 3d8f be8c 3eee
be0b be62 bdcb bf1d be86 3e21 bf1a 3cd4
bf1b befa bea1 3ec0 3f4b 3f04 3ddc bde4
3f42 be5a bd46 3ea7 bf50 3e24 3ebd bedc
be3f 3f0a 3e6f 3ed1 be06 bd12 3fa1 be84
be80 3e91 3de5 be40 3c50 be72 bea7 be5c
be84 bf3f bf2d 3ef4 bf7f 3f8f 3e31 bf17
be19 bea8 3eb9 3e4f 3f10 3e6a 3c8c bf0c
be8c 3d43 bf11 3e9b bd8c 3e28 3f01 3d8f
3f06 3efc 3e3e beb6 be42 be32 3ec5 bdc0
bece 3ebc 3d79 be66 3ef4 be0f be27 3d90
3d82 bea1 bd82 3cfa bd8c be9e beaf bddb
3df5 3f78 3f01 be50 bfc3 3efa 3da6 bfae
be96 3d2d 3eeb be3e 3f9c 3ec4 be86 bd8e
3d74 3e79 3ee0 bdde bef2 be48 bf0d 3db0
3d86 be89 bd22 bf49 bf0a 3b80 be2e 3e72
becf be33 be1a be0b 3ed9 3d40 bdfd 3f44
3e20 be85 3c4c bf0d bda6 be6d be37 3ebc
3f56 bf04 bed0 3e90 3f0f 3e8e 3e95 bdfc
be0c 3e67 3efc 3d3a bcbe bed7 bf4d be2a
bef2 bf24 3d84 3d5d bebc beda be20 be46
bf1a bdae bf25 bf08 beef bee4 bdb1 beda
bf59 3e46 3faf bf30 3d0a be1a 3e0e bece
be92 bcf3 3f05 3ddd be75 be08 3e96 3f86
be26 3e29 3f71 3eab 3db6 bdee be64 be4e
bf1e 3f80 bebe bd20 bcdc be60 3e48 be37
bf00 bec8 bdf1 3ee0 bd28 3dc7 bd40 bf08
beb4 be00 bdb8 bd45 bf01 3f57 bc90 bf9a
3e2f 3f3e be08 bede bed7 3f01 be4a 3d84
0000 3ed4 bcd4 3f09 be8b bd50 3dfb bdbe
bf0d 3e24 3e40 be89 bdf2 be3a bf41 3e94
3f21 3dd6 be66 3cd6 3e5e bec2 3e71 bf6f
3f38 bece 3e33 3fb9 3d9d be76 bf19 3e1c
be01 bd98 bebe 3fb9 3d12 be41 3c38 3b80
3f89 be08 bf7a bea0 be6a beac 3d2c 3db9
be5c 3eaa 3e9c bf1b 3f90 bf60 3e64 be96
bed7 bf04 beb2 3e0a bf23 be0d 3e50 3f0a
bebf 3e8c 3c1a bf04 bf1e 3e78 bdd1 be35
3bf2 3e81 3e84 3f66 be73 be02 3c00 bd06
3efb bf45 bd39 becd 3e03 3d6c be5d be61
bcb0 3f99 3c1a bf65 be06 3e63 bfaf bde6
3e63 be39 bf25 be17 be16 bee9 3d7c 3e11
3e98 bde8 3ed0 be9f be31 3e2e be98 bd24
bedc bdd4 3e8d bf1b 3eaa 3e7c bf52 bfc6
be15 bdf5 bd92 be04 3e45 bea8 be23 3da3
be1a bdb6 3e60 be20 bf04 3e29 bf01 beb3
bee4 bd89 3c30 beab be42 3ef8 beea bf0e
bdc2 becf bf11 beee 3e81 3dae bf1c 3e14
3e1a bf42 be20 bf0b bf22 bf48 bc22 3ea5
be39 beca 3dd6 bf48 3d3e 3e64 3dba bdd9
bf40 3e50 3f0f bf5c bc38 bd50 3e53 bebc
bdde 3e49 3e84 be64 3cf4 bddb 3eab 3c08
bdf8 3dfa 3c28 3fd0 be90 3f1c bef6 3dd1
bf2b bf1a beca bd91 3ac0 bda2 3ecb bedd
bed8 bdd7 3d87 bedf 3cc8 3f23 bf2f 3e9f
3d88 be41 be30 3e8c 3f11 3db9 bea0 bf6e
bf34 3e08 3ebe 3dd8 be12 bead 3e14 3df0
be7d 3d9d 3f95 3eef bc0e 3f48 3e82 be86
3e08 bc78 bddb be7a 3e86 be06 bd8e 3e0f
3eef 3e2d be94 bf70 3c46 bee4 bee0 bbd0
bf29 bc82 be00 3efc bee5 be9a 3ddd be7a
be6e bf2b be34 bda7 beb8 3f90 3ea0 beda
be9e 3ee8 3e0c 3e95 3d8e bdcc beb8 bee5
bf00 bd2c bec9 bf65 bdd8 beb9 3e8f be0a
3cb0 bdd6 3ee5 be26 be35 bfc6 3c58 be91
3e59 3e0a 3f10 3ec2 be99 bc94 bec9 3ddb
be2e be14 3dac 3e6c 3da8 bdac bf32 be9d
3ba0 3ea8 3e95 b800 bdc4 bdbd bf37 be81
bf25 be48 be16 be96 be7c 3e36 3f08 3e86
bc58 3f98 bcc6 bee0 3e07 bf60 3dcc 3ebe
3e03 3e4c be9c 3edf be86 bf8a 3dfe bf87
beb2 be64 3db2 3eab 3e18 3e75 beeb bda9
be9e 3d40 bf8c 3f78 3da4 3ec3 be2a beab
bf20 bc58 beeb beac 3dce 3e87 bd9c bec2
3d9c bdb5 bd87 3f04 3e38 bdc5 be62 be34
be3e beee be1a bdd5 be10 bd18 be6a 3f59
3dfe bde8 be2a 3ee7 3ede bf1a 3dba bf00
bdb0 3d8a bf09 bdda bd84 bdbc bf05 3eb6
3ebf 3e68 bf55 3d8e bee5 be6a 3f31 3ef2
3f2f 3e14 bd40 bede befd bf01 3daf be38
bef7 beeb 3e78 bda6 be46 bd7c 3fb0 bf02
beb7 3e96 be28 be84 bec8 be88 bf47 3d78
3eb0 bf14 3e80 be4f bea1 3dec 3e9d be30
beb4 3ec5 be86 3f09 3d7e 3ea2 be8d be21
3eac 3f60 bf10 3f66 3e80 3e84 be12 be3a
bebb 3d6e 3ef4 3e0e beac befa 3dcc bef6
3e48 be8c be81 bd56 bf1a 3ebc bf11 3ef6
3ee4 3da6 bebe be50 bf0e bf12 3d18 bee0
bf6a 3e03 3e13 3e9c bf10 bf12 be71 3e6a
3e3d 3bf0 bf8f 3eed be5d bdc6 bdd8 bf45
3dc0 bdfe bdcf bd84 3e29 3bf8 3e9b bf3f
3e2e bf04 be97 3f52 bf4c bdfe bf36 3ee2
3ecb be85 be30 be13 3d70 be5d 3e0c bcf8
3ee3 befe be47 beca 3e82 bec4 bed5 3d0e
3d02 bf6e 3f05 be0d 3d93 3f83 be0e bdce
bf65 bed2 bdb8 bebc 3f06 3e52 3f0c bc00
bfa0 bdb0 3f56 be90 3eda 3e2b be5e 3e5e
3dbf be40 be55 bf66 befb 3e1c bf0b 3e63
beea bedf bec4 3edc 3f36 3e8e 3e28 bd30
3f3c be30 bd47 3e5b bf18 bf35 3ece bde8
bcbc 3f12 3de6 3e9a be4a be94 3f98 bee3
be68 3e9c 3da0 beb0 3e14 be15 be9f be94
be4f bf52 bf1d 3ec9 bf66 3fd0 3ee2 beb4
bd09 be6b 3ed3 bc84 3f26 be12 bd99 bec2
bd37 bdaf bf26 3ef2 bdf0 3ed4 3dc4 be8a
3eea 3ea9 3db3 bead be70 be0c 3ef9 bdd3
becc 3f10 3e28 bdd0 3f0f 3ea8 3d86 3ec0
3efc be7d bcb4 be8a bcd5 be82 be58 3e12
bd12 3f8a 3f21 bdb9 bf87 3e8b 3e63 bfbd
3d0a bd10 3efd bea2 3fc1 3e2a be7e be0f
3dcc be0c 3eb5 3ed3 bea1 be7d bf01 3e24
be06 be9f 3e12 bf7a bf2b bd96 bdce 3ea7
bf5b be1b beb0 bd2d 3eb4 3e09 be86 3f56
3e14 becb 3dc0 bf0a bd34 beac 3d8d 3e12
3eb2 bf00 be94 3e76 3f4d 3eee 3e98 bdd2
3e10 bca6 3f06 3ebd bdd8 bf04 bf65 bdb0
beb0 bf01 3e48 3e4c be6c be5e 3dbc be4e
beff bd29 bf40 beac bebf becf bf09 be0b
bf47 3eb5 3f79 bf34 3ea1 bc28 be25 0000
be87 be99 3ed2 3db9 3d70 be3c 3e82 3f96
be02 3dd4 3ee6 3ecf bde9 be78 be40 be92
bf02 3f2e be23 3e2b bdd7 be34 3e07 be06
bf0e beaf be38 3e9c 3dba 3e85 be16 bec0
beb5 bd97 bd80 bdca be8a 3f14 3dd6 bf9b
bc86 3fb1 be5f beda bf0e 3ed4 be44 3e68
be89 3e8e 3d74 3eb2 be78 3e4d 3d8d bd32
bd38 3e23 3d93 be61 be17 be50 bf05 3d20
3f1b bdd2 be6c bdc9 3d70 be90 3f04 bf83
3e95 bede 3db1 3f8c 3dea bd7a beb4 be19
3dc6 be34 bf23 3f54 3dc7 beac bd20 3c80
3f59 3dc6 bf8c be5e be38 be1d bc94 3c94
be95 3ef6 3ec8 bef9 3f88 bf79 3e70 3e02
bce8 bee8 beb0 bdd6 bf1b be5e 3ea0 be96
be9f bcd0 be17 bea4 bf26 3e66 3cfc be6c
3ddd 3eab be6c 3f58 be96 bd4c 3cca 3e51
3f24 bf28 bc8e bec9 bc30 3df4 be5c be42
3e98 3fab be3a bf47 be95 3e8b bf8d bd78
3ea9 3d0c bf20 be10 be16 be54 3e26 3e1f
3e21 be1b 3ea3 3e78 3c90 3e32 be2e be77
bed7 3c38 3e72 bedb 3efc 3e40 bf57 bfbf
bde9 beba be0b be58 3e70 be42 bdb8 3e0c
beaa be11 3e9c be86 bf09 3ec2 bf5f beb7
bf0f bec0 be74 be88 bdf6 3e7b be3d bf01
3de3 bf3b bf84 be46 bd0c 3d9f bf0c bcb8
3ea7 bf1d bd0c bf06 bf08 bf28 3daa 3c94
bf08 bf1c bc22 bf1a bc40 3e9a 3df6 be46
bf3c bd2e 3e91 bf14 3c00 be70 3da7 bec7
be50 3e9a 3eae be14 3edd bec3 3ece bedb
3e80 3e1a bd14 3fc6 be97 3e99 bed1 bd88
bf19 bf2d becc bd88 bd9c bdc2 3ec0 bebd
bed9 be20 bd78 befe be4e 3f3c bf2f 3eea
3d1e bd96 bdd0 be12 3ef9 bea1 beb1 bf7c
bf08 3ebd bd04 3e88 be1e beab 3ec9 3dae
be4b 3d36 3fa1 3eaf 3cbe 3f0c 3ebc be59
3c68 bea9 bd50 bed7 3ee8 be44 3e83 3e7f
3f17 3e5e befd bf44 3ee9 becc be52 be82
bf48 bd27 bde8 3f22 bed1 be32 3eda bf00
bf07 bf2e bd8d be3e be7a 3f83 3e90 bf0d
be8f 3ecd 3e60 3e24 3ec6 be56 be7b bf10
beba bce0 bf2c bf56 be05 bf1f 3dce bda4
3d63 be58 3ec8 be3d bc9c bfc2 be15 be6d
3e86 3eec 3eb2 3dbb bedf 3e9c bebc 3e46
bc8c bea7 bd5a bc68 3e2c 3e8c bf30 bd70
bdab 3e30 3ede bd1d 3ca8 be5a bf0b bdd5
bf31 be56 bdd8 be9a be64 3e56 3e68 3e94
be9a 3fcb be2b bf20 3f20 bf41 3e24 3f14
3e6d 3dc1 be38 3ea4 bd98 bf92 3e68 bf57
be99 be2c bd46 3f19 3e34 3e11 bea8 bec3
bebd 3c94 bf98 3f73 3e91 3ec8 be44 be3f
bf13 bdc1 bf2b bf1e 3e3d 3ef3 bc90 bf0b
3e24 bd01 bdd9 3e85 bd50 bd54 be91 bc00
be74 beb2 bc94 be72 be96 be00 be3e 3e7f
3dea be2f be81 3f46 3e82 beba 3e71 be95
be74 3d00 bed4 3e7c be9c be0e bed4 3eb0
3e7d 3e96 bf65 bbf0 bf0c bdff 3f0c 3ee1
3f42 3dcf bda4 bf08 beda bf2a be04 be44
bee8 bed0 3e84 be02 be88 3cde 3fde bf31
bf12 3e06 bde2 be72 bdd7 be1a bf1d be47
3e84 bf30 3c78 bd4a bec0 3dad 3ee7 be53
be93 3e5e bedd 3eec 3d14 3e6a bec5 be74
3ec3 3f2f bef0 3f82 3ea4 3e6a 3c6c beae
bf13 3d66 3e98 3e0b bea8 bf23 3e8c bf0d
bd36 bec8 3dd3 bdba bf2e 3eb1 bf1c 3eea
3ed8 3e3e be8c bdd4 bf31 bf05 bd93 beb5
bf54 bd20 0000 3e22 bf1a befd bd9a 3e8e
bc44 3c80 bf88 3ec3 be28 3d46 bd03 bf20
bcec bc8a beb7 be8f 3e7e 3ce5 3e7b bf3b
3e58 bea4 be95 3f3c bf4f be5d bea6 3ecf
3eb8 be83 be25 bec3 3e8b be0a bdf0 be06
3e93 bea2 bdb4 bec3 3ddd beb4 be8d be8a
3dd7 bf47 3efb bd14 bdb8 3f62 bd2a be70
bf81 bec1 bd70 bef4 3e6a 3dea 3ee9 be2a
bfa8 bdfa 3f4e bea6 3f3c 3e16 bdf5 3eae
be04 3d54 bea0 bf4e bec1 3e35 bf05 3e8d
bf04 bed5 be85 3f1c 3f1c 3ea0 3df4 be11
3f31 be0c be7b 3e81 beff 3e13 3f01 3e54
bdd0 3f0c 3e1a 3e98 bd98 bebf 3f2a be14
be92 3e5e 3d41 bef2 bd98 be08 bef4 bece
beb6 bbe0 bf16 3f0e bf56 3fbf 3eac beba
bde2 bd2d 3f16 bcb4 3e68 beac bd60 bee6
be18 3d83 bf8a 3e6f 3e67 3edd 3db2 be8a
3dc8 3ebc 3e53 beb1 bdfa bd4b 3eb4 3d68
be88 3f27 3d32 3d38 3f1e bea9 3de2 3ea2
3e47 be2f 3d35 be9f 3e66 bead becc 3d20
bd1f 3f70 3f28 3d18 bf9c 3e89 3e95 bf93
bda8 bd4c 3ea6 be0d 400d 3e51 bec1 bd7b
3ca0 be62 3ed9 3ee1 bea5 be07 bf26 bd62
be7f be6a 3dfb bf95 bf17 beae 3d50 3e9e
bf24 bd42 bea2 3cd6 3ea8 3eb0 be44 3f44
3e1a beae 3d15 bf14 be2f bef6 3dcf 3eb9
3f06 bea4 be66 3e4f 3f40 3f02 3eba bdcc
3ed9 be42 3edf bb20 bb98 befa bf50 bdb0
be8d bee6 3e9c 3e50 be78 3cc2 3e11 be08
bee8 3e62 bed5 be8a be41 be7a be80 be0f
bf58 3eeb 3f4f bf27 3e3b be3c bd5c be1c
be84 3c04 3eb0 bc57 3e4a be08 3e9b 3e7b
be00 3e48 3e3d 3ed9 be16 be5e be7c be5e
bf17 3f9c be8d bda4 be80 beab bd98 be4d
bf20 bebc bd94 3e74 3ea6 3f14 be50 bef4
bf03 bdca be86 beb1 bea8 3f58 be02 bf47
3e02 3f38 3b20 be8a bdd0 3f26 be51 3e80
be40 3dce 3d0a 3f0b bdcf bd5c 3d8d be78
bec4 3ecb bc80 be53 bdd2 3d19 bf4a bd12
3ee3 bdb8 bde6 bcc3 3e2e bd9d 3e50 bf4e
3ece bee6 3c90 3f84 3eab bec6 be76 bced
be32 bedd beb2 3f3c 3e5b beb3 be2f 3df0
3eef 3e34 bf82 be40 be2f be7e bb40 3dcc
be18 3ef5 3ea5 bef6 3f84 bf60 3e49 be5a
3e7b bf31 be53 bdd7 bf51 be8c 3eb0 3ef2
bec3 bd4e bdb2 bedc bf31 3da9 3c84 be04
3e94 3eca bf0d 3f7e bece 3c50 bcfa 3e55
3f14 bf0e 3d68 bea4 bd90 3da5 bd63 be6e
3e74 3f8a beb4 bf6d bea5 3dd2 bf9e 3c83
3e11 3f15 bf3b be23 3c97 bf24 3d83 3e15
bdcf beec 3f02 3c28 be1e 3e2c bea6 becd
bea9 3d3e 3ead bf2a 3eb9 3dd4 bf37 bfb2
be98 bef4 3d4a be35 3e69 bea0 be9a 3d50
be60 bebe 3f02 be9d bf3c 3e82 bf34 bc10
bf51 bee9 be25 be6f bdd2 3e32 be89 bf21
be0a bf7a bf69 be70 be46 bd8f bedc be3c
3e95 bf33 be92 bf15 beee bf48 3eac 3e2d
bf17 bf1f bd94 bf1e 3e1a 3f1d bbd4 bd69
bf4e bddc 3a40 bf1a 3e8f bd9a 3e08 bee2
3b40 ba80 3e87 bd5e 3f05 be7f 3e6a be68
bd86 3ea8 bd27 3f92 bee7 3e1a bece bd17
bf05 bf01 bef3 be6c 3dc2 3d04 3e9e beb4
bed8 be02 be9c bebc 3c20 3f23 bf3c 3ef5
bd2c bed5 3bb0 3e84 3f35 beae beff bf3d
bf05 3e61 3e47 3dec bce8 becf 3e8c 3dc0
bea6 3d43 3fd0 3e66 3e6b 3f0c 3e86 beb5
3e4e be98 be54 be86 3de0 be85 3ddc bdc1
3e0e 3e7f bf12 bed0 3ea9 be01 3d80 bdee
bf1e 3dc6 be08 3f45 be1e bea0 3dcb bf66
bf16 bf14 3d14 bd48 be16 3f70 3c90 bf09
beb2 3e90 3e74 3e32 3e7e be4d bd6e bee8
be98 bda0 bf00 bf26 bdc6 bf21 3e04 3e70
3e68 beb8 3ed4 be34 be05 bfd2 3ce4 bea7
3ee4 3f2c 3edc bcd8 bf12 3eaf bee3 bdff
baa0 beb5 be14 3d56 3f14 3f02 bf12 3cd8
be33 3e3a 3eb8 3d56 be25 be5d bf36 3c3a
bf43 bcce bee9 be9c be06 bdb0 3e49 3e85
be9b 3fa4 be2c bf2d 3f25 bf36 3e4b 3f16
3e0a 3e82 be03 3e53 be98 bf8f 3df8 bf5e
be67 be4c 3e28 3f28 3d4f bd9a bf04 be68
bee0 bd8f bf88 3f8a 3e94 3e9d 3d50 bef6
bf1b be02 bf18 be28 3d0c 3e5a be5b bf14
3ea8 3c68 bdb6 be7f bc98 bca0 bea2 be28
be64 be9a bd06 3e10 3d86 bdd6 bd0a 3da6
3e24 bd68 bdb4 3f26 3eab bf1c 3e05 be8c
bd35 be44 be80 3ec5 be8e 3e15 be9e 3e2e
be83 3f0b bf56 bd68 bee4 3f09 3f5a 3e30
3f2e 3dfa 3e8c bef7 bece bf2f be5a be65
bf0a bd8b 3e97 be6b bdbf 3e80 3fd0 bf1d
bef8 3dee be5a be62 be1e be43 bf1b 3d84
3e91 bf1e bd63 3d0f beee 3dca 3eed be6b
be2b 3e25 bec8 3ea6 3eae 3e27 be9c bea9
3edc 3ea7 bd91 3fa8 3e9e 3e0c be31 bec4
bf21 be26 3efe 3e76 bf00 bf0a 3e9e bea1
be22 3c28 3d2c bd29 bf0e 3ec1 befe 3f0c
3ea3 3e16 bed0 bc93 bf29 bf00 3e33 bf51
bf17 3b70 bd8f 3ca0 beeb bf1c bdc1 3ea8
3dab 3e92 bf70 3f07 3dce bdd4 bde3 bf49
be0e bd5c 3e7c bf04 3f01 3dd6 3dd6 bf22
3cec be99 be25 3f4c bf4d be71 bea0 3f48
3eb9 be56 bea2 be89 3d41 3da5 be19 bd9c
3dd0 bebb be6e beeb 3e18 beaa be9b be3b
3ea9 bf28 3f2b be42 bdbd 3f43 3d8c bead
bf50 bea5 bdf7 bf19 3e88 be2c 3ea4 bdf4
bf8f beb7 3f5f be96 3f55 bbbc bd95 3f05
bd74 3cdc be8c bf43 bea5 bd3b bee2 3dc6
bf07 bed8 bead 3f14 3eb3 3ea0 3d7a bdfe
3f21 bdc0 be7a 3ea0 bf14 3c60 3ed0 3f30
3d58 3ee7 3e96 3ef0 be87 3d9b 3f84 be24
bea6 3eca 3ea8 be8e beac bd88 becb bec4
bed3 bf0f bf06 3f76 bf6e 3f21 3e5b bf24
be3a 3cb8 3f11 be4c bd3e 3c38 3dba bf1b
bde9 3d84 bf4a bd0d 3eaa 3dba 3dd4 beb9
3f3b 3e14 3d96 be8f be26 bae0 3e86 3c9c
bedf 3f4d 3c9f 3e00 3f17 be23 3be8 3e54
3d68 bea7 3e3d bebd 3e57 bed9 befc 3dfc
3e1f 3f5c 3f1b 3cce bfa5 be08 3e28 bf96
3e01 3db3 3ef7 bed7 3fc0 3e29 bf12 be52
3da8 bf18 3edb 3f56 be8c be03 bf28 bdbf
3dd8 be60 bdf7 bf8e beee bea8 be6a 3ec1
bf55 3d81 be2e be4d 3e98 3e96 be25 3f47
3e25 becb bd32 bf25 be38 bef3 3df8 bdb8
3f7f bea9 be97 3ea7 3f3c 3f1f 3ef9 bda8
bde8 be27 3ed1 3e30 3d29 bf1d bf51 3e65
be5c bf02 3eb0 3c90 bef2 3d98 3d70 be40
bee2 3e3b bed8 be99 bdda bed7 bece be14
bf4a 3eac 3f89 beec 3da7 bd22 bdf9 bea2
be62 3dac 3e6a 3d53 3e26 be80 3ce0 3f60
be08 3e38 3f08 3ed8 3be0 beb2 be84 be70
bf44 3ed0 bf11 3dde be5b be30 3dc6 bd87
bf11 bf06 bdaa 3dfc 3e9c 3e75 be3d bf33
bdf0 bebe be1e bf06 bed9 3f85 bdca bf47
3e60 3f9a 3e8d beb2 be15 3f03 bd80 3dfa
3e68 3e08 3b60 3f25 bdfd be7a 3c34 bea5
bebb bc4c 3da9 be6c be22 bde0 bf3c 3e17
3f0f be52 be19 bd6f bd60 be2e 3ccc bf57
3e8e bedc be2a 3f91 3ed2 bf3c bf29 3cc0
bd2f bf03 bdc8 3f21 bd22 bec6 be24 3ee1
3e88 3ea6 bf47 be9e bd2d be03 be61 3e65
bdd8 3e98 3ebf becb 3f86 bf7f 3bcc be57
be74 beff be38 bdd4 bf7c be7c 3e4a 3fa3
be0c bcb8 bda4 beda bf1a bd84 3cf0 bc10
3eaf 3e94 bec2 3f5a bec9 bcfc be46 3e97
3ed8 bf37 3da8 be85 bd4e 3da4 be75 beb8
3e3e 3f8e beaf bf66 beaf 3dca bf9e 3c3e
3d18 3e45 bee0 be47 3ded bec5 3e4d 3d67
be4c bf4c 3f1e bd85 bbb4 3e22 be5d beaf
bec7 3e24 3eb9 bf02 3eb2 bea5 bf01 bfc8
beab bf16 3dbc be50 3ea4 be81 be4d 3ddf
bccc be67 3f01 be88 bf13 3e6a bf77 bd10
bf00 bee0 bea8 be31 bc3c 3eae bed0 bf22
bba0 bf43 bf28 be24 bde7 3c52 beb6 3c28
3e74 bf65 bf00 bf01 beee bf4c 3e5c 3ec8
bed8 bf2f bd80 bf2e 3e51 3ecc bd3f be68
bf51 be68 3d9a bf18 3e1c 3e30 3e5c bf0d
3cc4 3e2c 3ec4 bdb0 3ea8 bc83 3e36 bde6
3d28 3e50 3e8b 3f95 bed4 3e9b bf00 3e96
bf4a be44 bebf be52 3dc2 bd3c 3e7e bee3
befa bd91 be1e bee2 3df0 3ee4 bf6e 3f2d
bd31 bf3c bef5 3ee2 3f29 be32 beae bf4d
bf0a 3e20 3e94 bba0 3e21 bf06 3d14 3e7a
beb2 3da5 3ff8 3e38 3be4 3ed5 3f15 be99
3dbd 3db2 bed0 bec7 bd98 be5e be0e beb4
3f94 3daf bf51 bf32 3dbe be49 bd23 bda8
bf1f 3e1d bd12 3f16 bd32 be89 3ed6 be79
befc bec5 bdda be10 bcf8 3f5e bd04 bf20
bf06 3d8c 3ea3 3e84 3eb6 be99 3ce8 bec4
be88 bdc4 bea8 bf24 be28 bec0 3e66 bdc6
3e4a be4b 3f3e bea0 3d04 bfc6 bdf2 bd93
3ed3 3f62 3f0f be12 bee7 3ef6 bef1 3d08
bda5 be8b be25 3cbc 3f4e 3e1a bf36 bda5
beb7 3ea6 3e64 3ad4 beaf be28 bf5e 3d6c
bf2d 3e09 bdaa bee5 bd8a 3e30 3e94 3e3e
be9f 3f2a bdfa bef2 3ef6 bf26 3e50 3f02
3da6 3efb bdf8 3e87 bd9a bfa0 3e2c bf0b
bdd7 bdd4 be88 3f0a 3e9a 3dcd bf1d be72
be25 be1f bf7a 3f6f 3ed4 3e97 3de0 bf62
bf19 3cdc beaf be83 3e28 3e0f bd82 bf30
3f1c bcac 3dee 3dee 3df5 bc50 be3c be0c
bebb bec5 be82 3ce0 3c56 be81 3b80 3e57
3ea6 be41 bd31 3eae 3e48 bf0d 3cf0 bdb5
bd94 be96 be1e 3e87 be88 3e8d bebc 3eba
be30 3eca bf71 bd18 bebb 3e96 3f3c 3e2d
3f7c 3dc1 3e04 bf10 bec2 bf1e bdec bedb
bed0 beb6 3e8d bd08 bcae 3dee 3faf bf2f
bddc 3e66 bec0 be88 beae be33 bf12 3ca8
3e88 befc 3e98 3da1 bee9 3a80 3e34 bde4
be7e 3e39 bea2 3df3 3f0b 3dc7 bec9 be47
3e7f 3e27 be32 3f84 3e93 3e8c 3d5e beb1
bf19 be53 3f10 3d10 bf06 bec4 3f21 bcfc
be96 3db8 3d30 3cd6 becd 3de5 bf03 3eab
3f04 bbd0 bec6 be89 bf0f bef6 3de3 bf0e
bf08 bbd8 bde2 bc40 beda bf22 bb38 3dd1
3d16 3e5e bf4e 3d18 bcf8 be43 be03 bf22
be0c bd88 bdbc bee5 3ec6 3e0a 3e0a bf13
bd2e be8c 3a00 3f71 bf66 bec0 bf09 3eea
3eda bc96 be9f 3d10 bc0c 3c70 bd70 3d66
3e5a be89 be51 be81 3e6a bebc bec8 be6d
3ea0 bf31 3e8d bca4 3cdf 3f87 bdb8 be85
bf05 be7c 3d60 bf35 3e26 3ee4 3ec9 3dac
bf86 bea9 3f22 be58 3f37 be62 3b40 3f12
3d45 bd31 be8e bf24 bedf be30 bf0d 3efc
beb4 bef3 bef4 3f14 3e87 bdae 3e2f bdd8
3eee be58 be53 3e0a bf34 bf36 3ed3 3f04
3e8d 3f02 3e91 3e85 be82 3d6d 3e2a be24
be9c 3ee6 3ed3 be78 be98 bdfb be9c becc
bf02 be92 beec 3dfd bf3b 3f8b 3ede be36
bea1 3cd0 3f0b 3d36 3e90 3ecc be1c bf36
be2c 3df4 bf7e 3e64 3c30 3d98 3d43 bd9a
3f4b 3d78 3cac be4b bdbb bcfa 3ebc be70
bed8 3f1d 3cb0 3e36 3f2c bbe8 3e3b 3ea5
3e8e be9e 3e14 be2a 3e79 beda bec2 3e96
3e78 3f74 3ec3 bda6 bf78 3c32 bdfc bfb4
3e6e be81 3ecd bebe 3fc2 3ebf bf3a be86
3e9e bf50 3eb8 3f7d bea4 be6e bf0d bd4e
3e15 be4f bc10 bf87 bf0e be36 beaa 3ea0
bf53 3d26 be9a bef2 3e9a be38 be31 3f3b
3e2b bf05 3e14 bee1 bc29 bed3 3e46 3d74
3f14 be6f be24 3e98 3eb7 3ed2 3ed3 bd90
3df2 be26 3ebd 3eea be21 bf37 bf4a 3e34
bcf4 befd 3e8f 3d4c bebc bd63 3e41 be96
be82 3df5 bee0 beb0 be24 bf11 beb4 becc
bf3b 3ee6 3f86 beb4 3e6e 3e6b be89 bda0
be94 3dd4 3e79 3e03 3e50 be90 3d86 3f52
be30 3ce0 3fb0 3e9a bc10 be9d beb6 bf59
bf5a 3f41 bf2a 3f14 be64 bd2f bd8f b980
bf09 bf0d bc68 3ea2 3e91 3c78 bea7 beae
bdae bece bd16 bf15 bec4 3f20 3da0 bf70
3dfe 3e0d bd6e bece be5b 3f05 3d86 3e3c
bde2 3db2 3e38 3ea6 be44 be16 3e36 be28
bf4a be50 3e83 bec0 be76 bdeb bf18 3e0d
3f22 be1a bdbe bd8e 3cf4 be82 3e28 bf35
3ed7 bea1 be0d 3f9d 3eb7 bf1b bf1b be94
3d62 bf10 bce8 3f74 be4c bef7 beb0 3ec0
3f6c 3ea7 bf38 bebb bd3a ba80 be2a 3e21
bde9 3e81 3e98 beef 3f96 bf82 be8e be90
bde3 beb2 be86 bdc8 bf7e be18 bb20 3f06
3db8 bca4 bede bf04 bf07 bd40 3e2b bd61
3e74 3e97 be86 3f2b bf1c be0a be05 3f20
3e4d bf2f 3e3a beb5 be78 3daa bd6c be92
3e7e 3f80 bef6 bf37 be25 3e1c bf89 3d3a
3db6 3f34 bed1 be9b 3ae0 bec2 3dc1 3c24
be6a bf2a 3f41 beb0 3ddd 3db5 be0d bec5
bf12 3e65 3ede bf1e 3e75 bed9 bf23 bfc8
be6b bec0 bc9a be68 3eac bea6 bdd6 bd4b
3daa be20 3f09 be76 bf0c 3df8 bf62 bda4
beac be12 bec4 be0e 3c14 3dfa be4d bf26
3eba bf00 bee7 bdeb be6b 3cf2 be99 3d1e
3eec bf29 be62 beba beec bf57 3e06 3eab
bf0e bf50 3cff bf3e 3f02 3f11 3e2c bc11
bf5f bdab 3d9f bf46 3df8 beb9 3e1c bea6
bda7 3d2c 3eef bd20 3e9c bdd9 3e84 be67
3e38 3eac 3e8e 3f94 bea2 3e33 bf03 3f04
bf5d beda bea8 3d0c 3d56 3e54 3e33 beb5
be85 be4f bdac be9e 3e80 3eb7 bf4f 3f42
be7e bf1a be97 3dc0 3f03 bf0b bea9 bf82
bf03 3e15 3d7e be0a 3e98 bf2d 3e7f 3e6a
be74 bda6 400d 3e68 beae 3ed5 3f16 bdab
3d38 bbd0 be33 be14 bdf8 be70 be1a bdde
3f0c 3d4c bf4f bf1c 3ef4 be02 3e35 bdc1
bf24 3d82 bd30 3f46 be18 be5e 3eed be24
bf29 be92 bdcf be57 3db7 3f66 bda2 bf67
bf34 3f0f 3ef1 3e7d 3e6c bede bd08 be32
bed5 be20 beb4 bf38 be21 be96 3e43 be38
3de4 bdc5 3f0c beca bdf3 bfbe be2a bec0
3ec8 3f8b 3f42 3e02 bc4c 3f1b bee6 be64
be5e be92 be33 be2e 3f26 bbc8 bf30 bc88
be68 3e0e 3e74 bc8f 3ba0 bda6 bf40 3da9
bf67 3da8 3dec bf15 bd54 3e1e 3e83 3edc
beaa 3fab bd81 befc 3ec0 bf49 3e52 3eea
be0e 3f01 3e06 3e80 3daa bf8e 3e61 bf41
be38 be14 3e70 3f11 3eb9 3e54 bf48 be77
be86 bec9 bf7a 3f5d 3e7d bdd8 3df6 bf6b
bf2a 3dcb bea9 3ddc 3e72 3e83 3e60 bf1f
3ee4 bdec 3ce0 3e93 3def 3c48 be56 be7d
beb6 bec1 be1e be82 bd10 be66 bf1e 3ef0
3ea2 bf08 bd6e 3ebc 3ea9 bf3e 3db0 be05
be28 bdf6 bd98 3e91 be6d 3efd be96 3e92
3dbf 3eac bf7e be2b bed8 bca4 3f34 3e16
3f08 bcc4 3e19 beac bec3 bf0b be75 bee8
bee4 be55 3ed0 be45 bd52 3e85 3f9f bf33
be98 3e15 be9a be2c bed2 bcde beae be64
3ed1 beb3 3e85 3de0 beb3 3d90 be2b be83
bedf bc72 beed 3e18 3ecf 3dc4 be97 be95
3f1e be32 be4e 3f87 3e55 3eb7 3d80 bd98
bf0c bdfb 3d72 3e3d beb4 befe 3f34 3d1b
bec8 bd0c bd38 3cee beec 3da6 bed2 3d7a
3eef bdbe bede be6e bedd bef7 3e74 befe
bedf be62 be6f 3dcb beb6 bf19 bd08 3e89
3e28 3e9e bf73 bd82 bd65 bdfa be36 bf17
3d8a be05 be29 beca 3ea0 3e28 3dfc bf17
bc58 bdd2 bce9 3f02 bf86 beb7 bf12 3ec3
3ea4 be3d 3dc1 3e01 3e2d be02 bdbe 3dc0
3c12 bec2 3d49 bebd 3ecf bedf bd26 beca
3e82 bf36 3d9a bc70 bc40 3f33 be59 bee6
bf1d bedc bac0 bf22 3db0 3ee3 3e26 bd52
bf8b bea3 3f2d 3e06 3f38 beb7 be40 3f23
