3f3c 3db6 bf3d bf4d 3f22 bf2e 3e56 3d20
bcb3 bf26 3c3a 3ec7 bf37 3f36 bf8c 3e51
bc3c bd80 3e44 becf bf18 bf90 3e89 bece
bee6 bf03 bd06 3eb2 bf24 3d9b beb5 3e31
3e8c bd98 beb3 bf48 bf2d 3f10 3d72 3e86
3e50 bf16 be8d 3ee2 bef4 3e30 c0fb 3cb6
3fcd bf03 3f91 3f2a bf1d 3fec 3f65 bdb4
3e17 bf2d 3f2d bfb3 3e4a 3e06 c01a bf35
be18 be62 3d52 bee7 bec1 3ec3 be14 bd19
bf8f bf54 3d62 be87 be27 3f97 bed3 3eaa
bed2 be98 3f2c bedf 3f8f 3e42 3eab 3a00
bd6d 3e6f be68 be1a 3bb0 3f01 3ea6 3ddb
3fd6 bf0d 3e57 bf2d 3ecd bd20 3e94 bf1d
beeb 3f6f be5c 3ef2 3f06 bede 3f61 3ed7
bf2e bf1b 3e8a bdd5 bec8 3f06 3e97 beca
bf64 4015 bc3c bea5 3da9 bed1 3eb4 3e0a
3e6a 3e3e 3e7f 3e88 3f4a bc86 beb4 3e38
3ed0 bde2 bf04 40e5 be18 3ed9 bfb7 3fab
3eae c136 3e16 be87 3e65 3e5f be8b 3e60
bee2 bebe bf28 3f12 3f41 bd10 bd74 be08
3edb be4d 3ef2 bdff 3e92 3f55 3eb8 3e14
4025 bee3 3ebc be8d 3f46 3dea 3ebe bf9d
3de2 3d11 be49 3e3b be7e 3ddf bdba 3eaa
3ea4 be6a 3f51 bce2 be23 be0b bf17 3cc5
bec1 bed0 be87 bd1f be1b bdfa be94 3e80
bf44 3eac 3fb7 3d94 3eb6 3a60 3f18 bca0
bdc8 3e4a 3f06 bf0a 3efb bec2 be7a bfdf
3e8e 3ed6 3f5f 3df4 3f48 3f48 3d98 3db5
3edd 4002 3d9e 3eda bd9c bf42 3f72 be9c
3ef2 ba40 3e5f 3f2a 3e13 3ef8 be15 bec9
beaf beda 3ddf 3f38 3d97 bf55 bf1b bea2
3eef 3fb7 3e77 bf57 3e7b 3c2c 3ecc bddd
3e32 be8d 3bf8 bda8 bdb6 bd90 3f5f 3eeb
3f05 bec6 be4f 3e32 3f08 3980 3e0d 3ec7
3dda 3e6f bf7e bf07 be4c 3ef1 3ea8 bc8c
3e6c be05 3f19 3dac 3ebf be4b 39c0 bee9
bcce 3e94 3efc be96 be40 3e05 3ed2 3e4e
3f09 3f0a bf49 bf86 bf76 3ea8 3f3f 3de0
c00d 3f12 be74 be5a c278 bedc 3c7c 3eee
3f03 bece 3f2d be8c bf0a bf02 3f53 3f4d
3ec2 be42 3ec3 3a40 be1b 3e9b 3f07 3d58
3dae 3e6d 3dba bf64 be05 3f02 bf98 3f0f
3ea3 be82 3eaa 3e32 beba 3f28 bc16 3e34
be28 3fb6 3edd 3eb0 be3c bdde be4e 3ef0
3e88 be3a beaf bf2e bf19 3e46 3d0d 3cc8
3f2e 3d00 bce0 be77 bc94 3ed2 3d28 3ed3
bf3a be05 be10 bedf 3e88 3ecc bf31 bf2f
bf4a bd14 beea 3e22 3e5d c0d8 3e9f bee6
bca9 3e8f bdb2 3f3a bf35 3d9d bf39 3e37
3c5c be73 bf60 bf0e bda7 3f17 bdc4 bda2
3e9e 3e35 bb80 bef0 3e95 bf4a bd56 3df2
bd4a 3c3c 3b88 bde1 be50 bf25 3edb 3f65
bf0f 3db4 3ec3 3f58 3c38 bf36 3f6e bf33
3e44 3e8f 3ec0 3da8 3d76 be68 3c8c bf42
be7f be1c bd51 bf01 3ee6 be90 3ed8 3f4e
3e78 3f4a 3e27 3f57 bef7 bdfe bf26 3f00
3eb0 3e81 befc 3f04 3f00 3da4 be7d 3e31
bdc2 3e34 bb80 bf64 3ea3 bdff 3e9f 3eb3
3d71 bcf5 3e8b bdb3 3f24 3edc c018 bd00
3de8 bc40 3eb0 3d7a 3ebc bbf7 3bc0 beac
be44 3f33 bf89 3e48 bead 3f1f 3ebc 3f02
3eb8 bd52 bb72 3ed9 3f76 bf03 bdbe beb4
bf22 3ee8 3cec bf81 bbec be2f 3eae 3d20
3daa 3e25 3f18 3eb0 bec2 bf5e bdde be92
bd06 beaa 3b8e 3e91 be32 3f1f be7c bca4
be81 3f0c 3f9a 3eb4 3cac 3e0b bdd4 be4f
3e2f 3fb2 3ed6 bfb2 be7e beff 3d70 bf67
be7e 3e22 3edd beb1 3e88 bfdb beae 3f87
3e6e 4070 bda0 bf3d bf16 3dd6 3cd2 bf53
3e0f 3ea2 3e42 3e6a be74 bd30 3efa 3e3a
bdea bd47 be76 3e3a 3e42 3e44 3d90 3d0a
3d97 3e48 bdb9 3e34 3e2f 3e07 3f45 3eef
3eb0 bf0a 3cde bf35 be50 3d0e 3e5f 3e1e
bd13 3dda 3eaf 3e0e be10 be05 bca8 bf31
3e7b 3ddb 3de0 3c92 3f29 3e0e 3eec 3f25
bf36 ba40 bdfb 3f90 3d71 3f29 bdc3 3f42
bf93 3f2c bf4f becc bd42 3ea0 bf99 3d76
3f19 3e7e 3f65 3ebc bcfc 3e38 be9f 3e90
bec3 bcee 3ea7 be88 3e25 3e82 3da0 bef6
bee6 3f1d 3f4b 3d4f 3f71 3eac bca1 3f02
3e9c 3e91 bcda bed3 be1f 3f11 bc18 3e66
3dca 3e08 3e35 3d95 3d7c 3f2b c058 3ec5
3d86 bf06 3f00 be66 3f0a 3e25 be48 bed1
3eb6 be38 bed1 bee3 be68 3e1a bfab beae
bd8d bc4c beca 3eb9 3f30 3e54 3dbd 3eae
3da8 3cbc 3d07 bc10 bed0 bf03 bd92 be75
be06 be59 3df5 3eb6 beb1 3f2c bf60 3f7f
bec9 bd3c beca bf93 bcc1 3db3 bf75 bdf5
bc60 bb30 3fb1 3ecc 3d68 be9e 3eda 3eac
3f41 3f2d bf82 3f5f bf10 be85 bde4 3c1c
be7c 3e9f 3dbb be1d 3ea5 bf1f 3d72 bbd0
befa 3ecf be03 3f80 bdc0 bfea 3ee0 3d20
3f66 bd3b bf29 3e45 bf4d 3cdf bdac beec
bdbe 3ed3 3dcc 3e68 3f0f 3f40 be1b bda5
bf50 3eab 3de3 3f02 bf98 3e78 3d21 3e12
be0d bf4d 3ee6 bf34 bd8a be45 3e96 3e92
3e82 c010 be6b bf01 3fb7 bf23 3cfc bf3d
3f47 bf60 3ef4 3e34 be62 3fb9 bedf bfd0
3f2c 3d51 beb1 3f92 bf04 bf2c bebf 3d29
bd99 bfd2 bf37 3ef8 bfc4 3f9e 3f6d beb2
3f51 be89 bf97 3eee 3f0c 3d97 3edd 3f89
bfae be6a bf21 3e42 bf23 bd88 bf72 3f64
3fba be92 bf41 3fb9 bf35 bee4 3f8a 3f2a
3fa8 bfb3 3fb8 bfa5 3e1e 3f9e c030 bf8d
bfc2 bfa9 3fac bf17 bf81 bf83 bee8 3ff0
bfd7 bfc1 3efb 3f2a 3eba 3fa1 3f2f 3f18
3f12 bf8f be40 be40 beed 3f7b bf98 3e8d
3fc4 3f8b bf6f beac 3f47 3f27 3f0a be22
bf18 bffb bfd0 c00e 3f94 3f81 3f5f be12
bfc5 3d58 3ef6 3fc1 bf83 bf1c 3fb0 3fd4
bf72 3f76 3f92 3f93 3f9e bea6 c030 bdec
bfa9 bfb2 3eca be74 bf29 3fc9 bff1 3fe3
4010 bea9 4000 beab 3feb 3f52 bf27 bf08
3f0b bf36 3fd1 bfe0 c020 3eb4 3f0d 3e97
3f9d c0a3 c011 3e54 c000 3ff7 3f1c bf10
3f69 bf25 c007 3efc 3f37 bf69 3f84 3f81
3f89 bda0 3fe0 3f3e bfdc bf0f 3fbb bfeb
c038 3d40 3f7f 3f97 be54 3e88 bfb2 bf36
be7a 3dd6 bd67 bcd8 bf4c bf19 3fe1 bf6c
3f5e 3f36 3f41 3f05 3f54 be8c c013 3f8a
4004 3f14 3f15 3ef4 3f62 3efa 3e64 3e74
c010 bf90 3f89 3fb4 becf 3ee0 3ff1 3e92
bf29 3e61 3fa4 bfb8 3ff0 bec4 3ee9 3f89
bf6a bcad 4008 3f2a 3f37 bf96 be60 be73
bf87 bede 3fbd 3fee 3d4c 3f7e 3f7a bfe1
bea0 3faf bd98 bed5 3f1b be5f befa bf70
beac 3e16 bf2e 4000 bf84 bf0a bece bf6d
3ff1 be96 3f34 bf51 bf4c bf42 beb7 3eed
bf4b 4022 be93 3f88 3f0f 3ef6 3fbd 3fdb
bed4 3f00 bf3b 3e2f 4023 3f1e 3e08 3eec
3e5c 3dbb bd12 bfaa 3f6c bf14 3f3f bf6e
3fa7 bf59 3f61 3f51 bf67 bfdb be47 bec0
3efa 3edf 3fad 3f0e bf59 bff3 bf1d bf62
3fb2 3f74 bea0 3e3a bf23 bfae bf5f bf61
3ef3 3caf bef2 bf0c c045 bf8f bf53 3f2b
3db7 c012 3f53 bf6f 3f07 bf17 c00d bfb4
3e68 3ed8 bfda 3fbc c027 3f86 bf57 3f96
3e9c 3f2a bfab bb96 3f76 3f6d 3f59 3f08
bda4 3e38 beb2 bf15 bfd1 bee6 3fa3 3f77
bf72 3e76 3f9f bda1 3f1d bed4 c015 3fb0
bf9e 3dc2 3ef4 bfa6 3ef4 3dd1 bf79 3f9a
bebe bef4 3ea2 3efc c007 3ed8 3e3b beb1
3ee5 3ebc bdce 4013 bf8b bf21 bf2f bfbd
3fb2 3fe6 bf95 c002 bf8a bfbf 3ece bfb5
bf5a bf5a bf9e 3f3e bea3 bc58 3f53 be1a
c00b 3f61 3fd6 3f76 bf08 3e34 bfdd be94
3ed2 3eb2 3fb6 3fa7 bed4 bf34 3ea9 3ec1
3f7e c022 bebb be61 3cb8 3f63 3f66 bf1f
bd58 bc28 bfcf 3e13 3e86 3e4b bf65 bf91
3ea8 3f10 be47 bf00 3ebc bf09 3f08 bddf
3e9b 3dc2 3ebf bf63 3c4c c016 bbb0 bf83
bf83 bd27 be7c bf58 3f55 3fc3 c058 bdeb
4010 3ed6 bf34 401b bebf bf5f be36 bea7
3f28 bf28 bfbc bf95 3e8c 3f25 bfad bec1
3f68 3d32 be69 3fe6 bf52 3f2e 3f26 3cf7
bfbc 4011 3f18 bf5e bf39 bfa6 bf86 bf4b
bf76 beb9 3f8f bfe3 becb 3f86 bf56 3f8a
3fca 3cb0 3ea1 bfc4 3f77 3e13 3fcf beae
c066 bfd4 3fb5 3f71 3fd4 be76 bfe5 bf71
3e89 3f0c 3f9a 3f50 3eb7 c033 be8d bf52
3f77 bf56 bf09 3f4f 3f6d 3f08 bf02 bf3e
bf70 bf84 3ffa 3f3a 3f9e becf bf28 3ec0
3f03 3dd4 3f3b beee bf46 be1f be9a 3dc6
bfab bff7 bfac bfb3 3f68 c0a4 be9a bfb8
3f9e 3ff2 3f90 bc30 bef8 bf84 be7e bf8b
3ea6 3eab 3e59 be19 3f3a 3eee 3f6d 3fef
3f4c bfd4 bfa8 be6e bfb3 3e50 bc08 3f55
bfd4 3ea9 3fe4 3f38 be5d be32 3ed0 bf8b
bf91 3f96 bfa3 bf72 3e26 3ec3 3faf bd6f
3f54 3fa4 bddc 3f6f 3dc0 3f95 be10 bf46
3f9c be62 3f03 bf6d 3fb3 be93 bf42 400f
bf96 bfd6 bf94 beb6 bf44 3fde bec7 3e1d
3f95 bf1c 3dec 3f52 bf4a 3fae bf8c 3f5e
3f02 3e20 3eab 3f93 bf85 3f9b 3efe c02a
3ead bfe7 bf4a 3f3a c060 be95 3ece bdb3
3fa1 be1a bfa0 bd9a 3f62 bf07 3dd4 3f90
3f16 3f5c 3f0d 3f10 bf99 be54 3e85 bdb2
3d88 3e5e bfb5 bee4 3f5e 3e94 bf99 3e44
3f24 3e82 3efa bf73 3e36 3ec5 3ede 3f9c
3e5f be8c 3fe4 bdc0 bf8e bea2 bee0 bf00
3fb2 be54 bfc1 3f68 bd72 3f18 3f45 c06a
bf4b bf0c 3fd8 bf18 3f6b bec6 bff4 be01
3edb bf1e bf3f bf90 bf04 3fd3 bf2a 3fa2
bf42 3fa0 3eb3 bf5d 3fbd bf18 3f1d bf5b
3fac 3eda be63 3f67 be36 3f95 3f32 3e3d
3e3a 3da5 bf8d 3f87 bffe 3f2c 3fad 3eae
3ea7 3e99 3ef2 3d04 3f89 3e64 bf32 bcc4
be16 bc86 bd33 bf36 3f98 bf81 3f05 bf28
bf06 3faf c047 3f4c 3da6 3f43 bf75 3e55
3f43 3fc9 3f34 bd50 3f99 3f6b bf35 bf4b
befc 4003 bf49 beab 3f4e 4037 bd2e 3f6f
beaa bf73 3f8a bf2a 3ff1 3f5b bea8 3fae
be64 bf2c 3f2d bf7e bdc9 bdf0 4042 bfb3
be32 3ff8 3edc c013 3ff6 bf55 bf96 3f6e
3f5a 3d24 bed2 bdbd 3f85 bf91 bf8c 3f3f
be4e c05d bede 3f90 3ed6 4036 3e7b be94
bf37 bfd0 3fff bfd7 bfc2 3eda 3f8c bf1c
bff0 be2e 3fbf 4000 bfb5 c00d bf82 3e26
bec5 3efa be59 3fb0 3fc8 bfad 3fdf 3d58
4013 bc80 401d 3fc8 0000 be85 bf62 3fac
bf44 3f90 bf75 be91 bfe8 be38 bff6 3cd0
bf74 3e4e 3f7a 4014 bef2 bdf2 4023 c020
3fa9 3f6c 3f69 3eea 3f02 bfe1 3ff8 3eb0
bfef be7c 3f5e bfaf bdda 4050 3f82 3f80
be93 3f7d c018 4016 3fe4 4012 bc40 3fc4
3f0e 3f8f 3f46 bf20 c00c 3e58 3e4e bf96
bf01 bfbb 3ff8 4016 3f9c 400e be1e 3f7b
400a c010 3eb4 3fd1 bf89 3f24 bf86 3f04
3e42 be8c bf0b 3fad 3f98 3fee 3f60 bf96
3f74 bed2 bd4c c08a 3ef9 3f70 bef6 3fbf
bf10 c0ca 3e8f 405e c032 be67 3fa0 4005
3e7b 405c 3e5c 3e92 bf8c c08e 3e56 3f8f
400b 3f81 3d6c befa 3f0c 3e2a c01a 3eac
bfa3 bf3e 3ed2 be78 3f40 3fd5 3fb7 bff0
bfcd 3c00 bfcc 3ee1 bce4 3f01 bf38 bfb8
bf5d 3fcd 3e39 400f 3fc6 bed5 bf4a bdd3
3fda 3f3e 3f15 3f98 3eac bf2f 3f46 3fac
bf14 3f64 3f1a 3fa4 3fec 3fb6 3fec c031
bf1b bec5 bf6c be62 3f87 be7d bda4 bfc8
be96 bf2a bd98 bf2a bfae 402c 3ff0 bf83
bff4 bf34 3f64 3fad bef2 bdf4 3b80 3f55
3ffc 3f26 bf20 3da2 4021 beec bf28 c004
bdea 3d84 3fdf 3f8e 3e06 c00c bd8c bc20
3f0a 3f0c 3e18 bf2c 3f79 bd70 c040 bff0
bf3f 3fea bfdd bf3b 3f6a 4024 3d53 3f08
3fa0 bf87 c01d 3fe8 be81 3d10 400a be93
3feb bf14 bfc2 3f06 3f7f c01d 3f8e bfc6
bf46 3faa be68 3dc8 bfec 3f1e c016 bf98
be7e be82 3ff2 bf94 c01c 3e12 bf60 bf92
bfe8 3f3d bfec 3e20 3faf 3ea7 bfcc bf1e
4022 3f43 3d8c be0b c151 bf3e bf7d bf35
bf1e bef6 3f33 4014 3d70 bf4a 3f30 3f04
3fc3 bf64 3fe4 3f32 bfc5 beae 3e37 bfbf
3fa9 3f41 be72 be32 bf9e 3fbd be84 3f52
bee3 bf99 c014 bf6f be01 402d bfec 3f9d
c086 be72 bfbe bfa4 c029 bfa8 bf7a bf88
bd6c c028 bfde 3e9a c036 3fdf bf7e c026
401a 3f56 bfb0 3fa1 befd 405a 3ebf 3f64
3f76 be8e c009 3f37 3df0 3f88 c026 c02d
3d02 3e83 c011 3d99 3fd1 bfd8 3eb8 3f3d
bd1f 3fab 3f91 be8b bf65 3f17 bf6f be08
3ed7 bfcc 3f10 c003 bf78 be38 bfcb 3f02
3f83 3e8c c014 3d7c bf18 3e54 3fd0 3f9c
3f82 3fe2 3d34 4008 3d40 bee7 3f01 3f5c
3fd5 4005 3ed9 3fce bfcc bf92 402d bed2
3fcd 3f96 4019 3f76 3f58 3ff4 3f10 be24
bf84 c00b c001 bfb3 bf10 bfbb befa 3f32
c007 bff7 bf6b c068 3ed8 bfa3 c00e 400d
be10 3ecc 3f40 3f94 3fa9 bf20 3f13 bfec
3f50 bfc2 bf84 3d38 3fee bfa6 bfcd 3f4a
bd38 bf94 4016 bd82 bff0 3d48 befe bf67
bff3 bed3 3f7c be1d 3f00 3f17 3f6a bfc2
c053 3f18 3f85 bf8b 3fa1 bf44 3fd6 3f76
bf1b 3fb0 3fd7 3e81 400f 3fd1 bead c013
c03e bfce 3fe4 be32 be02 bf6b 3fc1 3f9c
3f0f 3f5c 3edf bff5 4015 bfcb c016 3f2a
3db0 bf8f 3fc6 3db6 bfb6 3f5e 3eca bf9d
3f2a bfe0 3efa bed8 bfec 400e 3ed7 bfd2
3f06 3d38 bd00 bc48 be34 c025 bfba bf00
bf72 be9c 3e3c c052 3f74 c0d2 bd18 3fc5
3f27 bee4 bcd8 bf0e 3e3a 3f77 bdc6 bef3
3f14 c02f bfdd 3e03 c007 bf96 bf5c 3da8
3feb bf87 3f14 bf46 bf82 beac 3f6c 3f55
c00d be36 3ed0 3f92 bf1e bd14 bfff 4038
bd83 bf0a bf86 3e91 c028 3f26 3f2f 3f00
3f58 bea0 bf13 c007 3f09 4007 bfa0 3fcf
3e8f bf83 3f3a bf6a 3f85 3cc4 be26 3fe4
3fb9 bb00 3f6c bf3a 4049 3f3d bca0 3fce
be88 3fbe 3f29 3f32 3ff4 3fc7 bfa4 bf00
be9a 3f36 c00d bebe bfb9 3f36 3fe4 3f21
be52 bdae 3e5c 3f06 bf08 3fc8 3eac be9e
bfbf 3fec 3e90 3f44 3e39 bea4 3f82 3ebf
bf00 3e08 c04d 3ec5 bf68 c00a 3d5e c010
3f96 3f84 bf56 3f8b be0b 3de8 bfac bfb7
3f7a 3d26 3ef0 3e62 be8a bfb6 bfe6 3e07
3f1b bd40 3edc c026 c02c bfdf bf5d 3f1a
3ee0 3fd6 bee8 3fc2 be1d 3fb6 3efc bf39
3f30 3ec8 bf17 bef0 bfaa bec2 3f44 be3e
3fe7 3f56 be97 3f74 bf4e 3f54 bfe0 3fe8
3f44 bf35 3f20 be99 bf88 bf5a bfde bfcb
3f44 bfc4 3fbb 4047 bfa6 3f7c bf95 3f9c
3ee5 3fb2 be20 bf32 c00c c02f 3fa1 bf38
bf09 bf83 be92 3e7c 3f5f bfde 3eac 3fc1
4016 3fdb 3f0d bf48 4002 bfd0 3f0a be9e
3f9e bf9e be50 be88 3fb0 bfef 3e91 beca
4006 be98 bfbe bf82 3e64 3fbc 3ef0 3fab
bea6 4016 3e7c 3ffb 3f8a bf8e 3f30 3fa4
3fa5 bffd 3f12 bde1 3fea c034 3f95 c024
3eb4 bfd3 bea7 bede 3ee6 bf53 3e04 bf67
be45 3f3a 3ed5 be9a bf0a bc18 3f66 c00c
be7c 3ef6 bf6c bf6d bf3c bf4f bf05 be00
be18 3e29 3e82 be26 bfdc bf72 becb 3f40
3f20 c022 bf34 bfb1 bdcd 3dda bf4e 3da4
bfb0 3eee bff4 3fb8 bfe1 be85 bf08 3fde
3fde 3f32 bf4e 3fdd be26 be9f 3f01 3cc0
3e92 bfe1 3fc6 bf9d bef9 3eaa bfa6 bf01
c01f 3e82 3d24 bf6a bfb0 bfaf be80 3e54
c04e bf93 3fd8 3fe1 3fa6 3f31 3e82 3f50
3fb6 bf83 3f9d bf4b bf2d 3f54 bf87 bed9
bf10 3fdc 3f05 bf04 bf4f bf08 bfea 3f74
3f0c be34 3f02 3e8f 3fbb 3fa4 bf9e 3ed2
bf6a beab bfe0 bf42 bf3e be81 400b 3f96
bf94 bf3a 3ee2 3faa 3e17 3f60 3f1c 3ee6
bf8a c008 3f7b bdd6 be40 bf0e 3efa 3f22
3fc5 3f85 bc00 3ffe bdae 3ff8 3f18 bf52
3f5b bd84 bea9 bfdc 3fd4 be91 3fa4 4012
3f52 c06a bf87 3f55 bf89 3fe7 4012 bf34
bebe 3f5c 3f8f be0b 4013 bf92 3efa 3fcf
4000 3f53 3ea6 3f9c bfb2 3eb6 3f5a bf00
bfd0 bfa6 bf24 4024 3f40 3eba 3f35 bf6b
bf97 3d2c bf02 3ffd beac 4004 bea6 beda
bff2 4000 bf83 bec4 3d3a bf61 bf2e 3f2d
3f3a 3ee4 bde4 3fc1 3ef7 3f95 be98 3f79
bf66 bed8 bf13 bf02 3f19 3f31 3f58 be49
3ed7 c05f bf5f bf4e 3f8c bf28 bf74 3cf4
bf37 bf91 3f02 3fb7 bdfa 3f0e 3f21 bfbd
beea 3f84 bf61 3f8a bed9 3ec2 bec7 c04a
404c be60 bf2a 3f8e 3ff6 bfa3 bf96 3f17
bf81 bfa2 3e6c 3fe8 3e91 bf02 3f0d 3ff2
3f70 3ea8 3eff 3f35 3fe5 bf00 c001 bfa7
bdbc 3e72 bf25 beea 3f4e 3ecc 3f17 3e4e
bf15 be6e bf88 3fde 3f5d be40 3fe5 bfb6
3f2e 3f54 3ede bf7c 3fbe 3f1b 3e40 bf84
3f1c bf99 bee3 be5e bf2c bfb9 3ea2 bf8b
bf43 3eb3 3f73 bf98 bfd6 3f4b bf6a beed
bfd1 3fc0 bf57 be8f 3f2b 3f62 bf0a 3f86
400a be16 3f09 3edb c088 beff bfbf 3f9a
3f1c be8d 3f5d 3c8c 3ecd 3dd4 3f95 bfa5
3f8c 3f60 be14 bfc3 bf0a bf78 bf10 bfdb
3e72 3fe9 bed6 3f5c be13 bd11 3cfe 3dba
bf94 3fe2 bf34 c01e 3ec6 3f95 bd77 bf58
bf6c 3f6e 3fb1 3ecd be8d c016 c06a 3f21
bf6d bfb7 3f14 c020 3e4e 3f81 bf12 bf10
bf60 bf1a 4005 3e36 3dc1 3f79 3f04 bfbc
bf9a beeb 3f62 3fb3 3e33 3f9e c042 bffa
3f10 3f25 bfe3 bfd2 becd bfd6 bf81 be48
bf13 3eaa bd40 3f0a bf9a 3ff6 bf0f 4033
3f4b bf58 3f97 bf6a 3e8e 3f2a bf8b bf37
3e3a 3f84 bef3 bed2 bff0 be2e 3f80 3fc7
3ff6 3f64 bfd0 3f36 bf02 beb2 3fac 3e48
bfd5 bea9 bf46 3fb0 3e18 3faa 3dae bf69
3fe1 3ee0 3f94 3cc0 c000 3f8c 3ffb bea0
bf7d 3dd7 3f9d bf52 3fb7 c020 bf8c bf5d
3f73 3f12 bdb6 c033 3e48 bf37 bfae bf1e
3fcf 3f86 bf78 3ff3 3db5 bedc 3f79 bf2a
3f7e bf82 bf0e c017 3ed8 3e72 c005 3eeb
4017 3f7d 3ebb bf89 bda8 3fa6 3ec0 3fb6
bdb4 bece bf10 3eff 3eda 3e8c 3ed0 bfcf
bff8 bf86 3fa2 bfba bfbf bf5a 3f1a 3fc8
3fab 3fa6 c01e bf69 3ff2 3fef bfe7 3ce0
3e37 bf5f 3f61 bf79 3f88 3f9b be0e bfb1
3f41 3f54 bf60 bf79 3f77 3e2e bf67 3efb
3ee6 3f66 bf5b 3f0e 3f57 bd89 bd2a bff4
be25 3c70 3f2a 3f43 3f85 be16 bece bf24
3e8b be16 be74 bf13 bf0a c019 3f0b 3e28
bef4 3f03 bf8b bf4a 3f9e c0cc 3e9b 3fcc
4000 3ff8 3c20 bf7e 3da4 be9c 3dbc 3f91
3f42 3de5 3e78 3f6b 3cf0 be03 3efd 3f53
3f62 c01f 3ffc bf20 be2f 3f8e 3fa1 3fa2
c01b bf68 3f41 3ff6 bf03 bfd1 beda 3fed
bef1 bd5a be5d c023 3f91 bf36 3e3b 3d5c
3f50 bf8e bd10 3f5c bea0 4001 3f31 3fe4
beca bf30 bf7a bd28 402d 3e02 3f79 3f14
bf27 bfbc bfbf 3fc3 bf9e bf01 beba bda2
3eb8 bf52 3f1d 3f8d 3f01 3f44 bf47 3e82
3fe8 be35 bfa8 bc30 bf2e bf48 bf04 3ead
3f12 c056 3f32 3f8c bfbd 4002 be68 bf8b
bf9c 3e99 bf06 bf9f 3e27 bf27 3f40 3e46
bce0 bcc6 3df2 bf29 c064 bfbe 3fdb 3f8c
bf9e bfb0 bf34 3f37 bf3a 3fb2 bf83 4008
4008 3f38 c058 3f37 3e00 bdbc 3f22 c01e
3f83 beeb bf20 beac 3d28 3e24 bfe5 bf02
3fc5 bf41 3f94 3f8b 402b 3d98 3f5a bedf
3e46 bf33 be40 bfcc 3e94 3e81 3f56 c01a
bf01 4005 bde4 bda3 c010 3fcb bfbc 3e5a
bea8 400f bea1 3eaa 3f90 bfed bf70 3f80
bf89 bd46 3ffd be8a bfe2 bec0 bf12 3f83
bf2b 3f4a 3e17 3fea 3f68 3f30 3fa0 3f50
3e8c beb7 3f32 3f93 3f6f be1e bf0c 3ea3
3ee8 4002 3efa 3e7c 3f9b bda2 3e48 bec5
3fac 3e8a bf94 bfd5 be9d 3ef8 c084 c00b
3d68 3f72 3f10 bec4 3f1a 3f24 3eeb 3dcc
bebd 3f7e bfc4 3fcb bf53 3e62 3f2c 3f9d
3e85 bfa9 3f55 3ea5 3f52 beca bfac c002
be3e 3fb0 bf1f bfaf 3fa9 bf46 bfe2 4017
bf28 be24 bf44 3f2c bf70 bfb1 bc93 bf8e
bf94 bfb5 bf7c 3e0e 3f09 3e3a bf60 be60
bf32 bf3c 3fa7 beb7 c028 bf8c bf14 3ee1
3f43 bedf bea9 bf98 bf2e 3f01 3f9a bf8e
3fc1 bf94 3f2a 3f0c bf4f bec6 bfea 3f72
3fbe 3eb0 bc70 3f44 bf02 3f91 4019 3ec1
3fbf 3f0d 3f23 bfbd 3df8 3f68 bf62 be14
3ec0 bf64 3eed 3f32 bfea 3e15 3f88 3f82
bf0b bee7 3f4e bec1 bf50 3fc7 3ecf 3e93
bfc5 be8d 3ca8 3ede bff9 bec0 bec2 3da0
bd8f 3f93 3f26 3ea3 bf55 3f18 3ead 3f2e
3ec6 bf0e bf41 3f49 3ef2 3ebe bfbe bf87
3f80 3f0e bfea 3ea5 3db8 bdf3 bea5 bfa9
3ea6 3f5e bf5e 3ec9 bd0b 3fc2 3ce0 3fcf
3f96 c006 3f34 4014 bde4 bdf0 bedf bf74
bee2 3db3 c01f bed1 401c beda bd92 be30
3f75 bf80 3f80 bfd3 be0e bf54 c008 3fcf
3fe4 c064 bf85 3fa8 3f1d bf36 3d9e 3ed0
c00d 3f36 bfa7 bf45 3f4e 3f81 3f2d 3fd3
3ffb 3fec bf2f befb 3fa5 be72 be9e 3fc5
3e06 be44 3ea3 402f 3fcd 3f93 beac bf8f
3f86 3f98 bf1e 3e00 bf6a bf75 c052 3fa3
3fbf bfca bebb 4027 bed8 4000 bf71 bf1a
3f96 3ead 3ea2 c022 be91 bf0b bf98 be91
c000 bf62 3fe1 3f2a 3f58 bf76 3ff4 3eaf
4048 3fc6 3e7c 3f4a 3f6b c05c bf40 3eec
be52 c016 4001 404a 3f4b 3eca bf69 bf2b
c01c bdd0 3f20 bdee bf07 3f66 3e32 beb9
bfe8 bf2e 3f3d 3e90 bf8d 3fb2 4007 bdb9
bfb3 bcd8 3f0a be88 3e4f be68 bfa0 3e01
3f57 be25 bf9e 3f6e 3f20 3ee2 3e34 be62
c006 bc33 3fb7 bdfc 3f3b bf30 4004 bde8
3f2c bd82 bdeb 3fd6 bf22 3faf be83 3ec8
3ec2 bf7d be3e 3fe0 bf40 3fb9 3ed4 bff4
bf0b bf9d bf40 3fbe 3f03 bfa9 bf38 3e96
3f5e 3f1a 3efb bf6e 3f7e 3f3e be70 bfda
3eea 4046 befe bfbc bdfc bf27 bf28 3fba
bf57 3f05 3f95 bfc1 c095 3f19 bf26 3efc
bf61 be05 4016 bf07 c038 3e1a bf27 3d1a
3fa9 bff8 3e16 bf14 bf57 bef0 beb9 bf63
bf18 3ff9 3df6 3f94 3e9a 3f68 bf19 3fd2
3e8d 3f63 c011 3fc1 3efc 3d00 4009 3f4c
bf99 4015 bd94 bfbc 3fb2 bf9b 3df6 be2a
bf0d bf0e 3ea7 bfd0 3d0e bd4c 3f95 3f3f
3e3c bfe7 bf7d c009 bfdb 3fc5 3f92 c019
be9e 3fe7 bf04 3f96 bea1 3f1c 3f2a 3cb0
bf34 3e35 3e2e 3ed0 4005 bfb0 beab bfaf
bed3 be3c 3f03 3eda 3e7e 3f9f 3f7d befd
c018 beea 3f18 bd84 be9f bf5e bf04 3d14
3f62 bffb bec6 bee6 3e12 bf41 bf02 bf8d
bf44 4018 3fe6 bf59 3fe2 3f80 beff 3d4c
bfaa 3f72 bfba 3f98 bf08 bf9a bf60 bf58
bf14 bf4d 3fbe be87 bfd7 bece 3f2c bf5f
bfad be77 3f31 be8b be50 3f82 3f42 3e90
bff2 bfa8 bf2b 3e5f bf6c 3f89 c02a c01e
3e1c 3f82 3fa2 3f35 bce4 3f42 4005 bf1a
bf0c bfbc bedc bf1c 3f70 bb80 bf3c 3e9c
bf9b bfa1 3fa0 bf60 c007 3ece bf60 3f1a
be8a c018 bf16 3eb2 3e95 3fa6 3fe6 3f3c
c035 bfc6 3fe5 bea0 bff8 c01b bf84 3f91
3f38 bf4c bf84 3f27 3f5c 3d48 bde1 bdbd
bf8f 3e9a bd03 bd9e bf9a 3e86 beb0 bec0
bfbc bf00 3f8a bf8e 3f26 c02c bf35 bf63
bf85 bf1c 3ddc 3fbc 3fc8 3f53 bf74 bfb2
3ec8 bd8e 3ff8 bec6 bf16 3f9c 3fba 3ff6
3ff4 3f9e 3e1e bed3 3f3c 3eb5 3f94 bfa4
be37 bc80 be94 bea2 3fc7 c096 3e80 bee2
3f3a 3e8e bf8c 3e4c 3e70 4027 bf66 bfed
3dd4 bf7b bf6e bdb2 4003 3fb3 3da6 3f12
3fbc bf63 c050 400d 3f3c 3f68 bf4a 3fc0
bfa9 bf93 bec5 bf6c 3f57 bfa8 bd18 3ffa
3f2e 3fac 3f88 bebe 3e69 3f95 bf88 bf2a
3f76 beb5 3fcd 3f4d bf17 3f56 3f95 be18
bfd8 bf45 3f0a bf5c bf34 3ffd 3fce 3fc6
3f5d 3e46 bf3f 3f85 3f9d 3fa0 3e7e 3f0b
be8e 3ebe 4009 3fc4 bf82 bfa8 bfa2 3f33
3f81 bf2c bd2c 3f86 3f53 c02d bc4b bf76
c009 bf62 bef7 3eae 3e8f 3d38 3fcf bfa2
3d84 3f69 3f37 3de4 3e96 bfda bfa6 bf57
bd64 bf94 bdad 400a 3f83 3dc5 bf44 bf96
be3a 3fcf 3e88 bf13 bf80 3e42 bfd0 3f4e
bed3 3dba 3f86 bf16 3f12 bee8 bf9e 3f14
bf16 3ebd 3e32 bf62 bf8e 3f9c c020 3f64
bed6 be5a 3ec7 bf0e 3f33 3eea c00a bf37
bd8b 3f98 3f3b 3fa4 3fc8 3fbf be88 3f15
3f49 bef3 3fe2 bf3a 3ec9 3fb8 bf3c bf50
bf56 bf8c bf17 be08 3fb3 3eb1 3ea6 bfce
3f6e bf02 bfa4 3e12 bead bf61 be72 bf8a
bfe2 be8e 3dba 3fba bfcc bfa7 bd84 4009
3fc6 c013 3fa8 3f7b 3f68 bed8 3eac bf2e
bf47 3fc6 beec 3fa2 bfba bee3 3f3d 3e89
4022 3f99 bfdd bdb9 bed6 3f3d bfe0 c00c
3e32 3fb4 bf70 be57 3f09 bfcd 3f36 bfe2
3f88 3f48 bf8b 3cf8 bf2b 3e46 be3a c002
3fbd bfb1 bdb9 c021 3ff0 be26 3feb 3fb4
bd83 3f2c bef3 be41 3fb3 3f53 4002 3f1c
bea2 bfbc 3f2b 3f25 bf66 3f89 bebc 3e83
3fb9 3f8f bfc1 3e74 3f55 bf3e 3f14 bfa3
3f9b c02d be62 bded bf89 be9e 3f4d 3ff4
3f88 c004 3f08 3e8c 3f06 bf54 bfcf be5c
bf81 bf8c 3ecd 3f64 3e5c bfc8 bf07 3edc
3f9b bf11 bf9a 3f96 3f84 bf71 3f5b be5a
bf94 bef7 be8f bfc0 bf78 3f1d bfc9 c011
3d1c bf9a be99 3f15 bf33 bf8d 3fab bea6
bf1e bee4 3fa5 3f58 3e4d 3efd bdec bd58
3e80 3e8a bf46 bfd4 bdb3 3f8c bdb5 3ea3
bdf0 3fc3 3f9d 3f0c 3f30 3f0a 3e0c 3f8d
3ed8 bdda 3cde bf0f bf4d bf2e bf8c 3d08
bea6 bf06 3efa 3f77 bf5e bfb8 3f88 bed8
bff9 bff7 bee4 3f78 3f34 3f3a 3f9e 3f56
3ecf c018 bfad 3f70 bf69 bf1d bf40 bec0
3f8e 3ec0 bf93 3dce 3f04 c009 3f14 3e4d
bf03 be3a bfb3 c008 3e9a 3f23 bfc4 3e9c
3f24 c114 bfb9 3f06 3ee0 3f50 be8f 3f47
bf73 3fe9 be4c bf3e 3ed9 be77 bfc7 3f76
3f53 bf6f 3e96 bf97 3e4e bf81 bfb3 bc5c
c006 3f46 3f84 beba 3f01 3ea8 3f5e c020
bebc bef9 bf39 bfe9 bf9c 3fd2 beaa c010
3e17 be97 c00d 3f9d 3f40 bf9f bf90 c009
3ff5 3fb8 befb 3f0a befa be87 3f6a be47
bfb7 bfa0 3ff2 3f68 3e3b 3c00 bded be70
3f45 3fbe 3f72 3ea0 becc bf0d bf74 3f07
bf71 bf82 3fc0 3f46 bf3f 3fdb 3e05 bf8f
bf0a bdd0 bfa8 3fe8 bf11 3f24 3fa4 bf8f
3fb7 3f1a 3e66 bef9 3f42 bfc1 bf72 bf65
3f2b 3f78 3f8d 4003 3f84 be17 bf7e 3d18
3fc1 3e96 3eb6 3e3d bf8a bed8 3e9a bf6c
bf5e 3f68 bf58 bdc6 bf8b 3ea8 3fe4 be9a
3f4f bed2 3e12 3f1f 3fa8 c00f 3f68 3fb4
3f9d 3e18 beca 3fa7 bf9d 3f2a 3fb4 bf39
3eee bffe 3f0c 3fa2 3f6e be59 3faa bf64
3f2d 3fa5 3fbd c008 bef1 bfce 3fca 3d02
bf50 3fe3 be9b 3f2c 3f97 3ee5 bf3f 3f6c
be45 3e2b 3f30 bfab c1d5 bfd6 3e9a 3ed7
bc28 3e5c 3fbd bf82 beac be95 bf20 bd30
3fca bf21 be2c 3eae bef8 3cf0 bf15 3e8e
bf0d 3f18 c00c 3e68 bd98 bef1 3f8f bf2d
3f84 3ec9 3e32 beda 401a 4058 3edf bf00
c009 3f8a 3fbc c01c 3f47 bff4 3daf 3f4b
be22 c036 be53 bdae 3f55 bf75 be02 bff3
3f06 bfbb 3f38 be24 bf7a bf3a 3ecc becd
3f35 3e0b bf0a 3f90 3f52 bf8e bf84 bf88
3f4e 3eda 3ec0 bf1e 3fee c01a bed4 3f13
bf75 bf8c 3c62 3fe0 bed4 bf3e 3f35 bef4
3f02 3f24 3f9f 3fa4 3ec3 3e78 bfaa 3e34
bf85 4009 3f8d be4c 3faf bf43 bf95 3f5e
bec1 3f63 bfc6 3f7c 3e7c 3f8f 3f80 3f51
3efc 3f84 3f01 3fc5 bedd bfce 3fd2 3e8b
3e5e bebc 3fc2 bf08 3f08 400f 3f33 be00
3f52 bfff bd30 3e90 3f62 be7c be16 3ed6
3fd6 bf17 3f38 c012 bf87 4001 bf9a 3f4d
3ead beb6 3ee3 3f9c 3fc3 3f99 3f99 3ed0
3e84 bf20 bf1e c01f 3fd2 3e9e c018 bf7c
bebe befc 3fb1 3f10 bf93 3f02 3f8e 3f12
3e9d bf71 3fc0 3f33 bf57 3ef5 bfaa 3f1b
3dce bda4 3fa4 3f36 bf16 bf5f 3d24 3fb7
bf33 3f96 bfec c007 3fde 3f6b bf97 bf3e
bfe3 be87 bf64 bf72 3ea9 bfca 3f0e 3fce
bffa 3fa2 bf40 3f13 3e58 3e88 bd88 3f43
3fa8 3f5f bfea bede bef3 bf3f 3f95 3e60
3f85 beb2 bf3f bfbf bff7 3c8c bfc8 3f8b
3f0b 3f29 bf90 be6f be36 bef7 3fb8 bf30
3ec9 3f8a 3fd2 bf3f 3f1f c0e9 bf9f bf15
bee0 3f8e 3f95 beb4 bf9f bf8b bf28 3f16
3f88 3f9a bec4 3fa8 3ef0 3e85 3fb9 bd82
bf03 bda8 c011 bfd8 bf6a 3e9d bf76 be5d
c006 3ed8 3fba 3f22 3d30 bf4b bf31 3eac
bdd1 bf20 3f10 3e74 bf0b 3f42 4001 3de5
bf5f bf99 3e8e 3fc9 bf79 3f3d 3f9d 3d2e
3e3e bfbe be71 bf44 bf5e bf21 3f4c 3f51
3f8a 3f97 3f6f 3f72 3fd4 3faf bccb 3f93
3fc7 bf0a bfc1 3f32 3f26 3f53 bfbb 3fe4
bee8 3f28 3f6a 3fab 3ff7 3f40 be60 bed4
bf8f 3f24 c017 bf1a 3da9 bdee 3f9b be43
bf57 3fb3 3c9e bf86 3eb2 bfaa bed3 ba20
bf21 be4e beae bfbb bf56 bf59 bf05 3f02
3f33 3fbc bcc4 bf8a bf98 be99 c013 bfa2
3f00 3f51 3e13 beba 3fa1 bfb5 3d8a bfc8
3f3e bf80 bf8a bfa2 bea6 bf20 c03d be7e
3f2c bc00 3f08 3f1b 3ed2 3f85 3f12 c010
bf97 3e2d bd5c 3eb4 3f86 3f20 bfb6 3f4d
3e24 3ede 3f88 3f91 bf3f bfba 3ea1 3f91
be30 bf82 3eaa bf6e bf5f bf47 3fbe 3fbf
3f77 be35 be9e 3e9d bfa1 3f47 bf4f 3e84
bfac 3f1f bf64 3f92 3f00 bef4 be58 bdcf
3f0a bf17 3fb6 bf54 bf81 3f7d 3f40 bed7
3ee8 3ffc 3f7d bf40 3f67 3f0e 3f72 3dcf
bfa2 3f39 bd4c 3e40 be81 bf95 3fa9 3e4f
3f9e 3f02 bf0e 3ded be08 be80 3f29 bef2
be1c 4001 bd94 3d0d c034 3db3 3f42 3f50
bdb9 3f03 3fb0 3de9 3f2b 3e56 3fca 3f80
bfb2 3db1 bf38 3e12 bf47 3fc8 3f02 3fac
3fbf bb80 beaf 3ff2 3f8e be90 bfdb 3ffb
3fd3 3ef3 0000 3f32 3f0b 3f14 3fd1 3ec5
3fd2 3f1d bec6 3ff5 bfe9 bf76 3d2c c009
be4e c009 3f19 3da4 be9a bef6 bc30 bf66
3d98 3d16 3f08 bf17 3fa0 c00d bf8d bf0a
3f44 bfd2 3f9a bf32 3e32 c08c bf7a 3f84
3f19 bf8c bf0d be2e 3ddc 3f4c c038 c019
3f52 bf36 bffd 3fb4 3f18 3f26 3e9a bfc2
bf7e bf99 3f62 bf4a bf9e 4008 bf93 beb6
3ef2 3f70 3f07 3f8a be7c bfae bfe8 3f04
bf2f 4023 3f68 3ff5 bedc 3e82 3f43 3fc5
bfa2 4014 3fda 3fac bea0 bfa4 3fa3 3f0a
3f0a bf6b 3f4e bf03 c007 3e90 3dd7 bf36
bf95 bd70 3df2 3f6a 3da8 3f15 bf0e bfc3
3e56 bfeb 3ee2 bdd7 3ec2 3ecc bf88 3e80
3f0c bee7 3f98 3fc6 bf6d bfde 3fad 3f98
3f2a 3f08 3d28 c024 bed6 bf58 3eb2 bfeb
be8d c143 3f8c be47 3f87 3fbd bf92 3ecf
be38 be47 bfb8 3edc bfbe 3f96 3e3a 3e9f
3fa6 3e98 be66 3f86 c02b be94 bfc3 bf4c
c0a0 3f8a 3f4b bf8e 3f1a bfa9 bec1 c089
bf8a 3ede be19 3fab becd 3f0c 3f74 3f36
bf29 3e60 bfa0 3ff1 3f82 be68 c011 3c90
3ff6 bf21 3f5a be0e bf88 3e26 3e7a 3f45
3f20 bf5d 3fd3 bdc8 3f3e bfe2 3f16 bf1d
bfa2 bee0 4002 3e82 be44 bf8e beb0 bef7
bffe bf5e be3e 3f01 3f67 400c bf88 bec6
3e65 3f28 becf 401c 3fa8 4013 c008 3f7e
3e76 c00e bd40 bf1f bf21 bf5c 3fb7 3e1e
be16 3fd6 bdb0 3fd1 3ee6 bf91 bf33 bf64
3eb3 bc10 bed6 be77 3f03 bfa2 be71 c00b
c011 bd18 3f65 3f1e bcf0 3faf bf1b 3f6a
3f18 bfb5 3fd7 bbac 3f21 3f05 3ea0 bf0e
beb6 3da0 bf9f 3f1d 3f01 3d70 3fe8 3ea7
3f62 3fd5 bf9a 3f76 bf8b 3e9a 3f4b 3f50
401d 3fbe 3f18 beec bf68 bf4a 3f3d 3c32
bf18 4027 3ec4 bfff 3fb5 bf5b 3f50 bec6
4026 3fce bfd0 bfc2 c227 bf3e bf7e 3f8a
bfc4 3ede bc20 3e02 3f04 c015 be94 bfbf
3f4a 3efc bf5b bef2 3eec be42 bdf8 3ed5
3edc 3d30 3f32 3c20 be52 3f5a bf87 becf
3fad 3fa0 3f14 bfec bf88 4022 3e52 3f04
bf46 3fc0 3f32 bfcb 3eab be90 3fa4 be84
4007 bfda 3f22 3ed0 3f88 bf62 be1a bffb
3f90 bf5c bf1b 3de2 3f51 3eab be95 bfcb
3e6a be4c bfd6 3f1a bf1c bf2f bf40 bf68
bd34 3fb8 c004 bfa2 bde3 c04b bfb1 c044
3fbf 3f75 3fc4 bfe0 bf04 4002 beb3 3f4e
3f9b 3ed7 bece 3f3c bfd4 bfba bf98 bf94
3f6d 3f2a 3f9a bec7 3daa 3f3f c010 bdec
3ee2 3f8d bf52 3fab 3ed8 3f16 3d18 bf01
3e24 3f75 3fda 3fed bf32 3ef4 bf90 3ea6
3eee bf89 beda 3f56 3ed2 3f9a 3f94 3e90
c034 3f00 3f0b bf00 bfdc 3f0c bf7d bf38
bf5a bec6 bfee c03a bd90 bebb bf81 bfbd
bf39 be42 3f24 3e71 3fb1 bfa6 3f32 bf75
3fa8 3d00 3f8f 3f22 3fb8 3ef0 3eec 3fca
3fc6 3fbc bf92 3f6d bfe3 3f06 4000 bfba
c010 bf5c 3e2c bf38 bf9b bf4e bebd 3f10
bf77 bff1 befd 3fd4 3efc 3fdc bf3e 3fa5
bff9 3f3e bfa8 3f98 3fc4 3f80 3fbb bb80
c05a bfea 3e61 be82 bf0c bf9e 3f7a 3f52
bc80 bbe8 3f42 beae bdf2 be75 3e7e 3d20
3f7c 3f0a bf87 c00e 3fa0 bf80 3fe2 bfaa
3f2a be18 bf82 bec7 be86 bf9a 3ef0 3f86
bec7 bd9e bfa2 be0c 3f9e bfc2 3f06 bf52
3f8f 3f04 bf37 bfe6 3ec2 c0fe bf0f 402e
bf35 3f0f bfa1 3fbc 3fa5 bd4c bf28 3fa5
be60 bf4c 3f85 3fa0 bfc8 bdc6 3f72 3f0b
3f82 bf01 bec6 3f78 3f2b 3fc7 3fba 3f80
c01c bf30 3f34 3ffe bf1b be95 bf63 3f89
3eed 3f33 3fa7 3fbc bf73 3f8c 3fc4 bf79
bea6 bf54 3f81 4005 c031 3f94 4006 bf09
bfd7 bf18 4005 3e7c 3f89 3f24 3ef8 bfd6
3f47 3e86 3f4e 3f06 3f6e bf9e 3ec4 3f69
3f98 3edb 3f59 3f50 3f1d be1e bf67 bfaa
3fde 3f6b bf01 3ffe 3f39 3f4a 401a 3eea
3f25 3f75 3f1f bf18 c003 3fec 3e2c bf2a
3f20 3f34 bea0 3f02 bf99 3d58 bf84 3fbc
3f63 beae 3f78 bf5c bf11 bf93 3f78 3ee5
be78 bc80 3ee1 3f96 c014 3ea1 c091 be09
be36 3f03 beb2 bd10 3fcc 3f09 be50 4011
3e9f 3e0f 3f83 bf79 3f92 3efc c020 3f14
3fce bf6c bf61 bf5a 3fd5 3f12 bfe6 bf4d
3f3a be54 becf bf4a 3f1a bf0a bf9c bfdd
3f02 3f52 bf5a 3fa1 3ea8 3f70 3f0e 3e18
3fa8 3f9d 3ed0 bfa4 3ea9 3ffa 3f9c 3f70
bf20 3ea6 3f2d bfa8 bf21 3f85 bf8a 3f58
bfd8 be6a be56 3f93 bf19 bfee 3f0a bf1a
bfd3 c004 3db2 3ca0 bf56 400e bfe2 bf8e
bd70 3e48 bf87 3dca 3e09 bd8c bfa9 3e70
bf93 bf54 bf4a bf2b 3f35 3f9d 3eea 3e73
3e93 3b00 3f43 3f90 3fee 3f02 3f52 3ef0
bd84 3ffe 3db2 bfc8 c007 bfa8 3f4b be1c
3f86 3ef5 3fcb 3f7c 3fb3 bf5c 3f9c bfca
bf6a beb7 c01a bfdd bf13 3e2e 3fa3 3f9c
3f96 be01 3a00 bf15 bf88 3f98 bfea 3f89
bfb3 bf22 bebb 3f76 3e8b bfae be92 be4e
3e3a bf77 beaf 3f8c 3f3c bf78 3f2a 3fc1
3f76 bfe2 bff7 bfcb bead 3f82 3f70 bf66
bfad bf90 beb0 3f48 3fc4 3f4c 3daa 3fc5
4006 3f77 bf8e 3edd bfc0 bdd9 bdd8 3e0c
3fb2 3f24 400e bed2 bf87 bf64 bf83 bee0
bfb1 bf95 3e8f bf02 bf5c bee4 bff4 3f84
bfdf bf7e beab 3f90 bfc8 4008 bfd8 bf42
bc58 3f0e be3d 3e48 3feb 3ecc 3cc0 3f22
3ea8 bf87 bec1 3f90 bfbb 4008 3eac bdba
becb 3f96 3f5d 3ee7 c00b 401d be1e bef2
bfdc 3e3e 3c10 3ef6 bf83 bdc0 be00 be0a
3e47 c001 bf03 3f6d 3d5c 3e60 bfac bf21
3e11 bfaf 3f03 bedc bfd0 3fb1 3ee8 bf88
3f2d be38 3f34 3f98 3fec bf9f bf1b 3faf
3f9f 3f1c bf91 c044 bf12 bd7f 3d6a 3e63
3ed6 c0e3 c006 3d9d bf70 be1a be8e bf24
bef2 3f6a 3efb bf01 3f0f be62 c013 bef8
3fc2 3f3f 3e4c bff5 bf2a 3f1f 3ecc be90
c035 bf91 3f6c 3f32 3f8f 3edf bed0 bf9d
bf1a 3fcc bc58 3ed4 3fed be72 3f89 bd86
3f1c 3e6e be08 3ce0 bf91 bf81 bf34 bf1c
3f80 bf38 bec7 bf44 be96 3f4b 3f80 bee7
bdf6 bea2 3ff2 bf13 bf27 3d1b 3f72 be1e
bf95 bf70 3fd1 bed8 3e95 3ef2 3fd0 3f1e
bf1a 3fab 3e50 3e23 bc10 3db7 3f68 bf4f
bf3c 3fa3 3fbc 3f5e bf76 3f04 bfa7 bfaa
3e61 3fa6 3efa bf7b 3e9a 3fad 3eb9 3e3a
bfce 3f18 bdb6 3f97 3fcf 3ec7 bfa9 3f16
bd40 3f8b bf36 3f18 3efe 3f87 3ef9 c012
bfe1 c028 bf18 3fbb 3f24 3f94 3f1d bf3e
3eb2 3e4e bead 3e01 3f86 beb8 3eea be96
c000 bef9 3f7d bf8a 3f7e c001 3f84 bf32
3ff5 bf4c 3f88 3fed 3ef4 bea0 3fb4 3fb0
3f96 3f13 3ec0 3f69 bf7b beb4 400a 3f3f
3f26 3fb6 3eca 3d6b bf85 bf7c bf2e bf87
4019 3fd0 bfc2 3f61 bfda bee5 3e15 3f3b
3ebd bf94 400a 3f51 bf72 3f0f 3f9e be26
bfb0 3eaf 3f69 3f27 3e98 bf86 bde5 bd84
c009 3fa4 be91 3fe1 3e8d 4005 3eae 3f79
bf3d bfb6 bf16 3df6 bef8 3fc5 3ece bd60
bfd7 4031 3f05 bf7e 3f2c 3ff7 3d20 bf84
bf7e 3e6b 3e14 bf2b bd92 bec0 bf3c bef7
3f4d 3f4c bf55 3f98 bf06 3f57 be6b 3e5c
bf9e 3f81 bc90 bf9e 3f5b 3da8 c037 bf4a
3f2d 3ec2 bf9c bfc9 bf23 bfc7 bf31 bfbb
3f29 3ebd 3e9f 3f39 3dfd 3e16 3de4 4002
be50 becb bf62 bfc0 3f5d bf05 bf7a bfb7
3eeb bf40 3f8f bf5b 3fd8 bf97 3e6d 3fda
3f08 4009 3e8c 3f6e 3f5c 3f25 3f11 3fb0
bf5e 3d3a bde6 3f24 3f80 be37 3f24 c022
bfbc 3f0c bf24 3f44 be9c bda4 3d8d bf46
bfcf bfae 3e0c 3dc0 3f95 bf43 bd66 bded
3f44 3f49 bf24 bfb0 bd03 0000 bf22 be08
bffc bfe4 3ed5 bf82 403d bf05 bd1d 3f75
bfd0 3ec4 bfdd bf22 3fa9 400e 3fa8 3ffe
be9f 3f57 bcf0 be1f be48 3eee 3fba 3e9b
3f9c bce8 3f18 3f05 bed1 bda2 3ed3 bd98
3f0a 3f87 3f5a bf02 bdfe bf49 3faf bfd5
bff0 3ef6 3e89 bfe5 3f32 3fc6 be9e bf9e
bfc4 3ed1 3e97 bfa6 be06 bf22 bfb7 3fad
beba bf5b be0f bf98 bf84 be22 bee6 bf6b
3e86 3ebd 3ef1 3fc5 c02c 3f6e 3f47 be8c
bfa8 3f04 3fac be9d 3fa6 3e70 3ea8 3f22
bea5 3e9e bfc1 3ed1 bf15 bfd4 3f7b 3ee6
beee be18 3fa8 bf7d 3f78 c08e 3e95 3ee0
3fff 3fce bfb8 3fb1 3ed4 bec6 3ee0 3f10
3f37 bf7c 3f53 bc80 bf0a 3e06 c002 3fd8
bf06 bef5 3f32 c039 3eaa 3f5c be87 3fa4
c029 3ef8 3df8 be6e 3ec1 3e8e bfa1 c01b
bf86 3f2e 3e77 bf25 be36 bfa2 3fae bf94
be6e 3f82 3e0b 3f62 bfdc befa 3f3f be5d
bf10 bf81 bf76 3f1b 3ea5 3fb1 bf13 bef6
c00c 3f0a be68 3eae 3e8a be06 3e18 bdb4
3e63 bda0 3ed2 3fce 3f8e 3f8a bf24 3f23
3e2c 3f89 be62 bf6c 4022 3eff beea 3fad
3fa7 3fa7 3ebf 3eda bebf 3f10 be2a be1c
bf52 bf68 bd94 3f83 3f21 3dac be42 bf13
be32 3f4e be4f be4c 3e80 bf02 bf34 bed9
c01d be88 bd8c bfa1 bff2 c02f c017 bfda
bf30 bf96 3cc6 bf58 bdd4 bd8c bece bea1
3fe4 3e62 3eaa bf5f bf47 3f81 bf0b 3f8b
bf18 bfa1 3e13 3ed6 3fa5 bf32 beef beef
3ea4 3ea6 bec0 3fca be95 be31 3d9c bf94
bfde 3f75 3f06 3f77 3fd3 be9c bf22 3d01
3d5c 3d52 3e66 3e7e 3fb0 bf21 401e be3c
3fa1 3f04 3f22 3f86 bd30 3efb bfe0 be96
3ebe bedf 3e18 bef4 bfa1 3fca 3e92 3f26
bfa6 3f64 c001 3fab 3e80 bed0 3ffb bfef
bea4 bf38 be20 4001 3fa0 bfba 3eb0 3eea
3fd2 bdb6 c049 4011 bf84 c012 3f64 bf88
bf90 bf49 3fcc 3f03 3f0d 3f5d 3fcb 3da5
bf68 bf83 3f5c 3f83 bfde bf21 be83 3f99
3d93 3fff bedb be9b bf90 3f44 3ede 3f9f
3f16 bf90 bfe2 c029 3fbb be69 3f4a be6c
3fca 3ecc c001 3fa3 3f98 3e58 bed4 bf9a
bfa8 3ea0 bd8b 3f56 3f8e 3f10 3f04 bf94
bff7 be40 3f39 3edd bfcd bf4a 3ec8 3f3c
3e78 3f50 3f27 bfd5 3caa 3d79 4020 bfa4
3f5f bff3 bf97 beae 3fc2 bf3a c00e 3f96
3f87 bf21 3c00 bf96 3cf8 bfa3 3faf 3ee4
bec8 bf33 be78 bf96 3f4e 3dd0 bf4c bdb4
3fd1 c00e be88 3f11 bfd4 3d24 3f5e be34
bdc2 bfad beb4 3fc1 bc10 3fc5 beff bed3
beea 3ee4 bf52 3f94 3f32 becb bfdc 3f21
bf44 befd be98 3f1b 3f8f 3eb6 3fa8 3f1e
3e98 3f95 3f72 3f5b be50 bf96 bef0 3ea2
bf65 bf3a 3d44 3f34 3f0a bfbf bfb6 3f40
3fb4 c01e bf57 bf1d bfd0 3fa6 bf49 bf2c
bf36 bf73 3f86 3fc4 c009 bf71 3fbf bfa8
3e0d be2d bfbd bf6b 3e96 bfac bf11 bee2
bf87 bf6a bf0a c030 3f24 3f80 beab be86
3f54 c0b9 3ea4 3e94 3f70 3f9f bf77 3fb0
bfa5 3f3c bf95 bf47 3e92 3e0c bff7 4064
bfbe bf6e befd bf2a 3e4f be3b bf10 3f9f
c047 bf81 3f89 bf10 4055 bede 3fe0 bf0a
bf2e 3f7d 3edb be79 3f28 bfa5 bf3e 3f56
3c98 bed0 bd08 3fff 4020 3d20 bf92 3eae
3f9e bf86 bfae bde0 3d9d 3f01 bf45 3f82
3eae be60 3f3c bcd4 3f1b bf99 4013 bd3a
3eb0 bf28 3e83 bf97 bddc be9d 3df5 3f58
3f38 bcc0 bf92 3f76 bfe5 bfa4 3f6d 3f9d
3dd0 bf32 bd99 3f9e beba beea 3f84 bf09
3ddd bf36 c033 3ee0 3f39 3e8b 3df2 3ecf
befa 3eb5 3e9f 3f1f 3ef9 bd90 bd84 bd86
3f2e 4008 3d4d 3f85 3e66 3fdf 3f17 c003
3f0a bf9c bda8 3fe0 bf64 402a bef5 c016
3fec 3c90 bf0f 3fea 3ec0 bf2b bf0e 3e6a
beb8 bc5a 3ed4 be76 bf57 bf47 3eeb bf52
bf1b bf9e 3eb4 3e6b be2f bf2b 3f98 3f34
3f8d 3dec bd35 bf9e 3f3c 3cf4 3fc6 befc
bf99 3eec bdea 3ebb c02b 3b80 3be0 bf1a
3f73 3f47 3f7c be31 c109 bf7e beb6 bfc3
bffb bf32 bf07 bf2c bf7d 3e94 3ebe bf5a
3fe0 3f7a 3eed bfe8 bee6 401e be09 3fdc
3ecc 3fbe 3eb6 3ea3 bd0b 3e3c 3f71 3e73
3f6e c006 c018 3fcf bf2b 3ff2 bf2a bf96
c030 401a bf4d 3e4c be18 3e3c bfa5 3ed6
bf41 c000 bf94 3dc8 3f35 3f83 3f83 bf36
3c90 c018 3e7f bf59 bfe5 3faa 3e9a 3f20
3f9c 3f2c bf1a be00 3fb0 3fa6 befb 3eb8
be10 becd 3ed2 bf1e 3fac c016 3f2e bf9b
beee 3fb0 bf4d 3fe0 bea4 3fce 3f84 bf6a
3f5b befd 3de6 3f8f 3f2e 3d53 bf57 3fe9
bf4e 3fa6 bdce 3fb2 3faa bf3a bf7a bf3e
3dc2 bf71 bf21 3f13 bf9b 3f8a bfce 3f66
3f1d be70 bf57 befe bf49 3fae bf18 bed0
3fdc 3f1f 3f11 3f93 3f37 bf50 3f81 bf0e
3e13 3f85 3f2a 3f64 bf4d bf27 402a bf4f
bf80 3f44 bf13 3d38 bf6b 3c70 be3b bf80
c005 be62 3eb8 bdba bebb 3f1a 3f8f 3f2c
3f2f 3fc0 bef8 bf9c 3edc 3eb9 bf7b 3e94
bf81 c00c 3f9f bc60 bf95 3ff7 3f03 3fa3
3e9a be32 3da0 3ef2 3f1b 3f52 bee5 3f2a
bd3c be6c 400a 400c 3f04 3f60 bf8d 3e60
be16 3fed 3fc8 3e95 3df8 3e70 bf6f 3f79
bf82 bfb3 3ffe c040 bf83 bf24 bfd4 3f8b
bfd1 3e98 3eed bfe8 be94 c002 3f3e bdd1
3f31 be14 bea4 3ead 3f1e bf74 bfaf be5d
bf76 bf26 3eb1 bd7a 3f99 4005 bd5e 3f49
3f5d 3f3e bfd8 bf71 bed3 bf76 3fd6 3e5e
bfd7 bf56 3e2c bfa3 bb00 c0c3 bf62 bff9
bebd 3fbe 3f0d c025 3d36 be96 bf8a bf15
3f2c bf8a bf9c bf80 401e 403e bff9 3fb9
3f95 bfb1 3c84 c002 bd66 bdc0 3ed6 3f12
c017 3f0a bdd8 4015 bf94 bcf0 be30 c00e
bed5 3fd3 3e04 beec bee4 3f2f 3e2e be0d
3fc0 bee6 400a 3e36 3f03 3e3a 3fc1 3dc6
3e5d 3e3b 3fa8 3dda 3e7b 3f04 3eeb 3ea4
bf5f bf9c 3fe4 402b 3fc9 3ff5 3fe7 3e94
be96 bff4 be2c be0c bf99 3ef1 3ec5 3e68
3f89 bfdd be04 bfac bf66 bf97 be84 be8b
3e9a bc80 3f70 3f24 bf1f bea2 3fb6 bf1a
3f13 3e2b 3ea8 3fd4 bfb3 bf96 3f26 3e20
be40 bf7e be06 3d14 bf80 c002 bfc4 3f56
bf3a bf81 3faa 3fc4 3f68 3fe1 c000 bf1d
3fce 4004 3f05 bf30 3ef1 bcd4 bfaf beca
bf26 bfa6 3fbd 3f7a bf90 bb80 bf84 3ee0
bf78 beaf 3f71 bf5e bfc3 bf0a 3f70 bf9e
3f96 bf0c 3fd8 bf44 bfb0 be2c 3e60 bfe1
bed4 3f2e bfa1 3fc9 3fca 3fd4 3e5e 3eb5
bf02 bfeb 3f94 bd38 bfb2 bfb5 bf54 3e32
c024 3ff9 beca 3f1d bfe3 bfc3 bf92 beff
c019 3f36 bfaa beb2 3fca 3fad 3f23 3ec5
beb2 3f74 3ef3 4027 be24 400a 3f68 bf07
3f88 3fe4 3fd6 3e52 3e08 bfe2 bf5e bf94
bec4 bfa4 bf0a 3f02 3eab 3fc0 3eae bea8
3f99 3f95 bf2a bf10 3d10 3f54 bf03 bf42
3e3c 3e38 3e3e 3fb8 c014 3f71 bf9e beea
be02 bf11 bf01 3d3e bfc7 3f8e 4000 3f92
3df4 3e83 bf27 bf7f bfcc beee bf46 3c98
3ec4 bfa7 bf24 bf7a bfee 4058 bee7 bee8
bfc6 be9b bf21 3fce bf22 bf12 3f60 3e84
4002 bf81 be20 3ea0 bfca 3e94 bf0b be3e
3ed2 3edf 3f48 bf45 3f68 3e48 3e3c 402a
3ffc 3f28 beab be34 bf18 3f19 3f9f 3f5e
3f72 bf7f 3db0 3f28 3f27 bfca bfb6 4034
3f51 3f28 bd30 3f3a 3fd6 3f9d c028 bfc4
bf0f bf79 bf96 3ef3 3eb6 c02e bf96 bea8
bfb9 3f4a bd30 3fce 3ff8 4037 3f5c bf43
3f34 bfc7 400b bfa8 3e62 bf95 3c40 3f50
c01e bf3c 3f10 bf98 401e 3f50 3f4a bf1e
bea6 3fb0 bf8f 3e48 3fc2 3f74 4005 3fb2
3fb9 3f19 3e81 bf4e be1c bed5 3f82 4041
3d78 3f62 becc be2a c02c 3f94 400c bff2
3e8c bf22 bf8c bf3e 3f8f bf38 3d18 3f7c
c01c 3f4a bf2d 3f22 bf46 3ed4 bf8c 3f80
be50 3b80 3f5e bffc 3fe0 bf19 bea5 401e
bf0e c13f 3f8c bff0 bf24 be61 3fc1 3f42
bf45 bf61 bd08 3c90 3eb3 bea5 c022 4058
bfa6 3f3a bfa9 bed7 bfc5 3f9d c01d bffa
c062 3dd0 bfc0 bed7 3dc2 bec6 3e8f c09c
3f6d be02 3e68 bf38 bea5 bfbe 3fe4 bef8
4006 3f04 bf2f 3f7e 3fa6 3d30 bfe2 3f38
3fb0 bf9c 3fb0 bf8e bee8 bfa5 bedc 3f1b
4006 403c 3fd1 3df2 bf32 3f34 3f3c 4059
bfea 3fa6 3e2c bf06 beac bf94 3fc7 3f63
bf29 3e40 bd88 401d 3f54 bf51 3f2b bf1e
3f27 3f05 bf21 3f84 be33 3fbb bf36 4002
c01a bffa be68 bde0 3fac bc40 3cf0 3f97
c008 bf1a bff6 3d93 3f0a bec0 bdb4 3f98
3cf0 beac bf00 bfad bda0 bfa1 3fae be84
3e00 bd50 bf86 3f46 bfae 3d94 3e2e bee1
401b 3fa0 3ff0 4012 bfb7 3f9e 3f11 bf4c
3f62 3f4a 3f86 3f54 3eec bec6 bf30 bf22
be2c bdf8 c011 3fb4 bf93 bfd8 bd70 bfbc
bf26 bf1c bf66 c00d bdcc 3f02 bfa2 bfd2
be5b 3ead 4045 bebc bf0d bf56 bf94 beab
3f85 3fb3 be38 be92 c22c be6c 3f50 bf46
bef7 3e83 3f58 3d40 bf7e bf78 bf61 4001
3eb9 3eda 3f08 3f84 bff0 3fa4 3fb3 be94
bea8 3f9c bf15 bed1 3fe1 bfb5 3db4 3e2a
3f68 be32 3f88 bfa2 bf94 3f56 3ef0 3fb7
bfeb 3f8f be00 c012 bcc0 3dc8 3fa4 3fa6
bf9e bf31 bfcb 3ef3 3f19 3c00 3f94 3fd2
3f93 be54 3faf c000 bfaf 3f6a bf46 bfca
3f61 3f91 bf8c bec7 4043 4022 bf85 bf34
bf20 bf03 bfbc bf98 3f77 c1be 3eca bf8a
3f63 3dac 3f08 bdf4 bfa2 3e34 3e5e bee2
bf0c be82 bede be74 3fb5 3fe4 bf30 3dbe
befb 4057 bf7c bf92 be5a 3f0a bdf1 3fff
3fac 3f41 c004 beb7 c01f 3f11 3f0a 4004
3e93 3f2f bf49 bec8 bee1 bf79 3f72 3f20
bf83 bf4e 3ebd be77 3dcc bca0 bf07 bef0
3ea9 be82 3df8 be48 403c be8a be3a beba
bf1b 3fca bf7b be8c c000 bf3b 3fad 3f56
bf1d bf1e bf9a 3e83 bfac 4006 3fce bedc
bf52 3e74 3ebc bf0f bf1e 4021 3fe9 3fc2
bea4 be30 c04c 3c98 3f41 3d68 3e20 4031
3fb6 3de0 be14 3f3b bed1 beeb 3dda 3fdb
3ffe bf8d 3e35 be49 3f21 3fa2 bf62 be86
bfbf bf34 3f60 bc00 3f06 bee6 bf00 401e
c00c 3e60 bea2 3e72 3ea9 3f2b 3f0c bfc5
3e80 bf6c bf3a be91 3f08 bf16 3c30 3f65
bfc7 bfc6 bef4 bd00 3f8b 3f00 3f42 3e7e
3fb9 bfa0 3f51 be84 3ffb 3e8a bfd8 3f0b
3f89 bf0e 4005 bf4b bf9e bf2d bf45 bf08
3ed0 3f76 3ebf 3f8f be44 c0ba bfad becf
3fc4 40b4 3f40 be42 bf56 3f79 3fb9 bf71
3e87 3f0c 3ecc 3e33 3faa be8a bf9d 3f29
3f46 be8a bf59 c017 3f5c 3fbc 3fb3 3ff4
3ebe 3f0e bf80 bf33 bf82 3f03 3f28 3ec3
bece 3f92 bddc bee6 bf52 bf15 becf 3f08
3e80 bf9f 3f20 bf78 c025 bead 3f76 bf23
be78 bec6 3e6a bf46 bf72 3f35 3ede 3e40
be74 3f98 bf75 3f32 bf05 3e28 3fa4 bfca
bf18 3eca 3fc6 bda8 3dff bd20 3c80 bee2
401d 3f39 bfcd bf2a bf46 3efb bfb8 3dc0
3f96 be2e 400b bf6c bfec 3f80 3ec0 bf34
3fdc be28 3f26 be96 3fc2 3d82 be15 3fb3
bf67 bfdd bea1 3f8a 3f92 3e49 be14 3e55
bfc9 3be8 3f22 bffe 3da0 3f1b c0fd bf90
bcc0 3ce0 3da8 3efa bf10 3f3f bf62 3f58
3ed1 bea5 bf6a bf86 3f82 3e86 bfc6 3e86
bfb0 bf3f 3fd7 be78 3f9c c006 bfce bfc4
be82 bfcf be1e beb1 3fe4 bd90 bf07 bf8a
3ff2 3eb6 bf0f 401a 3f24 3eb8 c048 3ebc
bf92 3e01 3e42 bd10 3fbe 3f40 be22 400f
3e9e 3dc8 3fef 4010 3f0e 3eea 3f1c bf5e
bf72 bf67 3f47 3ea3 bf36 bfdd beca 3f40
bfeb bdcc bc88 bf33 be96 bf12 3ecc bf7c
3f44 bf2a 4046 be42 3e50 bf81 bee0 bf1b
3f0a bfa2 3f97 3c90 bf2c bf35 3f6f 3f30
bf14 bf4a 3f40 bf78 3fb8 3c00 bf43 bed6
bf49 3f52 4030 bf05 bfa1 3f5f 3dee 3ffe
3f20 3fe9 bf8e 3ef9 3e28 bf97 3fc0 bf0c
3e83 bfc1 3e9e bf52 3fa3 3ed7 bf86 be99
3faf bfa5 bf38 3f84 bc60 3f7e 3ffc bfcd
be2c 3e02 3e9b bf45 bf84 bfb8 3e8c bd8a
c031 be86 bdcc 3ec2 3efa bfb6 becd 400a
3fc5 bed0 bf54 3dc8 3eda 3dec bedd 3ec2
be46 bfbe bb00 3fa1 3f4a 3f2f 3f3f 3e54
3f95 3d28 c043 3dcd bf93 3f06 bea3 3f48
3fa8 bf10 3fa8 4045 3fce 3fed beab bf38
be9e 3f65 bf60 3ef4 bf98 bf01 3d6a be2e
bf8e bf12 bf6b 3fd6 bfa8 4064 3fe0 bf26
3f43 bd4c 3fd5 3eab 4017 3f0d 3f09 3dd8
3f22 3f18 c038 3e85 40d3 3fce 3f2e bf83
bf38 3fe6 3d28 3d78 bf60 3eee 3ec9 beb2
c014 c08e bf65 3f9e 3f16 3e91 bfb2 bedb
bfd3 bfb3 bee6 3fbb 3fc5 bf4e c006 3f08
3eee c030 be49 3f42 c036 3f59 3f23 c026
3e2b 3f0a bee2 bf1b 4071 3f1f bfd1 3e22
3da6 beae 3f31 bfe6 bff0 3fcb bf67 be04
3f03 c1da bf7d bf51 bfa3 bf41 3eb3 3f8e
c033 beea 3e96 bf57 3f95 bfec bf3f 4044
3f5f 3f02 4049 c01d bde2 bf0e 3ed8 3f0b
bfa6 be68 bfa3 4008 3fb9 befc 3f03 4071
bf1f 3dee be8e 3e83 bde3 bf8b bfcb 0000
3ee4 bfbd 3f90 bee0 3e83 bcfe bf45 c005
be7c bf3f 3e04 bff8 bf43 3f22 3f3a bf34
bfc4 4000 406e bf77 3f3b 3f98 3ede bfed
bfa8 3fce 403e 3e44 bec2 bdee 3fe4 40cb
4029 3f87 4075 3f05 3e86 be9c beb0 3e95
bfb3 bfb9 3f6a 3f24 3f76 3efd bf88 beac
bfe9 beab beb5 3fa2 3fe5 3f42 bd77 beed
3f5e bf92 bdd4 3ec8 3f9a 3f8e 3f30 bb80
3ef2 4027 bf83 3f16 3f2e 3fce 3f8f 3ed0
bf61 3fb4 3ee7 4007 be87 3f1d 3fb4 bfca
bf38 3f76 be44 bf88 3e4f bfb5 bffe bfda
3f2f bf67 bea6 be5e 3faa c00e 3d08 3e0c
3fce bf47 be12 406c 3fb6 bfbb bf64 be62
3f13 bec5 bea1 4042 bd8a be3a bf54 3f85
3f97 3fce bfc8 bef0 3f6c bf01 bf56 bb40
3f00 3fa9 400b bd86 c028 bffd bf60 bef7
bfe6 bf69 bf44 bf73 bfc5 beb9 bfcb 4000
be63 3f48 bfaf bf2a 3ee7 3f9b bec4 3e02
3f5d 3fcb 3f7c bdf4 bfe4 3ea1 3ea4 3da3
3fd3 bf56 3fb1 3c80 3f32 3f29 be44 bfaf
bdbc 408d bdf8 c00e 3e3d 3fa4 c058 be86
bee7 4010 be81 be8e 3f22 bfac bff4 400e
bed8 bf99 bf22 0000 be5b 3e7e bf02 bf01
bf0a bf3a 3f12 be9f 3f92 3f59 bf48 c059
3d70 3e86 bf0a be94 3ff9 3e8b bdfa bf16
3ece bfe4 3fc5 bf86 bf0a bf36 c049 3f9c
3c28 3e92 3e66 3f5d bf2f 3eea bf98 bfaa
3f8c c013 c03a bf83 bfdb 3f40 bf93 3ec7
3ed2 bf2a bf88 bf85 bf3d bfd5 3f52 3f93
bfdf bf59 3ec6 c097 3fcc 3f0e 3e03 3ed6
bfaf 3f9e 3f59 bed6 bd8c 3f83 3f7d bf87
bfce bec0 3f3a be3e bdc2 3e37 3ea0 3f78
bf07 3f95 3e83 3fd7 bfc8 3e49 bfc8 3f20
bfbc bfe9 bf88 3e94 3f15 3f8d 3f0a bf63
3e35 3da4 bdac bed0 3f81 409d c002 3f94
bef4 c035 3f06 3fb4 3ca0 3f2a 3fb4 bfd4
beff 3f6d bf89 400d bfba be9b bec4 3f40
3f4d be9b 4081 3ed8 3ef3 3f95 3fe5 be96
bf32 bd92 bf66 bf64 bfd2 3fbd bf7a be9f
bf06 be9c bfb6 3e8a 3d80 bf5a 3f60 bf84
bfcb bf36 bf4c 3f86 bf2d bf0c 3f4d 3e34
bf1c bf25 3f7c c009 3ea2 408c bf2e bec0
bf6f 3f39 bf03 3e8f 3f8b 3eac 3f9d bfde
bf73 c042 bef5 c030 3f32 bf0b 3f2e bf1e
beee bf05 4030 be6e bf62 c0c1 3ef0 bdee
3fec 4073 3fc7 be29 3faf 3ecc bf96 3fc8
3e0a bf43 3e6e 3f50 3f7b 3fc0 bfef bf5c
be58 3efe 3fb2 bfbd 3ee6 3c20 bfca bd6a
c00b 3e48 beea bf9d bf8b 3f49 3f2c 3f22
3de3 3fc3 3fa5 3eb3 bf86 bffd 4003 3f68
bd5e 3f5e 3dac 3e26 bfbe c038 3e8e c02c
be7a bf30 4036 3ed2 3ebe 3e91 bf66 3f27
bf96 3f7e bee0 406b 3f8c 3fa9 3f84 c005
be9e bf2e 3e34 bda8 bf26 3eac bff7 bfa0
3f38 3d8a bee0 3ffb 3f46 be18 3f6b beb7
3eae 3f0a be77 3f8e 3ea1 bfa9 3f34 bf46
3faf 3ee6 3f94 3e61 3f80 bf94 be48 bd88
3fe9 bf67 bd82 3e8f 3f1d 3ef5 bf82 bd1e
bdaa 4008 c018 be4b bea3 3f34 c0d6 bfac
3fda bf83 3f92 bc70 bdc7 bf78 bf0e be5f
bec6 beca 3e0d befa bee6 bf2b 3fda bf7a
beda 3e54 bff1 be20 3f5c bf9e be14 3f37
3ec6 bfa4 beeb 3e6a bfd5 3f7e bd8c bfbf
bd68 3e53 3e58 3fcf bf27 3e09 bf4c 3e99
3f8c 3e6c be43 bf5c 3fc3 3f25 be98 3eb4
bfba bf9c 3ff6 3fb8 bf12 bf99 3f73 3f8e
bf88 3ed7 bee1 3f26 bf70 be84 bff7 be9b
bf1c bdce bfcc 3ee9 be42 bfd0 3d0f c02e
bf79 3f67 3eff 3f8a bf17 bfad bf67 3e56
3f1c 400c c016 3fa1 bd94 3e6e bf17 bfc9
bed8 bf02 4040 3f53 3fed 3f8b 3f40 c002
3f84 be5d bf84 3fe2 bf93 bf5f bf78 beee
3cd0 4004 bf22 3e9a 3f80 3fa2 3f25 3ed2
3dfb bf91 3d70 be5b 3fc8 3e72 bfa5 bea2
3f7e bfbc beaa 3f94 3f1b 3fbd 3fb6 bfb7
bd60 bee1 3ef9 bf96 bf2b bf8f 3e7a be78
c03a be07 3e93 3ef6 bf3a bfe5 bedb 4017
3fc2 bee2 bf3e 3e98 3e54 be42 bf6c 3f11
3e31 bfb5 3da6 3fad 3f26 3e56 3f38 3dd0
3f88 3e00 c027 bdba bf97 c01f bef7 3f46
3fab bf5e 3fa0 4036 3f5a 3fb0 3ec9 bf5f
bf0c 3f94 bf20 3eb9 beea bed4 3ef4 be1d
bfb1 bfb8 bf51 3fb8 bf9d 4094 4000 3ef4
3f89 bd68 4006 3edc 4042 3f25 3f22 be8b
3f66 3f3d c022 3f44 40a4 3fd0 3f32 bf92
3f69 3fc6 bf37 bdb0 bf94 3e8d 3f32 be8c
c01e c081 bf04 3f4d 3f8a 3fb1 bfb1 3b80
bf8b bf5a be78 3fba 3fca bf9f bff1 3f07
3ef4 c000 beeb 3ec3 c031 3f26 3e3f c075
3ef1 3ed2 be6b bf51 404a 3f2f bfe3 be72
3eae bf7f 3ee3 bf52 bfda 3fbf bf89 3ecf
3ede c1d4 bf10 bf74 bfab bd80 3e7e 3fc2
c033 bd10 3d18 bf51 3f9a c01c bf38 4055
3f7c 3e82 4047 c003 3ed0 be1d 3f19 3f4b
bfaf be0d bf65 4002 3f86 beb5 3f1f 4052
bf7e 3dd1 bea6 3f94 bf0e bfdf c012 be88
3f6c bfad 3f1f 3de5 bca0 bccc bf40 c007
be7c bfa8 bf0b bfd9 bf44 3ed4 bea8 bf3c
c005 4009 4084 bf89 3ef7 3feb be64 bf98
bfbd 3f9b 4031 3e20 3d98 bc58 3fa8 40cb
4000 3f88 4059 3ebc 3e22 bea3 bee4 3e4a
bf98 c040 3f84 3fad 3f72 3ef2 be3d bf00
c006 beec bf23 3fc0 4007 3e10 beb6 3f30
3f92 bf78 3df9 3f45 3fc4 bb80 3f59 3da0
3e46 406a bfa0 3f26 bd7e 3fcd 3f92 3f0d
bf9a 3f9c 3ed2 4005 be76 3f2f 3fb7 bfad
bcc0 3ee1 be84 bf9a 3e20 bfbc bf84 bfed
3f30 bfa4 bdc4 bd84 3f81 c01f 3f08 bdb6
3fc0 bf46 be08 4060 3f89 bf9c bf50 bf7a
3f82 beb2 bea4 402e bf21 bec8 bf66 3e9a
3f96 3fff bfea bee4 3f26 bbe0 bf62 3eb1
3ec6 3fa3 400d 3d20 c00c c006 bf6a 3d10
bfce bf5a bf96 bf56 bfcd be44 bf96 3f9e
3e58 3ea9 bfc4 be82 3f19 3f59 3de8 3cf8
3f0d 3fc0 3fd1 bde4 c00f bd17 3ecc 3f2d
3fb5 bf4e 3f98 bda5 bc90 3f06 bdfc bfc3
3ecd 4096 bf2c bf9d 3e3e 3fd1 c04a be95
3d1f 3f74 bdaf be62 3f9a bf32 bfd0 3fc2
bede bf41 bf88 3f25 3e08 3ec4 3e78 bf28
bf72 bee0 3ed2 3c32 3f92 3f3e bfa1 c04a
3ef0 3f0d bedf be76 3ff4 3da0 3e3d bf24
bd14 bfcd 3ff0 bf83 be98 befc c060 3f9a
3f33 bf12 be8d 3f42 bd35 3e08 bf7b bfc2
3ffb bfba c04e bf46 c00d 3f24 bf83 3e33
3e5e bee4 beb0 bf26 bf71 bf90 3e20 3f4b
bff9 bfab 3ed4 c060 3fa9 3e8d 3ea2 3e8c
bf8e 3fa1 3f8e bd04 bdf0 3f15 3f5b becd
bffe bd20 3f82 bdcd 3eba 3e96 3e32 3f23
bd42 3f5a 3eb2 3f94 bf3b 3e1f bfe2 3ec8
bfca c005 bfa2 3d28 3f04 3fa4 3e28 bf4c
3f0a be22 bebd bf68 3f17 409a bff1 3fc9
bf2e bffe 3ec4 3d3e bec0 3e5b 3fa6 c000
bf1e 3f88 bfc9 401c bfb4 be08 bb20 3f82
3f91 befa 407d 3f0f bd26 3f88 3fe1 3e05
bf53 bee8 bf34 bf2c bf36 3fc4 bf03 be86
3eb0 bf0a bfd3 bd86 3f94 bf89 3ea5 bf83
bff2 bf77 bf2b 3f81 bf8e becb 3fb4 3eb4
bf2f be8d 3f8b c00f 3e18 4081 bdf2 bf15
bf48 3f62 be8d 3eb5 3fbb 3f19 3f7b bfcb
bf71 c024 bf1a c026 3ec4 bf0b 3f2c bf8c
bf15 be04 401c bf1b bf34 c0c2 3e4b bd20
3fbf 4079 3fb1 3d2e 3f8c 3f1c bfa3 3fd8
be25 bf4e bd04 beb7 3f16 3f7d c017 bf7b
bef2 bdb4 3fdc bf9d 3fa4 beb6 bfa5 bd8f
bfcd 3e88 3f29 bfde bf27 3f91 3f44 3f45
bdc0 3fbd 3f8c 3db4 bf70 c007 3ff2 3f62
3e91 3f0a 3eaa 3ecf bf80 c03c 3e16 c01f
3ddd bf01 400d 3f3a 3f51 3ee8 bf6e 3e00
bf9a 3f92 bef1 4032 3fbb 3f1e 3f79 bf89
bebc beff bea1 bf28 beb4 3f66 bf90 bfbf
3f3f be23 bf10 402b 3f88 bdc4 3f2e be6f
3d87 3f30 bf10 3ed8 bcd8 bf7d 3d35 bcb0
3fa7 3f1a 3f42 3f22 3f9a bf11 3f0b 3d86
3f94 bef0 be7a 3ed7 3f80 be76 bf89 bee8
3ee8 3fea c017 3d92 bed7 3e15 c0cb bf80
4004 bf85 3f5b be9b be6c bf8d bf4a be74
bf32 bf60 3e87 bf24 bf0d bf1e 4000 bf81
bf53 3ead bfda 3e18 3f31 bea4 3ea3 bd68
3f09 bfa7 bed5 3da1 bfdf 3fae bed8 bfdd
bf2f 3e61 3d60 3fd0 bf52 be14 bf2e 3e60
3f91 3f1c bf64 bf57 3f92 3f0a beff 3f17
bfc2 bfbf 3f96 3fc1 bf11 bf8e 3fda 3fa1
bf5a be4e bd56 3f73 bf28 bebc bfbb be11
bea8 be9c bfe4 3f04 bc3c bfeb be5f c00d
bf69 3f33 3db6 3fc1 bf4c bfbd bf36 3dc9
3e3d 3ff3 c015 3f31 bf54 3f57 bf24 bfbd
beb1 bf3b 4002 3f8d 3f94 3f76 3f6c bfdc
3ff0 3e4c bfb6 3ff0 bfa8 bf89 bf2a bf0f
bd82 3ffa bedb 3d04 3fa0 3f64 3f40 3e50
3c2c bf73 3f1a 3f09 3fd4 3e92 bf8c beed
3f62 bfc2 bf3e 3fa9 3dfa 3fd6 3f30 bfc8
bf19 bf30 3f43 bfa2 bf6e bf48 3d28 bd35
c055 3d21 be53 3ef6 bf73 bfe4 be6a 4008
3fb2 be2b bf65 3f23 bd98 3cc0 bf47 3f4a
3e00 bf9b 3df6 3f9d 3e24 be2b 3f4c bd0c
3f82 3cf0 c02b bd08 bfb1 bfa1 bc18 3e2a
3fa8 bf7f 3fbe 4012 3f4e 3ebf 3eba be06
bf1a 3fb0 bf1f be58 be16 be27 3e91 bd98
bfbc 3e80 bf6c 3f46 bf8f 40b8 3ff6 3f75
3f77 3cc2 4029 3f72 404d beb1 3f74 bf32
3f60 3f15 c038 3f87 40a6 3fdc 3fa9 bf6b
be8e 3fbd bf40 bec4 bfa1 3eb1 3f4f bdce
bfe9 c080 bf23 3eb5 3fd0 3f58 bfa1 3e8e
bf8b bf3c be78 3ff9 3fde bfb3 bfd5 3ec1
3f04 bfda bf33 3ef6 c045 3f83 3eca c063
3eb2 3f14 bea2 beba 4096 3f67 bfbf be81
3f2a bf12 3e90 bfc3 bfd9 3f96 bf8c 3e9e
bf2c c1d5 bf06 bf8c bfb8 be38 3f83 3fa9
c031 3e2c beff bf22 3fae c005 bf26 4056
3f38 3f28 404b bffc 3d3f bebf 3f8d 4011
bf8a 3dd4 bf75 3ff2 3f25 bea6 3f44 404e
be22 3d3d be6e 3f8c bf6a bfb2 c012 bee6
3f8d bf54 3f06 3f2b 3da8 3e6a bf22 bffc
be5c bf79 bea0 bfa1 bf52 3f04 bc80 bf94
c02b 4013 4083 bfaf 3f2a 3fd9 bebe bf37
bfbf 3fb0 4052 beb6 3f01 3f00 3fc7 408a
3fe4 3fa6 402c 3e5d 3e79 3e34 be18 3e0c
bf4c c008 3f93 3fac 3f85 be40 be3a bf4a
bfff bf35 bef1 3fdd 3ffe 3f9f bed0 3fa2
3f17 bf28 bf02 3f36 3fe8 bf2d 3e50 3f10
3f32 4003 bfd7 3f01 3f53 4025 3f8d 3e89
bfb3 3f5e 3e77 3ff1 bd40 3f9e 3fca bfa5
bf4f 3f4a bf0f bfac bd92 bf38 bf95 c00c
3f0d bf9a bdd5 3d86 3fd0 c013 bda4 3f14
3fcc bf10 3d7e 4061 3f4c bf5c be5a bf8d
3f36 be89 bf19 4023 bf0a bf24 bfa8 3e90
3fc1 400a c00a bedd 3ebc 3dad bef6 3f33
3e58 3fa2 3fdc 3d92 c01d bfcd beed bf0c
bf1e bfb6 bfac bf74 bfe0 bedb bf63 bc20
3e5e bda0 bfd0 be1c 3f0b 3f36 3e97 be76
3ecb 3fe0 3fce 3eec c02f 3f02 3e7c 3f5b
3fbb bf75 3fa3 be58 bca0 3f21 3ecf bf6a
3f3e 40a0 bf83 bf8e 3f17 3ffc c04a bd23
3e82 3fe1 beff bf1c 3f98 bf82 bfd4 3f7a
bee6 bf2e bf96 3ee8 bea0 3dc6 3deb bf2c
bf94 bf25 3f45 bdfd 3f86 3f90 bf9f c03f
3f44 3f76 3e01 be31 3ffe bd84 be5b bf11
bf0c c00d 3fda bf9e bf03 be77 c028 3fac
3e80 bf94 be88 3f7c bd56 be5d bf0d bf8a
4002 c001 c054 bf29 c026 bd4c bf00 be4e
3e2a bc4c bf25 be9e bf8c bfa3 3ee8 3e8d
c01b bf8a 3e1c c04d 3f7e 3eba 3df3 3e1a
bf93 3fad 3f18 3c78 be31 be42 3f5f bf0c
bff7 bf4c 3f83 be80 3f3a 3efe be6e 3f4e
bf02 3f3a 3e6e 3f2f bf6e 3cd1 bfe9 3e56
bf85 c017 bfaa 3e13 3edb 3fdf bd9c bf5f
3f8d bd04 bee3 bf21 3f35 408f bfcb 3fc2
bf26 bfb2 3f7c befd be18 bef6 3fba bfce
bf2a 3f4b c00a 4005 bfc0 3dd6 3e89 3fc3
3f94 bddc 4045 3e74 3d94 3fa7 3f42 3d46
be9f bf3c bf12 bf26 bea7 3fde beaf bf09
bf26 bcb0 bfb0 3ee5 3f9f bf5b 3f3a bf75
bfe1 bf88 bdd3 3f7f bf97 bf1d 3f75 bfd9
bf85 be34 3f84 bfe4 3dad 4082 bcd0 bea0
bf1a 3fb3 bb80 3f3a 3f9f 3f5b 3f54 bfc4
bf95 c025 bf24 c030 3ea8 bf40 3f03 bf20
bf26 be91 4004 bf1c bfdf c0c9 3e64 be8d
3fc0 4061 3f9f 3f04 3f2a 3ec6 bf96 3f5e
bcca bf3a 3ce8 bf0b 3f5d 3ffc c001 bf73
beb2 bebc 3fec bfa1 3fe2 bed5 bfa1 be40
bfb9 3e8f 3eda bfee bf0b 3f3f 3ed0 3f94
be84 4017 3f6a bf11 bfa1 bffb 3fd1 3f5b
3f0e 3eec 3f04 3ed8 bfa6 c020 3db8 c027
3c99 bf56 402b 3f8b 3e1c bdf8 bf9d bde5
bf9c 3f81 beb6 401f 3fd3 3ee1 3f8d bf0e
bf31 bed6 bf4e 3be0 bea2 3f90 bfca bfa3
3ef6 be55 bf95 4015 3f76 be67 3eab be9e
3ea5 3f16 bf52 3f1c 3f43 bf86 bdc3 bf28
3f8f 3f06 3f20 3f1a 3fdf bf42 3f0e bed3
3f91 bf18 be33 3ef0 3f53 bdf0 bf38 bf74
befc 4000 c02d 3c70 beb2 3f96 c0b6 bf96
3f9d bf78 3fd1 bec8 be85 bf9c bf5a bed8
bf57 3caa 3ea4 bf8e bed2 3d18 3fc5 bf1e
bf82 3f0a bfa8 3e9e 3ef8 3dfe 3e3b 3e88
3f38 bfbe bfb2 befb c023 3fc1 bebc bfcd
bf42 bbf8 3bc0 3fd5 bf6e be49 bf0a 3e74
3fbd 3f44 bf63 3e1e 3f8e 3ecc bf91 3f23
bfda bfb6 3f4b 3fd1 bf26 bf89 3f96 3fb0
bf86 bd80 3d82 3fa0 bf79 3dc8 bf8e 3ca0
bf0f becb c005 3f66 bd94 bfdd 3e8d c055
bf92 3efe bda3 400e bf52 bf8f bed1 3eff
3e6d 3fef c011 3fa9 bf87 3f44 bf33 bfce
3df6 bf36 4033 3f16 3f85 3f74 3f3a bfba
3fe8 3ec3 bfd7 3fdd bfbe bf9e bf2f 3f3e
bde8 3fc1 bdea bd7c 3f83 3f5a 3d22 3e8b
bdae bf6d 3f2a 3d27 3fd4 3e5f bed1 bf00
3f69 bfa8 be14 3f8f beac 3f3c 3f8c bfc2
bfba bf1e 3ef6 bf89 bf3f bfe9 be91 be9f
c064 bd7d beab 3ebc be92 bfc6 be02 4017
3fb0 bd2a bf82 3eee 3e97 3ecc bef9 be84
bdd8 bf73 3e8d 3f8b bd86 3eaa 3f0a 3e0d
3f9c 3d0c c032 bda2 bfb6 3f53 be14 3f72
3f66 bf9a 400e 4025 3f01 3f05 4020 3d72
bf1c 3f8e bf0e be3c beca 3c82 3dbe bd44
bfb9 be95 bf49 400d bf86 4069 3fa0 bd50
3f54 3e1a 4022 3ef4 4028 be5c 3fba bf4e
3f43 3edc c002 3f01 40a7 3f84 3fd1 bfab
3d70 3f98 bf1d befd bfa3 3ed9 3f1e 3e62
c012 c058 bf77 3ef3 3fc2 3ecd bfa8 3f05
bfa7 bee8 3dac 3ffa 3fd4 bfba bfb5 3e88
3f1d bfb8 bf80 3f48 c089 3eb5 3e30 c03d
3e4f 3fca be52 bf15 4075 3eb5 bfb9 beb0
3f01 be22 3f08 bff6 bfc4 3f8e bf88 3f02
bf2e c1c7 bf1e bf45 bf99 3e60 3f8c 3f9f
c020 3dd0 bee4 bedf 3f9f bfb6 beab 4048
3f84 3f56 4030 c002 be4c be8b 3f39 3ff2
3e1c 3db5 bf6f 3fcf 3f8c 3de4 3f4a 4029
bf49 3e10 bdd1 3f3a bf30 bfb8 bffb beb3
3f9a bf74 3e9a 3eab beaa bc08 bf25 bfd5
bd6a bf21 beb9 bfb4 befa 3f47 be00 bf87
c026 4002 40a5 bf55 3f2a 3fa7 be19 bf94
bfc8 3fa4 403d bf20 3eeb 3ee0 3fa9 40a9
3fb1 3f98 3ff1 3f64 3f1e 3f3e 3b80 3f54
bf97 c038 3f8b 3f8e 3f8d bf3f 3f24 bf91
bff1 bf62 bf35 3f99 3fa2 3fb3 bdf2 3f87
3f4f bf2f be9a 3f29 3f9a bed8 bf28 3efa
3fa4 405d bf98 3e28 3f57 4040 3f8a 3e9c
3e34 3ee2 bd94 400a 3ea4 3f52 3fc9 bfac
bcb8 3f5b bf21 bfbc bd02 bf3f bf46 c004
3f8d bfb7 beac 3ef8 3fc1 c019 bee1 3ede
3f85 bea4 bd97 405f 3f41 bfc0 bed5 bf54
3eac bda0 be85 3ff6 bed2 beeb bfa8 3f3a
3f5a 402b bffc bef4 3ed2 be60 bf28 3f87
3e8a 3f6d 3fae 3c88 bf58 bfb0 bf47 bf8a
bf84 bfd4 bf8c bf6c c001 be54 bf07 3fae
bdc2 bd18 bf4e beea 3f21 3ef8 3e23 be1e
3ecb 3fa0 3fce 3f09 c01d 3f0a 3e8f 3eb8
3f5e bf83 3f8e be4d 3e9a 3ec7 3d85 bf8b
3f08 40aa bf7d bf27 3dfc 3fe1 c062 3d83
bdd2 3e92 bf5f bf36 3fa9 bf20 bfa8 3f8f
bf08 bfd6 bf63 3f73 bef2 3e84 3de0 bf5c
bf5b bdf9 3f4d be91 3f87 3f84 bf72 c042
3f3c 3f5f 3e93 bdee 3ff5 3dc8 3e04 bed6
bf23 bffa 3fba bf8c bf71 be49 c017 3fbf
3df6 bfbb be2f 3f62 3e58 3cd4 bf88 bf52
3ffe c01c c029 bebf bfb4 be1b bead beea
bed1 beb2 bfb8 bed8 bf89 bfa3 bdf4 3f03
c00b bf55 3e5d c066 3eb8 3ea9 3da1 bf21
bf69 3f3c 3eda 3db7 bdf8 bd86 3f7b bf10
bfdf bf08 3f94 bf05 3e95 3f64 bf09 3fb9
beef 3e48 3f86 3fa9 bf47 3f20 bfe0 3ecb
bf85 bfb2 bfb0 bea1 3f52 3fbb 3e8a bf4e
3f0f bcca bec7 bf53 3f2b 4074 bfe7 3fb3
bea6 bfa9 3e04 3e2c 3da8 3e03 3fba bf5a
bea2 3ee5 bfe9 3fd7 bfad 3e93 bf1a 4002
3f50 3e74 4021 3e5e 3f36 3fa0 3f80 3e6a
bdd9 bf2a bf94 bf5e be98 3fdc bf17 bf8c
3fc9 3ee8 bfbc be4c bd58 bf5c 3ef4 bf05
bfc7 bf9b 3de0 3ec6 bf56 bf06 3f87 bfc4
bf1c 3e24 3ed7 bfca 3d9a 4081 3d5c 3e84
be8f 3f51 3e04 3f8e 3fba 3f95 3f3b bfda
bfa0 c00d bf86 c032 3da8 bf1f 3f25 bf55
bf54 3d5e 4023 bf68 bfd6 c0c2 3e64 3e46
3fab 4037 3f86 bef1 be0a 3ea8 bf99 3f84
beb0 bf08 bd9f be66 3f6e 3ff6 bfe9 bf71
be96 be95 3fd1 bf80 3f65 bf1e bf8e bf06
bf98 3ef8 3f60 bfca be40 3f98 3f99 3f9f
bd14 3fbc 3f88 bf02 bfb0 bff6 3fd0 3f5e
3f5c 3f2e 3d92 3ea5 bfac c026 be8f c00c
3e66 bf80 3fe1 3f75 3c50 bc88 bf98 3e78
bf7f 3f92 bedc 400e 3fee 3f8b 3fc2 bf1a
bf34 bcb0 bf0a bf0a be05 3f82 bff6 bf76
3f82 be86 bf64 401d 3f1e bf63 3dd8 be15
bec2 3e79 bf9c 3f1a 3f86 bf90 3ef2 bf30
3f79 3f32 3f58 be92 3fd5 bf87 3ce8 be48
3f48 bfb2 bd92 3cc0 3f3c bdd1 bf62 bf86
bf2b 3fd7 c02c bda8 be4a 3fc5 c0aa bfa1
4009 bf8c 3fca bf9d beb0 bfbf be92 bed0
bf21 bed4 3ec2 bf2d bef6 bf06 3fb2 bf3a
bf07 3f02 bfef 3e80 3ec5 3e98 3ccc 3ee4
3f07 bfcd bf95 bf54 c007 3f83 3ddc bfc8
bf1f 3e84 3e1a 3fd0 bf2d bdf0 beea 3efa
3f68 3f9e bf92 3c10 3f9c 3efa bfa0 3f49
bfc0 bfa3 3f98 3f6c bf59 beac 3fb9 3fc7
bf97 3c38 3e13 3fa4 bf14 3e9c bf47 3e5b
bd60 bea3 bfe9 3f6d 3eb8 bfcc 3e21 c055
bf8d 3eb8 3d70 3fe2 bea7 bf6f bf04 3e06
3d1f 3fce c01a 3e68 bf30 3ed3 bf2a bfe8
3f09 bf90 402e 3e5e 3f63 3f53 3f3f bf8a
3fbe 3e81 bfdb 4026 bf6d bf92 bf4f 3f36
be5e 3faf bf0f 3d9a 3f14 3f26 3efa 3eb5
3e40 bf1d 3dd1 3edb 3fca bcd0 bf1c bb00
3f8f bf9e 3e1e 3f76 bf4b 3fb1 3f8d bf75
bfa5 be1d 3f10 bf74 bf28 bf96 bd70 beab
c067 3e78 bf45 beca 3dce bf9a 3d8e 4022
3fec be2a bfb1 3eca beaa 3f49 beab be2c
3e6d bf8c 3a80 3f8f bf30 be18 3f53 be1e
3f8c 3e58 c02d bee4 bfb3 bd10 beba 3f3a
3fde bf8a 4016 3fda 3ede 3f93 3f70 bee9
bedd 3fc5 bf04 3d00 be98 be8b be94 bea2
bf95 3e08 bf33 3fcb bf57 405f 3fa7 3df4
3f34 3ea4 4023 3e3c 402a 3eda 3fb4 bf47
3eea 3f05 c016 3efd 40a2 3f08 3f6a bff2
be78 3fe0 beff bf12 bf9a 3f1b 3f56 be1c
bfef c071 bfc2 3e4c 3fbc 3f94 bf53 3f82
bef1 bf01 3d64 3ff4 3fb4 bfc0 bf4f 3f46
3f4a bfad bf15 3f82 c038 bc58 3f17 c062
3f0c 3f22 3e26 bf8b 404f 3f60 bfe2 bf1e
3f3e befa 3f08 bf9e bfb4 3f77 bfa8 3f6c
3ea2 c1cc bf60 bf50 bf4a bdee 3f52 3fa4
c05f 3e52 bf33 bf80 3f70 bfd9 bf1a 4058
3f2e 3f84 403f bfeb bbf0 3e56 3f8f 3fbb
bfc9 be86 bf4a 3fee 3fa9 be07 3ef5 4045
bf82 be3e be9e 3faa bf2b bfe5 bfb5 3bc0
3f9e bf07 3e3f 3e2f be44 be5d bf35 bfd4
3d9c be96 bf19 bfa9 bf2f 3f48 bec3 bf7f
c00d 400a 4088 bebe 3f8c 3fd0 bf17 bf42
bfe4 3f1c 4047 bea8 3f95 be7a 3fb4 40db
3f8c 3f9a 4064 3f5a 3f01 3edf 3d78 be68
bf95 c02a 3eec 4005 3f38 bede bc60 bf4f
bfb2 bf5d bec9 3f56 3fad 3f91 be2c 3f6f
3f93 bf8b 3b84 3d02 3f81 bf0c bf2a 3e98
3fb3 4010 bfa6 3e3a 3f07 4021 3fbe 3f86
bd5c 3f0a 3f14 3fbc 3dc2 3fa9 3fd3 bf61
3ec4 3e70 bf28 bf94 be8a bf93 bf9a c006
3fa7 bfa7 bf3e 3ef8 3f92 c015 bea4 3e71
3f37 be48 be8b 406d 3f60 bfc0 bee7 bf74
3f4a beb0 3ecb 3f86 bf0a bf60 bfb1 3fe3
4008 403b bfcc bf10 3dd7 3dad bf13 3f6d
3db5 3f29 3fcc bde8 bff3 bfe6 bf9d bf5a
bf46 bf8c bf86 bf9b bfe3 be4b bf16 bee3
3e89 bf39 bfd4 be8a 3f14 3ec6 3f1e be2c
3e72 3f49 3f92 3e8c c026 3da7 3f28 3fc0
3f81 bfad 3f87 befe bf00 3f37 be44 bfa2
3f85 40ba bfbd be9d bde2 4002 c03f bc50
3d77 3f4a bec9 bf7b 3f3e bd8b bf76 3fd7
bede bfa8 bf3b 3f50 be2c bed4 be36 bf4d
bf33 be6a 3f29 3da8 3f6b 3f47 bf76 c040
3f2c 3f7f be9d 3d80 4007 3c00 bd84 bdfe
be48 bfee 3f7f bf97 bf90 be90 c01d 3f97
3e31 bf81 be2c 3f81 bddc 3ef2 bf36 bf9d
4021 bff7 c02e bf2e bfb2 3dd2 be3c bf12
3ec7 bdd0 bfc7 bf52 bf9c bf8a bd8c 3ebe
c037 bfb7 3ee9 c084 3f82 3e8e 3e76 bf04
bf2b 3f56 3e18 3dfc be06 bf2e 3ef4 bf7e
bfe4 be68 3fad bf23 3f46 3d14 be04 3f36
3e08 3e8c 3f90 3ff7 bf2e 3e6d bfc9 3f74
bf93 bfaf bf57 be5a 3f18 3fda 3e1a bf10
be0c bdca bf71 be8c 3f04 4037 bfd8 3fb8
be17 bfcb bf33 3da2 3e15 be82 3fa1 bfb1
bf0a 3f2b c016 3fab bf34 3e4f be31 3feb
3f2e 3d28 401c 3ec1 3f21 3f12 3fec 3f12
3e47 bee1 bfa8 bf72 be94 3fdc be1c bf7e
3fad 3f7a bff9 be18 3f32 bf9d 3f6a bfa9
bf98 bfa1 3e79 3f19 bf8d be46 3f6a bf92
bf8f bd20 3f4b bfc5 3e72 4076 3e4c bba0
be3e 3fb5 3d70 3f9d 3fef 3f6f 3f8b bfb9
bf8c c00c bf59 c02d bac0 bf44 3eda bf8f
bf2d 3efe 4015 bf68 bf99 c0c8 bca0 3da6
3fbc 4039 3fa0 bed2 3edc 3f3b bf86 3f20
beea bf22 3ca0 be34 3f25 4004 bff5 bf5c
bd9f be88 3fd1 bf9f 3f89 bf41 bf42 bf18
bfd2 3ead 3f85 bfde be2e 3fc8 3f3a 3fd9
bd5c 4037 3f60 be7c bf60 c029 3fb5 3fae
3f51 3e97 3ea8 3e22 bf5f c004 3dd4 c015
3e56 bf85 4004 3f9b 3e16 3e9a bfa9 bea1
bf7a 3f42 bf31 400f 400c 3f83 3f92 bfb7
bf22 3d7c bf31 bea4 3e0e 3f89 bf33 bf1e
3fb5 be5e bf17 400e 3e54 bf56 3d16 be26
bea5 3de4 bf76 3f7a 3f65 bf90 3e2e bfc1
3fb0 be06 3d9d bd2a 3fbd bf85 3daa be06
3e57 bfa4 3e9b 3db4 3e85 3f0c bf1d bf6a
beca 3fbe c033 be04 bddc 3fa9 c0c6 bfbd
3ff0 bf30 3fc7 bf67 bd58 bfa5 becd bf18
bf41 bc4c 3edc bf30 bf1f be4c 3ffc bfbe
bf08 bc52 bfff 3f18 3f4a 3eac 3e28 3c50
3f24 bfd2 bf96 be60 bff5 3f3a bed3 bfd3
bf1e 3ee9 be22 3fdd bf4b bdc3 bf2c 3d1c
3fbb 3f1f bf94 3e28 3f8c 3f05 bfae 3f08
bfab bfb0 3e70 3fac be5b bee4 3fa1 3fd0
bfdb 3e1e 3dac 3f86 bf44 3e72 bf64 be8e
bf0b be9a c005 3f1b bc4c bfdb 3ea9 c03a
bf91 3eab bd3a 3ff0 bef5 bf34 bf0e 3f3b
3e94 3fe1 c009 be2a bf06 3f3f bf14 bfb7
3f8a bf90 4008 be6d 3f99 3f20 3f1e bfae
3fac 3f75 bfe3 400a bfcc bfb3 bf0e 3ea0
be66 3fc2 3e38 3e50 3ec2 3f96 bebb 3ef0
bcfe be3b 3f4a 3dbe 3fd1 bee0 bec7 3ec8
3f6b bf98 3e6b 3fbf bf51 3f10 3f90 bf14
be6b 3e90 3ee1 bf2a bf7e bf94 bdce bf29
c069 3dfd bf6c bed0 3f28 bf8a bd55 403c
3f98 be4e bfc6 3f38 befb 3fc6 bf43 beb1
3ed0 bf95 3df2 3fc6 bf2c 3e2e 3f5c bcd8
3f80 3eec c044 beaf bfbe 3fd6 beb8 be0b
3fbe bf6c 4011 3ff0 3ee0 3fdd befb bf24
beff 3fb4 bf64 3ee1 bea5 bce4 be2e bda6
bf83 3f82 bf90 3f8a bfa2 4078 3fec 3c80
3f4c 3ef2 400c 3e93 4042 3f06 3f20 bf1a
be02 3f18 c022 3e5a 40b2 3f08 3fab bf98
be3c 4004 bec5 bf9f bf8e 3ebd 3ecb bf11
bfb2 c085 bfd9 3e76 3fb6 3f04 bfb1 3f80
bf41 bef2 bd14 401c 3fac bfb7 bf83 3eb6
3f66 bfca bef3 3f35 c04a 3f62 3eab c05f
3e35 3ea0 3eb4 bf07 4092 3f99 bfde be9a
3ea8 3e67 3ebe bfd7 bfdc 3f3f bfa2 3f2d
3e94 c1cf bf62 bdf4 bf98 be36 3f66 3f9e
c025 bd14 bee0 bf8f 3f94 bfd4 bf15 4047
3f01 3f99 4051 c004 3e1e 3d9c 3f3e 3fe6
bfcc bd96 bf58 3fdd 3f9a beca 3e4d 405a
bf14 bdd7 be70 3ec8 bea8 bfb7 bf6d befa
3f87 bf8f 3d5e be60 be94 bf0c bf8f bfe2
bec5 be56 3d98 bfbd bf39 3f48 3f2c bf7d
c007 3fe5 4090 be87 3f8b 3faf 3e3e bf8d
bfd9 3f5a 4044 bed4 3f4e bec2 400f 40c6
3fa0 3f90 4071 3e5f 3ed4 3eaa 3dce bf44
bfc0 bf42 3e83 3ff4 3f81 3bc0 bf36 bf4f
bfd0 bee3 be49 3f99 3fc4 3f80 3d1f 3eb5
3f31 bf8b bea3 3e99 3f28 3ed4 bed6 3e1f
3ff9 3f5c bf51 3e42 3f2f 4022 3fce 3f95
bf35 3f9e 3f44 3f9e be6e 3fad 4001 bf70
bf3a 3eef bf75 bf97 3ee0 bfb5 c01c bfd9
3f80 bf74 bf9e 3f27 3fb8 c01c bedb 3ee0
3fec be6a be25 4081 3f37 bfb9 bf3e be21
3f14 be24 3f31 401a be24 be76 bf97 3f9e
402b 4033 bfc0 bf3b bd5a bf03 bf04 3f82
3f1e 3f65 3ff0 3e14 c024 bfc4 bf3a bfee
bfaf bfa5 bf15 bed5 bff1 bf26 bf62 3ead
be64 be26 bfd7 bf8a 3ee3 3ef6 3da4 be15
bdf2 3ea0 3f9c 3e38 c028 3e72 3ee4 3f68
3f82 bfc4 3fac bf1e 3ce4 3f18 3e6b bf7b
3f5a 409c bf98 bf68 3d9a 3fdf c04c bde2
bdb2 3fbe bf3c bf97 3f02 bf93 bf9e 4004
be6e bf05 bf34 be37 bea6 bea1 bf25 bef3
beb7 bf26 3f86 beed 3ed4 3f66 bf37 c04a
3f48 3f9e bd97 3e44 3ffa bc80 bf0b 3e43
bea1 bff6 3fa2 bf9e bfa9 bf22 c00b 3f97
bf05 bec2 bdaf 3f1c be0a 3f0d bf8c bf9a
3fec c004 c022 bfba bfb4 3e8d bf02 bf17
beb2 bf5c bf4f bf86 bf86 bfb4 3db4 3f1e
c01a bfbc 3e72 c085 3fb4 3d7d 3ed3 3eb3
bf45 3fb9 3f08 be2d be77 beea 3e98 bf42
bfc0 be87 3f9e bf6c 3e7a 3ef1 be92 3f8e
bf4a 3e2c 3f7e 4019 bf22 3ec7 bfc7 3f9d
bfb5 bfb2 bf8b be27 3f11 3ff6 3db0 bf2b
3d86 bd2f bfc5 be01 3f5d 405e bfee 3f90
be00 bfbb 3e72 3f05 3f3f 3f01 3fa7 bf9f
bf72 3e7a bfb0 3fb3 bf8a be34 3d8a 3fc6
3ea4 3eb4 4027 3f0a 3f2a 3eea 3fe3 3ec4
3f1b be60 bfc4 bee5 bf5b 3fe4 bf14 bf2a
bfd6 3f30 bfe7 3f10 3e8c bf8c 3f88 bf90
bf91 bf8c be2e 3f24 bf80 be80 bf15 bfb9
bf03 3ede 3f8f bf90 3e08 4083 3e46 be98
be1d 3fa8 be5c 3f85 3faf 3f97 3f41 bfb1
bf94 c002 be8a c019 bc64 bf82 3f1e beac
bed4 3ea7 4007 bf4d bf90 c0ce 3d1a be88
3fb0 3fc9 3f9a 3e73 3f18 3dc8 bfbb 3f78
bf2d bedf 3e8e 3dee 3f28 3fe3 bffb bf90
3e91 bf27 3fb2 bfb8 3f3b bf08 bf4c bf53
bfd3 bd88 3f0c bfd4 beaa 3f64 3f31 3ff8
3f2c 4020 3f93 bd99 bf8a c02f 3fd1 3f12
3f0c 3ee6 3e86 be2a bfca bfdc 0000 c040
3d1b bf8b 4040 3ed9 3d80 3f07 bf8b 3e31
bf62 3f80 bed1 400c 4003 3f99 3f8e bfa4
bf5f bde5 bec6 3f76 bf27 3f4c bf9d bed4
3f6b bea2 bf40 401b 3f8e bf97 3e17 bea0
3b80 3eec bf9a 3fa7 3f7c bf75 3d68 bf7a
3fa5 3e50 bd80 be82 3ff3 bfb1 3e95 bf70
3f14 bf06 3dae bf0a 3e82 3f8a bf06 bf96
bdee 3f5e c049 be7f bdf8 3fb7 c0af bfa8
3fbd bf07 3fda bf20 bd80 bf89 be18 bf22
bf54 3e0b 3f10 bf1b bf62 be4e 400c bfd2
bf1a 3e82 bff6 3f30 3e7c ba80 3b60 3f08
3f28 bfb4 bf35 bf0a bfce 3fab bef6 bfd1
bf0b 3eb0 3e5b 3ff4 bee6 beb1 bf02 bd36
3fde 3f37 bfa5 3dd8 3f8c 3edf bff4 3ebd
bf80 bfa1 3f14 3fc2 bf28 be94 3f7c 3fa2
bf8a 3f00 bf02 3f8a bf94 3e3d bf08 beac
bf06 be4e c010 3f16 bdd0 bfe9 3dee c03c
bfb2 3f79 3eaf 3fe2 be2c bede bfbf 3f0b
3ecd 3fe0 c014 3f93 bee8 3f52 bf4d bfc1
3f8c bfb2 4027 3f13 3fd4 3f19 3f16 bfc2
3fd1 3da8 c00c 3fe3 bfc6 bf44 bf90 3e0d
3f08 3fb4 3e00 bdbd 3e08 3f9b bec4 3e8e
be12 bf0c 3ec6 befd 3fce bf22 bef2 3f01
3f17 bf9a 3eda 3fd1 3dab 3f40 3fa4 bf83
be2d 3e55 3ef4 bee6 bdb0 bfa7 3da2 bf46
c057 3e8b bd44 bde0 bba0 bf72 bd82 400b
3fa9 bf19 bfe1 3f6f be88 3faa bf4e bf28
3e91 bfbf bb40 3fd9 be00 3e51 3f5e be4d
3f50 3f37 c02a bdfc bfd2 bf29 bf18 3cb8
3fab bf54 4017 400f bcc8 3fd1 3fd0 bf83
beea 3fa4 bf32 3f2d bdce bda6 bd32 3d96
bf51 bf97 bf83 4002 bfd4 4081 4006 bd60
3f8d 3dd0 3fe9 3f05 4062 3f0f 3f4a bec2
3e8e 3e64 bff2 3e32 409a 3f0c 3fab bf77
3f8e 3fe5 bed9 bfb1 bf95 3ee0 3ed7 be42
bfdc c073 bfb3 bdbc 3fb1 3fa4 bfd9 3f1c
bef5 be3e bd39 400e 3faa bfa5 bf53 3d84
3f2b bfc8 be9e 3f29 c04e 3f84 3f10 c087
3e5e 3f2c 3f04 bf2a 4062 3eeb bfbc bef6
3f0c bf24 3f06 be82 bfe0 3f75 bfae 3f82
3ed0 c1cd bf1a 3e16 bfa0 3eda 3f44 4002
c015 3e3c bf02 bf65 3fd2 bfec bf26 404a
3f2d 3fa4 4039 c000 3f1a 3eaf 3f17 3fab
bf8f be14 bf63 3ff7 3f93 3d90 3ea5 4036
bfd9 3dcb 3e8c 3f16 bf03 bfca bfc4 bf26
3f9b bfbd be37 be88 bf16 bf64 bf95 bff6
be30 bf0e beec bfb4 bf15 3f1f 3e2d bf04
bfff 3fd1 4089 be96 3f17 3fc2 3c88 bf7d
bfbf 3ef8 4015 bdaf 3f38 be89 3fce 40ca
3fbf 3f9c 400f 3e63 3ec6 bc90 3e31 3c60
bf39 bffc 3eff 3fc2 3f78 bd20 bd60 bf25
bfce be85 be83 3fae 4002 3d14 be16 3f32
3f70 bf92 3de7 3f88 3f54 3ef4 be4b be84
3fbc 4054 bf34 3d8c 3c80 4007 3fba 3fb8
bed8 3fc1 3f00 3fa7 bd30 3fa7 400c bf5c
3eec 3d87 bf8b bf9d 3f5e bfdc bfe1 bfd6
3f78 bf8d bf8c 3f76 3f0c c01b 3f13 be68
3ff2 befc be8b 4074 3f2f bf94 bf90 bf02
3f74 3e81 3e12 400f bea1 be78 bf26 3f2e
3ff1 4024 c00b bee4 be9b bee5 bf46 3f76
3ee9 3f47 4013 be4c c022 bfe8 bda3 bfa4
c000 bf74 bf42 be70 bfd3 be77 bf38 3f90
be57 bd70 bfe4 bf08 3ef3 3f2a bd20 bd48
bedd 3f08 3fe1 3e81 c01f 3dd0 3f36 3f58
3f56 bf9e 3f74 beca 3ec6 3ed6 bd4c bf84
3f9a 409d bf73 bf59 3d77 3ff6 c051 bef9
3df1 3e18 bf43 bf68 3f96 bf0a bf88 3fb7
3d8a bea0 bfbc 3eda bcf0 bee4 3e70 be22
bee0 bf22 3f1a 3de6 3f24 3fad bf2a c058
3f94 3fb7 bd4e 3e1c 4003 3e62 be3f 3e8b
bf20 bfc3 3fa5 bf8b bf76 be90 c03e 3f9f
be7a bf81 be8a 3f29 becd 3e9e bfc1 bf9f
3feb bfe4 c033 bf66 bfc5 3dde bf13 be9f
bf49 bf86 be1c bf36 bf87 bfbe bf17 3ecc
bff8 bfa0 3e92 c052 3f7d bf18 3f0f be31
bec2 3f96 3fc3 bc70 bf01 3e98 3f20 bf02
bfed 3e89 3fa0 bf76 bea2 3e9e bd0c 3f5f
bec5 be43 3fab 400e be6e 3e5c bfb3 3f04
bfd6 bfe0 bf8f be7a 3e22 3fcb 3dc6 bf40
bd8d bea6 bf87 bf35 3d3e 4089 bfdb 3fa2
3e65 bf90 3e32 be86 3e8c 3f3a 3fb9 bfde
bf6b 3f3a bf70 3fee bf9b 3ebe 3e31 3fbc
bd86 3e8e 402f 3f3e 3f00 3f02 400d 3e89
3e55 bed5 bf99 bf35 bf2e 3fea bf14 be70
3c20 3ede bfe1 bf0e 3e5c bfdf bbc0 bf80
bffb bf93 befd 3f1c bf70 be60 3ea1 bf56
be79 3ee6 3f4c bfb1 3d00 407d 3f6b beae
3e17 3f60 be70 3f4d 3fbf 3fa4 3f42 bfbb
bfb0 bff4 bf24 c022 3eb1 bfa4 3f6d bf2c
be47 3d12 4014 bf34 bf1a c0c8 bc88 3db4
3f82 3f46 3f85 3e5a 3df0 3ee0 bfb5 4005
bed4 bf28 3e9e bea2 be83 3f68 c01b bfad
3ea4 bf42 3fcd bfb2 3e9e bef8 bf3f bf5a
bfc0 bec3 3f56 bfb6 beb0 3f77 3f32 3fb4
3f56 3faf 3f86 bdb6 bf6a c03f 3f96 3f2c
3f6f 3e7e 3d54 3e9a bfb8 bff0 bded c040
bc82 bf6e 3ff6 3e4a 3e5e 3f7e bedc bcdc
bf60 3f8e bf75 3ff8 400e 3fa8 3f56 bef1
bebe be56 bf3f be10 bf0a 3f74 bfb4 bf85
3edb bf13 bf53 4029 3fd5 bfb1 3d7f bde4
be0e bd14 bf93 3f88 3e88 bf39 3eb0 be81
3f19 3f4a 3d36 3d8f 3fdc bf7a 3ed8 bf87
3f38 be8e 3e2c bf2a 3e9c 3d58 bf37 bf51
3f8f 3f74 c04a 3da2 be14 3f41 c0b8 bf57
4015 bf35 3fb7 bf56 bd00 bf95 bda8 bf44
bf35 bf7d 3f09 be89 bf76 bf62 4014 bfeb
bf62 3f39 c000 3f49 bdab 3e42 be31 3d38
3ef0 bfa6 be32 bf62 bf8e 3fac be06 c007
bf44 3f53 3ef2 400d bef4 3bf0 bef0 3e1b
3fa1 3fcd bfd5 bf18 3f94 3f2a bfd5 3e9d
bf85 bf96 3f58 3f9e bf5f bef0 3fbd 3f6e
bf00 be05 bd21 3f6a bf78 3d4b bf1e be5d
befc be8b c004 3e9b 3dd1 c004 be72 bffb
bfc3 3f4c 3ef7 3ffa bedb be8c bfb2 3eaa
3eaf 3f96 c02b 3fb4 bf37 3f77 bf28 bfad
3f17 bfc7 3fe0 3f93 3f8a 3e14 3ee3 bfa1
4000 3d58 c005 4011 bfb6 bf25 bf64 bf4e
3f0b 3feb bdb5 beae 3df7 3f74 be4e bdb4
3e39 bf52 3f01 3df3 3fa9 beec bf7b 3f5e
3e88 bfd8 3ec4 3ff0 be3e 4009 3faf bf3f
be9a be85 3f4a bf30 bee7 bf5a 3f42 bef1
c07c 3eb6 3e79 bdd4 bf4c be8d 3e00 4005
3fac bf68 bfba 3f44 beb5 3fa1 bf1c 3cd0
3e18 bf96 3a80 3fc8 3e23 3e31 3f72 be6a
3f44 3f35 c019 be18 bfd6 c02b 3de6 bec3
3fe1 bf1f 400a 3fd8 3ea4 3f7c 3fc7 bf7a
bf07 3fb3 bfa1 3e6f 3e8c be84 be5c 3c90
bf28 3c8e bf99 3f93 bfb5 40bf 3ffa 3f54
3f88 be9c 4009 3f3e 406c 3d0c 3f5f bd9d
3f38 3df0 c025 3f13 409a 3f68 3f80 bf47
3df8 3fdf befa bf96 bf9a 3e97 3f1a 3cb4
bfac c076 bf9e beac 3fe3 3fb5 bfce 3f56
bf51 bdae be78 3ff8 3fad bf99 bf40 3ece
3f44 bfdd bece 3f86 c017 3f5c 3f62 c074
3b10 3ede 3f2e be25 409c 3f43 bf90 bc40
3f74 bf94 3dec 3f31 bfc3 3f1e bf67 3f8d
be3a c1d2 bedc bf2d bfb7 be8d 3f20 4007
c020 3e4f bf66 bf75 3fc7 bfde bf08 4051
3f2c 3f81 4046 c006 3f28 bda8 3f52 3ffe
bfe6 3b20 bf94 4013 3f7a 3e0e 3e5b 4042
bf1f bde6 3f49 3f6a beeb bfdf bfc1 bf0f
3f83 bf8d bd0e 3e44 be42 bf45 bf95 bfd9
be71 bf0e bf20 bf79 bf27 3f2c be3a bf04
c01b 3ffd 4039 bec6 3f7c 3fc2 bebd 3ae0
bfca 3f00 4014 bbc0 3f3a 0000 3fea 409c
3fb8 3f87 3ffc 3e80 beeb 3e20 bd5c bdbc
be18 bf94 3f68 3fa0 3f3d be4f bb00 bf22
bf91 be9a be79 3fcf 4006 3e93 bf01 3f90
3f10 bf1a bda4 3f6a 3f8d bda0 3e4e 3eb2
3f88 4022 bfc4 3efa 3efb 4010 3f8c 3fc0
bf6f 3fa8 3f62 3fa2 3ea1 3fb9 3fde bf24
3f3d 3ec4 bf79 bf9c 3ec4 bfee bfe5 c007
3ef1 bf9b bf23 3f42 3f0f c005 3f62 be6a
3fa6 bf06 bdd1 4053 3f4c beff bf16 bf6a
3f2b 3ee6 3cd8 3fe4 be90 bf08 bf2c 3f26
3fe8 400f c010 beba bed6 bf2c bebc 3f68
3e88 3f08 400c 3dd1 c038 bfdd 3eac bf92
bf80 bf64 bf4c bf39 bfa7 bedc be28 be09
be21 bee7 c00c 3e54 3eac 3f2d bc85 3db2
bede 3f43 3fa4 3f86 c029 3e30 3f48 3f9d
3fbc bf88 3f52 bef7 be94 3eef 3f3d bf12
3fc5 4090 bf48 bf72 3e52 4008 c040 bebd
3f0a 3fd4 bf38 bf8a 3f8b bf33 bf8c 3fce
bd04 3f00 bfed 3f19 bed0 bf42 3e86 be7c
be99 bf7a 3f24 3e3c 3f27 3fd9 bf6c c03b
3fa9 3ffe be94 bbc0 400a 3e96 bf08 3e36
bf5b bfd0 3fc7 bf99 bf4c 3e8e c00d 3f7b
bf3d bfa5 be96 3f65 bee2 be1e bf6f bf93
3fe6 c009 c060 bfab c015 bf09 bf29 bef3
be20 beee be9c bf5a bf86 bfa5 bf15 bec2
c02c bfa9 3f41 c036 3f74 be57 3f52 3dfc
bee0 3f59 3f8c 3ece bf17 3da7 3f6a bf88
bff0 bee4 3f4b bf96 3ec0 3e0c be41 3d68
bf0b 3dec 3eae 3f96 beb6 be28 bfc0 bd97
bfaf c02c bf8a bda5 bcf2 3fe8 3d28 bf84
3e03 be21 bf00 bf20 3ea7 4084 bff2 3fb8
3e13 bf83 3f28 bf32 3efe bd94 3f9c c019
bf53 3f1b bfb0 4008 bf26 3f7b 3e1a 3f92
3ea9 bee6 404d 3f06 3f62 3f48 3fc8 3e1f
3e70 bf3d bf42 bf52 bebe 3fcc bdfa bde6
beca 3ee9 bff2 bdb8 3faa bfc2 3e14 bfab
bfe0 bf93 beb2 3fb3 bf84 be83 3eca c00b
bf7c bdf9 3f64 bfab 3ea2 407e 3f64 bf01
3ee4 3fa9 bede 3f0f 3fb9 3fa2 3f06 bfcc
bfac c012 bfa2 c02a 3ea9 bfc4 3f3c bf36
bd3c 3eb5 3fe6 bec0 bf85 c0d2 3e79 be86
3f9a 3fec 3f03 3e1a be29 3f20 bfbe 3fc4
bda2 bf1a 3f06 bf14 bef8 3fc1 c015 bfaa
3e75 bf39 4004 bfad 3f8a bf0c bf1a bf88
bfa4 bec3 3e7c bf71 be34 3ee0 3eca 3fa2
3f92 4029 3f09 bef1 bf06 c043 3fac 3f60
3f6a bec9 3f0b 3e90 bfbb bfd7 be6c c03c
bd82 bf42 402a 3f6a 3e89 3f07 bf1b bf04
bfbc 3f86 bfa7 4017 4010 3f93 3f37 bdd4
befd bec0 bf9e 3e1e bec9 3fb3 bf86 bf89
3ebb be6e bf89 4005 3f5d bf60 be90 be2f
3d96 beb8 bf91 3f98 3ecd bed4 3dfd bf98
3ed9 3f39 be56 3f37 3fd7 bf57 3edc bf9e
3f49 3e6e be93 3d00 be44 3ec5 bec0 bf49
3f45 3fbb c034 3d8a 3dbc 3f6c c0b4 bf74
3f88 bf3c 3fcd bf47 be54 bfc6 bf37 bec3
bf89 bf29 3ebf beef bf91 bf34 4022 bfcd
bf8e 3ed0 bfe4 3f9a beb6 3ead bf06 bd6a
3e42 bfae bed6 bec2 bfd0 3fb1 bd8a c012
bf27 3f0f 3e83 4024 bf2b 3e4d bf50 bd8d
3fed 3f5d bf98 3e88 3f5c 3ee0 bfd8 bcec
bf92 bf98 3f2c 3fa2 bf6f bf8b 3fac 3ea8
bf6e 3e01 3e9f 3f80 bfa2 3f0d bf39 3e0b
bfb5 3d28 c004 3f4c be68 bff4 3e32 c02a
bff4 3f37 3e96 3ff8 bf73 bdb7 bf82 3f4f
3e1f 3f90 c021 3fd9 beb2 3f84 bdb0 bfda
3e22 bf86 4003 3f0d 3f6a 3da8 3f20 bf9c
3fe8 3f20 c00c 400d c00f bf88 bf02 3e86
3eb2 3fb0 3e07 bf33 3f0c 3fad bf44 beda
3e86 bf99 3f1e bf01 3f8b be5e bf38 3f3f
3ead bfb5 3e41 4009 bf44 3fbe 3fd7 bf78
bf44 be68 3f71 bee5 be82 bfec 3f08 bf87
c07a 3f11 3e46 3be0 be9d bec8 3db8 4021
3f84 bf43 bfa5 3f46 3e31 3f9b bf69 bf0f
be31 bf4c 3cf8 3fd3 3ea4 3f6b 3f60 bede
3f49 3f36 c009 3e74 bfd1 bf34 3e28 3e94
3f92 bf1f 4004 4010 3f09 3f23 4037 bea3
bf16 3fc1 bfa6 3e86 be17 be67 bef1 3dfe
bf2f 3f0c bfbf 401b bfe6 409b 3f99 3d34
3e93 bea2 4012 3f5a 4033 beb2 3f97 bd6c
3f21 be42 c02c bd5c 409f 3f1e 3fb2 bf61
bed8 3fd0 be54 bf69 bfa0 3ebf 3ea4 3f0f
bfc5 c064 bf73 be2a 3fbe 3ee9 bfe2 3eb6
c007 be6e 3d54 4000 3fe8 bfa5 bfaf 3e03
3f80 c009 bf2e 3fa4 c071 3f84 3f76 c02b
bf18 3f93 3f1e 3d07 40a9 3ec8 bf43 3e81
3f28 bf63 3f0a 3e1c bfc2 3f32 bf3c 3eb8
beca c1d2 bf3e bf5c bfb0 bf10 3f22 3fec
bffc 3d78 bf08 bef6 3ff0 bf98 beb0 4043
3f98 3f87 4037 c009 3ddb bf2c 3f04 4019
bda0 bcb7 bfa2 402b 3f94 3ec8 3e0c 4040
bf08 bc68 3fa1 be48 bdce bfbd bfa3 bf42
3f83 bf99 3e9d 3e8f bed1 bf13 bf9f bfbe
be41 bea6 bdc6 bf7e becc 3ef2 3ef8 bf68
c03b 3fde 4058 bf24 3f06 3f1a 3ea0 bef0
bfc6 3f23 4020 beb6 bc78 3d9a 4001 4073
3fc0 3f6c 3fa2 3f19 bea9 3ef2 be00 3f18
3ad0 bf79 3f36 3e62 3f50 bf26 3eac bf62
bf8e be65 bcec 3fe3 3fbf 3f1b be12 3f34
3e62 bf2c bea9 3e9e 3ee0 3e86 bf17 3f4a
3fc9 401e bf98 3f23 3f2d 402a 3f84 3f2c
3e79 3f62 3f3e 400a 3f1e 3f9e 3fe6 bf6a
3de6 3f8b bf8d bfb0 bc68 bfe0 bfcf bff4
3f1e bf8a becf 3f7c 3f12 bff9 3e96 bda8
3f9a bf5a 3e17 4060 3f9b bfc0 bef7 be92
3e91 3f2e 3da2 4002 bd9c be6d bf0b 3f62
3f14 4005 c011 bed8 bedd bfbc bf2f 3f9b
3e90 3f95 3fdd 3e12 c022 bfbf 3e91 bff1
bfba bfa4 bf40 bef3 bfa7 bee8 be7a 3fd2
bf16 bdb4 bfe0 3b80 3e63 3ea8 3cfe 3e8e
be12 3f44 3fbf 3f9e c026 3e2b 3ead 3f25
3faa bf2d 3f24 be9d 3ec8 3ecf 3f19 be96
3f3e 4084 bf19 bfb1 3e9a 3ff2 c06c be79
3de8 3fb8 bf9a bf82 3fa2 bf85 bfbc 3fc4
be97 bdf4 bfa6 3e82 bf76 bf66 3e52 3da0
be83 bf02 3f60 bd95 3f31 3fb6 bf72 c03e
3f84 4006 bcc4 3e28 400c 3efc beea 3d48
bf31 bfdb 3fd7 bfbb bf2f 3e69 bfb8 3fc5
bf83 bfcc 3e37 3f9b be85 3dda bfb7 bf87
3f98 c017 c045 bf94 c009 bf13 beee bf00
be88 bf38 bf9c bf5c bf64 bfa0 be98 bedc
c010 bf4d 3f12 c047 3ea5 3d00 3f2f be38
bf78 3f37 3f81 3eba be7f 3f28 3f97 bfb6
bfcf bf4a 3ec8 bf77 3eaa 3f19 bf3b 3f13
bf84 bd5b 3f16 3f23 bf21 3f14 bfdb be31
bfa6 bff9 bf8c 3df2 3dec 3fca 3eb4 bfaa
3de8 be05 3db8 bf44 3f01 4078 c00b 3fbb
3e9f bfc4 3eef 3ed7 3f38 3e8e 3f9b bfca
bf3f 3e74 bf5e 3fee bf56 3f9e bf3b 3fb8
3e7a be59 405c 3f31 3fa2 3fba 3f8e beb5
3e28 bf09 bf52 bf62 bf5a 3fac bf16 bf80
3f24 3f28 bff4 bea0 3e9e bf93 3d68 bf18
bfca bf95 be77 3f8b bf4d bf2b 3de6 c002
bf3a be81 3ef2 bf5e 3e97 407a 3f58 bde8
3f3e 3f90 bf10 3efa 3f94 3f87 3eb8 bfdf
bfc3 c008 bf8f c02c 3ee8 bf98 3f63 bf50
bedd 3ee7 4022 bf08 bfbd c0db 3f22 bde6
3f6c 3fd8 3e8a 3ea1 bf3a 3f39 bfbf 3fc9
becb bf4c 3ee6 bea3 3ece 3fea c010 bfc2
3dc7 be18 3fe4 bfbd 3f3c bf06 bf84 bf90
bf46 bd8c be82 bf4d be78 3e8a 3f06 3f4f
3f94 3f87 3f54 bf22 bf6c c030 3f95 3f5d
3f60 bcc0 3ea4 3e83 bff7 bfeb beb9 c031
3cd1 bf40 402b 3f90 bd67 3e84 bf64 be81
bfbb 3fa4 bf9f 402f 400f 3fa6 3f85 be2e
beec bdeb bf57 3f0c be68 3f85 bfe4 bf68
3f32 bbdc bf51 3ff4 3f2c bf75 be73 be88
be6d bf18 bfa5 4003 3fa0 bf20 3f8a bf69
3e4e 3f94 be86 3e6c 3fdb bfa2 beab bfbc
3f7f be44 be58 be4a be0a 3ebd bf01 becf
3d02 400d c037 3d68 bd92 3fb5 c0ab bfab
3fc0 bf2e 3ff0 bf86 3ba0 bfae beec beba
bf82 bf27 3e24 bd4f bee1 bf69 400c bf90
bf3d 3f22 c009 3f83 bf3c 3e82 bf81 3ec2
3ea9 bfe2 bdc1 bf50 bfcc 3f88 3f00 c008
bebe 3f62 3f50 4015 be9e 3e76 bf45 bdf0
3faf 3faf bf59 3f52 3f8c 3f01 bfd6 3ea9
bf54 bf60 3fc7 3ee8 bfa1 bf7d 3fca 3e9a
bf8d 3f1c 3f1f 3f82 bf92 3f42 bee8 3f79
bf8e be01 bff0 3f8e be9e bfea 3ec8 c05b
c01e 3f8b 3f0e 3fbd bf44 beb6 bf44 3f39
3e2c 3f40 c02a 3fa8 be3f 3ee2 be56 c009
3c1e bf78 4045 3e5f 3f74 3d49 3f62 bf7b
3fe1 be1c c012 4041 c014 bf96 bef4 3f34
3f17 3fb2 beb4 bec0 3ea9 3f85 be5e bea6
3f25 bf93 be32 bf05 3f95 be33 bf8d 3f85
3f33 bfa5 3e6b 3ff9 bf93 4005 3fcd bf42
bf17 3e3a 3f1a be2e 3e5a bfac 3f8a bf5a
c040 3e92 3e28 be60 3ede bebd 3dc2 4020
3fae bf93 bf86 3e34 3dec 3f31 bef6 bef4
bee4 bf1b beca 3fa0 3ed4 3f81 3f30 be26
3f55 3ebb bfe2 3e2a bf99 c024 3e5e 3f14
3fcc bee2 3fe5 3ff4 3e83 3f9c 405d bf43
be68 3fd5 bf22 3ed6 bdcf bf27 bedb 3e2f
bf30 bec5 bfb3 4024 bfe1 4043 3eda bdd2
bdcc bdcc 4003 3f3d 4021 3efc 3fae bdaa
3f0a bd40 c01e 3e42 408f bd18 3f82 bfbe
3df0 3f98 be5a bf1f bfad 3def 3e76 3eda
bfdf c05b bf4c be8b 3fb3 3f8d bfbb 3e79
bfec bf32 3dbe 3fdc 3f95 bf7e bfac 3f58
3f94 bfdb bf43 3fbd c03b 3e1c 3f83 c024
bf0e 3f61 3f2d bead 4064 3e84 bf97 bbe0
3f73 bfb5 3f38 3e88 bfbc 3f21 bf4b 3f0b
3ee5 c1c6 bf90 bf90 bf64 bef6 be92 3fea
c023 bde9 bec2 bf54 3ff2 bfa2 be95 4035
3fb8 3ee2 4029 bff4 3ea5 bf2d 3f20 3fab
bdde be96 bfa0 401c 3fcc 3eaa 3e97 4033
bf6b 3dac 3fb7 3ea7 3e24 bfd4 bf90 beba
3f8a bfa2 3edd bea0 befb bf14 bfaa bfce
bd1d bd67 bf7b bf67 bed8 3e27 bc80 bf4e
c027 3fe3 4066 beef 3f3a 3f57 bedd bf1d
bfd7 3ecf 402e bd28 bedf bda8 3fca 40b6
3fc4 3f42 4040 3f6c be6f 3ece beee 3e5a
3db8 bfd4 3e82 3f45 3f21 bdc6 3f0c bf0c
bf57 be3f bc9d 3fbb 3fa0 be9e bba4 3d98
3f40 bf3b 3f00 bd86 3d44 be34 bf06 3ec4
3fbf 4044 bf97 3ec2 3dae 4004 3fb4 3f1b
3f3a 3f78 3f9a 4013 3f26 3fa7 3fac bf2f
3eb8 3ec2 bf4b bf8c bea8 c000 bfbb bff0
3f98 bf8a bea3 3f86 be54 bfe9 3e9e bf04
3f11 bef2 3e52 406a 3f8f bfe4 bf59 be4f
3f2e 3f03 3e7b 3ff3 be2a bf38 beda 3fc5
3f36 400a bff9 bf33 beaf bf76 bf60 3f95
bdbc 3f84 3fb8 bde0 c016 bfe3 bef3 bfba
bfcf bef3 bf5e bf64 bf75 bdbe beb2 3f2d
be6b be66 bff6 bd3e 3e85 3f3b 3e64 3f26
bde8 3f22 3fb0 3f4c c006 be73 3f03 3f7a
3fd8 bf42 3ec3 bf06 be30 3f5f 3e34 bf2a
3f0e 409b bf26 bfba 3dcc 4000 c05b beeb
3e6a 3f4c bf3a bf7d 3f8d bef8 bf97 4005
bda6 bf12 bf8c 3ebc bf57 bf84 3eb6 bcd4
beb5 bf0f 3f11 3da1 3f59 3f72 bf43 c04d
3f6c 3fe8 bce0 be10 4023 3e62 beb0 3e6b
be15 bf88 3f94 bfaa befc 3eea bfd7 3f9c
beb7 bfa2 3e3a 3fae bf29 3ec4 bfa5 bf93
3fba bfcb c030 bf82 bfaa be58 befc be37
3eaa befb bfd9 bfca bf81 bf54 bf16 3d99
c002 bf2e 3f85 c04e 3ece 3e66 3f68 bf0e
bf39 3eeb 3f8d 3cf4 be0b 3eee 3fb2 bff8
bfe6 bec0 3f5f bf6a 3f16 3da0 bf1d be2f
be8a bee3 3f5e 3fbc beb2 3f7d bfe6 3ed7
bfb2 bfee bf4e bd81 3e62 3fbb 3f11 bf93
bf10 be31 3f41 bf63 3f12 4033 c000 3fd0
3e4e bfe9 bf58 3f0f 3f83 be09 3f93 bff0
bf64 3eeb bfb6 3fcc be76 3f50 beeb 3f97
3e88 becf 4056 3f88 3f83 3fc1 3fdb beba
bea8 bdf3 bf3f bfae bf57 3f82 bf0e bf8a
4021 3f98 c003 bf90 3ebb bf91 bea4 bf48
bf95 bf7a 3cd8 3fa9 bf7d bf10 3f8e bf3e
bf63 bf77 be94 bf86 3ed7 4063 3f46 be5c
3e97 3fac bec0 3ed6 3fcc 3f28 3f09 bfd7
bfc3 c009 bfad c039 3ecf bf6e 3f5d bfbb
bede 3f4d 403e bf2a bf37 c0d2 3ed7 3e4e
3f55 401c 3e9b 3e13 bed5 3f90 bfcf 3fc5
bf0b bf60 3f37 be38 3eee 3fbf c00e bfaa
bdcd 3ea7 3fa6 bf8c 3f4a bf34 bf5c bf89
bf85 3d48 3e55 bf42 bdfe 3f8a 3f71 3f46
3f97 3fcf 3f4e bf12 bf8a c035 3f9a 3fa4
3f29 bf10 3f0c 3ec6 bf86 c000 bb40 c022
bd34 bf1c 400d 3f90 3f20 3ec8 bf85 bf1a
bfc5 3f90 bfc9 403d 3fd1 3fa3 3f88 bf58
befe be09 bf1b 3de0 3ea1 3f7e bf99 bf3d
3fad 3dfe bece 4007 3cb4 bf43 becc bc40
bf75 bf25 bf7c 3fd0 3f4f bf30 3f51 bf26
3f3a 3ebe be54 3e00 3fdc bfb2 beb9 bf8c
3ec5 beef be17 3dbc bec7 3ee0 bef0 3ca4
3ec4 3ff7 c019 bd81 be2a 3f02 c0b2 bf9a
3fdc bee4 3fb1 bf4f be1e bfc0 bec8 bf0a
bf52 bf90 3e05 3eff bed8 bf8b 3fec bf70
bf23 3ee1 c00a 3f44 bf20 3ebc bfb4 bd40
3f04 bfea 3e7f be2c bfad 3f14 bd5c bff9
bf34 3f8f 3eb4 4012 bf0e 3e23 bf90 bd6c
3f96 3f8c bf9b 3f63 3f9d 3f2e bfa7 3e8a
bf18 bf4e 3f8e 3ec5 bf20 bf8f 3fd0 3ee8
bfbb 3e1d 3f47 3f73 bf8e 3f51 befa 3f34
bf26 bbe0 bfda 3f2e be98 c00c 3efe c033
c01c 3f3c 3f09 3f80 bf8d be59 bcc6 3f6d
3dc2 3f62 c019 bea5 3e77 3e9e 3d8c bfde
bdb4 bea8 3ffa 3e79 3f1c bdf6 3f8a bf92
3fca 3e35 c014 4056 c038 bfd0 bf19 bd99
3ed0 3fa0 bd4c 3db5 3f20 3f42 3e11 be1d
3f85 bf4e bea0 bed1 3f92 be33 bfaa 3f88
3edb bfc1 bea1 3fff bf92 4013 3f8c bf10
3d2c bc40 3f3a bdb4 3d10 bec0 3f93 bf11
c03b 3f17 bc00 bf17 3f88 bf1a bc86 4029
3f95 bf72 bf6c 3dc1 be08 3f36 bf56 3dc6
be9a bf36 beb8 3fb1 3f1c 3f55 3f4b bd9e
3faf 3e60 bfec be12 bfa3 bfb5 3eaa bf4c
3fc6 bed2 3fca 3fba 3ee2 3fa4 3f70 bf42
bd9c 3fcf bf27 3e6e 3d88 bf29 bd88 bd4c
bf05 3f76 bfb3 3fa6 bfbe 4075 3f42 3f1e
bea3 be1a 4014 3f52 4040 3f5d 3f34 be81
3e44 3d6c c042 3ec2 4099 3eac 3f79 bf3d
bee9 3fc6 3d48 bef0 bfbc 3db2 3f25 bc84
bfb8 c071 bed9 bd35 3f91 3f61 bf99 3e45
bfbe bf40 bd74 3ffa 3f97 bf59 bfa8 3f88
3f3c bfd6 beb6 3f71 c030 3f60 3f3c c02c
bf42 3dd7 3eec be86 408e 3f92 bf97 3e2a
3f9a bf40 3f81 bf92 bfc4 3f22 bf4d 3ea2
3f02 c1ca bf46 bfa5 bfa4 bee2 bf0f 3fa1
c01a be77 bed2 bf70 3fe9 bfc5 bea4 4031
3fb3 3e91 4052 bfe3 3f12 bf10 3f2e 3fe0
bf45 bef4 bfa9 4024 3faf bdce 3e49 404d
be98 3db9 3fbb 3ef4 3db0 bfb9 bfb2 be44
3f4e bfb5 3ed4 3e8b bd94 bf4a bfa0 bfd8
be3a bf1d bf42 bf92 bf3e beae 3f49 bf90
c038 3fc5 406b befc 3f5d 3f65 bd44 bf40
bfd3 3e89 404c 3b00 bedc be5a 3ff6 40ac
3fc5 3f3a 4088 3f3f be88 3e68 bec6 bf4d
be96 bdf8 bd9e 3fa6 3f60 3e00 bf09 be8c
bf7c bdcf 3de4 3ff2 3fa3 be7a be3c be08
3e98 bf1d 3ed6 be82 bce0 bf1c bf24 3e6a
3f64 3f5a bfdc 3f0d 3e1d 4014 3fb4 3eea
be8f 3fcc 3fa8 400e 3e44 3fac 3f98 bf10
bf34 3ef1 bf27 bfca bd50 bfd6 c001 bfc5
3f8b befc bd87 3f32 3e6f bfb1 bc00 beef
3fd9 bf1e 3e02 4078 3f87 bfaa bf5a be43
3f3a 3f1b 3dd2 4047 bde2 bf37 beee 3f5c
4013 3fda c00e bf86 be80 bf96 bf2d 3f19
3ca8 3f99 3fb7 be30 c028 bff7 bee4 bfec
bfa4 bf10 bf82 bf23 bf8a be98 bf4a bf4c
be95 3e70 bffc bedb bc70 3f54 3eab 3e32
3ddc 3f49 3fb4 3e3c c002 be43 3eb5 3f97
4004 bf84 3f45 bf7e be0e 3f69 3eaa be87
bd98 4085 bf02 bfdc 3f0e 3ff2 c04d be79
3f04 3fe6 bf03 bf44 3f31 bf8e bfca 401d
bdac 3e58 bf3e bdec bf84 bf3f bf15 3e41
bf01 bef8 3f79 bd7e 3f68 3f8f bf92 c043
3f78 3fd9 bef2 3d6b 4011 3e63 bee8 3c30
be95 bf9c 3f86 bfae bf14 3d18 bfd0 3f10
beae beef 3ebe 3f88 bf16 3ec3 bf6f bfa7
3fa9 bf92 c032 bfac bfce be24 bf50 bead
3f2e bf2e bf87 bfc4 bfa8 bf84 be3b 3e6e
c006 bf70 3f9f c07a 3f76 3f45 3fa6 3ebf
bf92 3f42 3f6e bf34 bdf8 be42 3fcc bfbc
bfdc bf2a 3f3c bf6e 3ede bd30 bf00 be7e
be80 be50 3e46 4008 be92 3fa0 bfdf 3eeb
bf89 c017 bf4a 3e45 3f11 3fc2 3ec5 bf9f
beba 3eb2 3d63 bf31 3f5a 403e c01c 3fb0
bde0 bfbb bba8 3f54 3f94 bed5 3f91 c01a
bf9b 3ef5 bfb7 3fb6 bf1c 3f0b 3e0a 3f6c
3f01 bf06 4048 3f52 3f64 3fd9 3f96 bedd
bd8c bcc0 bf0f bf77 bf63 3f9c bf18 bec0
3cb8 3f52 bfed beea 3ed1 bf7c 3ef2 bf52
bf83 bf4f bd78 3fec bfb4 bef2 be7d bf52
bf78 bfad 3e04 bf98 3e10 4070 3f26 bee2
3d84 3ff2 befd 3ee6 3f90 3eb9 3e97 bfd4
bfed c014 bf90 c04e 3ec2 bf75 3f29 bfa0
bf2a 3f4f 4029 bef0 bf98 c0d5 3ea9 be57
3f4e 3ff7 3f1a 3f48 3dc5 3f84 bfbe 3f89
bf3a bf4d 3f0a 3f4a 3f0c 3fbf c008 bfa0
3d6a 3ee9 3f8f bfa9 3fbf beed bf8f bf4f
bf8d be18 bdd8 bf46 beaa 3f7e 3f2c 3f8c
3fa6 4059 3f5e bf27 bf9a c040 3fc1 3f8d
3e4e bf1f 3f5a 3e73 be9e bff9 3e90 c038
be34 bed2 4050 3f48 3f78 3f3d bf80 bed8
bfe9 3f6a bfa4 4056 3f8b 3f62 3f32 bf5d
bf98 3a80 bf00 3fac 3d0c 3f6a bfa4 bf72
3f7e 3de0 bdd0 4008 3ec4 bedd be99 be9c
bf42 beea bef0 3fe3 3f5c bf08 3d86 beaa
3f7a 3dbe bf28 3f16 3fde bfbe beb9 bf8f
3ebb 3e90 be95 be84 bd9a 3edc bf02 3e84
3da0 3fed c01d be3a bf27 3e12 c0b3 bf9c
3f94 bcb8 3fc0 3cfe be08 bf97 be92 be9a
bf5c bf63 3e3e 3e25 bef1 bf74 3fb8 bf13
bf1c 3df9 bfe4 3f2f bf36 3e81 bfc4 3da1
3f0e bfd3 3e99 3e72 bfab 3f7f bef7 bfd9
bf51 3f6c 3e5b 3ffc bf2f 3ed1 bfa4 bedf
3fcb 3f4b bfbd 3fbe 3f7c 3ea3 bfce 3f16
bec8 bf03 3f42 3f8a bea2 bfa6 3fa6 bd30
bfa6 3ea1 3eed 3f69 bfcd 3edb beae 3f2e
bef5 3e19 bfe1 3eeb bf15 c017 3f39 c026
c014 3f85 3f22 3f8c bf9f be46 bebe 3fa5
3ee6 3f67 c023 3dec 3ebe bd5a 3e00 bfe8
3ed8 be15 3ff4 3e84 3f64 bd8c 3f85 bfed
3fcf 3e54 c009 402b c036 bfb9 beea 3e5c
3f44 3f6d 3ee8 3e1e 3f56 3f11 3df6 be26
3f56 bf56 bd74 bfaf 3f84 bef2 bf21 3f32
3eb7 bfa6 3e36 3fde bed1 3fa4 3fa8 bf86
bf2c beb4 3f1d 3ecb 3e82 bf4c 3f8c bf12
c032 3e9c 3f0f be94 3f86 bf50 bea3 400c
3f87 bf80 bf25 3eaa 3edc 3f41 bf8a be7e
bf54 bf8a bea9 3fe2 3fad 3f91 3f68 3ea4
3fb7 3dbc bff8 3dd2 bfa0 bec8 bdca bf84
3f2e bf2a 3fbc 401c 3e54 3f8f 4025 bf27
bd96 3ff1 bf0b bd58 3dff bf2f 3d04 3e0e
bf15 bf6d bfd1 4010 bfdc 4057 3f92 beef
3e1e be28 400d 3f5e 4043 3e90 3f08 bea6
3f12 3d9a c015 be46 408c 3f8d 3fbe beaf
3e8c 3fba bde6 bea7 bfbe 3e54 3f27 3dd6
bfce c03e be76 be80 3f8b 3f5e bfa1 3de0
bfbb bf32 be94 4004 3fb6 bf28 bfbd 3f2b
3f2e bff7 bd5c 3f1f c081 3fd3 3f00 c043
bf38 3f5c 3e86 bec4 4082 3f4f bf8c 3cec
3eff 3db5 3f90 bffe bffc 3f8a bf47 3e1f
3e9a c1cd bf2b bf83 bfd2 3e02 be2b 3fb3
c004 be6e 3d16 be8a 3ff5 bf89 be60 402c
3fa0 3ee6 4030 bff7 3f44 bf1f 3ebc 3faf
be4c bf20 bf9c 4015 3fd9 be62 3ed6 403c
beff 3e8d 3f9e 3e95 bdd8 bfd6 bff5 bee7
3edf bfd5 3e32 3e8d bf04 bf43 bf8e bfd3
beca bf80 bf9d bfcd bf1d bea9 3f20 bf43
c037 3fd1 409a bf8f 3f31 3f65 3f0c bfca
bfbf 3eac 4054 bda0 bf29 3ecc 3fd6 40b1
3fe7 3f22 402d 3efc be90 be7a bd24 3e21
bf12 bf80 3ee6 3f35 3fa8 3e31 3e20 beb6
bf88 be85 bdca 3fee 3fcb 3da0 bead bf0a
3e0a bf1e 3ef5 3f08 3d38 3e5c bf24 beae
3f44 4046 bf9a 3edc beb4 3ffa 3fa4 3e40
bf19 3fd3 3f1e 402c 3d4a 3f44 3faa bf48
bef2 3f8c bf10 bfc0 3e98 bfbe c007 bf8b
3fa4 be71 3dd6 3f8b 3f04 bfb2 bd80 bf3f
400e bf72 3de8 4049 3f8e bf86 bfa0 3d32
3f6d 3f23 bed0 405c bddc bdb3 beb9 3f0a
4009 3fb6 c033 bf46 befe bfa5 bf51 3e99
bd26 3fc4 3fd1 be5f bfdd bff9 bc48 c012
c007 bf90 bf95 bde0 bf8d be3f bf23 bf20
bf3c 3f48 bf6c bf02 3cd0 3fbb be42 bc20
bda8 3f1a 3ffe 3cf0 bfc9 3e1d 3eb9 3f1f
3fc4 bf8e 3f64 bf44 3f36 3efc 3cc0 be11
3daa 4077 becd c006 3eee 3fc6 c066 beba
3ebf 3f3c bf62 be3e 3f8e bf91 bff2 4013
3edb 3dd4 bf1b bba0 bf33 3b00 be0b 3eee
be86 bf24 3f54 3c04 3f33 3fa2 bf33 c056
3f6c 3fa6 bdb2 bd0a 3ff9 3e20 3e09 be56
bf1f bf98 3f83 bfa1 bf36 3d50 c022 3f40
beb7 bf39 3e85 3f54 bee5 3f52 bf9e bf82
3f5d bfb7 c036 bf90 bf8c 3e78 bfac be78
be22 bf95 be6a bfb2 bfc6 bfb8 bdf2 3f00
bfab bf26 3f63 c07e 3f1c 3ef8 3f9c be23
bf50 3f7c 3fcd bf35 bcb4 3e60 3fed bf5f
c008 bece 3f32 bf2e 3cf8 3ed8 be1f 3e47
bef4 bec4 3f22 403b be85 3fbe bfc8 3e6e
bfbe c007 bf9c bd3c 3f1f 3f95 3ef0 bf90
bed6 3ef0 be9b bf85 3e20 408b c00d 3fb0
be37 bf2c 3ea6 3f26 3f62 3f1e 3f6e c00d
bf8c 3f1c beee 3fdb bfc0 3f08 3d62 3f9f
3e0c be06 4030 3f96 3f25 4004 3f98 bf1e
3c18 bdce bf26 bf8e bf30 3fd5 bf52 bea6
3e0f 3eec bfa6 bf77 beb9 bfca beca be38
bfc5 bf18 bf04 3fe9 bfc8 bf28 bdfa bf10
bf0e bfb6 be17 bf97 bf52 4088 3f24 bf1e
3e92 3fbd be98 3f58 3f2b 3ebc 3dbe bfcf
bfc0 c004 bfab c039 3eb8 bf87 3f70 bf91
bf44 3e81 403f bf03 bf78 c0d9 3e76 3c80
3f27 3d9e 3f2b 3f54 3e02 3f20 bfd3 3fd8
bf07 bf67 3e90 3f8a 3dc0 3f9a c023 bfaf
be01 3e28 3fa0 bf75 3f2a bf35 bf87 bf30
bf81 beb8 bdc8 bf05 bf25 3f8d 3f98 3f61
3fa1 4028 3f94 bdfc bf94 c039 3fbc 3f6c
3ef4 be25 3eb3 3f11 bf2f c01a 3e80 c033
3bc8 be9b 4010 3e4a 3f81 3f7f befc bdeb
bfc9 3f6c bfbd 4026 3fa5 3fce 3ebf be96
bf9f 3d86 becf 3f05 3d8c 3f72 c002 bfb8
3f34 be01 be18 4020 3f89 bf1f 3d87 bce4
bf13 bf12 bed3 3fcb 3e30 befc 3f0a 3ec5
3efe 3f2e be3a 3f69 3fe9 bfa0 bcf0 bf4c
3ef6 3ee5 bece bef6 3e3c beb0 bf9a 3e4c
3f24 3fb4 c01e be0c bf85 bce4 c0b5 bf17
3fd0 be32 3f89 be14 bf1b bf25 3cb0 bd40
bf16 bfc9 3eda be43 bf14 bf8d 3fc2 bf22
bf59 3f19 bfc7 3e8f bf3b 3e1a bfdf bcf0
3f42 bfe8 3ea7 be06 bf88 3fbf 3f08 bfd4
befb 3f66 3e84 3fdd beec 3e8e bf84 be0d
3f80 4015 bfc0 3fcb 3f8c 3e82 bfc3 3f1f
bf33 bec1 3fef 3f86 bf3f bfad 3f6f bcb8
bef8 3c00 3e92 3f0a bff9 3e88 beb3 3ef3
3dcc 3ede bfa1 bdbb bf13 c00d 3e04 c00b
c011 3f87 3f6f 3f9a bfaa be9b befa 3f4c
3ec3 3f39 c013 3f02 3e5f 3d81 be7d bff3
3da9 bed0 3faf 3f97 3f3c 3dce 3f86 bff5
400c bf77 c005 404c bfe5 bf92 bf2e 3d80
3f54 3f90 bec4 3dc3 3f24 3e86 3f3b bf02
3f87 bf94 be61 bf09 3f76 beaa bf9b 3f28
3e8c bf8d 3f78 3f9d 3e8d 401c 3f9a bf52
bfc0 bf28 3f27 bd08 3e42 be85 3fd7 bece
c04f 3edc 3f9f bf1c 3e4c bee4 be92 3fce
3fc2 bf7a bf54 beae bdea 3f40 bf80 3e87
bf01 bf82 beed 3ff0 3fa6 3f32 3f8a 3ee9
3fab 3e39 bff0 be5e bf30 c020 bca4 beff
3f96 befc 3f92 4004 3d20 3f04 4018 bf8e
bd76 3ff4 bf1a bee1 3efd bf08 3d36 bcb8
bef7 bf7f bfc0 4003 bfca 4095 3fde 3da1
3e86 3d9c 4019 3ed0 4044 bf0b 3e93 3dec
3f88 bdfd c021 3e3a 408d 3fe6 3f0b bf80
3e7c 3f8d bed4 be92 bfde 3e8b 3f67 3d9c
bfd3 c019 3d8e bc66 3fa1 3fe9 bf34 3f53
bf20 bf2e be17 3fad 3fc6 bf0e bf93 3f8f
3ed6 bfe0 3eb0 3f4f c02f 3f8d 3f22 c050
bdf5 3f2e 3eaf bf20 4095 3f08 bf8a be1e
3f0b bf40 3f71 bf5a bfd5 3f61 bf24 3e7a
3b60 c1cf beaa bfc2 bff1 bdcd bd15 3fd2
c03e be06 be84 bcba 3fe2 bf82 bf04 4039
3f93 3dce 4035 bffa 3f69 bf62 3f4c 3f80
bfaa bf1b bf86 4011 4010 3e50 3ec9 404f
3e0c be5e 3f9b 3f6a be6e bfef c005 be74
3f34 bfaa 3ebf 3f23 be80 be52 bf1b bfcf
be2f bf79 bfc4 bf8c bec3 bed3 be70 be32
c030 3ff6 4075 bf92 3fb1 3fa9 be1e bf5f
bfc1 be94 4043 bd9a bdda 3e92 3fc7 40b6
3ff4 3f17 3fcc 3f28 bf53 bee8 3d60 bcc8
be97 bfca 3f60 3f9d 3f95 3ead 3d08 be27
bf96 bde4 be91 3fdb 3ffa 3ef3 bf24 befa
3e0c bee4 3f32 3e8e 3ef0 be1c becb be87
3e5f 408b bfaa 3efa bf26 3fcc 3fb3 3f03
bf9e 3fb4 3f46 4011 3dfc 3fae 3f94 bf28
3f0c 3f8e bf3b bfab 3ea1 bfc4 bfdd bfd5
3f94 bf25 3e0c 3f46 3e2f bf93 3f04 bf89
3fb5 bf73 bd9d 4019 3f91 bf3b bf44 bf0a
3fb3 3ee3 bf6c 4005 3e23 bf04 bf06 3f10
3ff4 4009 c04d befd bed8 bf69 bf70 3d30
bd9e 3ff2 3fd9 3d10 c025 c00a 3da8 bfb2
bf97 bf82 bf98 bf1b bf8e bf04 bec9 c025
bf18 3d90 bfa3 bc90 bc98 3fc2 3dcb be18
3e32 3f53 3f4c 3da8 bfd6 3e60 3ec4 3f98
3ff1 bf63 3f7d bf3e 3f12 3f2b bd1c bdb5
3f34 407d bf3f bfed 3e2c 3fd3 c03b be86
3f2b 3f9e bf4f be00 3f82 bf3d bfd0 401b
3e1d 3e0a bf4b 3f95 be8c 3b80 3daa 3e1c
bda9 bec2 3f45 3e9d 3f76 3f8e bf30 c04e
3f74 3f3c be55 be55 4001 3f08 3e83 be1b
bf8d bfae 3f90 bfc2 bf49 3f07 c04a 3f36
bf16 bfa2 becf 3f7b be8e 3e9b bf18 bf62
3fa7 c00a c07a bf19 bfdc 3e7f bf98 bf32
3e60 bf5c 3cf2 bfaf bfa6 bfac 3e2c be00
c00e bf89 3f34 c064 3f07 3f14 3fae be8b
bf42 3f08 3f87 be2c bbf8 bdf6 3fdc bf76
c017 be1a 3f6e bed8 3f64 be2a 3d00 bf39
3e9f be8f 3f1c 402a be4b 3f62 bfb3 be08
bfa9 c018 bf9c bd83 3ef6 3f88 3e9e bf8b
bf01 3ee7 bf17 bf90 be8f 408c c014 3fd8
be73 bedb 3ec6 be6b 3f46 be90 3f4e c01a
bf50 3fa0 bfa7 4001 bfb4 3ef5 3f30 3f98
3e37 be40 404a 3f67 3f35 3fd1 3fac bf04
be6b bf2f bf12 bfc8 be98 3fbb be22 bcf0
3f0c 3f14 bfdf bf03 3f24 bfbe 3e64 bf5a
bfdb bef4 bef9 4009 bfcd bed8 3f01 bf97
bf97 bfc2 3d9e bfab bf1c 4078 3f0c bf6c
3e9e 3fbb be4e 3f05 3fac 3db2 3ea3 bfef
bf96 c000 bfee c02e 3e86 bfca 3eee bf72
bf31 3d56 4038 bf09 bf33 c0dc bc80 3dd6
3f4b 3f30 3e50 3e62 be02 3fad bfc2 3fda
be91 bfaa bb00 3f16 3e8d 4002 c021 bf47
beb9 be1a 3fbe bf69 3f86 bf72 bf3e beca
bf87 bee1 be33 bf0a bf2a 3f9b 3f03 3f60
3f31 405f 3f46 bf03 3c40 c034 3fce 3fae
3f23 bee6 3f14 3ea9 be5a c027 3ee9 c01f
3dfe be45 400b 3f50 3f8f 3f48 be74 bf40
bfd6 3f68 bfd2 4020 3fdf 3fc9 3e66 be08
bfa9 bded bf5b 3dc0 3e9e 3fae bfca bfec
3f7b 3d32 be80 3fff 3f16 bee2 3c5b 3eaf
bf2f bea4 bd70 3fbb be45 bf15 3f1b bf78
3f08 3f0a bf00 3fd5 3fb6 bf4b 3e95 bee4
3e8f 3f0a be3a 3ea8 bec3 bf0f bf58 3e42
3e62 3fc5 c025 be8a bfb0 3e75 c0bf bf1c
3fce be0f 3f6b be15 bf00 bf73 bef7 3cd8
bf00 bfcc 3f04 be93 bf44 bf61 401a bf79
bfae 3e50 bfae 3ee4 be06 3ede bfb4 bf13
3f02 c003 be1b 3e9d bf94 3fb0 3f47 bfd1
be8e 3f13 be03 3fc1 bed6 3e40 bfa7 bee6
3f95 3fea bfa2 4008 3f9d 3dbc bf9f 3e6c
bf81 bee2 3fb4 3f93 bf3c bfe8 3f99 beb0
bf84 be5d 3f84 3ed7 c009 3e5a bec4 3ee7
3e04 3f10 bf88 3d9e bf75 c007 bd1b c004
c00d 3f44 3f10 3f6b bfba bdbe bda5 3f6a
bd15 3f42 c008 3ecf 3e87 3ebf bd52 bfda
be8a be22 3f29 3f5b 3f5f 3e4a 3f6a bfec
400d bee8 c001 403e bfe9 bfa6 3e80 3e31
3f3f 3f91 bee3 be94 3f94 3f1d 3dd2 bf30
3f17 bf55 3df4 bebc 3f32 be60 bf83 bdc3
3ed7 bf45 3f49 3fb0 be67 4008 3fad bf86
bfe0 bef8 3f44 bec7 beca bf1e 3fb7 bf3c
c05e 3e95 3f94 bf0e 3f49 bee2 bddf 3ff7
3f83 bef4 bf91 be2a 3d60 3f3c bf91 3ed7
bf3e bf79 be4e 4019 3f8c 3f3c 3f80 3e79
3fa7 3e9e c021 bd4a bf06 bee8 3e8d 3e1c
3f86 bf03 3fa7 400c 3ed0 3e6e 3f8f befd
be81 3fe9 bf3e bf3f 3e10 bee2 beae be5a
bf61 3f5e bfc7 4016 bfbb 408e 3fce 3d32
3e06 3ece 4030 3ee1 400e bf88 3ef6 3c30
3f4d 3dd5 c063 be9b 40aa 3ff3 3ef8 bf7a
bf19 3fa2 be3a bebe bfc3 3f0d 3f29 3edb
bfb0 c014 be45 3eca 3fa6 3eb6 bf39 3f29
bfa9 bef1 bd8d 3f9e 400e bf5c bfd2 3f4f
3f08 c001 3ef6 3f95 c03c 3f93 3f47 c028
bef5 3f16 bdff be98 40c4 3f42 bfad 3d78
3ed6 bf74 3f82 bf35 bfd7 3f98 bf82 be96
be3b c1d7 beb0 bfef bfda bf36 3e72 3fce
c029 3e1a be33 3d83 3fd9 bf16 bedc 403d
3f9e 3ea6 4037 c007 3eef bf9a 3f65 3fcb
bf8c be94 bf63 400e 400b 3e88 3f16 4053
3f41 bee1 3f8b 3dc7 bd32 bff0 bff5 be71
3f40 bf9a 3f18 3f38 be69 3ec0 bebd bfc4
be1c bed0 bf28 bf7d bc88 be15 3eee be57
c040 4009 4059 bf98 3f90 3f7e 3e0f bf8c
bfc9 3ec1 403e beb6 3e90 3ece 3fec 406c
3fef 3f53 3f7c 3f42 bf6c bec4 be00 3dd6
bf12 befb 3f1c 3f47 3f5b bd2e bede beeb
bfac be0c bc40 3fda 401e 3fa3 bf39 bf36
be0e bf02 3e4c be86 3ebb 3ef8 bf52 3f18
3f0c 403c bf66 3f5c 3ea6 400c 3fa7 3f0f
bf92 3f8e 3f4c 4023 3ec1 3f56 3f92 bf8c
be97 3fc9 bf75 bfb5 3eb0 bf84 c013 bff8
3f3a bf20 3eb1 3f3a 3efe bf4b be1a bf0f
3fdc bf88 be44 4014 3fc2 bfc6 bf00 be6c
3f52 be4f bec0 3ff0 3ed2 bf18 bf55 3f2e
3faa 4013 c041 bea4 beaa bf9c bf61 3e6e
3e96 3feb 3fc8 bcbe c030 bff9 bd9c c012
bf22 bfc0 bf4c bf2b bfc5 bf42 bea3 bf86
bf4f 3da4 bf9c be84 bdb4 3f98 3e12 bcf8
3f1d 3f7c 3df5 3e90 bff9 3ed9 3e8e 3f95
3fe9 bf5f 3f88 bf1b 3f0e 3f3d 3e9a bda4
3f12 4055 bf8b c00b 3e1c 3faa c052 bd8a
3e91 4027 bf82 be3e 3fb1 bfdc bfe6 4017
beca becf bec8 3f26 bf24 bd2c beb9 bdb7
3d95 bef3 3f82 be8b 3f43 3f74 bee9 c040
3f0e 3f08 3df0 be4e 4003 3e9a be9a be98
bf46 bff8 3fcf bfd1 bf9a 3e5c c02d 3fb4
bf8e bfb5 be6e 3f80 be6a 3dfc bf3b bf98
3f3b c02a c076 bf43 c012 3cf0 bf60 bf7f
3e34 bf8c bf0a bfc9 bf94 bfcc 3f4c 3e06
c018 bf90 3ef1 c06a 3f60 3fa1 3f7d 3c90
bf8a 3f1a 3f00 be8c 3ef4 3e40 3fe2 bf94
bff4 bf64 3f60 be2a 3f7c 3dcc bebf be39
beda 3e67 3eeb 3fea bf0f 3f22 bfa3 bcde
bf93 c006 bfb0 beb8 3f7c 3faf 3e02 bf91
bed2 3ef9 bf83 bf53 3e31 4088 c021 3fd9
beed bf90 3f38 3f49 3fb0 beaf 3ee9 bff8
bf55 3f88 bf68 3fec bfa0 3ece 3ecf 3f9c
bd58 bdee 4074 3f31 3f94 3fcf 3f82 bf5c
3e0a bef2 bf73 bfa4 bf82 3fb0 bf08 bf37
bf1b 3efb c001 3e84 3ecc bf6a 3f46 bf26
bfac be03 befd 4019 bf8d bf40 bed1 c00a
bfae bfa3 3eae bf8f bee6 4072 be14 bf6f
3da3 3f9a be41 3f07 3f89 3dd0 3f2a bfd9
bf84 c00f bfb4 c01f 3ed0 bfd4 3f11 be91
be4f be95 4033 bf11 bf7e c0e8 3ea6 bda8
3fa0 3fa8 3eab 3d0e bed5 3fad bfe1 3f83
be4b bfaf bda6 3f22 3f9c 4022 c00e bf1e
bf06 bdea 3fa3 bf4c 3f39 bf70 bfa1 be64
bf8f 3d8c bf56 bf05 bf16 3f0a 3eda 3f50
3f2e 403e 3f45 bf32 3c00 c02e 3fdb 3fa7
3ee6 be81 3f29 3d42 bf2c c01f 3e34 c026
3e60 bea0 4035 3f74 3f2f 3e2c bf20 beb7
bff1 3f55 bfaa 402e 3fef 3fac 3f5b bf32
bfbe be5f bf2a 3f97 bd3c 3f36 c00c bfec
3fa8 3e11 be34 3f65 3f18 bec7 bdc6 3d60
bf13 be3c bd92 400e 3f0c bf07 3f70 bfb1
3f2e 3f3e bdaa 3faf 3fd4 bfab 3d4e bed9
3f3e 3c68 3e18 3ee8 be9d bc80 bf22 be7f
bf47 400f c01f bec6 bf8e 3fd4 c0a0 bf9b
3fc8 bdaa 3fe7 bd80 bef0 bf7c bf2b bd0c
bf19 bf37 3f18 bf20 bed3 beb0 4012 bf50
bf8f 3e2b bfd1 3efb be43 3e6e bfaa 3cb0
3eca bffa be8f 3f0f bfb1 3fb4 3f4b bfcb
bd24 3f01 3dd8 3f98 3e55 bd35 bf87 bf2e
3fae 3f85 bedb 402f 3f9c be1f bfc8 3dac
bf90 bf70 3fec 3fb2 bf91 bfd5 3fa5 3e3e
bfa9 3f2d 3f5c 3f09 bffa 3ea8 be57 3f29
be42 3eea bfb7 3e8d bf69 c008 3f13 c046
bfd5 3f5e 3eef 3f33 bf9a bead be22 3f81
3df6 3fbd bff6 3f47 3f50 bc8c be61 c003
beff be67 4004 3e94 3fc3 3ebc 3f35 bfc7
3ff2 beca bfda 4047 bfd6 bfb1 3e57 3f80
3f44 3f9e bf47 3ca4 3f44 3f92 bd3c bf24
3e31 bf54 be87 bf12 3f5a be78 bf72 3c94
3f76 bf06 3fa6 3f85 be6b 3fe3 3fc8 bfb1
bfa6 becb 3f1c bef2 be80 bfae 3f86 bf16
c037 be85 3fae beba 3f78 bf60 3dfe 400e
3f8e bee0 bf81 be62 3e9c 3e80 bf70 3c20
bf43 bf74 bed4 400e 3f05 3f27 3f4c 3ea4
3fa0 3ec8 c01d 3e25 bf4c bf56 bc48 3fa9
3fa7 bf3d 3fcc 4026 bda0 3f99 3fea bf03
bea0 400a bd9c be40 bf10 be96 be1a be80
bf7a bede bfa9 4051 bfc5 4012 3fa0 bf1b
3ce8 3ef6 4028 bd08 3fda beab 3f4a bec4
3f62 3dbd c027 bf5f 40a9 3f7d 3eeb bf89
3f3b 3f2d beef be79 bfb1 3f24 3ef0 3ebb
bfd2 bfec be94 3f1c 3f9a 3f2f bf4c 3ed8
bfc1 bf4a 3e67 3f74 4003 bf7e bfdf 3f87
3f72 bfee 3eb5 3f8d c051 3e84 3f1e c01c
3e0b 3f63 3e8c bf6a 408b 3ecb bfe1 bebb
3f00 bfd6 3f7d 3e67 bfc2 3f9c bf7e bea8
3edc c1cb bf45 bfdb bfa7 bf15 bea5 3fdc
c03b 3ec8 3df0 beff 3fca bf1a becc 4030
3fa9 3d3c 402c c008 3ef0 bf9a 3f61 3eee
bd20 beaf bf7d 401c 3ffe 3f1c 3f62 402b
bedf beb4 3f8f 3f00 3df2 c007 bfee 3ec8
3f40 bfa2 3f3d 3e98 bf32 3ee1 bf26 bfcc
bd2c beee bf39 bf8a 3e39 bee3 bd70 be28
c025 3ff0 4083 bf42 3f44 3f9e 3d50 bfb0
bfbf 3f09 4028 be73 3e89 3e1c 3f93 409f
3fd8 3f38 3fd5 3f52 bee2 bf2a be2d 3d48
bf78 bffc 3dba 3f79 3f63 3eac 3ca0 be34
bf91 bf0c bd20 3fac 4011 3edf bf34 bf88
3f3a bf8f 3ed0 bf16 3e34 3f5e bf5d 3ec6
3f41 4080 be75 3efa 3e9d 3ff8 3fc7 3ea2
bdfe 3f7d 3f2c 4032 3e93 3ecf 3f8e bf9f
bd89 3f3f bf4b bfa2 3e2c bfac bffe bfb0
3f8a bf72 3e4b 3f21 bd00 bf74 beda bf28
3fa8 bf89 bf02 401d 3fdd c013 bfac be3d
3f84 beac 3e32 3fda be9e bf16 bf46 3fad
3f23 401c c017 bf1a 3d9e bf76 bfa8 3f0a
3ec6 3fb1 3fe2 3dd4 bfea c00d beff c013
bfd8 bf90 bf18 bf30 bfff bf11 bf22 3f78
bead 3e88 bf86 be28 3df7 3f49 3e11 3e6b
3f2a 3f44 3eed 3c60 bff4 3ee7 bb60 3faf
3fa9 bf8e 3f8d bedc 3ea8 3f42 bda2 bedf
3efa 406d bf92 c004 3df1 3f9b c051 bde7
3b00 3fc0 bebe bea2 3fcd bf8b bfba 3ff9
bf0e bf98 bdb4 3ead be8a bc10 bd32 bdca
be19 be70 3f7e 3df9 3f61 bd0e bc74 c052
3f0c 3e84 3e65 be94 4010 3edf 3d81 be2e
be8f bfc0 3fd1 bfaf bf50 3dcd c051 3faa
bec6 bfb4 bee6 3f8d 3d66 3f0e bf8f bf89
3f69 c006 c04b bf02 bff2 3e92 bf2f bebe
3e11 bfc6 bf86 bfad bf91 bfb6 3ee4 3f19
bff4 bfa3 3f01 c062 3f77 3f3c 3f52 bec0
bf8e 3e34 3f22 be76 3e4c 3f34 3fe5 bfab
bfdc bec7 3f8b be40 3f0c 3f14 beac 3c84
bd86 bd1c 3f9b 3ff6 bf08 3f53 bfcf 3f2c
bfe5 bfa0 bf95 be9e 3f86 3f94 3e2d bfa2
bf0f 3f01 bf2c bf86 3eba 4070 c027 4008
befc bfe9 beb8 3f83 3f8f 3dc0 3f60 bff3
bf5a 3f5c bf17 3fb8 bf64 3d5c be33 3fbc
bdf6 3ce0 408e 3f25 3f34 3fa1 3fd9 bf33
be6a 3ea0 bfa4 bfb8 bfac 3fbe bf7f bf9c
3fce 3e6e c01e beea be10 bf78 3eea bed4
bfab be23 be85 3fee bf5e bf25 3f00 bf08
bf89 bf5c bd08 bfa8 be42 4062 be72 bf88
be76 3f2a 3da4 3f2d 3fa7 bc60 3f50 bfb2
bf72 c00a bf91 c017 3e76 bf88 3f50 bf7e
be4e 3d81 405d bf84 bf0c c0dc bc78 3efe
3f8e 3ff2 3f24 be84 be4b 3fcf bfec 3fbb
beae bf85 be41 3f09 3fdb 3fd4 c01d bf47
bf57 3e2c 3f72 bf63 3e4a bf54 bfb9 bcb0
bf89 3ebe bc60 bf62 be9b 3f76 3f23 3f20
3f16 3fc8 3f61 be6a bead c01b 3fdd 3fa4
3e9e 3e9a 3f33 3e93 be9a c02f 3eb7 bfe4
3f08 bdd0 3fc9 3f23 3f9b 3eeb bf5d beaf
bf9c 3f12 bf97 401b 4009 3fa7 3f85 bfc2
bfa6 3e13 be19 3f4a 3e85 3f0e c00e c002
3fe4 bb00 3e54 3fe4 3f6b beb1 3e20 3def
bf61 bec8 befd 3fdd 3ec2 bf68 3f6c bf70
3f79 3ecf 3e38 3f1f 3fa5 bf7f be1d 3d88
3f0c beb2 3e90 3e85 be3e 3eca bf54 3e3a
bede 3ffa c025 be79 bf6f 3f95 c0a5 bf9a
401b be90 3fb6 bee1 beaf bf76 beb4 bf03
beca bfa1 3f24 be54 be9d bf3e 3fdf bf70
bec0 3ecf bffc 3e8e bf20 3e97 bf9a bdd1
3ed0 bfcb 3f0c 3f14 bfa3 3f8f 3e9c bfb5
be73 3f04 3e59 3f39 3f16 be55 bf9c be65
3f62 3f4c bf11 3feb 3f92 3e66 bf73 3e30
bf8c bf6f 4001 3f56 bf8e bf93 4003 3f55
bfb9 3f64 3f43 3f24 bfb9 be3c bec0 3e7c
3e87 3d8c bfb2 be80 bf23 c000 3e88 c01b
bfba 3f48 3ec8 3f04 bf7c bf18 3c58 3eb9
bb30 3f98 bfd4 be9e 3f0a bdc1 be65 bfd3
bef6 be53 3fa4 3e9d 3fa2 3eeb 3f40 bfc4
3fdc beb6 bfa2 405e bffe bfce bea0 3e30
3f7a 3fcc bf5f 3f18 3f16 3f58 3ea6 be7e
3ea4 bf13 be7d be16 3f85 be98 bfa0 bac0
3f5e bf32 3ec4 3fb0 3d14 4024 3f8b bf89
bf00 be56 3f68 bf5f bf16 3ac0 3f95 bddc
c02d be16 3f54 be1e 3f2c bfa2 3e75 4019
3fab bf11 bf80 3d2d 3d48 be20 bf93 3f5c
beac bf98 bf45 4005 3e94 be5c 3f78 3ec2
3f82 3e0c c018 be60 bf85 c02c 3d36 3f68
3fe8 bf14 3fcc 3fec 3d04 3f89 be82 bf27
be70 4009 3d88 bdde bee7 bece bdbf be44
bfa6 3e30 bf93 3fbc bf96 405d 3fe0 3ec0
beb4 3ec6 4022 3ed7 4018 3efa 3eb0 bee4
3f1e 3e86 c03d be5e 408c 3f74 3ee0 bef2
3f41 3f09 bf0a bd22 bfa5 3f00 3f39 bdfa
bfcc c00e beb3 3f22 3fa9 3f7b beca 3f23
bf7e bf69 3e7f 3fa3 4002 bf8b bfb7 3fae
3f96 bfb2 bd0a 3f49 c017 3ef8 3c80 c03f
3ee2 3e4c 3dea bf3d 4083 3f4e c006 bede
3f82 c00e 3f41 3f23 bfcb 3f7c bf4e bddb
3f0c c1ca bf0c bfc9 bfaa beae bf1c 3fc4
c036 3ed1 be16 bf8b 3fd1 bfc1 bece 4034
3fa7 be6c 403e bfd7 3f4c bf6b 3f7a 3f40
bf86 be3e bf2d 4014 3f90 3de4 3f28 4036
3d90 bed8 3f50 3f88 be51 c010 bfe5 3ed8
3f8f bfa4 3ee8 3eab befc 3e4d bf02 bfe5
3eba bf14 bf30 bf90 bc98 bf36 bd18 bf2a
c018 4004 4085 bef9 3f9c 3fec be9a bf50
bfd5 3f11 402a bb40 3ee4 bd24 3fa2 4091
3fc6 3eee 406c 3f22 bee0 bf06 bedc bf9e
bf92 bfa5 be3c 4003 3f43 3f21 beb1 be30
bf8d bf22 3e28 3fe8 400e be1f bf7c beac
3f56 bf9a 3f33 bf3b 3e31 3e5c be63 bb40
3f02 3fea bf68 3ebd 3e30 3ff6 3fec 3f05
bf5b 3f78 3f7c 4008 3dab 3f1e 3fc2 bf64
bf86 3e9f bef0 bfc4 bd0e bfa4 bfd3 bfc6
3f98 bf61 3e94 3f08 3e52 bf91 bd18 beeb
3fc0 bf53 bedd 4028 3fce bffc bf99 bf6a
3fa6 bedc 3ea3 4019 bf25 bf74 bf84 3fa6
4006 4022 c012 bf3f 3e5f bf3c bf87 3ec2
3f14 3f91 3fbe be88 bf9e c012 bf88 c011
bfa3 bf4c bf39 bf1d c004 befd bf8c bf37
3e90 3e06 bfe0 bec0 3e32 3f48 3ebb bba0
3ee2 3f83 3f1f becb c019 3e55 3dcf 4009
3f81 bf8f 3f9f bf3a be38 3f62 3eb3 bea1
3f29 4066 bfaa bfd1 3f16 3fa0 c03c be33
3e81 4019 be8f bf0a 3fa5 bf8d bfd0 3fe2
bf25 bf4f 3e46 bea0 bba0 be2e bb60 be4d
bf0d be92 3f92 be0e 3f2a be28 becb c054
3f1d 3f2c bde4 bead 4016 3d60 3e0f befa
bdb7 bfab 3fd2 bf9e bf42 bde6 c042 3f96
3dc8 bf38 bf06 3f8b 3cc0 3dac bf2a bf98
3fcd bfbc c030 beec c004 3e8b bf0f be94
3f35 bf6c bf02 bf87 bf92 bfcc 3e9a 3ef1
c00e bfc1 3f45 c06a 3fd0 3f8a 3f98 3dcc
bfa0 3f03 3f06 bf2f 3db5 bed5 3fcd bf52
bff5 bf29 3fa8 bd6f 3f0a 3eb6 bdb2 be37
3e2a 3ec2 3f90 3ff8 be7d 3f02 bfce 3fa0
bff0 bfe5 bf82 3e46 3f80 3fd8 3bb0 bf8c
bdc3 3e5e bf09 bf36 3f30 405a c017 4011
bf70 bfc8 bc74 3e40 3f6d bf22 3f5e c01c
bf32 3f40 bf86 3f9d beff bec3 3ea2 3fae
3e0b beb4 409c 3f40 be64 3f9a 3fd0 be44
bea2 3e5c bf5a bf66 bfad 3fac bf72 bf20
3e04 3e53 c01a be68 3f3d bf4f 3f80 bf10
bfae be8a be85 400c bf94 bf10 3f17 bee6
bfb6 bf11 bd5a bfb5 3c88 4053 beb6 bfd8
bf3c 3fd1 3ecd 3f24 3f90 be42 3f1e bf74
bfa3 c022 bf95 c024 3e74 bf66 3f1e bf96
be90 3ea6 4040 bfa1 bf5b c0d8 bdbe be1b
3f9c 4014 3f8b 3ecc 3f37 3fe6 bfdd 3f5a
bf1d bf86 be22 3e11 3fa9 3faa c017 bf09
bef5 be71 3f74 bf7e 3f78 bf21 bf9f bd42
bfce 3e80 3edf bf91 be3a 3f5f 3eff 3f90
3f0a 404d 3f6d beb3 bef3 c02c 3fdc 3f99
be68 3e9d 3f9b 3eb1 3ddf c018 3ede c011
3e8c be8c 402e 3f49 3fb2 3f32 bf99 bed3
bfbc 3dee bf94 4012 3fe3 3ec0 3f8e bfc8
bfb6 3e9e be22 3fca 3eb9 3f34 bfb9 bfe8
3fbf be48 3c70 400d 3f5e bea1 3d88 be16
bf57 bed1 be9c 3f88 3ebb bf43 bee5 bee4
3f86 beb2 3e0b 3f40 3fb9 bfb7 bd0a bd39
3ead bcd0 3eb3 3e9e bd50 3f4f bf0a 3d96
3d90 3fee c02c bec9 bf72 3f0e c0ab bf9a
3fb0 beee 3fb9 3d62 beb1 bf5a bf20 bf13
bef0 bf65 3f84 bf13 bee5 be84 3fb6 bf81
bf59 3e30 bfe4 3f1a bf2c 3f1e bf32 bf19
3f1b bfa8 3ef3 3f28 bf8b 3f9c bf06 bfd4
bf35 3e1a bdb0 3f4b 3ea3 bd87 bf7e bed6
3fd8 3d68 bf21 3fea 3f85 3eac bf61 3f24
bf76 bf66 3f58 3f9a bf3a bfa8 400c 3f82
bfdd 3f21 3f03 3f36 bfce be42 be38 be87
3df4 be2f bfc1 bde6 bec5 bffa 3f09 c01a
bf98 3ec0 3cdc 3f3b bf5d bf29 bd62 3f28
3e7f 3fc6 c000 befa 3ecf 3db1 beae bfcc
bbf4 becc 3f95 3e9a 3f9b 3f1a 3f4c bfc4
3fce 3e88 bfa8 401e c01d bfbf be8a 3e66
3f38 3f9b 3df6 3f3c 3f6a 3f16 3e01 bc90
bcba bf53 3eb9 bedb 3fb2 bed8 bf01 becc
3f32 bf2b bdf2 3fb0 3ca8 3fc5 3f68 bfc8
bf3e bf17 3f56 bf2a bf36 bde6 3f1d bec3
c037 be02 3f56 3f16 3f2d bfce be24 401e
